<PAD> 0
<UNK> 0
<S> 0
<E> 0
. 10372317
the 6693576
I 5752273
it 4910335
and 4839108
, 4049995
a 3930604
to 3676818
is 2665285
for 2661957
this 2660916
my 2088841
! 1888984
of 1687528
in 1548532
was 1405580
but 1319464
with 1310036
not 1223592
very 1216202
great 1196579
on 1157052
have 1155756
that 1105768
they 1068349
are 1008216
as 956535
't 916301
you 896966
so 867324
these 839297
good 784340
's 698802
them 678182
one 674352
like 647866
would 628806
product 617599
well 604741
just 601450
be 598952
love 576689
use 552499
all 505518
had 502449
can 484483
at 472121
price 466593
will 462939
works 453199
bought 440841
than 432035
when 422574
more 421847
quality 419779
fit 419591
up 417342
no 404869
if 400930
nice 398357
what 397159
really 395469
out 387760
or 385885
easy 383704
from 377711
get 375643
size 374765
me 369497
has 361991
too 358169
time 357505
recommend 348533
little 341593
only 335456
buy 331764
perfect 323405
work 322927
we 319436
an 314488
) 303434
am 301761
" 299165
much 294801
... 284705
do 282840
other 270357
were 267528
does 267434
got 266584
your 266283
about 260298
( 255000
comfortable 248816
after 247598
used 245468
don 245068
made 244899
because 244223
looks 243489
small 238741
better 232691
also 228962
its 225181
wear 216697
look 212301
she 210548
now 208822
even 207523
'm 205616
any 201742
did 200082
been 199182
fits 197509
looking 195723
he 193771
- 191584
some 189825
happy 185863
/ 184134
case 184066
there 183365
color 182657
need 182304
off 179513
still 178093
ordered 178043
shoes 177114
again 177030
which 173373
purchased 171989
2 171855
item 171330
right 170523
've 168982
back 168383
long 165173
purchase 164156
new 163620
using 162038
first 158488
best 158427
could 158158
put 157481
two 152886
way 150907
perfectly 150352
old 148608
came 147957
money 147898
make 147330
big 146551
over 145154
battery 143174
worked 142571
how 142519
pretty 139891
day 139879
needed 139610
bit 139582
our 139193
watch 139070
go 138325
find 138057
camera 137894
expected 137638
by 136855
didn 135778
enough 135090
another 134985
loves 134017
doesn 131236
gift 131132
set 130690
fine 129755
sound 129505
lot 129385
worth 127281
exactly 126207
: 126078
her 125165
keep 123964
.. 123914
without 122564
far 122515
years 122377
then 120123
excellent 118587
light 118364
order 117638
hard 116966
feel 115051
highly 114924
definitely 113501
thing 112865
makes 112347
3 112040
arrived 111889
picture 111695
Amazon 111618
take 111072
received 111053
who 110954
cute 110817
fast 110529
around 110465
wanted 110095
pair 109096
many 108793
cheap 108731
few 108722
while 108417
want 108392
think 107560
last 107357
year 107313
same 106468
before 106326
every 105795
shoe 105734
loved 105234
into 104162
never 104153
sure 103470
5 103453
large 103232
should 102571
$ 101350
since 100956
though 100366
daughter 99857
? 99416
& 98849
say 98502
everything 98432
problem 98117
beautiful 98014
see 97485
however 97392
found 97226
seems 96559
different 95906
know 95386
thought 94555
bag 93632
most 91725
sturdy 90728
soft 90711
anyone 90360
job 90324
months 88878
clean 88758
wish 88749
pleased 88468
son 87783
tried 87407
always 87267
something 86750
box 86688
TV 85843
top 85001
easily 84772
4 84745
working 84454
laptop 84300
ever 84224
hold 84177
down 83980
going 83921
cable 83692
high 83115
feet 82148
material 81129
able 81070
screen 81067
room 80575
problems 79767
1 79697
' 78902
his 78259
husband 78032
computer 77470
quickly 77221
getting 77068
colors 76293
; 76279
super 75827
bad 75571
cover 75179
their 75077
awesome 74560
buying 74558
're 74405
days 73478
both 73356
warm 72844
.... 72381
several 72116
brand 71950
yet 71159
give 70902
through 70787
come 70675
less 70669
quite 70170
shipping 69669
plastic 69579
weight 69439
disappointed 68610
heavy 68125
design 68078
boots 67940
power 67888
water 67626
Christmas 67216
return 66089
times 66050
being 65039
replacement 64863
actually 64195
smaller 64191
thanks 63762
having 63654
where 62934
shirt 62903
took 62864
unit 62784
black 62735
anything 62357
extra 62018
expensive 61918
store 61732
once 61586
wife 61348
side 61165
original 61096
try 60904
said 60558
thank 59962
batteries 59914
'll 59481
reviews 59340
longer 58985
away 58962
nothing 58924
wearing 58852
second 58316
charge 58029
almost 57924
ones 57628
overall 57083
charger 57017
run 56943
ok 56655
10 56608
piece 56414
simple 56229
looked 55952
amazing 55921
absolutely 55914
deal 55745
larger 55744
home 55598
durable 55229
value 55166
recommended 54598
install 54415
gave 54397
comes 54274
6 54056
ring 53989
products 53942
tight 53802
things 53357
keeps 53317
read 53170
glad 53054
others 53002
thin 52367
broke 52051
place 52011
true 51686
card 51549
couple 51479
liked 51399
style 51330
needs 51230
seem 50926
may 50913
help 50749
dress 50411
cool 50401
iPad 50399
people 50277
part 50162
real 49760
holds 49577
month 49476
feels 49208
won 49166
under 48835
phone 48684
together 48628
went 48594
support 48582
tablet 48413
here 48406
hot 48393
8 48219
low 48143
short 48112
inside 47875
cost 47844
replace 47782
weeks 47548
wonderful 47518
advertised 47384
haven 47287
already 47051
cord 46915
especially 46851
USB 46701
satisfied 46628
clear 46574
else 46454
week 46395
those 46352
coffee 46157
nicely 46046
couldn 45881
bigger 45827
service 45816
must 45757
quick 45726
stars 45151
drive 44921
described 44677
probably 44539
stay 44505
says 44479
such 44436
three 44354
iPod 44318
'd 44150
leather 44045
7 43907
waste 43766
keyboard 43667
next 43525
extremely 43502
socks 43438
friend 43394
issues 43204
lens 43175
space 43169
own 43109
plus 42954
kitchen 42617
stuff 42516
system 42421
white 42376
half 42299
device 42200
wrong 42099
house 42023
compliments 41878
adapter 41862
hand 41652
gets 41453
pay 41416
ago 41294
bed 41145
life 40929
fan 40755
pictures 40394
wasn 40319
hours 40285
returned 40094
strong 40089
full 39973
foot 39881
running 39855
kids 39807
why 39777
cut 39050
glasses 39021
bottom 38946
stand 38887
instead 38713
fabric 38640
company 38629
car 38577
takes 38498
items 38256
might 38246
taking 38129
worn 38090
him 37950
seller 37902
speakers 37765
delivery 37656
friends 37618
night 37519
everyone 37445
handle 37386
wide 37355
making 37324
mine 37220
although 37190
end 37169
video 37154
plug 37050
carry 36971
maybe 36845
each 36834
fun 36810
shipped 36788
solid 36763
lots 36571
head 36553
wouldn 36259
sent 36044
isn 35756
kind 35550
expect 35510
difficult 35498
started 35459
easier 35436
blue 35429
us 35399
costume 35171
play 35096
otherwise 35048
goes 34592
cheaper 34572
myself 34399
cold 34392
wash 34382
tell 34355
done 34260
thick 34199
trying 34087
headphones 34041
player 33959
band 33834
paid 33662
length 33661
package 33539
ordering 33453
type 33331
air 33277
pants 33183
within 33030
red 32940
wore 32936
open 32740
touch 32605
family 32567
fact 32491
person 32459
minutes 32312
+ 32169
guess 32147
glass 31978
close 31881
usually 31780
lost 31749
helps 31660
table 31640
until 31626
favorite 31578
Kindle 31539
pan 31448
cannot 31443
strap 31440
regular 31433
least 31369
hope 31268
either 31241
radio 31184
installed 31152
broken 31086
free 31018
-@@ 30959
issue 30958
uses 30880
dont 30862
machine 30824
boot 30708
model 30587
smell 30482
comfy 30455
stores 30420
dry 30279
music 30248
instructions 30091
mouse 30037
remote 30009
front 29941
add 29700
someone 29644
shape 29637
cup 29609
hat 29531
bags 29518
during 29323
online 29315
loose 29314
difference 29242
wait 29194
skin 29129
likes 29109
change 28932
everyday 28709
soon 28525
fantastic 28464
completely 28408
pain 28341
birthday 28269
sizes 28249
turn 28230
review 28146
condition 28136
whole 28052
stylish 27988
built 27959
runs 27907
break 27892
reason 27842
line 27830
ear 27681
complaints 27626
taste 27619
beat 27538
etc 27447
.@@ 27416
bright 27373
between 27273
hands 27237
apart 27135
20 27130
wall 27092
sharp 27067
poor 26983
finally 26890
supposed 26762
wears 26736
sometimes 26672
metal 26643
saw 26622
face 26592
huge 26557
description 26531
decent 26530
area 26495
earrings 26482
left 26439
gives 26385
handy 26352
fall 26217
% 26213
due 26205
protection 26167
food 26073
Sony 25985
100 25978
surprised 25931
let 25866
seen 25823
amount 25656
lightweight 25629
totally 25552
bottle 25544
memory 25527
enjoy 25425
stick 25398
medium 25366
travel 25331
storage 25305
DVD 25301
kept 25288
pack 25277
12 25217
reasonable 25084
cables 25075
jeans 25067
summer 25048
replaced 25037
mount 24967
believe 24961
itself 24954
available 24857
daily 24830
pocket 24786
decided 24776
outside 24741
priced 24731
inexpensive 24594
stopped 24495
rather 24418
customer 24373
useful 24287
save 24202
9 24137
filter 23941
windows 23875
impressed 23779
star 23679
sheets 23645
monitor 23543
often 23505
hair 23474
speaker 23397
winter 23343
comfort 23315
owned 23274
show 23229
Canon 23212
walking 23110
match 23048
send 23018
heat 22996
flimsy 22906
slightly 22881
cleaning 22874
doing 22859
felt 22815
purchasing 22783
features 22756
30 22737
idea 22726
lasted 22624
future 22565
control 22545
protect 22517
plenty 22466
s 22446
compared 22405
packaging 22399
belt 22372
delivered 22353
past 22338
im 22189
purpose 22173
unfortunately 22141
normal 22101
flat 21996
party 21988
reading 21966
wedding 21925
similar 21905
smooth 21866
connect 21825
tea 21639
sleep 21631
..... 21608
expectations 21582
inch 21563
necklace 21544
pieces 21543
snug 21530
body 21521
green 21521
pillow 21506
shower 21457
point 21416
baby 21342
along 21329
compact 21325
school 21303
PC 21291
older 21275
wireless 21194
re@@ 21187
feature 21140
given 21122
attractive 21097
y 21049
live 21041
care 20932
results 20899
plan 20856
trip 20773
move 20751
pockets 20720
remove 20715
addition 20703
okay 20679
held 20652
button 20626
mom 20611
expecting 20554
except 20519
four 20515
u 20506
audio 20504
ice 20479
holding 20453
complaint 20393
plugged 20359
jacket 20300
pro 20250
knife 20250
local 20214
bra 20214
hoping 20194
clothes 20165
apple 20136
-- 20104
office 20066
fell 20029
washed 19953
turned 19934
choice 19846
lid 19816
walk 19769
spend 19747
start 19731
bracelet 19719
iPhone 19702
gotten 19624
pink 19607
chain 19595
15 19584
kit 19570
narrow 19551
photo 19529
noise 19513
t 19497
cards 19490
version 19475
performance 19474
.i 19471
trouble 19402
speed 19369
purse 19369
twice 19358
packaged 19351
properly 19323
cant 19299
present 19245
included 19239
heel 19230
un@@ 19217
keeping 19209
vacuum 19156
returning 19140
digital 19103
protector 19071
convenient 19052
ears 19007
construction 18908
ended 18876
stays 18871
paper 18852
simply 18849
oil 18789
mini 18746
finish 18714
standard 18699
dark 18695
connection 18664
charging 18592
pot 18489
seemed 18459
later 18424
bulky 18383
legs 18379
flash 18374
silver 18353
experience 18325
board 18323
allows 18292
safe 18252
fairly 18211
loud 18175
volume 18134
mother 18081
holder 18025
range 18012
five 17969
opened 17950
leave 17910
pairs 17899
added 17886
neck 17824
thinking 17810
it. 17767
HD 17759
o 17744
ask 17737
yes 17733
sized 17729
rubber 17690
sounds 17686
immediately 17675
helped 17622
display 17548
previous 17502
w 17476
coming 17472
accurate 17444
today 17437
setup 17388
wallet 17370
cd 17330
wood 17318
slip 17315
wire 17309
unless 17224
normally 17223
a@@ 17221
Samsung 17150
sandals 17121
bathroom 17017
50 17013
tiny 16960
software 16951
designed 16937
putting 16920
wrist 16904
careful 16887
cups 16869
casual 16862
alot 16825
shows 16804
name 16790
hdmi 16719
Gold 16697
* 16692
jewelry 16643
excited 16611
hit 16603
lovely 16569
steel 16560
please 16527
charged 16490
cases 16457
toe 16390
correct 16377
brands 16359
s@@ 16346
cooking 16344
switch 16326
functional 16282
Dell 16275
weather 16266
buttons 16264
pictured 16247
mac 16218
MacBook 16196
zipper 16193
protects 16188
photos 16176
pad 16172
sizing 16109
parts 16100
hour 16089
covers 16079
brown 16053
signal 16050
adorable 16045
quiet 16023
noticed 16006
appears 16005
wine 15946
tool 15920
higher 15877
charm 15862
multiple 15848
faster 15844
port 15834
anywhere 15810
counter 15778
frame 15765
bass 15760
straps 15725
antenna 15721
man 15719
morning 15675
uncomfortable 15614
hear 15604
floor 15547
knives 15536
grandson 15484
washing 15482
dishwasher 15455
x 15443
lasts 15438
installation 15429
assemble 15425
shirts 15417
stop 15380
holes 15328
recently 15303
date 15286
build 15258
cotton 15231
course 15229
in@@ 15224
wants 15195
e@@ 15165
cause 15165
waist 15159
rest 15156
mind 15154
affordable 15077
told 15068
receive 15045
provides 15032
i 15010
girl 14949
aren 14908
junk 14906
nikon 14856
forward 14853
worry 14845
sister 14839
business 14811
function 14809
stainless 14796
watches 14790
pull 14782
GPS 14773
d@@ 14769
Halloween 14751
n 14745
shorts 14739
hang 14732
hook 14710
special 14696
filters 14696
base 14689
ease 14683
ready 14675
surface 14674
prefer 14634
door 14627
s. 14607
secure 14598
fix 14593
i@@ 14589
number 14571
pans 14565
feeling 14547
elegant 14535
es 14531
giving 14521
rack 14520
lower 14518
internet 14515
granddaughter 14476
setting 14472
exact 14446
single 14391
considering 14364
grip 14364
anymore 14338
didnt 14329
option 14291
cake 14291
mattress 14222
based 14221
shown 14220
adjust 14205
portable 14190
suggest 14173
gifts 14100
words 14061
lose 14061
refund 14051
continue 14008
supply 13992
check 13981
child 13975
spent 13952
m 13895
terrible 13887
fresh 13882
taken 13861
book 13844
bar 13804
tall 13799
figure 13790
saved 13752
.the 13732
slow 13726
barely 13657
brush 13656
desk 13653
coat 13632
useless 13623
professional 13621
complete 13618
maker 13604
somewhat 13564
devices 13544
throw 13516
matter 13507
cook 13502
movies 13486
helpful 13479
stated 13473
poster 13383
sides 13379
11 13358
cap 13335
key 13329
cheaply 13310
timely 13308
drink 13284
effective 13271
market 13231
keys 13207
anyway 13196
t@@ 13189
level 13171
certainly 13165
lighter 13161
provide 13099
boyfriend 13098
everywhere 13098
deep 13091
k@@ 13085
knew 13078
iron 13067
pick 12979
lenses 12962
beautifully 12957
reliable 12946
clip 12943
image 12917
oven 12909
gone 12909
sit 12902
fitting 12890
promptly 12874
Bluetooth 12863
bottles 12859
promised 12853
games 12712
dust 12695
falling 12682
router 12679
attached 12657
backpack 12656
per 12645
bedroom 12632
finding 12614
slim 12597
connected 12576
directions 12548
fully 12526
cleaner 12519
stretch 12518
suit 12498
gorgeous 12448
print 12448
notice 12437
bowl 12406
stiff 12392
adjustable 12384
double 12372
truly 12361
receiver 12349
basic 12341
test 12328
worried 12305
chose 12299
bill 12289
sole 12277
stuck 12265
charges 12255
rate 12231
fire 12231
sets 12225
hurt 12225
g@@ 12203
.it 12196
missing 12181
HP 12166
entire 12151
required 12146
rating 12131
allow 12127
stock 12117
hole 12101
sold 12096
cream 12088
lol 12070
hoped 12057
playing 12040
cutting 12010
outfit 11997
chair 11996
e 11979
horrible 11975
happier 11972
energy 11969
actual 11940
height 11923
slide 11871
duty 11855
across 11832
m@@ 11829
smells 11808
warranty 11803
wet 11786
access 11712
average 11704
solution 11670
options 11665
lights 11641
tape 11637
straight 11612
cameras 11609
chance 11608
additional 11582
DE 11578
third 11555
gloves 11552
opening 11551
women 11551
thicker 11538
slippers 11533
near 11528
bucks 11526
dropped 11517
mug 11517
hate 11487
cloth 11433
handles 11419
functions 11413
doesnt 11396
bread 11388
carrying 11377
ran 11376
user 11358
fill 11356
arm 11355
eye 11351
rings 11339
classy 11333
China 11324
died 11321
dog 11282
cleans 11275
tie 11244
dollars 11232
p@@ 11225
blanket 11221
dead 11212
stereo 11147
40 11146
drives 11117
inches 11113
wow 11081
purple 11077
screws 11050
velcro 11006
wires 11004
important 10990
dish 10963
guy 10949
drop 10944
equipment 10933
children 10930
note 10930
reasonably 10918
external 10900
sleeve 10897
above 10890
oh 10886
natural 10862
shop 10861
mail 10849
washes 10847
constructed 10846
s.@@ 10833
toes 10831
13 10829
scratches 10826
flip 10811
disappointing 10798
against 10733
MP3 10727
sd 10715
update 10705
wont 10703
none 10690
.I 10685
phones 10684
negative 10682
site 10678
complain 10672
constantly 10658
upgrade 10652
c@@ 10646
recomend 10616
trick 10602
asked 10568
men 10547
materials 10532
screw 10526
headset 10512
listen 10473
OEM 10455
pressure 10450
thrilled 10436
middle 10429
center 10390
width 10383
press 10380
flexible 10357
settings 10355
total 10354
onto 10351
smart 10344
hopefully 10341
edge 10337
towels 10332
write 10331
o@@ 10329
n@@ 10314
accessories 10309
damage 10298
container 10287
sexy 10280
living 10279
traveling 10274
amp 10263
tough 10258
matches 10257
b@@ 10231
la 10230
collection 10217
foam 10212
forever 10143
spare 10123
leg 10119
kinda 10114
r@@ 10106
process 10093
sale 10080
unique 10076
blade 10068
snap 10058
tripod 10045
soap 10027
damaged 10015
form 9985
pills 9967
spot 9962
brought 9940
choose 9928
edges 9904
failed 9892
places 9890
ing 9888
classic 9885
pricey 9880
fault 9880
yourself 9853
l@@ 9852
sorry 9842
manual 9841
behind 9809
shelf 9807
intended 9806
girlfriend 9787
sheet 9760
eyes 9747
de@@ 9743
six 9742
dad 9732
earlier 9727
hooked 9721
nearly 9690
el 9686
early 9676
gym 9661
D 9658
met 9658
shiny 9654
14 9647
boy 9626
v@@ 9622
annoying 9604
watching 9602
hasn 9599
sink 9591
scent 9589
pads 9588
leaves 9587
finger 9577
website 9569
2nd 9550
trash 9527
remember 9526
sitting 9500
provided 9499
packed 9492
elastic 9491
apply 9488
spring 9486
manufacturer 9473
suppose 9471
razor 9469
consider 9465
r 9460
PORTS 9454
ram 9444
sun 9440
mess 9437
2@@ 9434
skirt 9434
powerful 9426
usual 9404
connector 9392
eat 9375
al@@ 9374
x@@ 9340
reception 9333
sunglasses 9323
data 9322
correctly 9319
waiting 9318
daughters 9313
world 9302
turns 9298
poorly 9286
heard 9286
fair 9283
glove 9281
shorter 9278
protected 9276
sticks 9271
vendor 9265
XL 9258
including 9257
f@@ 9248
u@@ 9246
breaking 9236
heavier 9221
pop 9210
become 9210
call 9199
class 9197
ball 9196
placed 9194
beach 9189
fingers 9187
flavor 9179
dishes 9168
16 9156
nicer 9153
sleek 9153
videos 9149
main 9135
means 9133
opinion 9131
angle 9117
LED 9097
hanging 9094
compatible 9091
shopping 9087
bother 9078
factory 9078
comforter 9073
shoulder 9069
scale 9060
surprise 9059
kid 9046
enjoyed 9040
understand 9038
knee 9034
sleeves 8987
y@@ 8982
cracked 8971
girls 8970
pattern 8961
balance 8959
impossible 8955
plugs 8955
w@@ 8955
push 8924
spray 8914
called 8910
rough 8902
protein 8901
view 8891
en 8885
roll 8879
lock 8879
stone 8876
worst 8831
arch 8814
thats 8812
attach 8809
unlike 8803
realize 8791
microwave 8760
ability 8756
25 8754
follow 8744
mix 8742
possible 8723
brother 8720
doctor 8692
stable 8690
h@@ 8684
curtain 8679
whatever 8667
tastes 8660
B 8659
60 8656
backup 8656
particular 8651
LCD 8650
scratch 8632
penny 8627
fans 8621
yellow 8612
changed 8607
picked 8598
closed 8593
drawer 8583
luck 8564
wonderfully 8564
cabinet 8562
sending 8549
sensitive 8525
blades 8513
guys 8506
ankle 8497
bonus 8495
arms 8494
cords 8494
game 8492
seconds 8489
seal 8487
3@@ 8486
snow 8485
mostly 8484
reach 8484
defective 8480
variety 8476
replacing 8465
closet 8460
clothing 8447
bubbles 8437
non 8418
lunch 8418
outstanding 8416
towel 8413
cell 8407
removed 8385
comments 8383
ship 8366
necessary 8363
orange 8359
age 8354
to@@ 8334
Panasonic 8318
sell 8294
woman 8272
round 8258
shipment 8258
suction 8256
practical 8250
hassle 8246
5@@ 8244
padding 8225
24 8223
shave 8221
tip 8221
files 8215
baking 8210
comfortably 8198
alternative 8196
tray 8167
lbs 8150
period 8139
regret 8138
pillows 8138
appear 8132
asus 8124
dirty 8120
en@@ 8119
...... 8109
adds 8108
wrap 8094
program 8084
C 8077
fancy 8074
waterproof 8063
Garmin 8050
load 8049
transfer 8047
crazy 8044
bring 8036
various 8029
stylus 8022
con 8021
position 8018
avoid 8017
zoom 8012
vacation 8007
serves 7988
18 7982
4@@ 7964
flawlessly 7960
sweater 7960
it@@ 7959
neat 7949
weak 7947
movie 7925
fixed 7903
recieved 7892
web 7891
3D 7891
record 7890
improvement 7884
books 7880
tools 7878
pen 7877
milk 7871
operate 7870
sandal 7868
versatile 7859
upon 7857
scarf 7855
sweet 7839
wider 7838
moving 7834
plain 7829
desktop 7829
performs 7828
dirt 7808
clearly 7805
forget 7803
boxes 7799
ate 7799
--@@ 7792
mask 7791
dryer 7788
teeth 7783
separate 7777
burn 7772
reviewers 7764
bargain 7763
plate 7759
wifi 7753
tired 7745
trips 7738
awhile 7738
di@@ 7736
cuts 7726
se 7720
threw 7710
window 7709
previously 7684
non-@@ 7680
detail 7676
concerned 7671
effect 7669
que 7668
tend 7646
niece 7636
figured 7636
capacity 7632
liquid 7630
falls 7617
minute 7614
ed 7592
weird 7582
pleasantly 7581
types 7577
yr 7571
mounted 7568
originally 7563
prompt 7563
beware 7544
nose 7531
heels 7526
chocolate 7517
garbage 7514
blender 7514
tech 7511
assembly 7509
tops 7498
stands 7497
clasp 7496
manner 7484
hardware 7479
network 7476
supplement 7467
~ 7461
texture 7460
electric 7459
it.@@ 7455
mean 7446
step 7429
pin 7425
offer 7416
muy 7414
cooler 7412
shot 7407
crap 7406
friendly 7400
word 7399
roomy 7396
protective 7392
rain 7382
thru 7376
= 7376
matching 7370
attention 7369
sort 7368
toaster 7361
afraid 7360
mic 7355
starting 7351
great. 7349
unable 7345
temperature 7344
adult 7340
loss 7339
information 7330
fitted 7327
timer 7322
l 7318
showed 7314
securely 7305
toy 7300
listed 7291
limited 7283
covered 7278
rice 7278
lids 7275
galaxy 7269
thinner 7267
arrive 7265
laundry 7264
ton 7264
wanting 7250
research 7235
delicate 7225
basically 7222
earbuds 7212
heart 7207
terrific 7201
glue 7198
directly 7191
hood 7190
tab 7183
computers 7183
z@@ 7179
via 7173
pendant 7169
prices 7165
fabulous 7163
quit 7149
appearance 7139
seat 7118
contact 7114
durability 7114
seeing 7112
drops 7082
headphone 7066
known 7064
ripped 7048
channels 7045
breeze 7041
tested 7041
cat 7039
mode 7036
gaming 7036
insert 7028
investment 7025
ends 7021
silicone 7018
stones 7003
ti@@ 6998
ive 6998
bunch 6996
furniture 6979
butter 6970
floors 6967
gb 6967
young 6961
crisp 6947
late 6944
mistake 6943
6@@ 6943
k 6934
jack 6929
cushion 6917
hooks 6913
repair 6904
ha@@ 6902
bose 6902
perhaps 6899
juice 6894
8@@ 6890
salt 6886
fruit 6885
stove 6879
ly 6879
prevent 6877
season 6867
credit 6865
controls 6863
plays 6861
sooner 6861
mentioned 6860
lamp 6856
d 6853
requires 6837
nook 6836
thus 6835
bowls 6834
college 6833
despite 6825
enjoying 6822
vibrant 6817
units 6816
fold 6814
skeptical 6812
bend 6811
saves 6809
gel 6808
workout 6799
positive 6795
shoot 6791
clips 6790
ts 6787
reader 6779
minor 6776
re-@@ 6767
sugar 6766
saying 6762
fashion 6756
areas 6754
ideal 6753
s.i 6749
incredibly 6749
hardly 6749
] 6744
er@@ 6735
tablets 6732
paying 6732
alone 6731
accessory 6729
j@@ 6719
sneakers 6716
ar@@ 6711
pros 6710
certain 6706
sock 6704
focus 6704
li@@ 6703
dollar 6703
mounting 6700
definately 6682
film 6680
[ 6672
post 6665
os 6664
se@@ 6655
darker 6644
buds 6638
er 6637
major 6635
90 6633
on@@ 6632
powder 6629
filled 6625
awful 6618
beyond 6617
tear 6617
sleeping 6616
block 6616
require 6602
g 6601
lo 6601
health 6591
AC 6584
bent 6579
worse 6577
station 6567
relatively 6556
models 6556
ten 6555
besides 6554
an@@ 6553
boys 6551
c 6548
mouth 6537
appreciate 6532
sticky 6527
media 6524
slight 6521
downside 6519
pounds 6514
shots 6505
installing 6498
sweat 6497
relief 6492
skinny 6490
mention 6487
trust 6482
needing 6479
bath 6477
likely 6475
download 6462
toshiba 6460
ma@@ 6445
Walmart 6442
tad 6438
underneath 6431
compare 6430
father 6427
containers 6425
tons 6424
outdoor 6423
therefore 6420
ation 6420
obviously 6420
fish 6418
personal 6414
grill 6411
pro@@ 6409
200 6408
crystal 6396
rich 6392
nor 6387
road 6382
comment 6379
eventually 6374
the@@ 6373
exchange 6365
3rd 6363
drivers 6362
cookies 6359
whether 6357
sits 6355
bars 6351
tank 6348
lines 6337
grey 6331
mo@@ 6326
beats 6322
combination 6322
stitching 6315
le@@ 6311
co@@ 6309
lining 6306
response 6298
L 6286
odor 6286
T-shirt 6283
drinks 6280
self 6272
vitamins 6266
wig 6260
effort 6257
USA 6255
printer 6248
scratched 6247
ground 6247
al 6233
output 6230
ca@@ 6228
law 6226
slot 6223
series 6221
dock 6219
Prime 6218
receiving 6215
offers 6213
projector 6213
lo@@ 6207
searching 6203
exceeded 6202
st@@ 6197
incredible 6190
chest 6184
miles 6182
spots 6179
steam 6163
evenly 6162
vitamin 6161
locally 6159
firm 6151
dresses 6146
fat 6127
corner 6125
label 6124
sports 6122
checked 6120
source 6115
disappointment 6107
outlet 6105
me@@ 6104
proof 6094
rated 6080
eggs 6073
result 6067
lets 6067
leak 6067
driver 6065
rid 6060
micro 6060
stomach 6059
noticeable 6056
pouch 6045
effects 6040
imagine 6038
1st 6037
tips 6027
below 6024
zero 6016
weren 6012
stains 6009
improved 6008
cooker 6006
plates 6005
listening 6003
ting 5996
7@@ 5994
robe 5982
colorful 5978
pics 5975
stayed 5973
pots 5969
saver 5966
literally 5964
funny 5964
serve 5962
bulb 5955
ro@@ 5953
connectors 5953
tube 5946
pre@@ 5945
at@@ 5945
clarity 5933
organized 5927
shut 5927
followed 5926
em 5922
jar 5918
opener 5911
track 5909
proper 5902
dinner 5895
offered 5893
wasted 5889
th@@ 5888
leggings 5884
adding 5883
happened 5873
amazed 5867
learn 5863
distance 5842
graphics 5838
viewing 5832
pass 5831
paint 5825
lasting 5820
bulk 5815
ted 5808
9@@ 5806
meets 5806
grinder 5806
aware 5805
moved 5800
ahead 5799
meant 5799
or@@ 5797
honestly 5788
electronics 5787
cooks 5785
recording 5781
blood 5781
cleaned 5779
disk 5778
cons 5769
list 5768
hesitate 5763
application 5747
general 5743
colored 5742
corners 5740
la@@ 5733
spoon 5726
hiking 5714
meat 5714
costs 5713
rock 5712
surprisingly 5711
carpet 5705
count 5704
packs 5702
cheese 5701
mixer 5694
connections 5691
heats 5684
extension 5674
finished 5669
compartments 5667
strength 5661
search 5655
.this 5655
10@@ 5649
healthy 5646
cookie 5634
happen 5631
basket 5630
performed 5623
resolution 5622
removing 5621
efficient 5621
chairs 5620
doubt 5618
spoons 5617
static 5613
retail 5611
mat 5611
realized 5610
well. 5608
adequate 5608
camcorder 5598
80 5595
cross 5589
fm 5589
70 5585
luggage 5583
adapters 5581
gear 5569
ride 5569
sad 5569
input 5567
pic 5567
disc 5567
po@@ 5566
standing 5557
ways 5557
reccomend 5553
caps 5553
dual 5551
numbers 5551
oz 5549
17 5544
whenever 5543
matched 5542
1@@ 5539
padded 5539
con@@ 5536
cozy 5532
shrink 5532
meet 5530
underwear 5528
pump 5521
ri@@ 5519
b 5516
pulled 5514
sons 5506
typical 5505
images 5505
seams 5486
over@@ 5481
32 5481
seriously 5480
shaving 5480
alarm 5479
prior 5478
losing 5476
frequently 5474
si@@ 5466
flattering 5459
pill 5452
leaving 5446
gray 5442
drawback 5435
sub 5432
grand 5421
300 5420
soles 5420
King 5419
ups 5401
clock 5401
id 5393
shine 5392
wise 5386
changing 5384
currently 5384
stations 5381
ties 5375
ft 5374
zip 5374
usage 5372
became 5372
p 5363
auto 5363
flops 5361
extended 5342
rust 5341
magnet 5329
awkward 5307
earphones 5304
kettle 5302
toddler 5301
heater 5298
pool 5288
modern 5287
ers 5286
DVDs 5281
wind 5281
well-made 5280
driving 5266
sucks 5257
security 5254
functionality 5251
burned 5250
superior 5246
colour 5245
wonder 5245
bands 5244
stronger 5239
dial 5234
gonna 5231
serving 5226
noisy 5221
fake 5219
dressy 5216
slides 5212
channel 5209
tag 5206
protectors 5202
harder 5199
spending 5197
elsewhere 5192
starts 5187
pleasant 5185
contacted 5184
measuring 5175
dogs 5171
allowed 5163
pepper 5162
solved 5158
mold 5154
ingredients 5152
details 5140
selling 5136
bike 5136
initially 5135
hubby 5134
error 5129
eating 5123
pour 5119
turning 5113
nephew 5113
product. 5110
packing 5104
processor 5097
layer 5092
do@@ 5089
lip 5084
photography 5083
laces 5082
egg 5077
wrapped 5076
purchases 5071
marks 5064
powered 5061
upset 5060
slots 5054
protecting 5054
rip 5054
budget 5049
apartment 5046
agree 5044
so@@ 5039
t.@@ 5038
suggested 5021
ad 5015
heating 5013
bo@@ 5006
logo 5006
acer 5006
ta@@ 5004
lace 5003
ac@@ 4999
apparently 4995
toilet 4993
bras 4990
styles 4987
magnetic 4985
sore 4983
price. 4978
serious 4976
surgery 4971
current 4966
town 4965
exercise 4965
sa@@ 4961
mugs 4954
smoothly 4953
be@@ 4952
Nano 4952
puts 4941
ugly 4927
nexus 4926
throughout 4917
lack 4915
planning 4909
folds 4908
strips 4905
max 4904
lift 4903
rolls 4900
softer 4896
till 4890
# 4890
active 4889
rear 4886
perform 4885
minimal 4885
weekend 4881
further 4879
ware 4877
y. 4877
compartment 4869
strongly 4868
shoulders 4864
fridge 4863
release 4863
cutter 4861
shooting 4854
writing 4854
stain 4853
connecting 4850
square 4849
country 4847
ray 4846
no@@ 4845
newer 4844
thickness 4842
showing 4841
su@@ 4841
produce 4841
title 4840
link 4820
gadget 4813
win 4811
loving 4810
jars 4809
diet 4806
sticking 4806
miss 4803
fragile 4803
chargers 4802
heads 4795
android 4794
lighting 4794
ing. 4788
truck 4787
warmer 4781
glare 4781
buyer 4780
resistant 4777
changes 4774
learning 4773
according 4768
essential 4768
superb 4756
breaks 4752
t-@@ 4751
grow 4746
saving 4743
liner 4735
t. 4730
mi@@ 4726
burning 4726
golf 4726
tub 4717
measure 4711
garage 4711
portion 4707
whatsoever 4706
pizza 4705
buckle 4705
direct 4705
mop 4705
purposes 4702
discs 4701
states 4701
caused 4700
netbook 4696
bu@@ 4689
ad@@ 4689
motherboard 4689
com@@ 4685
drying 4684
us@@ 4679
freezer 4679
pe@@ 4678
ated 4676
knees 4673
empty 4670
sense 4670
include 4669
calf 4663
mainly 4653
surround 4648
def 4646
go@@ 4645
laptops 4645
shelves 4641
beads 4641
500 4637
split 4636
ic@@ 4636
youtube 4635
aid 4634
rugged 4631
hearing 4627
ing.@@ 4623
arrival 4622
cooling 4617
mesh 4608
guest 4606
upper 4592
yesterday 4590
drinking 4582
washer 4580
art 4576
outfits 4574
regularly 4568
helping 4564
personally 4563
Generation 4560
television 4559
drain 4555
odd 4554
lap 4549
wheel 4542
Amazon.com 4540
3.0 4539
boat 4536
Theater 4534
click 4534
searched 4531
safety 4521
attachment 4519
knowing 4517
microphone 4511
shell 4511
pa@@ 4510
traditional 4502
generic 4501
kinds 4501
d.@@ 4500
internal 4500
mm 4500
email 4496
para 4493
un 4477
beer 4476
particularly 4474
leaks 4472
slipping 4470
began 4468
cu@@ 4465
boost 4463
notebook 4462
queen 4460
Xmas 4460
Navy 4456
event 4456
chicken 4453
coating 4450
candy 4447
cookware 4445
movement 4442
improve 4442
somewhere 4440
substantial 4436
per@@ 4433
y.@@ 4430
chart 4429
crack 4424
d-@@ 4420
grab 4418
talk 4418
non-stick 4418
el@@ 4417
shaped 4416
espresso 4410
monitors 4408
logitech 4406
shake 4400
anybody 4396
carefully 4394
aluminum 4393
storing 4392
them. 4392
balls 4388
v 4378
sparkle 4377
tends 4377
stretchy 4375
info 4373
car@@ 4371
12@@ 4369
anticipated 4366
motor 4363
voice 4357
ps3 4357
lg 4356
dough 4356
state 4355
impressive 4355
project 4354
umbrella 4353
20@@ 4350
speeds 4344
amazingly 4343
picks 4342
tights 4341
hats 4336
recorder 4335
typing 4333
d. 4325
delighted 4325
conditions 4318
decor 4318
meal 4314
wheels 4313
guests 4311
'@@ 4310
tennis 4306
bracket 4304
experienced 4303
served 4302
f 4300
tho 4299
themselves 4294
ne@@ 4293
for@@ 4289
pulling 4288
specific 4288
worthless 4287
combo 4281
s-@@ 4276
nights 4275
steal 4275
modem 4273
moves 4269
ating 4268
Xbox 4267
wooden 4261
workmanship 4260
ironing 4256
chip 4255
ab@@ 4251
apps 4250
numerous 4246
links 4245
depending 4240
operation 4239
rolling 4238
pure 4237
adjustment 4237
strip 4235
camping 4232
evening 4230
hub 4225
thread 4223
identical 4221
cakes 4219
etc. 4218
grade 4218
_ 4217
ant 4216
selection 4215
ve 4215
bake 4214
coverage 4212
occasion 4209
bottoms 4207
electronic 4206
cast 4203
min 4203
pins 4201
complements 4196
claims 4193
neither 4188
riding 4187
8.5 4187
ho@@ 4186
ps 4184
pandora 4183
male 4176
lady 4173
ceramic 4171
training 4169
le 4169
beginning 4159
overpriced 4158
good. 4153
shade 4151
sp@@ 4151
0 4150
crocs 4146
designs 4143
sh@@ 4143
moment 4142
catch 4141
stops 4134
appropriate 4133
suitable 4131
h 4127
difficulty 4124
ex@@ 4118
background 4117
th 4116
mark 4114
increase 4112
massage 4111
optical 4110
app 4105
hey 4102
basis 4101
tone 4090
zippers 4088
ds 4087
learned 4072
wa@@ 4071
degrees 4068
e-@@ 4067
lives 4067
Target 4067
female 4066
dance 4065
supplements 4064
wished 4062
draw 4062
snugly 4062
lay 4060
measurements 4059
generally 4054
wipe 4052
parents 4052
snaps 4052
45 4049
technology 4046
35 4044
shaver 4044
te 4043
am@@ 4042
replacements 4042
couch 4042
7.5 4039
happens 4039
holders 4039
levels 4039
luckily 4039
cpu 4036
sata 4035
genuine 4034
knows 4021
recent 4020
seam 4017
.they 4015
recipient 4013
inner 4009
stunning 4009
concern 4008
pie 4007
theme 4005
Ultra 4002
oils 4000
fi@@ 3994
cam 3994
greatest 3990
concept 3986
popcorn 3986
specifically 3982
petite 3981
holiday 3977
fraction 3977
sliding 3973
create 3973
shame 3972
4th 3971
trim 3970
Dr. 3969
wake 3965
caught 3964
arthritis 3962
netflix 3960
string 3957
upgraded 3956
appeared 3956
z 3955
blu-ray 3954
dull 3949
XP 3947
tasting 3945
sick 3942
ssd 3941
ra@@ 3939
played 3938
ch@@ 3938
fail 3935
asking 3933
suits 3930
@ 3929
moisture 3927
hangers 3927
bling 3926
closer 3918
.very 3916
share 3913
loaded 3913
dis@@ 3912
visible 3909
cds 3903
out@@ 3902
s.the 3898
biggest 3897
ve@@ 3895
bang 3894
acceptable 3892
slippery 3891
2013 3886
snapped 3886
temp 3884
thumbs 3883
sealed 3883
supportive 3883
mixed 3881
belly 3879
calls 3878
capsules 3877
delicious 3872
yeah 3870
thinks 3865
magic 3864
rocks 3863
page 3862
toast 3862
dimensions 3856
picky 3855
field 3854
waited 3852
Studio 3848
y-@@ 3848
converter 3846
peel 3842
instruction 3842
hose 3837
ba@@ 3834
individual 3833
advice 3832
cans 3832
action 3831
quicker 3828
warmth 3827
HDTV 3827
discovered 3826
mb 3825
reduce 3823
tightly 3822
gas 3818
filling 3814
pi@@ 3813
customers 3807
im@@ 3807
DSLR 3806
monster 3806
foods 3803
calves 3803
te@@ 3800
parties 3788
dried 3787
400 3787
American 3786
handling 3786
fashionable 3785
everybody 3783
points 3781
rechargeable 3781
misleading 3778
wax 3775
panel 3775
interior 3774
interface 3773
thermometer 3772
ill 3771
ladies 3771
answer 3768
drawers 3768
degree 3766
st 3766
location 3764
recognized 3764
adhesive 3763
RCA 3762
recipe 3761
users 3760
interested 3759
dash 3756
frozen 3756
exceptional 3755
occasions 3750
God 3749
songs 3748
earring 3745
chef 3743
mid 3742
wired 3741
french 3740
hung 3737
....... 3737
rub 3735
tree 3735
buck 3734
2-3 3731
ks 3729
usable 3728
accidentally 3727
profile 3722
bamboo 3721
gentle 3721
thumb 3714
preferred 3711
wool 3709
adjusted 3703
constant 3703
mi 3695
time. 3692
greatly 3689
screens 3687
tighter 3684
frustrating 3676
assembled 3672
cheapest 3662
mixing 3661
warning 3659
ankles 3659
adaptor 3659
grind 3659
practice 3657
vest 3654
systems 3654
and@@ 3652
cooked 3652
soup 3650
well.@@ 3650
wasnt 3647
tan 3645
ing@@ 3644
stocking 3643
blend 3642
price.@@ 3637
highest 3636
inserts 3635
automatically 3632
enjoys 3630
lenovo 3628
dream 3625
messy 3625
bi@@ 3624
dissapointed 3618
transaction 3617
recognize 3617
outer 3616
justice 3616
cupcakes 3616
loop 3615
ga@@ 3614
popped 3614
connects 3613
instantly 3612
organizer 3612
is@@ 3609
occasionally 3609
paired 3609
components 3607
transmitter 3606
removable 3604
.The 3604
written 3603
folks 3599
disappoint 3597
up@@ 3594
pops 3591
comparable 3589
S@@ 3587
consistent 3582
supports 3582
butt 3582
convenience 3581
pasta 3575
mounts 3574
ag@@ 3573
lined 3573
church 3573
min@@ 3571
pleasure 3570
confortable 3568
havent 3562
sadly 3562
recharge 3561
back@@ 3560
faded 3558
Olympus 3556
los 3554
mirror 3549
hide 3549
veggies 3542
exception 3538
shouldn 3536
lucky 3534
skirts 3531
scoop 3523
G 3519
outdoors 3516
treat 3516
lover 3515
wiring 3515
swim 3513
med 3513
stretched 3511
producto 3509
walls 3509
strange 3508
vegetables 3507
recipes 3501
diamond 3500
organize 3499
extend 3499
city 3494
steamer 3494
server 3493
sterling 3489
universal 3488
overnight 3485
tricky 3485
mechanism 3483
success 3482
30@@ 3480
players 3480
dispenser 3479
tee 3474
lips 3467
tile 3466
reviewer 3466
hangs 3465
feminine 3463
switched 3455
.great 3454
it.I 3453
trays 3451
tighten 3449
grocery 3448
lint 3448
lifetime 3447
fleece 3447
bracelets 3439
starter 3438
possibly 3436
vision 3436
automatic 3434
section 3431
product.@@ 3431
everytime 3431
closure 3427
force 3427
sign 3424
custom 3423
desired 3421
great.@@ 3421
magnets 3417
reorder 3415
causing 3412
ty 3406
photographer 3406
indeed 3405
stack 3403
belts 3402
cardboard 3399
printed 3398
taller 3395
compliment 3394
slipper 3392
re 3389
vi@@ 3389
frames 3381
beauty 3380
file 3379
detailed 3375
talking 3372
slips 3371
produces 3371
ms 3365
painful 3364
somehow 3364
choices 3363
flow 3362
master 3362
existing 3359
man@@ 3354
2012 3354
delivers 3353
da@@ 3349
muscle 3346
ter 3346
vga 3346
pitcher 3342
hesitant 3342
Hello 3340
toys 3339
Chinese 3337
maintain 3336
tooth 3336
sturdier 3332
wrists 3327
bubble 3321
department 3319
breakfast 3318
dose 3315
tapes 3313
supplies 3312
reset 3311
.but 3309
rooms 3304
360 3303
surfaces 3298
following 3292
burner 3291
washable 3290
lil 3289
absolute 3288
ine 3287
google 3283
utensils 3280
cordless 3277
garlic 3274
deliver 3273
causes 3273
0@@ 3271
toothbrush 3271
environment 3270
unhappy 3269
wipes 3267
bar@@ 3266
afford 3265
tr@@ 3261
knock 3257
factor 3255
yrs 3254
yard 3252
threads 3251
sc@@ 3250
grease 3249
holidays 3245
allergies 3242
sync 3241
ya 3239
s.it 3237
couldnt 3237
Europe 3236
lu@@ 3235
collar 3232
opens 3232
bow 3231
sensor 3230
vinyl 3229
swallow 3227
ons 3225
qu@@ 3223
recommendation 3221
AA 3220
cubes 3220
II 3218
vehicle 3217
.It 3216
swimming 3214
pu@@ 3214
blisters 3208
alright 3208
appreciated 3207
twin 3203
ha 3202
pioneer 3202
da 3201
carafe 3199
work@@ 3197
common 3194
> 3192
joke 3191
hopes 3191
cor@@ 3185
dressed 3183
folded 3182
15@@ 3181
prints 3181
skillet 3176
sand 3175
tables 3175
excelente 3172
q@@ 3170
conversation 3162
flower 3158
message 3157
sticker 3156
notch 3155
hip 3155
core 3155
ethernet 3154
ver@@ 3153
rarely 3151
includes 3149
lite 3148
washings 3146
fa@@ 3144
salad 3144
building 3139
ous 3133
soooo 3131
begin 3131
homemade 3130
compression 3130
sooo 3129
motion 3129
Belkin 3128
smoothies 3127
baggy 3126
programs 3126
stored 3124
hrs 3124
covering 3124
1000 3118
residue 3117
we@@ 3113
shield 3113
wrinkles 3104
du@@ 3103
diamonds 3102
applied 3101
speak 3100
extras 3100
throwing 3100
stream 3099
36 3098
mar@@ 3098
pet 3098
hips 3095
gu@@ 3093
benefit 3091
squeeze 3090
operating 3090
19@@ 3087
ding 3085
tabs 3083
motorcycle 3077
9.5 3076
basement 3074
net 3074
workouts 3073
blow 3072
mobile 3071
150 3071
flaw 3070
refrigerator 3068
F 3068
ec@@ 3067
ates 3059
typically 3059
75 3057
extreme 3056
periods 3055
ridiculous 3053
tote 3051
ked 3051
member 3051
22 3049
rose 3049
Nike 3045
swivel 3045
initial 3041
backs 3041
weigh 3039
’ 3039
hi 3038
refurbished 3036
pricing 3035
cloths 3034
meals 3033
becomes 3032
mu@@ 3032
doors 3030
stress 3029
overly 3028
die 3028
na@@ 3024
badly 3023
2.0 3023
iMac 3023
indicated 3022
allowing 3022
cart 3022
outlets 3021
yo 3020
noted 3020
cushioning 3020
term 3017
dozen 3016
gauge 3016
separately 3010
heal 3008
hanger 3008
sandisk 3007
adults 3005
brings 3005
applications 3004
flap 3004
cha@@ 3002
brushes 3002
pre-@@ 3001
good.@@ 3000
Kodak 3000
one. 2999
comparison 2998
nervous 2996
gi@@ 2994
isnt 2993
batch 2991
question 2991
cats 2989
hoodie 2989
expectation 2988
fiber 2987
risk 2987
use. 2985
indoor 2983
itchy 2983
claim 2981
backing 2981
them.@@ 2979
sport 2978
interesting 2976
Microsoft 2975
fade 2975
gen 2973
bead 2972
ge@@ 2972
advise 2971
my@@ 2971
appetite 2969
tells 2968
vintage 2968
sight 2968
pajamas 2968
ment 2967
cash 2967
glued 2965
ni@@ 2964
can@@ 2963
sewn 2963
missed 2963
as@@ 2961
creative 2960
hand@@ 2959
topper 2958
ally 2957
firmware 2957
ke@@ 2956
smile 2956
me. 2956
smoke 2956
refill 2955
wi@@ 2951
electrical 2948
anytime 2946
… 2944
scratchy 2943
format 2940
2x 2937
meter 2936
fallen 2936
leaking 2933
king 2931
quality. 2930
gopro 2923
complicated 2922
yoga 2922
upright 2917
significantly 2916
wouldnt 2915
sparkly 2915
safely 2914
les 2914
breath 2912
2011 2909
sneaker 2909
sed 2908
tower 2908
subwoofer 2907
formal 2905
s- 2905
kitty 2904
hi@@ 2903
necklaces 2899
twist 2899
e. 2898
clarks 2897
attachments 2897
on. 2894
peeling 2894
traction 2889
2.5 2888
housing 2887
spatula 2886
ded 2885
polish 2880
1080p 2878
pan@@ 2877
il@@ 2877
locks 2875
tion 2873
lemon 2873
suede 2870
instant 2869
cycle 2868
deodorant 2868
ea@@ 2867
nails 2867
dries 2866
stupid 2864
bust 2860
et 2860
brighter 2860
ed@@ 2859
significant 2857
V 2856
Asics 2856
enclosure 2855
decide 2854
specs 2852
satellite 2852
supplier 2852
Florida 2851
direction 2850
discontinued 2845
ations 2844
bundle 2840
slowly 2840
carries 2836
steady 2835
continues 2834
ver 2830
50@@ 2829
14@@ 2828
ruined 2825
knob 2825
nine 2825
invicta 2823
de 2820
suitcase 2818
abuse 2817
2-@@ 2814
terms 2813
themed 2813
dropping 2810
letters 2810
ink 2807
walks 2800
worries 2799
inter@@ 2799
prettier 2797
vac 2797
consistently 2796
louder 2795
rinse 2793
estimated 2792
controller 2791
flexibility 2791
als 2790
silky 2790
picking 2790
chips 2788
Spice 2784
ear@@ 2783
carried 2783
walked 2782
admit 2782
feedback 2781
wardrobe 2779
leaked 2777
fur 2776
silk 2776
cars 2775
events 2775
P@@ 2775
student 2772
guard 2771
mins 2770
chemical 2769
easiest 2768
unusable 2768
batter 2768
kick 2766
thrown 2765
lived 2765
streaming 2765
fiance 2765
sounded 2764
eight 2762
importantly 2761
obvious 2761
aside 2761
vista 2760
versions 2757
slick 2755
flawless 2752
pearls 2752
requested 2747
babies 2745
lotion 2744
res 2739
breathable 2737
rec@@ 2736
wonders 2734
deck 2734
copy 2731
keeper 2731
ent 2728
manage 2727
discomfort 2723
time.@@ 2722
rod 2721
unplug 2720
tu@@ 2719
responsive 2718
raw 2717
star@@ 2716
guide 2715
balanced 2713
panties 2711
e.@@ 2710
peace 2709
decision 2708
quantity 2707
benefits 2707
docking 2707
winner 2706
pant 2700
neutral 2699
briefs 2698
ages 2697
coasters 2697
flats 2695
growing 2694
ir@@ 2694
use.@@ 2694
teenage 2693
freeze 2692
painted 2690
potatoes 2690
surge 2690
shed 2687
supplied 2686
ur 2685
jo@@ 2685
switching 2683
increased 2682
forgot 2680
800 2677
pearl 2677
latest 2675
slicer 2674
disks 2672
cutters 2670
reasons 2669
3-@@ 2667
42 2666
component 2665
mg 2664
slice 2661
dining 2660
P 2660
6.5 2660
posted 2660
busy 2660
craftsmanship 2658
3-4 2657
ling 2657
Timex 2657
120 2652
chrome 2650
staying 2645
ys 2642
report 2642
speedy 2640
dvr 2638
B@@ 2636
sufficient 2636
spill 2634
cuisinart 2633
uniform 2633
subtle 2633
unbelievable 2633
duvet 2632
ity 2632
street 2632
tri@@ 2626
medical 2625
juicer 2625
watt 2623
capability 2623
DC 2621
bumps 2619
adjusting 2618
depth 2618
updated 2618
sells 2615
seven 2614
palm 2611
vs 2611
gar@@ 2610
all@@ 2609
athletic 2609
fluffy 2608
fly 2607
hdd 2606
ter@@ 2604
hadn 2603
floss 2600
humidifier 2599
occasional 2598
husbands 2597
machines 2597
19 2596
cuff 2596
situation 2596
RV 2594
plane 2594
signs 2593
absorbent 2593
transport 2592
muscles 2592
fills 2592
boards 2592
prepared 2591
adjustments 2590
confusing 2588
ou@@ 2586
charms 2586
smelled 2584
labels 2583
binoculars 2583
gotta 2583
nasty 2582
diameter 2582
menu 2580
stability 2580
55 2577
vertical 2577
placing 2576
brilliant 2574
insoles 2571
regrets 2571
hits 2571
pinch 2570
ma 2569
ru@@ 2568
highs 2568
complained 2568
willing 2565
pound 2561
las 2560
accommodate 2558
mile 2554
nylon 2553
honest 2553
fe@@ 2551
si 2551
ness 2549
slices 2548
projects 2547
torn 2546
cruise 2545
Nature 2545
amplifier 2545
hunting 2544
ss@@ 2541
splitter 2540
economical 2538
locking 2538
C@@ 2537
insole 2536
folding 2535
fragrance 2535
flavors 2534
strainer 2533
princess 2532
labeled 2532
regardless 2529
passed 2529
brew 2529
dvi 2529
shocked 2528
mon@@ 2528
group 2527
presentation 2527
hospital 2527
chemicals 2525
ings 2525
hotel 2523
garment 2522
authentic 2521
scrub 2521
providing 2521
corn 2520
forth 2519
ceiling 2516
studs 2515
crappy 2514
600 2514
pouring 2511
socket 2511
marked 2510
pr@@ 2510
prevents 2509
voltage 2509
breast 2506
burns 2504
discount 2504
favor 2504
false 2503
glow 2501
Tom 2501
baked 2500
decorative 2499
wedge 2498
thoroughly 2497
favorites 2496
nursing 2493
vizio 2493
content 2493
contents 2493
plugging 2491
hidden 2491
imagined 2490
pulls 2490
foil 2487
airport 2487
describe 2486
disposable 2485
sheer 2484
excelent 2483
casio 2483
spices 2483
T@@ 2481
multi 2480
5th 2480
d.i 2478
shades 2477
considered 2474
wrinkle 2474
nuts 2472
straws 2472
reduced 2470
premium 2470
TVs 2470
ator 2470
gs 2468
ge 2466
ours 2465
expected. 2463
America 2463
fry 2462
< 2462
hated 2462
gain 2461
quilt 2460
sha@@ 2459
under@@ 2458
es@@ 2458
spout 2451
lb 2450
cabinets 2449
copper 2447
all. 2446
activities 2444
set-up 2443
assume 2442
questions 2440
tore 2439
a-@@ 2439
plasma 2439
br@@ 2438
blew 2438
work. 2438
members 2437
younger 2437
roller 2436
anyways 2435
headache 2435
needless 2432
ur@@ 2430
household 2430
mint 2430
physical 2429
spills 2428
bone 2428
16@@ 2426
on.@@ 2425
fear 2425
tongue 2424
one.@@ 2424
entertainment 2419
minimum 2417
dainty 2416
mixes 2416
wh@@ 2415
schedule 2415
travels 2414
freezing 2414
40@@ 2411
checking 2411
companies 2411
keen 2410
camper 2410
sites 2409
par@@ 2405
lit 2405
liking 2404
der 2402
confidence 2402
garden 2402
.if 2401
.my 2400
joint 2400
beans 2399
prescription 2399
sounding 2399
13@@ 2398
costumes 2398
Zune 2398
macro 2395
flowers 2395
Dyson 2394
der@@ 2392
---@@ 2390
managed 2389
hurts 2389
organic 2389
policy 2389
he@@ 2387
bench 2386
smelling 2385
fortunately 2383
sts 2383
me.@@ 2383
34 2382
walker 2379
mer@@ 2375
ar 2374
story 2373
3.5 2373
radios 2371
flour 2371
plush 2370
neatly 2369
sing 2368
shakes 2365
stool 2365
testing 2364
blends 2362
pp@@ 2361
address 2360
blown 2360
buyers 2359
recomiendo 2359
bucket 2359
runner 2358
dressing 2357
inputs 2355
loads 2355
1.5 2354
tap 2354
shaker 2354
cumbersome 2354
18@@ 2354
angles 2350
patch 2350
breathe 2349
slacks 2347
rug 2347
tin 2346
bin 2345
flop 2345
intel 2345
exposed 2344
XXL 2344
ll 2343
champ 2341
melted 2341
contains 2340
smallest 2339
perfect. 2338
code 2337
p-@@ 2335
solar 2335
sh 2331
handled 2331
99 2331
color@@ 2329
snack 2329
team 2328
convert 2328
analog 2327
prop 2325
skype 2323
suck 2323
blah 2323
Wii 2323
ce 2322
3x 2322
cork 2322
bay 2321
English 2321
linux 2320
scratching 2319
punch 2319
spaces 2318
strings 2316
fin@@ 2316
measured 2315
teen 2312
decoration 2310
emergency 2308
yogurt 2307
remotes 2306
af@@ 2305
2.@@ 2304
100@@ 2303
M@@ 2303
canvas 2303
60@@ 2302
dependable 2301
combined 2301
burnt 2301
jobs 2300
ta 2297
sho@@ 2295
coats 2291
gra@@ 2290
heated 2290
super@@ 2286
medicine 2286
tilt 2286
mild 2284
1.@@ 2284
flight 2284
time@@ 2282
soo 2281
Le 2281
crafted 2280
blocks 2280
accent 2280
flashes 2278
stickers 2277
reminds 2275
clunky 2275
sometime 2275
primarily 2272
wondering 2270
fuzzy 2269
ph@@ 2269
thighs 2268
lowest 2267
matte 2267
detergent 2266
ey 2266
affect 2266
beard 2263
bummer 2263
definite 2262
clean@@ 2262
practically 2262
advertising 2259
ic 2259
men@@ 2258
scissors 2257
intact 2257
loosen 2251
statement 2251
calidad 2251
balm 2251
produced 2249
functioning 2248
entirely 2247
awsome 2246
den@@ 2245
anniversary 2244
platform 2244
oversized 2243
confident 2242
complaining 2241
armband 2241
chipped 2240
toss 2240
banana 2238
ensure 2238
dislike 2237
grips 2236
papers 2236
tissue 2235
inspiron 2231
west 2231
quality.@@ 2230
lacking 2230
task 2227
ed. 2226
land 2224
requirements 2224
cracks 2224
brace 2222
vivid 2222
reccommend 2222
sponge 2222
contrast 2222
darn 2222
silly 2221
silent 2221
microfiber 2219
fishing 2218
manufactured 2218
drip 2217
sweatshirt 2215
sk@@ 2214
5-@@ 2213
10.5 2212
pod 2212
ble 2211
pregnant 2206
deeper 2203
diaper 2203
styling 2203
joy 2202
grandchildren 2202
mill 2201
packages 2199
of@@ 2198
KitchenAid 2198
dentist 2195
closing 2194
OXO 2193
pl@@ 2190
solidly 2189
led 2189
buen 2188
shutter 2188
accessible 2188
one@@ 2186
Disney 2186
sewing 2185
solve 2183
owner 2183
ch 2181
canister 2179
you@@ 2177
apron 2177
military 2176
vanilla 2176
linksys 2175
transformer 2175
thermal 2174
es.@@ 2174
er. 2174
skip 2173
aux 2173
mo 2173
shapes 2173
3.@@ 2172
developed 2172
watts 2171
tions 2170
sun@@ 2170
helmet 2169
soda 2168
spread 2167
bare 2166
overseas 2166
nail 2166
em@@ 2166
latch 2164
specially 2162
ze 2162
power@@ 2162
peeler 2161
bedding 2158
tasty 2157
um 2155
built-in 2155
Gun 2154
herbs 2154
oo@@ 2153
x-@@ 2153
app@@ 2152
head@@ 2151
ss 2150
appliance 2149
ans 2146
ten@@ 2146
laying 2146
upside 2146
records 2144
21 2144
jump 2144
consumer 2143
aches 2141
et@@ 2141
cassette 2141
cane 2141
tags 2140
250 2140
olive 2136
sweaters 2135
goodness 2133
asleep 2133
len@@ 2131
appliances 2131
mad 2130
printing 2130
size. 2130
sauce 2130
hell 2130
bacon 2129
65 2125
tries 2124
nonstick 2122
claimed 2122
sellers 2122
H 2122
sen@@ 2121
buena 2120
displayed 2119
theses 2119
example 2118
multi-@@ 2118
students 2115
25@@ 2114
rubbing 2113
haha 2113
animal 2110
skechers 2110
cupcake 2109
blankets 2108
slipped 2107
shift 2106
10.1 2106
rolled 2105
reads 2104
applying 2103
great@@ 2101
SLR 2101
satisfactory 2099
firewire 2099
hu@@ 2099
ly@@ 2098
technical 2098
commercial 2097
nu@@ 2097
melt 2096
straw 2095
baskets 2095
realistic 2095
clogs 2094
calcium 2094
pur@@ 2091
jackets 2091
cleanup 2090
pushing 2090
respond 2088
intend 2088
sto@@ 2087
it.It 2087
Friday 2085
brick 2085
........ 2085
heck 2084
visit 2084
formula 2084
allergic 2083
una 2083
recomended 2083
faulty 2083
ance 2083
insulated 2082
cushioned 2082
lifting 2082
pressed 2082
removal 2080
spin 2080
teapot 2078
rebel 2077
comfortable. 2076
Costco 2076
shuffle 2075
cuz 2075
fails 2074
select 2074
carhartt 2074
trade 2072
wrote 2072
gem 2071
precise 2071
t-shirts 2070
tly 2069
tongs 2069
ky 2068
headband 2068
cancer 2065
account 2064
38 2064
A@@ 2062
suited 2061
brightness 2061
2000 2060
ki@@ 2060
dec@@ 2060
request 2060
64 2059
accident 2057
firmly 2056
thankfully 2055
curve 2055
amd 2054
sofa 2054
mas 2053
distortion 2053
trail 2052
telling 2051
defect 2050
gallon 2049
2010 2048
indicator 2048
cushions 2047
warned 2047
sm@@ 2046
severe 2046
sat 2044
watched 2044
intuitive 2044
op@@ 2042
tangled 2042
mp@@ 2042
dies 2042
graphic 2041
27 2040
4-@@ 2040
hardwood 2039
terribly 2039
mats 2039
elderly 2038
air@@ 2038
again. 2037
interference 2036
refunded 2035
AAA 2034
originals 2034
hairs 2033
shock 2033
public 2032
proud 2032
Dr 2030
4gb 2030
researched 2030
boiling 2029
caddy 2029
g-@@ 2028
train 2028
bump 2028
shrunk 2028
hundreds 2027
up. 2025
es. 2024
lightning 2024
sta@@ 2022
maximum 2022
bugs 2020
satin 2020
fu@@ 2019
shortly 2019
ley 2019
Hoover 2019
lie 2017
casing 2017
impression 2017
headaches 2017
signals 2016
failure 2016
handsome 2015
blu 2014
aspect 2014
ters 2013
manufacturers 2013
rides 2012
patterns 2012
well-@@ 2012
extender 2012
wrapping 2012
coated 2012
blouse 2009
vo@@ 2008
created 2008
hence 2007
cutest 2006
ser@@ 2006
goods 2006
mood 2005
creates 2004
stopper 2004
ls 2004
feed 2003
directed 2002
racks 2001
attaches 2001
notes 2000
with@@ 1999
challenge 1999
attempt 1999
bells 1998
capabilities 1998
commented 1998
temps 1997
K 1997
liquids 1996
sl@@ 1996
strain 1996
bc 1995
liners 1995
bea@@ 1995
ven@@ 1995
too@@ 1994
wasting 1993
trimmer 1993
retro 1990
gap 1990
dresser 1990
virtually 1989
matters 1989
inserted 1987
razors 1987
frying 1986
fo@@ 1985
11@@ 1984
suggestion 1983
ses 1982
pens 1981
lin@@ 1980
OMG 1980
ed.@@ 1978
remains 1977
ments 1976
POR 1976
presents 1976
spacious 1976
supported 1975
turkey 1974
pole 1974
fingerprints 1973
shuts 1972
song 1972
fruits 1971
Seiko 1971
stools 1970
il 1969
lead 1968
popular 1968
D@@ 1968
sub@@ 1967
molds 1966
flush 1966
harness 1966
configuration 1965
gh@@ 1964
hundred 1963
gig 1963
flex 1961
clients 1961
boss 1960
ping 1960
pen@@ 1960
drug 1958
out. 1958
primary 1957
yo@@ 1957
ci@@ 1957
meaning 1955
July 1955
flatware 1955
capture 1954
cherry 1954
comp@@ 1954
unusual 1953
32@@ 1953
alittle 1952
eBay 1951
grandma 1951
IR 1950
bold 1949
Santa 1949
mountain 1948
fr@@ 1948
bending 1948
ap@@ 1948
er.@@ 1947
loading 1947
mat@@ 1947
shes 1946
advantage 1946
moderate 1945
downloaded 1945
separated 1945
cousin 1944
frequent 1944
gag 1943
ber@@ 1942
lag 1942
son@@ 1941
contain 1941
in-@@ 1941
on-line 1940
invest 1939
dig 1938
closes 1938
high@@ 1937
opportunity 1937
waffle 1936
regarding 1933
thigh 1933
.thanks 1933
polyester 1932
defiantly 1932
method 1930
tears 1930
ther 1929
hers 1929
lazy 1928
suffer 1928
plantar 1928
unbeatable 1924
absorb 1924
slept 1922
south 1922
opposed 1922
selected 1921
beige 1921
m-@@ 1921
ke 1921
flashy 1919
nuvi 1919
^ 1918
windshield 1917
her@@ 1917
teacher 1916
makers 1916
daughter-in-law 1915
savings 1914
reports 1913
lense 1912
17@@ 1912
ado 1909
definetly 1909
December 1909
tuner 1908
Club 1908
production 1908
snacks 1908
indoors 1907
pleasing 1907
grown 1906
mall 1905
.would 1905
95 1905
planned 1905
shopped 1904
herself 1904
collect 1904
random 1904
bl@@ 1904
ul@@ 1903
elbow 1903
Amazon.com. 1902
located 1902
steps 1902
bug 1901
flaws 1901
popping 1901
grandmother 1900
dorm 1900
hinge 1900
8gb 1900
reusable 1899
receipt 1899
joints 1898
1-@@ 1898
surely 1897
ful 1897
rotate 1897
situations 1896
classes 1896
ample 1896
approximately 1895
disapointed 1895
crystals 1894
drill 1894
110 1893
expand 1892
Clark 1891
related 1891
stu@@ 1891
colours 1890
largest 1890
orders 1889
pri@@ 1888
toasty 1888
ce@@ 1888
gum 1887
lime 1887
ia 1886
accept 1883
ti 1883
wound 1882
softness 1882
restaurant 1881
wor@@ 1881
ie 1881
passport 1881
postage 1880
allergy 1880
ot 1879
mens 1879
remain 1879
grandkids 1878
giant 1878
N@@ 1877
tied 1877
tasted 1877
sensitivity 1875
rubbed 1875
updates 1874
seals 1873
express 1872
wo@@ 1870
symptoms 1870
sharpener 1870
tuck 1870
envelope 1870
becoming 1869
capable 1868
bird 1868
ju@@ 1867
lab 1867
map 1865
upcoming 1865
messed 1864
suspect 1864
too. 1863
nurse 1862
canning 1862
fl@@ 1862
Thanksgiving 1861
displays 1861
turquoise 1861
cr@@ 1861
brewing 1860
stockings 1859
whistles 1857
zippered 1857
grinding 1857
performing 1855
relieve 1854
light@@ 1854
reaction 1853
rash 1852
ribbon 1852
.so 1850
headsets 1848
park 1845
activity 1845
outs 1845
returns 1844
pumps 1844
i.e. 1843
off@@ 1843
substitute 1843
impact 1842
California 1842
vibration 1842
capsule 1842
dy 1841
harsh 1840
repeat 1839
hurting 1838
diffuser 1838
rounded 1837
com 1837
raspberry 1836
accurately 1834
fil@@ 1834
manufacturing 1834
yay 1833
fine. 1833
cube 1833
honey 1832
lovers 1831
listing 1831
handbag 1830
bristles 1830
manufacture 1829
ies 1829
beginner 1828
traffic 1827
sandwiches 1827
chic 1827
suddenly 1826
acid 1825
fuss 1825
wand 1825
ite 1824
win@@ 1823
locate 1823
equal 1823
eliminate 1822
pages 1822
otterbox 1822
delay 1820
ren@@ 1820
switches 1820
motorola 1819
lavender 1818
whisk 1818
amounts 1817
exterior 1817
Batman 1816
sales 1815
decorating 1814
sandwich 1814
slower 1813
tubes 1813
pushed 1811
stood 1808
pointed 1808
wings 1808
proven 1807
pancakes 1807
gadgets 1807
fee 1806
griddle 1806
iPods 1805
himself 1804
among 1803
UV 1803
rim 1802
layers 1802
effectively 1802
slicing 1802
28 1801
bien 1800
fight 1799
wherever 1799
bathing 1798
har@@ 1798
bridge 1798
polished 1797
col@@ 1796
scared 1796
rise 1795
est 1795
teenager 1794
stretches 1794
ty@@ 1790
damn 1790
s--@@ 1789
nut 1789
tablecloth 1788
4.@@ 1788
rigid 1788
webcam 1788
scrubs 1788
wi-fi 1787
uneven 1787
xs 1785
I. 1784
programming 1783
humidity 1783
study 1782
cereal 1782
26 1782
manually 1781
steak 1781
beds 1780
sees 1780
advertized 1780
ors 1780
Philips 1779
listened 1778
tail 1778
sparkles 1776
chains 1775
again.@@ 1774
00@@ 1774
greasy 1774
wok 1773
netgear 1773
ster 1772
good@@ 1772
dancing 1772
afternoon 1770
por@@ 1769
rig 1769
positions 1769
cleaners 1768
Shack 1768
portrait 1767
gr@@ 1766
bank 1766
specified 1765
on-@@ 1765
western 1764
wrinkled 1763
Bean 1761
small. 1761
costly 1761
inferior 1761
countertop 1761
potential 1761
200@@ 1759
este 1758
gripe 1758
-up 1757
raised 1757
ary 1756
deals 1756
mate 1755
tivo 1755
fourth 1754
corsair 1752
Stud 1752
sal@@ 1751
connectivity 1751
crock 1751
accuracy 1750
bel@@ 1750
craft 1749
in. 1749
caution 1749
vent 1747
dent 1746
this. 1745
O@@ 1745
generous 1743
700 1743
pipe 1742
loo@@ 1742
soak 1741
reviewed 1741
R@@ 1739
flying 1738
aftermarket 1737
treatment 1736
news 1736
headboard 1736
sea 1735
stained 1735
waistband 1734
fried 1733
mp 1733
robust 1732
dealer 1732
moist 1731
bur@@ 1731
Shakers 1731
cl@@ 1729
laser 1729
dv@@ 1728
removes 1727
screwed 1726
ff 1726
final 1726
swap 1726
scroll 1725
irritation 1724
wanna 1723
complains 1722
console 1722
exceptionally 1721
hanes 1721
posts 1720
tracking 1719
silverware 1718
thermos 1717
placement 1717
tossed 1716
L@@ 1716
letting 1716
recovery 1713
snuggly 1712
undone 1712
row 1712
replaces 1711
pre 1711
cape 1711
denim 1710
detector 1710
E@@ 1709
subs 1709
hd@@ 1709
ly. 1708
odors 1708
2gb 1707
coloring 1705
funky 1704
circulation 1704
money. 1704
stage 1704
quart 1704
mac@@ 1704
lesson 1703
swimsuit 1703
alcohol 1703
underwater 1703
European 1702
sinus 1702
expense 1702
text 1701
greater 1701
dealing 1701
keyboards 1701
partner 1700
nice. 1699
muffin 1698
framed 1698
proved 1697
roku 1697
sy 1696
ol@@ 1696
ler 1696
.good 1695
temperatures 1695
loses 1695
waffles 1695
repaired 1694
ish 1693
blows 1691
sew 1691
lean 1691
WD 1691
boo@@ 1689
graduation 1689
permanent 1688
travelling 1688
clamp 1686
clearer 1685
chopping 1685
key@@ 1684
football 1684
tt@@ 1683
merchandise 1682
one-@@ 1682
cheep 1681
irritating 1681
stem 1681
d.the 1680
bits 1679
sti@@ 1679
reliability 1679
relax 1678
longevity 1678
exchanged 1678
assumed 1677
concrete 1677
spectacular 1675
safer 1674
camp 1673
simplicity 1673
realy 1671
offering 1667
official 1667
cal@@ 1667
refills 1667
earphone 1666
mis@@ 1666
for. 1666
24@@ 1664
stretching 1664
use@@ 1661
cracking 1661
cre@@ 1660
relaxing 1660
decorate 1659
sunlight 1659
withstand 1659
newborn 1659
2014 1658
pi 1658
ped 1657
fading 1657
cuter 1657
survived 1657
maps 1657
shipper 1657
down@@ 1656
standards 1654
rusted 1654
boil 1653
perfectly. 1653
--- 1652
jean 1652
equally 1652
shines 1652
expected.@@ 1651
wobbly 1650
fuji 1650
feathers 1650
brackets 1649
gf 1648
individually 1648
reality 1647
mid-@@ 1647
cur@@ 1646
aging 1646
wear@@ 1646
gen@@ 1645
shallow 1645
par 1642
afterwards 1642
ne 1641
clo@@ 1640
.a 1640
soy 1639
it.The 1638
blurry 1638
utility 1638
gre@@ 1637
boom 1637
finds 1637
enjoyable 1636
hesitation 1636
perfection 1636
tummy 1636
.not 1636
bra@@ 1634
synthetic 1634
designer 1634
asap 1633
ing.i 1633
napkins 1633
size.@@ 1631
soothing 1630
makeup 1630
bag@@ 1630
luxurious 1629
y.i 1628
twenty 1628
rite 1628
trendy 1628
flannel 1628
gown 1626
openings 1625
5.@@ 1625
pj 1624
locked 1623
feather 1623
curtains 1622
ves 1621
limit 1619
exceeds 1619
bullet 1618
cannon 1618
lumix 1617
finishing 1617
stuffed 1617
frustrated 1617
23 1615
March 1615
unsure 1613
wars 1613
healing 1612
weighs 1612
versus 1612
catching 1611
.00 1610
stuffer 1610
some@@ 1610
.This 1610
struggle 1610
uc@@ 1608
satisfaction 1608
entry 1607
horse 1607
columbia 1606
fit. 1606
far@@ 1606
horizontal 1605
water@@ 1605
tor 1604
lacks 1603
rare 1602
adore 1602
therapy 1602
blank 1601
str@@ 1601
weights 1601
pies 1599
l-@@ 1599
readings 1599
stolen 1598
olds 1598
year-old 1596
sweaty 1596
d.it 1594
iced 1594
6-@@ 1593
scarves 1593
au@@ 1592
10.@@ 1592
posters 1591
towards 1591
vanity 1591
transparent 1591
character 1591
ridiculously 1591
diabetic 1590
clutter 1590
picture@@ 1590
70@@ 1590
vary 1589
pic@@ 1589
bios 1589
lea@@ 1588
p.@@ 1588
sd@@ 1588
tension 1587
comparing 1587
small@@ 1587
Braun 1587
navigate 1587
processing 1587
hem 1586
sion 1586
wing 1586
bet 1585
muffins 1584
trigger 1584
ably 1583
nd 1583
pains 1583
ultimate 1582
downfall 1582
metallic 1581
contacts 1581
grinds 1581
this@@ 1580
Shark 1580
onkyo 1580
yamaha 1579
cares 1577
mud 1577
turntable 1575
hamper 1575
act 1574
micro@@ 1574
.and 1573
arrives 1573
appealing 1573
massager 1572
international 1571
tre@@ 1570
pantry 1570
crotch 1569
2009 1569
33 1569
day@@ 1568
rugs 1568
anti-@@ 1568
ming 1568
enter 1567
whose 1567
polarized 1567
ounce 1565
beverage 1565
mini-@@ 1565
June 1564
expired 1563
medication 1563
closely 1563
painting 1563
dangerous 1562
advertisement 1562
editing 1561
merrell 1561
tucked 1560
nobody 1560
hol@@ 1559
born 1559
cla@@ 1557
Valentine 1556
silicon 1556
attaching 1556
pricy 1556
Hawaii 1556
excess 1555
versatility 1554
Italy 1554
ee@@ 1554
moon 1553
army 1553
drag 1553
zing 1553
portability 1553
scheduled 1553
ll@@ 1552
warped 1549
emailed 1549
.thank 1548
girly 1546
frequency 1545
miracle 1544
recorded 1544
birds 1543
pressing 1543
els 1542
lube 1542
creating 1541
dr@@ 1541
sooooo 1541
del 1541
mb@@ 1540
rotating 1540
roomba 1540
sorts 1539
bud 1539
tion@@ 1539
playback 1538
smoothie 1537
.you 1537
cap@@ 1537
bear 1537
relative 1536
novelty 1536
mil@@ 1536
aunt 1536
elements 1535
UK 1535
exercising 1535
stairs 1534
faux 1533
bulbs 1533
retina 1532
80@@ 1532
2008 1531
camo 1531
48 1531
trunk 1531
touching 1530
ry 1530
fryer 1530
tor@@ 1529
tra@@ 1529
documents 1529
cradle 1529
keurig 1529
shoots 1529
insulation 1528
secured 1528
radar 1528
considerably 1527
ws 1527
soccer 1527
purses 1526
patient 1526
quieter 1526
crushed 1526
Texas 1525
barefoot 1525
recommending 1525
sli@@ 1524
fine.@@ 1524
t.the 1524
4-5 1523
leaf 1523
hooking 1522
apples 1522
catches 1522
esta 1519
grate 1519
prefect 1519
je@@ 1519
cigarette 1518
che@@ 1518
upload 1518
crust 1518
bends 1517
freezes 1516
inst@@ 1514
irritate 1514
knit 1514
loops 1514
smoother 1514
vcr 1514
granddaughters 1513
errors 1513
off. 1512
January 1512
cm 1512
ori@@ 1511
arches 1511
hurry 1510
ships 1510
dim 1510
configure 1510
tomtom 1510
carrier 1509
torso 1509
element 1508
potato 1508
jvc 1507
expert 1507
comfortable.@@ 1507
grater 1507
avid 1506
ics 1505
nonetheless 1505
reported 1504
advanced 1503
organizing 1503
locations 1502
shi@@ 1501
4g 1501
Sansa 1501
polo 1501
sided 1500
warming 1500
calories 1500
thong 1500
black@@ 1500
antique 1499
extract 1499
reputation 1499
swiss 1499
vhs 1499
reduces 1498
fan@@ 1497
nowhere 1496
go-to 1496
ordinary 1494
fork 1494
j 1493
touchpad 1493
crooked 1492
wraps 1492
peanut 1492
fluid 1491
narrower 1491
measurement 1490
icing 1489
loaf 1489
ide 1488
pla@@ 1488
dos 1487
brief 1487
rainy 1487
light-weight 1487
sea@@ 1486
dri@@ 1486
Easter 1485
owning 1485
ved 1485
k-@@ 1485
.no 1484
classroom 1484
ker 1483
competitive 1483
worthy 1482
bal@@ 1482
fla@@ 1482
route 1482
The 1482
laugh 1481
that@@ 1481
boring 1480
puppy 1478
happily 1478
consistency 1477
owners 1477
10-@@ 1477
sample 1476
maintenance 1475
shaft 1475
wearable 1475
c-@@ 1474
landscape 1473
-like 1473
iti@@ 1473
Adidas 1473
familiar 1472
floppy 1472
packets 1472
noises 1471
promise 1471
volt 1471
meds 1469
cloud 1468
randomly 1468
mother-in-law 1467
Luv 1467
well.I 1466
sy@@ 1466
surprising 1466
soups 1466
glossy 1465
new@@ 1464
s.they 1464
ok@@ 1464
soften 1464
sting 1463
Chicago 1463
thin@@ 1462
unplugged 1462
war@@ 1462
.also 1462
April 1461
are@@ 1461
sennheiser 1460
buys 1460
dividers 1459
mice 1459
itch 1458
triple 1458
tearing 1458
east 1457
emails 1457
weekly 1456
compatibility 1456
mothers 1455
eos 1455
patio 1454
cent 1454
brushed 1454
va@@ 1454
powers 1453
velvet 1453
pregnancy 1453
ins 1452
box@@ 1452
plated 1452
hero 1452
communication 1451
minus 1451
--i 1451
kingston 1451
Wave 1449
m. 1449
ger 1449
completed 1448
side@@ 1448
immediate 1448
clumsy 1448
beating 1447
efficiently 1447
chewed 1446
sporty 1446
equivalent 1445
opposite 1444
Dansko 1444
management 1444
tinny 1443
worrying 1443
flo@@ 1443
branded 1443
oakley 1443
whats 1442
contained 1442
winters 1439
J 1437
1-2 1437
Wilton 1437
scanner 1437
retractable 1437
mist 1436
retailer 1435
all.@@ 1435
gently 1434
dissatisfied 1434
dental 1434
ble@@ 1433
s.this 1433
grandaughter 1433
FYI 1432
secret 1432
cru@@ 1432
continued 1431
intense 1430
earbud 1430
gross 1430
cools 1430
fool 1429
ay 1428
grounds 1428
seagate 1428
utensil 1426
well@@ 1425
iPad2 1425
screwdriver 1425
t.i 1424
bummed 1424
whistle 1424
gasket 1423
requirement 1422
ster@@ 1422
throat 1422
grateful 1421
forced 1421
timing 1421
Zippo 1421
bye 1420
sin@@ 1420
airplane 1420
tests 1420
briefcase 1419
cat@@ 1418
stir 1418
46 1418
paste 1418
fit@@ 1417
sections 1417
jeweler 1417
ching 1416
destroyed 1415
aids 1415
ns 1414
prongs 1414
yours 1414
ol 1413
healthier 1413
relaxed 1413
spilling 1413
almond 1413
disconnect 1412
roo@@ 1412
million 1411
incorrect 1411
day. 1410
gamer 1410
cents 1409
tasks 1409
bolts 1409
quarter 1408
definition 1407
patches 1407
29 1406
ts.@@ 1405
hinges 1405
sur@@ 1405
storm 1403
tendency 1403
perfectly.@@ 1403
chop 1402
infinity 1402
grass 1401
raise 1401
5.1 1400
bronze 1400
den 1400
earth 1399
bills 1399
mor@@ 1396
Jeep 1396
back-up 1396
ka@@ 1396
naturally 1395
CF 1395
basketball 1395
ly.@@ 1394
grain 1394
readers 1394
downloading 1394
bri@@ 1394
preference 1393
conjunction 1393
powershot 1393
ical 1392
letter 1392
ratings 1391
advertise 1391
tweezers 1391
dying 1391
ever@@ 1390
touchscreen 1390
han@@ 1389
cheesy 1389
8-@@ 1389
skull 1389
perfect.@@ 1388
reference 1387
san@@ 1387
y.the 1386
tacky 1386
advised 1385
watch@@ 1385
wr@@ 1385
chromebook 1385
sophisticated 1385
damp 1385
Monday 1384
indicate 1384
rubs 1383
pets 1383
handed 1381
XM 1379
m.@@ 1379
sel@@ 1379
crank 1379
Wal-Mart 1378
sted 1378
bones 1378
scrubbing 1377
fooled 1377
carbon 1376
ning 1376
--it 1376
wiggle 1375
ched 1375
fortune 1374
p. 1374
fri@@ 1374
product@@ 1374
operated 1374
work.@@ 1373
play@@ 1372
memories 1372
clever 1372
ski 1371
guarantee 1370
conditioner 1370
smoking 1369
curves 1369
quality@@ 1369
refreshing 1369
operates 1368
comcast 1368
granite 1368
como 1367
fun@@ 1366
vs. 1366
reuse 1365
batches 1365
7-@@ 1364
tune 1364
clog 1364
reduction 1364
read@@ 1363
bla@@ 1362
slid 1362
transferring 1361
edit 1361
swelling 1360
patience 1360
ying 1360
photo@@ 1360
coconut 1360
objects 1359
chopsticks 1359
colder 1359
W@@ 1358
hike 1357
differently 1357
ant@@ 1357
curved 1357
F@@ 1357
dongle 1356
loosing 1355
psu 1355
them@@ 1352
baseball 1351
eliminates 1351
thankful 1351
sn@@ 1350
guessing 1350
prone 1349
depends 1349
dye 1349
somebody 1349
nas 1349
ste@@ 1348
breaker 1348
tive 1347
cuffs 1347
ass 1346
knocked 1346
mornings 1345
son-in-law 1345
characters 1344
itouch 1343
concerns 1342
prepare 1342
remover 1341
explain 1341
sources 1341
jogging 1341
iPads 1341
expiration 1341
rely 1340
sloppy 1340
ative 1339
cou@@ 1339
any@@ 1339
coolpix 1339
k. 1339
resolved 1339
......... 1338
cho@@ 1337
up.@@ 1337
aroma 1336
sa 1336
toothpaste 1335
hitting 1335
6.@@ 1335
assuming 1335
inc@@ 1335
del@@ 1335
bride 1334
breasts 1334
16gb 1334
misplaced 1333
electricity 1333
lately 1332
trusted 1332
Phillips 1332
charcoal 1331
gums 1330
bridal 1330
too.@@ 1330
fashioned 1330
every@@ 1329
sharpness 1329
North 1329
tru@@ 1329
btw 1328
chunky 1328
book@@ 1328
ther@@ 1327
jacks 1327
complement 1326
8.@@ 1326
clicking 1326
puma 1325
Sunday 1324
snag 1324
decal 1324
tic 1324
1500 1323
price@@ 1323
repeated 1322
mickey 1322
panty 1321
high-@@ 1321
ja@@ 1320
85 1320
kill 1319
cam@@ 1319
dosage 1319
valentines 1318
upgrading 1318
over-@@ 1318
temporary 1317
bluray 1317
cholesterol 1317
blowing 1317
crown 1317
ard 1316
faces 1316
anti 1316
zone 1315
subject 1315
grew 1315
collects 1314
roast 1313
Blackberry 1313
sisters 1312
cupboard 1311
bs 1311
corset 1309
bothered 1308
alert 1308
mechanical 1308
beside 1307
warehouse 1306
resistance 1306
animals 1305
confused 1305
Cole 1305
structure 1305
attempts 1305
5d 1305
ripping 1304
overpowering 1304
bell 1303
picture. 1303
neon 1303
super-@@ 1302
surfing 1301
chilly 1301
ecco 1301
Rainbow 1300
flask 1300
payed 1300
pile 1300
shrinkage 1299
complimented 1299
precious 1299
rea@@ 1299
forks 1299
bf 1298
na 1297
organization 1297
calling 1296
case. 1296
sharpening 1295
des 1295
hates 1295
backwards 1294
assortment 1294
pods 1294
itunes 1294
great.I 1293
refused 1293
G@@ 1293
insurance 1293
home@@ 1292
blister 1292
gh 1291
edition 1290
co 1290
digestive 1289
bite 1289
lather 1288
molded 1287
mes 1287
3g 1287
sharper 1287
acrylic 1286
deceiving 1286
cy@@ 1286
funnel 1286
pe 1285
booster 1285
cramps 1285
August 1285
visual 1285
grandsons 1284
AV 1284
blast 1284
yummy 1283
van 1283
sharpen 1283
iness 1283
tread 1282
fre@@ 1282
climate 1282
Zen 1282
interfere 1281
shattered 1281
.com 1280
tar@@ 1279
names 1279
val@@ 1279
enclosed 1279
fossil 1279
scan 1278
breathing 1278
aly 1278
album 1278
cra@@ 1277
amateur 1277
bikini 1276
circle 1276
pin@@ 1276
footprint 1276
encountered 1275
instep 1275
Mr. 1275
spilled 1275
staff 1275
bounce 1275
injury 1274
unexpected 1273
ocean 1273
aged 1273
disappeared 1273
prep 1273
ner 1273
ture 1273
tes 1272
facing 1271
treats 1271
remind 1271
shams 1270
chew 1270
routine 1270
magnesium 1270
article 1269
Omega 1268
not@@ 1268
8.1 1268
price.I 1267
90@@ 1267
sweating 1267
fast@@ 1267
whey 1267
decently 1266
surprises 1266
welcome 1265
plu@@ 1265
defects 1264
polk 1264
register 1262
ically 1261
keypad 1261
ens 1260
day.@@ 1260
7.@@ 1260
powering 1260
gri@@ 1260
era 1259
1200 1259
stripes 1259
determine 1259
tomatoes 1258
slightest 1257
shaves 1257
Ford 1256
requiring 1256
satisfy 1256
attire 1256
jewel 1256
royal 1256
500@@ 1255
ounces 1255
Pentax 1255
todo 1254
circuit 1253
ect 1253
130 1253
reordered 1252
flashlight 1252
gla@@ 1252
hoo@@ 1252
ged 1251
bat@@ 1251
ths 1250
theres 1250
Michael 1250
ergonomic 1250
nasal 1250
amps 1249
married 1249
chronic 1249
inconvenient 1248
services 1248
hint 1248
death 1247
professionally 1247
subscribe 1247
library 1247
neoprene 1246
more@@ 1245
chill 1245
dish@@ 1243
nicest 1243
warmers 1243
sses 1242
ex 1242
hungry 1241
hides 1241
guitar 1240
responded 1240
continuous 1240
loc@@ 1240
klein 1240
run@@ 1239
DOA 1239
tal@@ 1239
wash@@ 1239
prong 1239
October 1239
nevertheless 1239
measures 1238
ruin 1238
Depot 1238
pt 1237
useable 1237
fasciitis 1237
acts 1237
sin 1237
boxers 1236
damaging 1235
granted 1235
toddlers 1235
berry 1234
companion 1233
onions 1233
fer@@ 1233
pal@@ 1233
sleeps 1233
duct 1233
high-quality 1232
binding 1231
300@@ 1231
adjusts 1231
tin@@ 1231
ff@@ 1229
Baker 1229
neighbors 1228
client 1228
antennas 1228
din 1228
ned 1228
qui@@ 1227
drawing 1227
2. 1227
ps@@ 1226
bleach 1226
vegetable 1225
made. 1224
cowboy 1224
trailer 1223
tones 1223
tic@@ 1222
pcs 1222
knobs 1222
lightly 1221
coin 1221
stride 1221
mos 1220
ation.@@ 1220
fastest 1220
unstable 1218
reverse 1218
37 1218
12-@@ 1218
stitched 1218
purifier 1218
design@@ 1217
glide 1217
pjs 1217
boxer 1217
rabbit 1216
ticket 1216
blocking 1215
bus 1215
duck 1215
lunches 1215
precio 1214
9.@@ 1214
cover@@ 1214
55@@ 1213
neighbor 1213
cone 1213
immune 1213
gateway 1213
syrup 1213
glitter 1213
cough 1213
bringing 1212
coax 1212
cushy 1211
upstairs 1211
nic@@ 1211
piercing 1211
brim 1210
lying 1210
BBQ 1210
rubbermaid 1210
necessity 1209
chi@@ 1209
ivory 1208
treadmill 1208
bedspread 1208
sucked 1207
flu@@ 1207
dur@@ 1207
pirate 1207
induction 1207
zed 1207
dickies 1206
novice 1205
fac@@ 1204
cli@@ 1204
noticeably 1203
2007 1203
t.it 1203
semi-@@ 1203
clutch 1202
dents 1202
busted 1202
ve.@@ 1202
til 1202
visor 1201
rapid 1201
meats 1201
look@@ 1200
solo 1200
4S 1200
buddy 1200
pat@@ 1200
footbed 1200
timberland 1200
cycles 1199
f-@@ 1199
q 1199
engagement 1199
specifications 1198
color. 1198
coaster 1198
woods 1197
coffeemaker 1197
fondant 1197
e.i 1196
suc@@ 1196
broom 1196
distances 1196
unnecessary 1196
cure 1195
fro@@ 1195
hammer 1195
trial 1195
ingly 1195
calphalon 1194
char@@ 1194
Zumba 1194
ously 1194
ratio 1194
November 1194
zebra 1193
install@@ 1193
therapist 1193
folio 1193
fuse 1192
Japan 1192
attempted 1190
massive 1190
shing 1190
telescope 1190
asks 1190
involved 1190
aw@@ 1190
warn 1189
ants 1189
reversible 1189
biking 1188
red@@ 1188
I@@ 1188
handheld 1188
levi 1188
lake 1187
competition 1186
smartphone 1186
350 1185
spatulas 1185
phenomenal 1184
lever 1184
pale 1184
bon@@ 1184
plant 1183
staple 1183
these. 1182
leopard 1181
'nt 1181
suprised 1181
ache 1181
9.99 1180
senior 1180
swear 1179
valuable 1179
sunny 1179
sex 1178
recharging 1178
loosely 1178
900 1177
doc 1177
year@@ 1177
salads 1177
finder 1177
ina 1176
masculine 1176
opted 1176
tan@@ 1175
successfully 1175
brainer 1175
wallets 1174
grows 1174
seasons 1173
tupperware 1173
drips 1173
like@@ 1172
fit.@@ 1172
gained 1171
survive 1171
tax 1171
infuser 1171
cool@@ 1171
ker@@ 1170
accents 1170
brain 1170
fps 1170
Asian 1170
teal 1169
600@@ 1169
cook@@ 1169
dragon 1169
pack@@ 1168
sound@@ 1168
seats 1168
lar@@ 1168
pric@@ 1168
Aspire 1167
buckles 1167
artificial 1167
kits 1165
saucony 1165
ve. 1164
footwear 1164
out.@@ 1164
dar@@ 1164
Australia 1164
installs 1164
d- 1163
product.I 1163
vinegar 1163
ghz 1163
mer 1163
oc@@ 1162
slender 1161
Sky 1161
deserves 1160
reached 1160
touched 1160
ric@@ 1160
plan@@ 1159
now. 1159
coarse 1159
mic@@ 1158
Honda 1158
golden 1158
ei@@ 1158
s.I 1157
ment@@ 1157
thi@@ 1157
lan 1157
made@@ 1157
s3 1156
t.v. 1156
lows 1156
exc@@ 1156
harley 1156
Mexico 1156
invisible 1156
teflon 1156
failing 1155
laid 1155
mass 1154
ing-@@ 1154
looser 1154
al. 1154
approx 1154
tomorrow 1154
beef 1153
cycling 1153
fed 1153
31 1152
va 1152
provider 1152
lengths 1151
chosen 1150
whom 1150
ballet 1150
drains 1150
decanter 1150
avail 1149
steaming 1148
ging 1148
ts. 1148
spinning 1148
Germany 1147
jelly 1147
tier 1146
9-@@ 1145
overwhelming 1145
dots 1145
overheating 1144
ds@@ 1144
spo@@ 1143
hs 1143
wild 1143
distorted 1142
keychain 1142
titanium 1142
sonic 1142
plunger 1142
ent@@ 1142
two-@@ 1141
drawstring 1141
open@@ 1141
kers 1140
serial 1140
choosing 1140
jam 1140
sauces 1140
treble 1139
180 1139
life@@ 1139
exp@@ 1139
windy 1139
dly 1139
carpets 1138
hitch 1138
800@@ 1137
coolest 1137
mbps 1137
transfers 1137
pc@@ 1137
tint 1137
butterfly 1136
un-@@ 1136
navigation 1136
consuming 1136
twisted 1135
dd@@ 1135
beverages 1135
eats 1135
weighted 1135
backups 1134
lounging 1134
le.@@ 1134
shoes. 1133
item. 1133
o-@@ 1133
x-large 1133
34@@ 1132
Japanese 1132
video@@ 1132
enhance 1131
owl 1131
optics 1130
oily 1130
remaining 1130
presented 1130
diapers 1130
mel@@ 1129
frayed 1129
H@@ 1129
streaks 1128
documentation 1127
ence 1127
essentially 1127
mortar 1127
portions 1127
hard@@ 1127
invention 1127
growth 1127
region 1127
bee 1126
linen 1126
alternatives 1126
frustration 1126
ham 1126
heaven 1125
readily 1125
dissappointed 1125
Island 1125
partially 1124
needle 1124
race 1124
sive 1123
CB 1123
much. 1123
recieve 1122
knifes 1121
ess 1121
MS 1121
self-@@ 1121
brass 1121
frills 1120
particles 1120
do. 1120
collector 1120
percent 1120
concert 1120
ier 1119
fast. 1119
monopod 1118
Devil 1118
yea 1117
no-@@ 1117
layout 1117
0.@@ 1117
kenwood 1116
grand@@ 1116
pad@@ 1116
rat@@ 1116
complex 1116
htc 1116
bt 1116
convinced 1115
obsessed 1115
fighting 1115
binder 1115
tiempo 1114
cable@@ 1114
reviewing 1113
ip 1113
creams 1112
5.5 1111
ure 1111
cancelling 1111
represented 1111
break@@ 1111
3.5mm 1111
indicates 1110
ki 1110
t3i 1110
solves 1108
multi@@ 1108
jealous 1108
elegance 1108
woo@@ 1107
32gb 1106
resist 1106
sweeper 1106
flare 1106
III 1106
Canada 1106
owns 1105
é 1105
real@@ 1105
colander 1105
womens 1104
researching 1103
meeting 1103
undamaged 1103
theirs 1103
fire@@ 1103
beanie 1103
sliced 1102
rave 1102
seamless 1101
le. 1101
peeled 1101
Armour 1101
tro@@ 1101
Thinkpad 1101
popper 1101
fixing 1100
heartbeat 1100
kin 1100
browsing 1100
detachable 1099
Turtle 1099
reducing 1099
tur@@ 1099
canisters 1098
160 1098
bday 1098
softest 1097
scope 1097
ment.@@ 1097
backdrop 1097
seperate 1096
ators 1096
clasps 1096
39 1096
cri@@ 1096
screen@@ 1096
Co 1095
sirius 1095
additionally 1095
maneuver 1095
knot 1095
hunger 1095
7d 1094
brittle 1094
costing 1093
ba 1093
rips 1092
clear@@ 1092
bout 1092
hum 1092
porch 1092
pixels 1091
psp 1091
ga 1091
precision 1090
vel@@ 1090
kes 1088
Harry 1088
se. 1087
curvy 1087
definitly 1087
facial 1087
extends 1087
att@@ 1087
regards 1086
goo@@ 1086
ong 1086
citrus 1086
money.@@ 1086
calm 1086
mal@@ 1086
apc 1086
figuring 1085
mm@@ 1085
layering 1085
sters 1084
apparent 1084
earings 1084
seeds 1084
bad@@ 1084
dented 1084
lays 1083
shops 1083
teva 1082
recom@@ 1082
mAh 1082
smudges 1082
tb 1082
essentials 1081
heavily 1081
human 1080
pci 1080
decorations 1080
cedar 1080
cleats 1080
rush 1079
swing 1079
telephone 1079
roof 1078
wall@@ 1078
Tshirt 1078
suspenders 1078
roaster 1078
llego 1077
Ikea 1077
nt 1077
sx@@ 1077
unpleasant 1076
forms 1075
400@@ 1075
arthritic 1074
excellant 1073
excessive 1073
hea@@ 1073
booties 1073
traveled 1073
money@@ 1072
hunt 1072
trees 1072
sit@@ 1072
co-workers 1071
modest 1071
audiophile 1070
shampoo 1070
gl@@ 1070
y.it 1069
pencil 1069
itching 1068
scents 1068
wal@@ 1068
warms 1068
Oster 1068
stick@@ 1068
resolve 1067
angry 1067
It 1067
ep@@ 1067
sions 1067
humid 1067
g. 1067
tarnish 1067
nutrition 1067
fries 1067
scheme 1066
beginners 1066
net@@ 1066
dutch 1066
Eve 1066
rental 1066
pajama 1066
suffering 1065
steep 1065
napkin 1065
moments 1065
NY 1064
entertaining 1064
tt 1064
ben@@ 1063
altogether 1063
splash 1063
brushing 1063
sleeper 1063
rubbery 1062
sty@@ 1062
220 1061
non@@ 1060
rusting 1060
s4 1060
chord 1059
ches 1059
tv@@ 1059
Bissell 1058
ery 1058
see-through 1058
rec 1058
doctors 1058
eli@@ 1057
usefull 1057
disappear 1057
right@@ 1057
bananas 1056
crashed 1056
a.@@ 1056
ban@@ 1055
now@@ 1055
nope 1055
35@@ 1055
worthwhile 1055
clippers 1055
retain 1055
improves 1055
sling 1055
krups 1055
exposure 1054
nice.@@ 1054
engine 1054
spandex 1054
aftertaste 1054
adequately 1053
lounge 1053
luxury 1053
Alaska 1052
eas@@ 1052
combine 1051
camara 1051
rs 1051
vehicles 1050
i-@@ 1050
tomato 1050
12v 1050
acting 1050
glance 1050
ger@@ 1049
touch@@ 1049
hookup 1048
but@@ 1048
collecting 1048
98 1048
burgundy 1048
citizen 1048
boobs 1047
magellan 1047
HR 1047
teach 1046
bil@@ 1046
om@@ 1046
panels 1046
nude 1045
Crew 1045
big@@ 1045
tremendous 1045
suggestions 1045
mediocre 1044
bezel 1043
droid 1043
mc@@ 1043
desert 1043
caffeine 1043
kidding 1043
ir 1042
hype 1042
hel@@ 1042
capris 1042
.we 1042
visiting 1042
stacked 1042
pairing 1042
cleared 1042
amazon.@@ 1041
happening 1041
purchase. 1040
vegan 1040
strawberry 1039
tarnished 1039
4.5 1039
gg@@ 1039
ld 1038
good.I 1038
rendering 1037
ati@@ 1037
slee@@ 1037
earpiece 1037
England 1037
tracks 1036
conventional 1036
informed 1036
dic@@ 1035
zz@@ 1035
slimmer 1035
recommends 1034
modes 1034
assist 1034
heft 1033
merchant 1032
2006 1032
blame 1032
yeast 1032
flavored 1032
talked 1032
klipsch 1032
shall 1031
， 1031
tremendously 1031
verizon 1031
eri@@ 1030
ra 1030
d-link 1030
ving 1030
them.I 1030
floating 1030
otter 1030
lousy 1029
crash 1029
sprayed 1029
plans 1029
int 1028
fabrics 1028
tea@@ 1028
night@@ 1028
36@@ 1028
grainy 1027
quick@@ 1027
iPhones 1027
cutlery 1027
liver 1027
tightened 1026
flights 1026
magazine 1026
drinker 1026
1x 1026
HEPA 1026
vendors 1025
history 1025
prefers 1025
more. 1025
NYC 1024
set@@ 1024
ess@@ 1023
depicted 1023
fi 1023
eliminated 1023
treated 1022
leftovers 1022
February 1022
advance 1022
markings 1022
homework 1022
dusty 1021
top@@ 1021
functioned 1021
dot 1020
ob@@ 1020
\ 1020
1gb 1020
latex 1020
clamps 1019
sdhc 1019
140 1019
minecraft 1019
itis 1018
settled 1018
license 1018
se.@@ 1018
absorbs 1018
11.5 1018
detect 1018
sketchers 1018
greens 1017
bb@@ 1017
orthotics 1017
gladly 1017
toward 1017
newest 1016
zi@@ 1016
camera. 1016
smashed 1016
effectiveness 1016
gal 1016
rotation 1016
touches 1015
htpc 1015
semi 1015
fatigue 1015
ny 1015
alpine 1015
object 1015
faucet 1015
infection 1014
critical 1014
oval 1014
promises 1013
ely 1013
stink 1013
waking 1013
challenging 1013
directv 1013
sprays 1013
fied 1013
purchase.@@ 1012
focusing 1012
Marine 1012
NB 1011
Decker 1011
bueno 1010
50mm 1010
photograph 1010
longest 1010
Saturday 1010
mailed 1010
int@@ 1009
-in 1009
gluten 1009
hoops 1009
inconvenience 1008
tw@@ 1008
compares 1008
um@@ 1008
reboot 1007
ion 1007
truth 1007
reply 1007
month@@ 1007
GE 1007
beast 1007
anti@@ 1006
pastry 1006
flame 1005
mission 1005
4X 1005
rent 1004
discover 1004
stinks 1004
default 1004
l.@@ 1004
condoms 1004
taped 1003
size@@ 1003
boxed 1003
fishy 1003
recliner 1003
skagen 1003
divider 1003
jbl 1002
ali@@ 1001
utilize 1000
magnification 1000
leads 999
-free 999
coins 999
.for 999
.They 999
unfortunate 998
breakage 998
gels 998
ser 998
show@@ 998
irritated 997
whoever 997
lighted 997
satisfying 997
inseam 997
alternate 997
score 997
reaches 997
charge@@ 997
necessarily 996
experiences 996
remarkable 996
prescribed 996
desire 996
slo@@ 996
patients 996
close@@ 996
continuously 996
auto@@ 995
marathon 995
ace 995
ders 995
scrape 994
dy@@ 994
doubts 994
John 994
cro@@ 994
closest 994
vertically 994
infant 994
o.@@ 993
bins 993
lat@@ 992
cer@@ 992
ubuntu 992
v-@@ 991
messing 990
cancel 990
successful 990
ct 990
.......... 989
woofer 988
bakes 988
packet 988
painless 987
modify 987
reaching 987
cisco 987
other@@ 987
assembling 987
ko@@ 987
Fiesta 987
rubberized 986
vers 986
flu 986
canceling 986
spa 985
ell 985
chin 985
quietly 984
buy@@ 984
65@@ 984
retailers 984
better. 984
amazon 983
soaked 983
ideas 983
hair@@ 983
table@@ 983
b-@@ 983
rope 983
Sam 982
walkman 982
don@@ 981
coby 981
CA 980
fog 980
fitness 979
hoop 979
newly 978
compra 978
chopper 978
even@@ 977
ugh 977
bough 977
deciding 977
gaudy 977
grilling 977
snow@@ 976
doubles 976
fellow 976
India 976
thx 976
springs 976
toxic 975
ey@@ 975
artist 974
supple 974
overhead 974
medi@@ 974
stripped 973
roughly 973
cocktail 973
recordings 973
ze@@ 972
stuffing 972
45@@ 970
dessert 970
sw@@ 969
lesser 969
enabled 969
sweats 969
preventing 969
alarms 969
.these 968
cartridge 968
uni@@ 968
cave 967
depend 966
contacting 966
gtx 966
di 966
store@@ 965
to. 965
decorated 965
repeatedly 965
pul@@ 965
Jet 965
ized 965
pushes 965
plants 965
ng 965
tunes 964
rhinestones 964
dissolve 964
bolt 963
ton@@ 963
itt@@ 963
trimming 963
awesome. 963
bitter 963
achieve 962
order@@ 962
ingredient 962
negatives 962
e-mail 961
dea@@ 961
week@@ 961
routers 961
vacuuming 961
spins 961
clean-up 961
assistance 960
stating 960
supposedly 960
works. 960
science 959
00 959
cheap. 959
oral 959
kicks 959
whip 958
see@@ 958
back. 958
siz@@ 958
comb 958
exclusively 957
gt 957
sealing 957
IMO 957
bookshelf 957
doubled 956
.its 956
angled 956
clicks 956
long@@ 956
sim 956
watch. 955
al.@@ 955
experiencing 955
disconnected 954
restart 954
5-6 954
though. 953
ore 953
grams 953
ro 953
dockers 953
pickup 952
sr@@ 952
messenger 952
contemporary 951
corrected 951
6th 951
melting 951
conveniently 951
carrots 951
patent 950
ed.i 950
pping 950
darling 950
unbelievably 949
intake 949
bulkier 949
stoppers 949
relieved 948
duo 948
treating 948
warm@@ 948
pours 948
recharged 948
52 948
Potter 948
.5 947
carry-on 947
house@@ 947
permanently 947
integrated 947
dashboard 947
acne 947
smelly 946
September 946
suffered 946
rollers 946
tight@@ 945
ell@@ 945
boiled 944
kin@@ 944
catcher 944
angel 944
bro@@ 943
Amber 943
conversion 943
sharing 943
corkscrew 943
corelle 943
York 942
ately 942
horribly 942
fir 941
lodge 941
st. 941
cinnamon 941
scoops 941
lanyard 941
sporting 941
vo 940
weave 940
review@@ 939
re-order 939
tanks 939
backlight 939
mini@@ 939
blind 939
knowledge 939
UGGS 939
mason 939
sensation 938
anker 938
supporting 938
reliably 938
softener 938
braces 938
voila 937
function@@ 937
adores 937
port@@ 937
9.00 937
impress 936
jumping 935
ation. 935
positioned 935
e.the 935
LEDs 935
ok. 935
fore@@ 935
teens 935
nifty 935
Contour 934
described. 934
lettering 934
gloss 934
kudos 933
mah 933
arent 933
counts 933
tightening 933
grapefruit 933
undies 933
dip 933
showers 932
stri@@ 932
needed. 932
inserting 932
gems 932
bul@@ 932
sec@@ 932
hug 932
cosplay 931
struggling 931
lly 931
tran@@ 931
meetings 931
harm 930
e.it 930
interest 930
.love 930
tangle 930
meters 930
exciting 930
creases 929
sec 929
flashing 929
low@@ 929
sor@@ 929
ach@@ 929
Paperwhite 929
probe 929
nickel 928
secondary 928
lies 928
anxiety 928
be. 928
le-@@ 927
ah 927
material@@ 927
ly-@@ 927
doll 927
dump 927
tuning 927
candle 926
tors 926
understanding 926
spaghetti 926
sat@@ 925
outputs 925
jerky 925
speck 925
appropriately 924
off-@@ 924
fewer 924
ultimately 924
loaves 924
dumb 923
fo 922
wed 922
dive 922
rates 922
all-@@ 922
bodum 922
speaking 922
person@@ 922
scales 922
unacceptable 921
fasten 921
underwire 921
beautiful@@ 920
paring 920
ads 920
ise 920
infections 920
esata 920
for.@@ 919
tal 919
paperwork 919
camera@@ 919
powders 919
hd 919
onion 919
leading 919
l. 918
embroidery 918
dan@@ 918
champagne 918
pause 917
sparkling 917
k.@@ 917
theyre 917
hotter 917
spares 917
n-@@ 917
crush 917
youth 916
clogged 916
recycle 916
Thomas 916
pped 915
freedom 915
reebok 915
unreliable 914
22@@ 914
bows 914
coast 913
mids 913
ation@@ 913
genius 913
Italian 913
trails 912
defin@@ 912
remained 912
cartridges 911
oper@@ 911
fy 911
tec@@ 911
to-@@ 911
non-slip 911
locket 911
reci@@ 910
gracias 910
heals 909
nightmare 909
low-@@ 909
gigs 909
coupon 909
.overall 909
curious 908
monthly 908
buzzing 908
medications 908
id@@ 908
chan@@ 907
presentations 907
vit@@ 907
leakage 907
perfec@@ 906
hefty 906
.only 906
hearts 906
sewed 906
decrease 905
wil@@ 905
junior 905
sudden 904
shared 904
thing@@ 904
stic@@ 904
cin@@ 904
spinner 904
judge 903
industrial 903
controlled 903
3000 903
gravy 903
compaq 902
twelve 902
lifesaver 901
align 901
tender 901
sponges 901
me.I 901
pain@@ 901
stopping 901
enable 901
ple 901
case.@@ 901
hugs 901
marble 901
vey 901
soaking 901
backed 901
stiffer 901
pavilion 901
corks 901
----@@ 900
guards 900
lame 900
comfortable@@ 900
glides 900
break-in 900
mhz 900
fue 899
dimension 899
embarrassed 899
cells 899
rotates 899
st.@@ 898
remedy 898
brothers 898
spirit 898
box. 898
gifted 898
i7 898
portraits 897
unused 897
witch 897
lifts 897
burgers 897
time.I 897
nieces 897
released 896
grooves 896
seed 896
straightforward 896
surf 896
precisely 896
44 896
menus 895
case@@ 895
deal@@ 895
identify 895
alike 895
mittens 895
pouches 894
tho@@ 893
av@@ 893
sideways 893
72 893
much@@ 893
recycling 893
sol@@ 893
alas 893
sessions 892
status 892
spr@@ 892
textured 892
job@@ 891
debris 890
conference 890
Vegas 890
bun@@ 890
dressier 890
fic@@ 889
hot@@ 889
extensive 889
favors 889
ats 889
runners 888
communicate 888
slimming 888
websites 888
overheat 887
scam 887
horn 887
blu@@ 887
weight@@ 887
bleed 886
ts@@ 886
moms 886
4-6 885
crowd 885
care@@ 885
module 885
alive 885
problem.@@ 885
breads 884
purchase@@ 884
buzz 884
ite@@ 883
clearance 883
artwork 883
booklet 883
problem@@ 883
limits 883
producing 883
mobo 883
adapt 882
manly 882
ire 882
reminder 882
shears 881
accidently 881
introduced 881
75@@ 881
preparing 880
enables 880
fuzz 880
breville 880
detected 879
majority 879
2t 879
1000@@ 879
ang@@ 879
rockport 879
shaking 878
cargo 878
goal 878
planet 878
co-worker 878
wan@@ 877
ele@@ 877
Norelco 877
nit@@ 877
skiing 877
openers 877
Sears 876
bathrooms 876
za 876
refer 876
mustache 876
ka 876
brake 876
aligned 875
skins 875
cabin 875
neckline 875
nex 875
tely 875
explained 875
remotely 875
weekends 875
cheers 875
scuff 874
bed@@ 874
less@@ 874
frankly 874
physically 874
pillowcase 874
sing@@ 874
manfrotto 874
plastic@@ 873
there@@ 873
pharmacy 873
.however 873
crucial 873
attempting 873
mental 873
zipped 873
central 873
anti-glare 873
recover 872
card@@ 872
troubles 872
--and 872
fuller 872
ain 872
manageable 872
downstairs 872
GPU 871
colds 871
strapless 871
ottoman 871
lon@@ 870
froze 870
qt 870
disabled 870
tent 870
prize 870
repairs 869
shu@@ 869
excellently 869
yep 869
geek 869
scary 869
mountains 869
dedicated 868
bomb 868
basics 868
airflow 868
pillowcases 868
unwanted 868
aqua 867
twins 867
stepped 867
crumbs 867
expansion 867
rer 867
khaki 866
San 866
cellphone 866
fiancé 866
retired 866
-it 865
tailored 865
birth 865
transmit 865
transition 865
spec@@ 864
ds.@@ 864
better.@@ 864
yr. 864
woven 864
cloudy 864
blazer 864
vacuums 864
calvin 864
rel@@ 863
seeking 863
anchor 863
connec@@ 863
sturdiness 863
ines 863
berries 862
38@@ 862
--the 862
hy@@ 862
amaz@@ 862
viewfinder 862
boils 861
improvements 861
crispy 861
al-@@ 860
comfor@@ 860
hobby 860
smo@@ 860
cup@@ 859
delight 859
71 859
drilled 859
bre@@ 859
composite 859
Jersey 859
gal@@ 859
earplugs 859
pyle 858
ban 858
scar@@ 858
right. 858
industry 858
pair@@ 857
folders 857
better@@ 857
dings 857
dear 857
toasts 857
Tide 857
wrangler 856
dj 856
bleeding 856
again@@ 856
lion 856
zips 856
sinks 856
i-pod 855
fix@@ 855
bit@@ 855
700@@ 855
bagels 855
lee 854
Gillette 854
brand@@ 854
diff@@ 854
symbol 854
wire@@ 854
mobility 854
foot@@ 853
ry@@ 853
bio@@ 853
ities 852
though@@ 852
spite 852
mucho 852
prom 852
this.@@ 851
former 851
aching 850
errands 850
German 849
pyrex 849
recommendations 849
fs 849
job. 849
juices 849
tattoo 849
herb 849
deer 848
2005 848
passes 848
frother 848
maintains 848
glo@@ 848
POS 847
clu@@ 847
ing.the 847
item@@ 847
valve 847
,@@ 847
b00@@ 846
O.K. 846
simpler 846
experiment 845
18-@@ 845
freaking 845
whi@@ 845
mono 845
sil@@ 845
U.S. 844
y- 844
tion.@@ 844
27@@ 844
resulting 844
porcelain 844
timers 844
Polar 844
ful@@ 843
deserve 843
bites 842
.highly 842
magnifying 842
quad 842
continually 842
polaroid 842
ventilation 842
mineral 842
xoom 842
tunnel 841
bedtime 841
frosting 841
have@@ 841
dc@@ 841
cleanse 840
easily.@@ 840
rebate 840
xps 840
broad 840
rf 839
ars 839
birthstone 838
hollow 838
halfway 838
disgusting 838
friction 838
whites 837
allot 837
farm 837
creamy 837
acc@@ 837
shifts 837
ple@@ 837
posture 837
fulfilled 837
tiene 836
associated 836
ut 836
quantities 836
hilarious 835
prove 835
rods 835
atleast 834
receivers 834
aesthetically 834
ale 834
shells 833
mattresses 833
1. 833
swell 833
unobtrusive 833
fusion 833
sushi 833
er-@@ 832
720p 832
toyota 832
transporting 832
ada 832
recommed 831
loom 831
smoker 831
river 831
pointy 831
fireplace 831
must-have 830
defeats 830
ari@@ 830
dinnerware 830
qualities 830
ality 830
lers 830
ds. 830
use.I 829
battery.@@ 829
logic 829
ipad@@ 829
125 828
.just 828
decades 828
flat@@ 828
reloj 828
spec 828
dro@@ 828
seamlessly 828
pper 827
pliable 827
lingerie 827
dsl 826
attic 826
K@@ 826
nvidia 826
stamped 826
roasting 826
shoes.@@ 825
ering 825
thank@@ 825
engraved 825
Raid 825
litter 824
pork 824
solutions 824
chipping 824
feature@@ 824
undershirt 824
obtain 823
Ninja 823
half-@@ 823
suffers 823
envy 822
digging 822
properties 821
scotch 821
fifth 820
8-10 820
theory 820
vac@@ 820
disease 819
approved 819
DD 819
pit 819
solder 818
diving 818
travel@@ 818
boombox 817
teas 817
habit 817
flag 817
Eureka 817
terry 817
Mike 816
climbing 816
killer 816
sheds 816
a. 815
detached 815
tab@@ 815
sister-in-law 815
om 815
lithium 814
Afghanistan 814
cling 813
incase 813
sheen 813
advertised. 813
model@@ 813
category 813
toasting 813
rapidly 812
effortlessly 812
10x 812
wedges 812
vents 812
wind@@ 811
uniden 811
Elite 811
armor 811
.works 811
plantronics 811
wheelchair 810
ted.@@ 810
coworkers 810
free@@ 810
kicker 810
lettuce 810
span 809
ck 809
dir@@ 809
tidy 809
annoyed 809
microsd 809
sealer 809
Facebook 808
that. 808
muddy 808
lamps 808
tumbler 808
sword 808
engineering 807
20.00 807
buy. 807
peice 807
mag@@ 807
grilled 807
absolutly 807
answered 807
police 807
mix@@ 807
shorted 806
gy@@ 806
dome 806
dlp 806
respect 805
chea@@ 805
bathtub 805
Eee 805
recomment 805
airy 805
counters 805
refuses 805
recall 805
crea@@ 805
compost 805
ges 804
shrinking 804
.she 804
lemons 804
skullcandy 804
tion. 804
far. 804
theatre 804
bookcase 804
neighborhood 804
accidental 804
pres@@ 804
3M 804
patty 804
soaps 803
gift. 803
she@@ 803
3. 803
mid@@ 803
daylight 803
quickly.@@ 802
ine@@ 802
flips 802
pliers 802
tissues 802
mildew 802
shoe@@ 801
3T 801
photographers 801
endless 801
herbal 800
ppy 800
trackpad 800
counter@@ 800
Keens 800
http 799
stre@@ 799
Mega 799
shelving 799
tun@@ 799
probiotics 799
after@@ 798
airline 798
MP 798
brooks 798
tumblers 798
telephoto 797
.will 797
t- 797
lec@@ 797
faint 797
hikes 796
van@@ 796
Coral 796
messages 796
fur@@ 796
ght 796
password 796
hunter 795
visually 795
pilot 795
recycled 794
tos 794
feel@@ 794
goodwill 794
enthusiast 794
Starbucks 794
60d 794
win7 794
mute 794
whitening 794
problems. 793
noticable 793
wheat 793
zes 793
bee@@ 793
float 792
s.very 792
changer 792
migraines 792
draining 792
rests 791
oddly 791
scented 791
audible 791
reflective 790
haul 790
shape@@ 789
cashmere 789
Hamilton 789
fray 788
laptop. 788
tar 788
taupe 787
mis 787
packag@@ 787
thermostat 787
timepiece 786
photographs 786
item.@@ 785
tra 785
gaps 785
brews 785
jumped 785
roommate 785
Deluxe 785
Boston 784
George 784
years. 784
chil@@ 784
41 784
ssi@@ 784
dre@@ 783
steaks 783
5s 783
log 783
pineapple 783
scrubber 783
codes 783
lunchbox 783
rusty 782
consideration 782
max@@ 782
rt 782
speci@@ 781
5.00 781
burst 780
dials 780
activate 780
sigma 780
jockey 780
privacy 780
nicks 779
band@@ 779
fades 779
muted 779
honor 779
bor@@ 779
sores 778
refuse 778
cinch 778
yer 778
sapphire 778
mitts 778
border 778
Q 778
pers 778
ck@@ 777
prob@@ 777
sky@@ 777
ticking 777
candles 777
thousands 777
tempted 777
cute. 777
london 777
ev@@ 777
earned 776
ken@@ 776
justify 776
thunderbolt 776
fond 775
prob 775
ently 775
surpassed 775
wifes 775
epson 775
Creuset 775
shy 775
sco@@ 775
skillets 774
blocked 774
perfume 774
parent 774
high-end 774
wobble 774
lac@@ 774
messes 774
fuel 774
reciever 774
reef 774
processed 774
vaio 774
supp@@ 774
beater 774
arm@@ 773
protec@@ 773
hor@@ 772
Egyptian 772
tolerate 772
photoshop 772
4t 772
adhere 772
T 772
persons 772
expandable 772
lug 772
ment. 771
positioning 771
Sunbeam 771
fies 771
computer@@ 771
thick@@ 771
command 771
oatmeal 770
ick 770
foo@@ 770
stinky 770
swi@@ 770
aspects 770
servings 770
d7000 770
.easy 770
iam 770
reinforced 769
also@@ 769
chy 769
thirty 769
formed 769
years.@@ 768
encourage 768
chat 768
accidents 768
advertised.@@ 768
discolored 768
houses 768
croc 768
ize 768
ee 768
digestion 767
transferred 767
tter 767
TV. 766
appeal 766
uncle 766
problems.@@ 766
wearer 766
bind 766
6-8 766
mess@@ 765
ht 765
it- 765
cardigan 765
shipp@@ 765
7.1 765
serrated 765
wonderful@@ 765
chee@@ 764
hardest 764
confirm 764
floral 764
1tb 764
........... 764
burners 764
plac@@ 764
condensation 764
sca@@ 764
whereas 763
fence 763
criticism 763
optional 763
pendants 763
macs 763
shorten 763
ber 763
chalky 763
ner@@ 762
47 762
ball@@ 762
bacteria 762
zagg 762
root 762
fluff 762
sag 761
spouse 761
displaying 761
10.00 761
snoring 761
contrary 761
nearby 761
isolation 761
Macy 760
dime 760
easily. 760
chore 760
converted 760
rocket 760
casually 760
folder 760
relatives 759
dripping 759
rescue 759
griffin 759
descriptions 759
produc@@ 759
collapse 758
terrain 758
lifestyle 758
w. 758
tossing 758
filler 758
bat 758
sand@@ 758
bumped 758
clipper 758
oldest 758
swollen 757
downloads 757
gummy 757
diabetes 756
hopeful 756
savvy 755
gigabit 755
writer 754
gro@@ 754
affected 754
amazing. 754
engineered 754
grid 754
dress@@ 754
swivels 754
maintaining 753
mailing 753
fraying 753
pulse 753
blinking 753
increases 753
Umbrellas 753
backyard 752
U@@ 752
rechargable 752
Tiger 752
barrel 752
faced 752
fe 752
Venezuela 751
personality 751
broadcast 751
subscription 751
ghost 751
issued 751
er.i 751
slider 751
ought 751
relieves 751
550 750
freely 750
D. 750
discreet 750
spikes 750
cleanly 750
tortillas 750
onal 749
swears 749
ironed 749
headbands 749
formats 748
mans 748
clay 748
dozens 748
hassles 748
suggests 748
steve 748
garments 748
V@@ 747
fav 747
poke 747
customize 747
accordingly 747
Tungsten 747
reli@@ 747
flaps 746
anxious 746
competitors 746
throws 746
fra@@ 746
bag. 746
screw@@ 745
daughter@@ 745
bothers 745
gathering 745
in-ear 745
stic 745
interchangeable 745
submit 745
dou@@ 745
neck@@ 745
struggled 745
works.@@ 744
glassware 744
vin@@ 744
girlfriends 744
stirring 744
programmed 744
targus 744
legit 743
movements 743
circular 743
unplugging 743
strawberries 743
cute@@ 743
2x@@ 743
vet 743
needed.@@ 743
charger@@ 742
beneficial 742
separating 742
presses 742
nozzle 742
jim 742
gigabyte 742
eco 741
monitoring 741
noodles 741
s.great 740
lap@@ 740
masks 740
countries 740
cravings 740
futon 740
Oreck 740
perfecto 739
backpacks 739
D3 739
Fl 738
comfortable.I 738
crease 738
nightstand 738
apprehensive 738
oned 737
teaching 737
bly 737
handful 737
gy 737
ened 737
turner 737
monkey 737
scar 736
cami 736
inten@@ 736
refresh 736
clipped 736
hiding 736
whim 735
lego 735
cement 735
dre 735
it`s 735
heavy-duty 735
zer 735
finest 734
minimalist 734
leather@@ 734
projection 734
carb 734
soundbar 734
ply 734
peels 734
skills 734
onesies 734
barn 733
lou@@ 733
ced 733
detailing 733
staining 733
t2i 733
ening 733
horizontally 733
ow@@ 733
flipping 733
scraping 733
potty 733
flows 732
Colorado 732
waisted 732
add-on 732
cz 732
cobra 731
able.@@ 731
pancake 731
you. 731
grinders 731
wiped 731
accomodate 730
XD 730
door@@ 730
cage 730
replica 730
stuffers 730
garter 730
disc@@ 730
in.@@ 729
killing 729
pixel 729
borrowed 729
very@@ 729
stitch 729
scene 729
pride 729
ited 729
stripe 729
sch@@ 728
wee 728
poured 728
reflect 728
ack 728
dud 728
ku@@ 728
vari@@ 728
wn@@ 728
onic 727
green@@ 727
watchband 727
quality.I 727
deci@@ 727
perfect@@ 726
problem. 726
snowy 726
albums 726
coupled 726
trunks 726
ssed 725
CPAP 725
rpm 725
trainer 725
instructed 724
fresher 724
BPA 724
toothbrushes 724
replaceable 724
filtered 724
big. 723
vic@@ 723
goodies 723
playstation 723
condo 723
holster 723
shin 722
beep 722
considerable 721
vibrator 721
adventure 721
homes 721
wrench 721
USPS 720
unisex 720
alo@@ 720
os@@ 720
shoddy 720
scraper 720
h-@@ 720
ita 720
calendar 720
kors 720
yet. 719
pierced 719
priceless 719
froth 719
white@@ 719
tying 719
cheerful 719
flash@@ 718
enhances 718
picnic 718
probiotic 718
pinky 718
e.g. 717
lbs. 717
guaranteed 717
wear. 717
viewed 717
cushiony 717
language 717
becuase 717
650 717
jam@@ 717
before@@ 716
excuse 716
rocking 716
mother@@ 716
snake 715
outdated 715
effortless 715
inaccurate 715
denon 715
lubricant 715
stiffness 715
accepted 715
owls 715
clue 714
DIY 714
partial 714
ory 714
Mary 714
mend 713
muscular 713
mbp 713
750 713
pil@@ 713
passing 713
yet@@ 713
vol@@ 713
Duracell 713
quickly. 712
ho 712
receives 712
understated 712
coo@@ 712
develop 712
snags 712
hasnt 712
supper 712
sli 712
lacie 712
ambient 711
filtering 711
formatted 711
cooktop 711
Sonicare 711
curb 711
verbatim 711
ointment 710
surrounding 710
skin@@ 710
tonight 710
moderately 710
pa 710
pointer 710
opaque 709
compromise 709
exist 709
ter. 709
twisting 709
gran@@ 709
demand 709
love@@ 708
reputable 708
wondered 708
é@@ 708
detach 707
sp 707
sack 707
indiglo 707
phone@@ 707
locker 707
43 707
affects 706
tis 706
intermittent 706
glu@@ 706
esp 706
ruining 706
builds 706
buffet 706
99@@ 706
240 706
sis 706
horses 706
poo@@ 705
oak 705
shinny 705
woke 705
w-@@ 705
draws 705
reminded 705
calibration 705
splitting 705
tha 705
mus@@ 704
laughs 704
France 704
shutting 704
pig 704
winder 704
wiping 704
drive@@ 704
brownies 704
focused 703
material. 703
thier 703
.cons 703
by@@ 703
wanted. 703
boo 702
destroy 702
tics 702
dates 702
auto-@@ 702
wat@@ 702
disa@@ 702
straining 702
good-looking 702
settle 702
2XL 702
RECIVED 701
winds 701
warp 701
Vera 701
frequencies 701
differences 700
stitches 700
15.6 700
enamel 700
boy@@ 700
stab@@ 700
level@@ 700
bridesmaids 700
fro 700
ue 700
IV 700
leg@@ 700
restore 700
memorex 700
blending 700
ity.@@ 699
kee@@ 699
cher 699
fanatic 699
unscrew 699
session 699
7th 698
coun@@ 698
system@@ 698
fer 698
coil 698
speaker@@ 698
2004 698
magnifier 698
glitches 698
transit 698
nap 698
platinum 698
lan@@ 698
scuffed 697
restaurants 697
PA 697
progress 697
nuff 697
goo 697
bled 697
shrank 697
comple@@ 696
bound 696
advertises 696
teenagers 696
ps2 696
ring@@ 696
seating 696
tees 695
way@@ 695
form@@ 695
5x 695
delete 695
tures 695
wusthof 695
volts 695
que@@ 694
stor@@ 694
tutu 694
Energizer 694
oz. 694
whit 693
coupons 693
ultrabook 693
begun 692
enhanced 692
ridges 692
definatly 692
fel@@ 692
dra@@ 692
reflection 692
nutrients 692
tv 692
frye 692
weighing 692
hz 691
incorrectly 691
clouds 691
substance 691
gears 691
engineer 690
juicing 690
efficiency 690
oranges 690
centered 690
distracting 690
days. 690
zy 690
dude 689
plat@@ 689
450 689
fiancee 689
bento 689
private 688
SS 688
BOB 688
wishes 688
minerals 688
mt 688
paper@@ 688
filming 688
Alpha 687
Shure 687
large@@ 687
instrument 687
cancellation 687
reproduction 687
roll@@ 687
labeling 687
ladle 687
fabric@@ 687
snorkeling 687
striking 686
tolerable 686
melts 686
named 686
pays 686
you.@@ 686
wirelessly 686
wha@@ 686
ef@@ 686
rectangular 686
variable 686
updating 686
UGG 686
footed 686
chops 686
wrist@@ 686
outcome 685
caveat 685
delightful 685
ch. 685
thy 685
--but 685
trek 685
g-shock 685
cen@@ 684
loosened 684
ya@@ 684
fee@@ 684
thorough 684
needles 683
pix 683
stevia 683
thanx 682
24-@@ 682
delivering 682
sausage 682
reluctant 682
trans@@ 682
sturdy. 682
ginger 682
sou@@ 681
nex@@ 681
puffy 681
hand-@@ 681
hall 681
neice 681
shar@@ 680
din@@ 680
threaded 680
awesome@@ 679
stro@@ 679
hal@@ 679
blue@@ 679
flatter 679
Superman 679
е@@ 679
curl 679
bir@@ 679
mejor 678
manu@@ 678
knockoff 678
devise 678
Staples 678
20-@@ 678
AFRICA 678
compass 678
youngest 678
unknown 678
minnie 678
soreness 678
underside 677
verify 677
ko 677
pho@@ 677
configured 677
bles 677
able. 677
paddle 677
fixes 676
full-@@ 676
35mm 676
-sized 676
gener@@ 676
install. 676
stroke 676
28@@ 676
duration 676
miele 676
grating 676
controllers 676
cookbook 676
drugs 675
120@@ 675
fol@@ 675
soldering 675
practic@@ 675
ances 674
than@@ 674
coach 674
idk 674
veggie 674
lightscribe 674
,000 673
counting 673
wit 673
bodies 673
echo 673
periodically 673
swallowing 673
spi@@ 673
wick 673
2003 672
trap 672
cheapo 672
26@@ 672
anticipate 672
tubing 672
praise 672
d5100 671
vaccum 671
class@@ 671
fussy 671
assorted 671
mal 671
luster 671
waxing 671
st-@@ 671
ken 670
retains 670
ignore 670
direc@@ 670
But 670
marker 670
daddy 670
tipping 670
cott@@ 670
accomplished 670
sufficiently 670
dispense 670
engraving 670
moisturizer 669
bud@@ 669
blessing 669
bunion 669
.99 669
jammed 669
comfortab@@ 669
cit@@ 669
parchment 669
Wacom 669
sq 668
durable. 668
io 668
ound 668
particle 668
Harmony 668
pleas@@ 668
crossed 667
exchanging 667
x-mas 667
dia@@ 667
seldom 667
fying 667
aa@@ 667
altered 667
help@@ 667
irons 667
clean. 667
blended 666
believed 666
crashes 666
flies 666
jewels 666
vendedor 666
i-pad 666
ihome 666
paris 666
threading 666
Garcinia 666
portfolio 666
ica 665
BORROW 665
controlling 665
technically 665
ml 665
readable 665
begins 665
cia 665
soft@@ 664
hour@@ 664
Joe 664
о@@ 664
remembered 663
room. 663
lab@@ 663
stacking 663
dense 663
carbs 663
kie 663
awake 663
bow@@ 663
buil@@ 663
disposal 662
rac@@ 662
arduino 662
30-@@ 662
se-@@ 662
64@@ 662
37@@ 662
fujifilm 662
msi 662
foscam 662
famous 661
manipulate 661
inconsistent 661
SOOOOOO 661
15-@@ 661
thousand 661
cal 661
jug 661
ven 661
stole 661
ó 661
presto 661
elephant 661
sinuses 661
parking 660
suite 660
recei@@ 660
chances 660
ran@@ 660
alex 660
cutouts 660
lightening 660
Martini 660
sound. 659
imperfections 659
hazard 659
repeater 659
embarrassing 659
sharpened 659
blo@@ 658
xt 658
nee@@ 658
destination 658
breathes 658
killed 658
d3100 658
off.@@ 657
chili 657
ing.it 657
finer 657
chewable 657
weddings 656
seemingly 656
nephews 656
specialty 656
firmer 656
last@@ 656
etc@@ 656
trimmed 656
reflux 656
circles 655
ourselves 655
preserve 655
ets 655
printers 655
antly 655
lic 655
enormous 655
double-@@ 655
bicycle 655
sla@@ 655
applicator 655
thes 654
pea@@ 654
retrieve 654
noticing 654
madden 654
squishy 654
cle@@ 653
inspection 653
wa 653
hotels 653
heading 653
addicted 653
feeding 653
snap@@ 653
и@@ 653
mouthwash 653
grout 652
M. 652
discharge 652
roads 652
reason@@ 652
pinched 652
speaks 652
wary 652
enought 651
chilled 651
indication 651
de-@@ 651
minimize 651
duplicate 651
laminate 651
grippy 651
stylist 651
St. 651
nabi 651
convection 651
labor 650
set. 650
tting 650
brewer 650
sends 650
chevy 650
skipping 650
2.8 650
cheap@@ 650
magazines 650
distribution 650
slate 650
def. 650
.1 650
stea@@ 650
puppies 649
transmission 649
ip@@ 649
oo 649
stamp 649
J@@ 649
rail 648
intermittently 648
effec@@ 648
computer. 648
kenneth 648
walk@@ 648
floor@@ 648
d--@@ 648
wea@@ 647
speedo 647
ere 647
sound.@@ 647
Henckels 647
away. 647
plug-in 647
rag 647
discounted 647
canned 647
mitsubishi 647
tropical 647
notebooks 647
Champion 647
estimate 647
powdered 646
backpacking 646
decreased 646
farberware 646
potent 646
elasticity 646
zombie 646
42@@ 646
whiskey 646
part@@ 646
humming 646
cost@@ 645
forming 645
attract 645
bowling 645
agreed 645
confirmed 645
browser 645
lexar 645
nerve 644
ham@@ 644
proudly 644
wishing 644
mixture 644
seasoning 644
reordering 644
marketing 644
shoe. 644
sequins 644
writes 644
bravia 644
exac@@ 644
mers 643
extensively 643
dramatically 643
hue 643
worker 643
winding 643
ap 642
recharges 642
expanded 642
index 642
loafers 642
descent 642
11.@@ 642
countless 642
ii 642
road@@ 641
ly.i 641
Venue 641
sam@@ 641
6ft 641
thanks. 640
cosmetic 640
ecstatic 640
tipped 640
dee@@ 640
inflammation 640
ARISES 639
questionable 639
euro 639
metals 639
sus 639
dor@@ 639
gin@@ 639
.other 639
Fathers 639
wattage 639
decals 639
fir@@ 638
kicking 638
sni@@ 638
asset 638
dissolves 638
MARKERS 638
chores 638
Sox 637
tour 637
chiropractor 637
d90 637
sock@@ 637
shedding 637
cooled 637
á@@ 637
ach 637
days.@@ 637
press@@ 637
bandages 637
nest 637
fax 637
plus@@ 636
cones 636
age@@ 636
it-@@ 636
peach 635
War 635
ía 635
recommand 635
10-15 635
chunks 635
100.00 635
prevented 635
truely 635
aer@@ 635
easy@@ 635
topaz 635
fresh@@ 635
fibers 635
mk 635
amazon. 634
finger@@ 634
repurchase 634
ima@@ 634
knock-off 634
r-@@ 634
extending 634
freak 634
hur@@ 634
135 634
10-12 634
availability 634
polishing 634
mente 633
6000 633
outrageous 633
latitude 633
cleavage 633
reservoir 633
latte 633
volleyball 633
realizing 633
pilling 633
evga 633
reservation 633
poe 633
rms 632
orginal 632
ios 632
deli@@ 632
is. 632
sensors 632
make@@ 632
visibility 631
verry 631
together@@ 631
volumes 631
hill 631
evenings 631
usb3 631
evo 631
birkenstock 631
focal 630
cy 630
enjoyment 630
acu@@ 630
coz 630
stocked 630
manager 630
excellent.@@ 630
tester 630
fli@@ 630
tweeters 630
condition@@ 630
gamble 629
our@@ 629
believer 629
97 629
orderd 629
micro-@@ 629
wolf 629
sm 629
flossing 629
CVS 628
rattle 628
PM 628
5-10 628
glows 628
one.I 628
ist 628
imagination 628
expect@@ 628
cassettes 628
resort 627
exceed 627
brighten 627
marvelous 627
scrapes 626
.nice 626
1080 626
pulp 626
seri@@ 626
easy. 626
pizzas 626
stovetop 626
well.The 626
2g 626
ces 626
py 625
overheated 625
king@@ 625
spoke 625
bet@@ 625
dated 625
long-@@ 625
swarovski 625
best@@ 624
--not 624
property 624
aver@@ 624
confor@@ 624
density 624
50.00 623
invested 623
able@@ 623
body@@ 623
buck@@ 623
copies 623
purcha@@ 623
g.@@ 623
thrive 623
funciona 623
unpacked 622
sty 622
stand@@ 622
.now 622
sse@@ 622
Swiffer 622
gn@@ 622
grasp 622
seasoned 622
ella 622
crutches 622
away.@@ 621
flowing 621
shrinks 621
Thursday 621
Irish 621
wearings 621
ve-@@ 621
Haan 621
remo@@ 620
150@@ 620
fantastically 620
pun@@ 620
Z 620
rma 620
glitch 619
correc@@ 619
pero 619
brewed 619
laps 619
aperture 619
skimpy 618
months. 618
rays 618
lipstick 618
stackable 618
nor@@ 618
robes 618
launder 618
ez@@ 618
easy.@@ 617
enough@@ 617
ted. 617
poly 617
ght@@ 617
forgotten 617
vibrate 617
reflector 617
i5 617
mol@@ 617
imitation 617
ani 617
toms 617
rece@@ 616
tripods 616
EZ 616
closets 616
area@@ 616
mps 616
warm. 615
gan@@ 615
long. 615
aqu@@ 615
fal@@ 615
flair 615
monoprice 615
christma@@ 615
Asia 615
sanuk 615
ending 614
81 614
abo@@ 614
alleviate 614
expresso 614
laptop.@@ 614
court 614
well-built 614
trend 614
tek 614
swee@@ 613
estoy 613
bab@@ 613
vacations 613
atic 613
someday 613
wast 613
adap@@ 613
eable 613
describes 613
bought@@ 613
recep@@ 612
sockets 612
mul@@ 612
pitch 612
mun@@ 612
5-star 612
infrared 612
celtic 612
gripping 612
grills 611
ye@@ 611
3-5 611
kitchen@@ 611
dd 611
difficulties 611
farther 611
musical 611
knots 611
cab 610
vibe 610
décor 610
challenged 610
thr@@ 610
66 610
lenght 610
dramatic 610
Taylor 610
ners 610
determined 609
families 609
ore@@ 609
cardio 609
grandchild 609
buy.@@ 609
Hitachi 609
dosent 609
described.@@ 609
spraying 609
Kenmore 609
01 609
scrolling 609
activated 609
s.my 608
49 608
ids 608
ax@@ 608
1600 608
80s 608
29@@ 608
posting 608
worth@@ 608
jazz 608
upgrades 607
ind@@ 607
possibility 607
converting 607
sincerely 607
med@@ 607
hear@@ 607
clears 606
Bulova 606
peppermint 606
beautiful. 606
1,@@ 606
mitt 606
congestion 605
labs 605
drainer 605
61 605
rock@@ 605
stat@@ 605
extr@@ 605
Orthaheel 605
preparation 604
pantyhose 604
ane 604
casserole 604
corded 604
cautious 604
visits 604
splatter 604
safe@@ 604
coupler 604
say@@ 604
mizuno 604
pollen 604
tac@@ 603
.don 603
terminals 603
boot@@ 603
dusting 603
smart@@ 603
rep 603
skips 603
biscuits 603
directional 603
Northern 602
Walgreens 602
southern 602
bedside 602
Tuesday 601
.there 601
hen@@ 601
hun@@ 601
timeless 601
drugstore 601
s-video 601
miss@@ 601
spoiled 601
lar 601
í@@ 601
kills 601
doe@@ 600
tire 600
icy 600
50-@@ 600
weighed 600
post-@@ 600
spaced 600
88 600
grape 600
cappuccino 600
pedal 600
conform 600
bol@@ 600
hemmed 600
sperry 600
wizard 600
certified 600
teaspoon 600
procedure 599
striped 599
Eagle 599
unsatisfied 599
silver@@ 599
12.@@ 598
dang 598
baggage 598
cali@@ 598
expands 598
vibrations 598
ft. 598
fifteen 598
tedious 598
Anne 598
alter 597
flatten 597
hi-@@ 597
intensity 597
restocking 597
Arizona 597
exercises 597
streets 597
holy 596
constipation 596
storms 596
z-@@ 596
backside 596
great-@@ 596
banged 596
thing. 596
salon 596
biggie 595
kno@@ 595
albeit 595
jewelery 595
jun@@ 595
spee@@ 595
ial 595
apt 595
alignment 595
battery. 595
fees 595
resulted 595
combinations 594
Hubs 594
sim@@ 594
shining 594
tryed 594
organizers 594
tobacco 594
exquisite 593
lowered 593
ick@@ 593
cont@@ 593
accomplish 593
serviceable 593
icon 593
inflated 593
eling 593
91 593
set.@@ 593
Brazil 593
traveler 593
microscope 593
together. 593
canner 593
inside@@ 592
-out 592
Sage 592
chubby 592
5000 592
tee@@ 592
the-@@ 592
pocket@@ 592
abroad 592
zinc 592
dehydrator 592
shirt. 591
absorption 591
30.00 591
muc@@ 591
reflects 591
faith 591
films 591
mou@@ 591
gut 591
ski@@ 591
firmness 591
nite 591
fab 591
je 590
ana 590
amethyst 590
ouch 590
remodeled 590
coffee@@ 590
rural 590
wanted.@@ 589
entering 589
usu@@ 589
pon@@ 589
canopy 589
crafts 589
absorbed 589
eye@@ 589
ade 589
disconnects 589
xx@@ 589
employees 589
fingerprint 589
tte 589
shore 589
pewter 588
styled 588
deceptive 588
bulge 588
Ironman 588
preschool 588
more.@@ 588
bandage 588
Nordic 588
modular 588
cuddly 587
nutritional 587
BP 587
these.@@ 587
charming 587
............ 587
ppl 587
grand-daughter 587
commute 587
community 587
consumption 587
i.@@ 587
straighten 587
checkbook 586
increasing 586
Remington 586
cybershot 586
su 586
swapped 586
Rolex 586
lawn 586
pha@@ 586
jello 586
ites 586
fx 586
clingy 586
kvm 586
melatonin 586
tightness 585
shadow 585
bad. 585
networks 585
voices 585
conscious 585
.when 585
vi 585
b. 585
pumpkin 585
definetely 584
airtight 584
stra@@ 584
les. 584
damages 584
1.4 583
cufflinks 583
placemats 582
foreign 582
pity 582
regard 582
exhaust 582
ps4 582
gummies 582
vr 582
！ 582
need@@ 582
sucker 581
vibrating 581
Michigan 581
design. 581
supermarket 581
muffled 581
58 581
crossfit 581
latches 581
gol@@ 581
tiles 581
calorie 581
gardening 581
ito 581
sey 581
wit@@ 581
nokia 581
web@@ 580
thoughts 580
useing 580
proprietary 580
bla 580
festive 580
rocker 580
combat 580
replac@@ 580
dangle 580
TP 580
tag@@ 579
bunk 579
g4 579
programmable 579
onboard 579
discription 579
simultaneously 579
failures 579
th. 579
shawl 579
gp 578
ER 578
89 578
shabby 578
250@@ 578
squeezing 578
stubborn 578
brightens 578
gift.@@ 578
k-cups 578
indestructible 578
capri 578
slu@@ 578
ca 577
too.I 577
oops 577
youre 577
ate@@ 577
heaters 577
happ@@ 577
crowded 577
beeps 577
viewsonic 577
46@@ 577
stabilization 577
XX 577
yed 577
Maui 577
ily 576
standby 576
rails 576
lifted 576
list@@ 575
shaved 575
gies 575
etc.@@ 575
feet. 575
debating 575
technician 575
bibs 575
ador@@ 575
coaxial 575
oun@@ 575
compressed 575
wakes 575
spine 575
snapping 575
ohm 575
optimal 574
squ@@ 574
viewer 574
ente 574
cos 574
actu@@ 574
daytime 574
oh@@ 574
products.@@ 574
shin@@ 574
skid 574
C. 573
looses 573
accesories 573
escape 573
room.@@ 573
pry 573
iso 573
visited 572
responsible 572
chopped 572
dge@@ 572
cigar 572
entrega 571
everthing 571
decade 571
cat5 571
shir@@ 571
dor 571
clad 571
pace 571
ligh@@ 571
urine 571
BD 570
calming 570
luc@@ 570
teh 570
workable 570
pricier 570
coworker 570
disp@@ 570
them.They 570
mario 570
spindle 570
iconia 570
anchors 569
decor@@ 569
ye 569
atten@@ 569
ribs 569
thongs 569
wil 569
vender 569
spacing 569
glowing 569
10th 569
tunic 569
distressed 569
2002 569
anc@@ 569
anal 568
red.@@ 568
ting@@ 568
mighty 568
Explorer 568
rattling 568
disappointed.@@ 568
8th 568
onesie 568
collapsible 568
unlock 568
Mart 567
modification 567
fidelity 567
fluke 567
spiderman 567
captain 567
od@@ 567
grader 567
recognizes 566
comforters 566
shavers 566
ward 566
drained 566
figures 566
ever. 566
TX 566
beaters 566
modified 565
thankyou 565
bunions 565
grabbing 565
eject 565
sweep 565
conditioning 565
skill 565
blouses 565
een 565
smooth@@ 565
networking 565
eless 565
squeegee 565
ony 564
desk@@ 564
Mr 564
pinching 564
Dec 564
quailty 564
remarkably 564
butterflies 564
finely 564
alkaline 564
great.The 564
harmful 563
undershirts 563
x2 563
daycare 563
scratch@@ 563
ashamed 563
groove 563
outing 563
chewing 563
germs 563
bin@@ 563
tec 563
lighters 563
ay@@ 562
bib 562
duster 562
e- 562
ax 562
calculator 562
soapy 562
goggles 562
linens 562
kensington 562
ruffle 562
dge 561
down. 561
restored 561
bases 561
no-brainer 561
compatable 561
stash 561
gun@@ 561
gamers 561
sake 561
r.@@ 561
fail@@ 561
syn@@ 561
ridge 561
pal 561
chapstick 561
Bible 560
ents 560
tically 560
.what 560
dragging 560
blan@@ 560
back-@@ 560
res@@ 560
mates 560
summers 560
dry@@ 559
social 559
will@@ 559
backlit 559
apparel 559
hoya 559
termin@@ 559
quiet@@ 559
shipping.@@ 559
draw@@ 559
was@@ 559
--they 559
cramped 559
deployed 559
mommy 559
dinners 559
bless 559
oxygen 559
selections 559
clone 558
tact 558
scalp 558
lotions 558
oc 558
stationary 558
know@@ 558
brother-in-law 558
delayed 557
stylish@@ 557
yuck 557
boxy 557
pull@@ 557
pegs 557
strictly 557
so-so 557
curling 557
fist 556
Dodge 556
consumers 556
eg@@ 556
trac@@ 556
soul 556
gers 556
issues.@@ 556
grabbed 556
samsonite 556
snagged 555
compre 555
sb@@ 555
sip 555
nada 555
severely 555
rinsing 555
rains 555
nissan 555
а@@ 555
iz@@ 554
spl@@ 554
favourite 554
lists 554
ny@@ 554
stuff@@ 554
salsa 554
selecting 554
accustomed 554
crack@@ 554
ers. 554
toothpicks 554
immensely 554
belongs 554
motor@@ 554
lic@@ 553
insides 553
short@@ 553
pluged 553
eliminating 553
​ 553
pose 553
colors. 553
vegetarian 553
ble. 553
substantially 553
skate 553
workers 552
jewlery 552
squeezed 552
slow@@ 552
thought@@ 552
scal@@ 552
scra@@ 552
asthma 552
uncomfortably 552
170 552
d.I 552
-i 552
flipped 552
maxi 552
wobbles 551
rounds 551
troubleshooting 551
shipping. 551
DX 551
pel@@ 551
screwing 551
screen. 551
numb 551
reused 551
11-@@ 550
ing- 550
drapes 550
pointless 550
circumference 550
poly@@ 550
bothering 550
wel@@ 550
dul@@ 550
unit.@@ 550
recor@@ 550
jumbo 549
annoyance 549
existed 549
92 549
occur 549
polka 549
layered 549
crackers 549
nie 549
badge 549
cigarettes 548
720 548
cry 548
Kirby 548
playbook 548
kind@@ 548
naked 548
Yup 548
footage 548
unfinished 548
fired 548
pelican 548
duc@@ 547
experimenting 547
Sandy 547
64gb 547
sanitary 547
pampered 547
bumper 547
concentrated 547
colo@@ 547
defined 547
tall@@ 547
light. 547
embroidered 547
may@@ 547
modules 547
4000 547
butane 547
gan 547
pipes 546
servers 546
breakable 546
wood@@ 546
quilted 546
loyal 546
ak@@ 546
ssing 546
www.amazon.com 545
DHA 545
handset 545
quest 545
releases 545
ke. 545
hdx 545
105 545
dist@@ 545
iling 545
pint 545
calibrate 545
rustic 544
ables 544
insane 544
poking 544
migraine 544
who@@ 544
stepping 544
booted 544
call@@ 544
do.@@ 544
desserts 544
nea@@ 544
op 543
ide@@ 543
icky 543
marking 543
healed 543
twee@@ 543
leary 543
motorhome 542
amplified 542
nausea 542
cel@@ 542
Buffalo 542
props 542
kickstand 542
resist@@ 542
bottled 542
tex 542
working. 542
virus 542
assured 542
time-@@ 542
elec@@ 542
-the 541
dice 541
maid 541
adaptors 541
view@@ 541
lik@@ 540
deodorants 540
national 540
hard-@@ 540
ater 540
guns 540
service.@@ 540
discoloration 539
ge. 539
useful@@ 539
groom 539
s.if 539
vice 539
ft@@ 539
toasted 539
hon@@ 539
err@@ 539
chu@@ 538
disaster 538
f. 538
all.I 538
leery 538
dentures 538
86 538
facility 538
moisturizing 538
sure@@ 538
bagel 538
browns 538
unscented 538
won@@ 538
atx 538
improving 537
warmest 537
logical 537
array 537
completes 537
accommodates 537
girl@@ 537
bot 537
deal. 537
cow 537
hh 537
plating 537
zers 537
flex@@ 537
scuffs 537
2001 536
piano 536
favorable 536
frothing 536
ef 536
thermo@@ 536
x. 536
offset 536
naturalizer 536
braided 536
tiara 536
Converse 536
s.but 535
extenders 535
cour@@ 535
fifty 535
Allen 535
sex@@ 535
friend@@ 535
scars 535
back.@@ 535
Bestbuy 535
shor@@ 535
-on 534
obsolete 534
eing 534
07 534
nec@@ 534
resting 534
eyeglasses 534
BB 534
securing 534
not. 534
tapered 534
TSA 534
ddr3 534
intention 533
audio@@ 533
attracted 533
smiles 533
0-@@ 533
represent 533
peri@@ 533
kindles 533
varying 533
batt@@ 533
ste 533
wicking 533
UA 533
gerber 533
post@@ 533
spanx 533
stellar 532
55-@@ 532
trashed 532
longer@@ 532
shee@@ 532
Native 532
maternity 532
arriving 532
hight 532
understood 532
Turbo 532
ht@@ 532
wristband 532
crusher 532
PDA 532
brightly 531
jus 531
headrest 531
distort 531
eh 531
clicked 531
leftover 531
trousers 531
eczema 531
bou@@ 531
ys@@ 531
these@@ 530
wer 530
crushing 530
cutout 530
sanitizer 530
This 530
turn@@ 529
abused 529
ich 529
preci@@ 529
pristine 529
vague 529
lightest 529
usefulness 528
work.I 528
headed 528
16-@@ 528
environments 528
chapped 528
desperate 527
laundered 527
relieving 527
.- 527
continuing 527
eq 527
1.8 527
lumpy 527
tc 527
much.@@ 527
godsend 527
virtual 527
unexpectedly 527
recommend@@ 527
ddd 527
cc@@ 527
4e 527
tommy 527
treatments 526
pine 526
piec@@ 526
cancelled 526
es.i 526
specify 526
all-clad 526
squeak 526
coded 526
dreams 526
taste@@ 526
juniors 526
also. 526
fittings 526
seated 526
attest 526
d.this 525
beneath 525
David 525
extensions 525
maintained 525
completly 525
hookah 525
respon@@ 524
installer 524
syndrome 524
collapses 524
seasonal 524
dehumidifier 524
bloating 524
math 524
caribbean 524
с@@ 524
paula 524
lot. 523
tuned 523
hurricane 523
8mm 523
li 523
ovens 523
wines 523
tougher 523
three-@@ 523
steel@@ 523
vin 523
reactions 523
cursor 523
carving 523
nursery 523
outings 522
racing 522
groceries 522
not.@@ 522
bunny 522
gor@@ 522
change@@ 522
agent 522
ils 522
fungus 521
auxiliary 521
bedskirt 521
sab@@ 521
way.@@ 521
clar@@ 521
return@@ 521
stumbled 521
tug 521
pun 521
rain@@ 521
Ch@@ 521
expected.I 520
def@@ 520
inadequate 520
iffy 520
dio 520
S. 520
overs 520
price-@@ 520
.he 520
thumb@@ 520
containing 520
aloe 520
shredded 520
blower 520
Vitamix 520
degradation 520
distinct 520
arrow 519
Wednesday 519
.as 519
misplace 519
500gb 519
ami@@ 519
AF 519
glass@@ 519
Ancient 519
tortilla 519
steamed 519
B12 519
months.@@ 518
orientation 518
mem@@ 518
wasabi 518
shaky 518
lit@@ 518
ank@@ 518
size.I 518
recessed 518
cookers 518
xi@@ 518
frog 518
5lbs 517
happy. 517
problematic 517
mis-@@ 517
ata 517
b-day 517
mode@@ 517
anyhow 517
there. 517
33@@ 517
DV 517
airports 517
frig 517
thre@@ 517
closures 516
cocoa 516
cool. 516
14-@@ 516
zo 516
harddrive 516
mashed 516
camera.@@ 516
mbs 515
discontinue 515
else@@ 515
conversations 515
Inflate 515
wich 515
honeywell 515
squee@@ 515
In@@ 515
Johnson 515
o. 515
sac@@ 514
attracts 514
ales 514
instance 514
creme 514
shoelaces 514
seal@@ 514
buns 514
bakeware 514
gger 514
pron@@ 514
Ma 514
beautifull 513
filtration 513
overkill 513
endurance 513
kong 513
beeping 513
eyebrows 513
pac@@ 513
weaker 513
magnificent 513
pee 513
laughed 513
functionally 513
methods 513
squares 513
idle 513
peripherals 513
weight. 513
room@@ 513
bath@@ 513
great- 513
cyber 513
antennae 513
neuropathy 513
levis 513
music@@ 513
delonghi 513
chlorine 512
rence 512
pm 512
bility 512
67 512
rot@@ 512
pissed 512
ass@@ 512
price.The 512
ñ@@ 512
8.9 512
rom 512
booth 511
rockford 511
fox 511
Y@@ 511
r. 511
converts 511
sheath 511
heartburn 511
supple@@ 511
featured 511
в@@ 511
т@@ 511
ious 510
bangle 510
sum 510
jumps 510
dangling 510
cheap.@@ 510
sof@@ 510
what@@ 510
510 510
chickens 510
slit 510
electrolux 510
7-8 510
ole 510
chalk 510
nautica 510
T. 510
leotard 510
sleeved 510
warnings 509
logist 509
showering 509
coordinate 509
binders 509
var@@ 509
zucchini 509
bu 508
BAM 508
smar@@ 508
tat@@ 508
monitor@@ 508
explanation 508
2-4 508
cat6 507
amazon@@ 507
here@@ 507
tech@@ 507
susan 507
eaten 507
Pam 507
piercings 507
77@@ 507
enough. 506
tux 506
sandles 506
explo@@ 506
iso@@ 506
they@@ 506
smallish 506
halo 506
drape 506
moth 506
scre@@ 506
swipe 505
independent 505
wn 505
imagin@@ 505
unravel 505
khakis 505
lacing 505
disappointed. 505
d800 505
ition 505
martens 505
ja 504
donate 504
nowadays 504
chested 504
working.@@ 504
rules 504
outlast 504
pc 504
indicating 504
concentrate 504
avoiding 504
flooring 503
ers.@@ 503
ac 503
diff 503
blues 503
pretend 503
plastics 503
unwearable 503
fountain 503
disturbing 503
-in-@@ 503
age.@@ 503
doo@@ 503
busty 503
nintendo 502
gradually 502
cabling 502
overclocking 502
mirrors 502
stems 502
cr 502
anklet 502
unavailable 501
lt 501
withstood 501
coiled 501
note@@ 501
pee@@ 501
des@@ 501
truc@@ 501
overclock 501
insulin 501
cured 500
illumination 500
look. 500
braclet 500
compli@@ 500
ette 500
toned 500
towers 500
softball 500
filter@@ 500
mber 500
comp 500
approach 500
plaid 499
range@@ 499
limitations 499
condom 499
criteria 499
ville 499
pumping 499
nightly 499
compr@@ 499
bouncing 499
crab 499
н@@ 499
gaskets 499
offs 498
climb 498
idiot 498
assure 498
grandpa 498
extraordinary 498
acquired 498
sturdy.@@ 498
scare 498
nipples 498
reconnect 498
bunn 498
spends 497
drove 497
spectrum 497
kg 497
fondue 497
115 496
gt@@ 496
splits 496
pointing 496
widescreen 496
dm@@ 496
wildlife 496
mailbox 496
Great 496
skulls 496
broken@@ 496
moreover 496
ight 496
pedals 496
beatles 496
Jarrow 495
57@@ 495
Atomic 495
condition. 495
gourmet 495
6x 495
hamburger 495
Indian 495
soggy 495
hil@@ 495
L. 494
red. 494
pass@@ 494
copying 494
thyroid 494
evaluate 494
path 494
blink 494
.Thank 494
shoo@@ 494
eyepiece 494
reccom@@ 494
buddies 494
childs 494
ney 494
Cambogia 494
glucose 493
bundled 493
tins 493
comf@@ 492
century 492
recovering 492
gatherings 492
secures 492
host 492
My 492
68@@ 492
multivitamin 492
heel@@ 492
adjust@@ 492
canal 492
tz 492
moths 492
dairy 492
add@@ 492
conservative 492
.after 492
performer 492
fall@@ 492
quoted 492
lle@@ 491
lif@@ 491
soft. 491
jo 491
easi@@ 491
usb@@ 491
molding 491
donated 491
pitched 491
way. 491
.all 491
tou@@ 491
diesel 491
54 490
bendable 490
ppers 490
responding 490
marketed 490
responds 490
.do 490
expec@@ 490
cross@@ 490
product.It 490
highway 490
5k 490
ption 490
Rx 490
refilling 490
servic@@ 490
misses 490
piping 490
gunk 490
ji@@ 490
Lord 490
mediums 490
Kiss 489
aerobics 489
battle 489
strongest 489
Vit 489
physician 489
length@@ 489
crockpot 489
ade@@ 489
min. 489
candies 489
salmon 489
dare 489
quote 489
buff 488
knocking 488
sorta 488
limes 488
father-in-law 488
boiler 488
lim@@ 488
fantastic@@ 488
unclear 488
yl@@ 488
das 488
clearing 488
bears 488
ref 488
discrete 488
signature 487
beatiful 487
kindergarten 487
nonsense 487
squished 487
quirky 487
inspired 487
ano 487
mines 487
developing 487
pes 487
sle@@ 487
birkenstocks 487
forgetting 486
malfunction 486
jitters 486
forcing 486
touchy 486
recipients 486
AR 486
-1 486
extre@@ 486
mail@@ 486
broke@@ 486
crop 486
62 486
nar@@ 486
Sanyo 486
revealing 486
AZ 485
well-constructed 485
diagnosed 485
pendent 485
tit@@ 485
credited 485
age. 485
fingertips 485
lessons 485
sham 485
top-@@ 485
claw 485
wigs 485
tha@@ 485
displayport 485
stock@@ 484
obnoxious 484
tablet. 484
game@@ 484
crapped 484
jar@@ 484
take@@ 484
ati 484
separation 484
shel@@ 484
hr 484
represents 483
51 483
sigh 483
creamer 483
sender 483
tele@@ 483
traps 483
ance@@ 483
option@@ 482
doses 482
awkwardly 482
ould 482
moccasins 482
strands 482
softens 482
elevated 482
foodsaver 482
u-@@ 482
tilted 482
240@@ 482
M 481
。 481
your@@ 481
United 481
finishes 481
iting 481
attend 481
dept 481
OTC 481
jack@@ 481
loafer 481
differen@@ 481
useless@@ 480
Costa 480
place.@@ 480
ripoff 480
fasteners 480
50d 480
distributor 480
cinema 480
boyfriends 480
campus 480
reconditioned 480
petals 480
stretcher 480
sul@@ 480
becasue 479
} 479
notified 479
Ranger 479
registered 479
70s 479
would@@ 479
parallel 479
dl@@ 479
Ireland 479
toggle 479
sprayer 479
02 479
Jane 479
96 478
Jan 478
ile 478
construc@@ 478
digs 478
carousel 478
Treasure 478
shaper 478
happy.@@ 477
kn@@ 477
yl 477
button@@ 477
large. 477
purpose@@ 477
used. 477
quaility 477
Bond 477
spac@@ 477
linked 477
dispensing 477
extremly 477
fine.I 477
peelers 477
Wahl 477
93 476
Amazons 476
meh 476
3gs 476
pastel 476
zones 476
59 476
Plum 476
driveway 476
emblem 476
checks 476
week. 476
redness 475
ps. 475
wrong@@ 475
2tb 475
elling 475
menthol 475
gram 475
chamber 475
sno@@ 475
referred 475
seek 475
л@@ 475
sthe 475
ree@@ 475
trucks 474
hop 474
finicky 474
Coffe 474
top. 474
bearing 474
tart 474
have. 474
hulu 474
nit 474
medal 474
separates 474
incident 474
sse 474
curly 474
Penguin 473
Illustrated 473
210 473
just@@ 473
nice@@ 473
osx 473
ziplock 473
Aim 473
bladder 473
retract 473
totes 473
taco 473
countertops 473
shaping 472
recommended. 472
hong 472
entertain 472
unattractive 472
.that 472
up-@@ 472
gigantic 472
trapped 472
bo 472
finish@@ 472
BMW 472
vita 472
mash 472
ow 472
tri 472
antec 472
through@@ 471
smudge 471
views 471
100-@@ 471
distant 471
raved 471
forest 471
ani@@ 471
projectors 471
widths 471
craftmanship 471
creatine 471
2e 471
natur@@ 471
nic 471
taping 471
spanish 470
rou@@ 470
disassemble 470
attack 470
smell@@ 470
flexi@@ 470
mfg 470
est@@ 470
poor@@ 470
2.1 470
planes 470
320 470
anyone. 469
moun@@ 469
flavor@@ 469
--no 469
computer.@@ 469
daugther 469
pra@@ 469
appro@@ 469
py@@ 469
haha@@ 469
ling@@ 469
ron 469
humor 469
possibilities 469
erase 468
funcion@@ 468
camp@@ 468
Bees 468
victorinox 468
-to-@@ 468
chase 468
deff 468
recomen@@ 468
steering 468
nerd 468
varieties 468
ignored 468
tight. 468
conduc@@ 468
bunched 468
bothersome 468
raining 468
projected 468
yarn 468
professionals 468
thay 468
binocular 468
circulon 468
radeon 468
sta 467
sour 467
unbreakable 467
fication 467
bunches 467
times. 467
jog 467
flawed 467
ith 467
cing 467
execution 467
56 467
lasagna 467
rule 467
burger 467
courteous 467
washers 467
soldered 467
join 466
awaiting 466
conce@@ 466
secondly 466
economy 466
fle@@ 466
quartz 466
ech 466
slip-on 466
c. 466
absolutley 466
sher 466
Ruby 466
bum 466
calibrated 466
poles 466
camisole 466
lobster 465
vibrates 465
guidelines 465
equi@@ 465
timel@@ 465
drum 465
stuffy 465
gizmo 465
passive 465
crepes 465
cs 465
.in 465
dun@@ 465
matress 465
rewind 465
now.@@ 465
mit@@ 465
kernels 465
excellent. 464
vast 464
15-20 464
drywall 464
dryness 464
desirable 464
5mm 464
spit 464
perfectly.I 464
feet.@@ 464
XXX 464
tattoos 464
crunchy 464
kid@@ 463
coul@@ 463
tasteful 463
60-@@ 463
well-designed 463
metabolism 463
jambu 463
spider 463
superhero 463
consume 463
stoneware 463
5ft 463
worlds 463
bougth 463
USO 463
carpal 462
coding 462
year. 462
ano@@ 462
peppers 462
disappears 462
dn 462
87 462
forehead 462
blaster 462
gains 462
zapatos 462
cob 462
toppers 462
dl 462
diver 462
platter 462
awa@@ 462
crawl 461
ziploc 461
adapter@@ 461
satified 461
collapsed 461
perfect.I 461
s.would 461
mod 461
jittery 461
ora 461
it.This 460
750@@ 460
04 460
chin@@ 460
ig@@ 460
prettiest 460
configurations 460
spor@@ 460
sagging 460
relay 459
boots. 459
money.I 459
Ion 459
anyone.@@ 459
refreshed 459
perfectly@@ 459
invaluable 459
duh 459
todos 459
fob 459
costumer 459
aspirin 459
flow@@ 458
displeased 458
slack 458
baptism 458
MD 458
studying 458
autofocus 458
tally 458
applies 458
teachers 458
downs 458
ren 458
mea@@ 458
base@@ 457
hay 457
occurred 457
19.99 457
cramping 457
values 457
nick 457
gritty 457
voip 457
tuxedo 457
yards 457
conec@@ 456
ago. 456
LP 456
jer@@ 456
overweight 456
health@@ 456
freshly 456
minty 456
opti@@ 456
17-@@ 456
alerts 456
recommend. 456
mistakes 456
phase 456
hin@@ 456
brush@@ 456
justin 456
gusto 456
rocky 455
long-lasting 455
bass@@ 455
Savers 455
kicked 455
manufactures 455
baofeng 455
bing 455
v-neck 455
pail 455
eleven 454
compensate 454
catalog 454
ou 454
long-term 454
terminal 454
w.@@ 454
HES 454
chafing 454
plug@@ 454
pencils 454
ai@@ 454
defender 454
jams 454
reservations 454
Flip-Flops 454
lowepro 454
bowel 453
sz 453
mistakenly 453
accompany 453
fect 453
wee@@ 453
mble 453
pitchers 453
summertime 453
incompatible 453
operator 453
Shields 453
yum 453
bypass 453
sleepers 453
technique 453
blemishes 453
whipped 453
regretted 453
vivitar 453
reserve 452
comprar 452
operational 452
scooping 452
x1 452
ty. 452
tex@@ 452
regimen 452
festival 452
myself@@ 452
fairy 452
94 451
charity 451
ness@@ 451
peoples 451
anything. 451
toothpick 451
appear@@ 451
operations 451
79 451
Feb 451
fillers 451
Heavyweight 451
rachael 451
shun 450
unfortun@@ 450
grace 450
ining 450
................@@ 450
ring. 450
childhood 450
fringe 450
ble.@@ 450
rever@@ 450
48@@ 450
spiral 450
acion 450
lessly 450
sifter 450
gg 449
stur@@ 449
place. 449
digest 449
izing 449
sue 449
n.@@ 449
mor 449
to.@@ 449
collected 449
behold 449
heatsink 449
thro@@ 449
flax 449
dual-@@ 449
shred 449
another@@ 448
ous@@ 448
reg 448
annual 448
disconnecting 448
mono@@ 448
peak 448
wicked 448
ibm 448
swings 448
try@@ 448
raves 448
dispensers 448
tactical 447
grains 447
extent 447
syncs 447
prostate 447
recommend.@@ 447
opt 447
insanely 447
saucepan 447
6-7 447
document 447
IMHO 447
ity. 447
mbling 447
gar 447
bby 447
5. 446
arri@@ 446
23@@ 446
tangles 446
snu@@ 446
fare 446
thermometers 446
101 446
ando 445
110@@ 445
captures 445
valu@@ 445
der. 445
looking. 445
alize 445
shopper 445
att 445
leaning 445
here. 445
ó@@ 445
comforting 445
13.@@ 445
honeymoon 445
sen 445
marilyn 445
with. 444
roses 444
say. 444
fancier 444
ices 444
grime 444
seattle 444
drinkers 444
sign@@ 444
indic@@ 444
oil@@ 444
detox 444
cable. 444
bread@@ 444
cd@@ 444
courses 444
ado@@ 444
dips 444
emergencies 443
recommened 443
used.@@ 443
booty 443
startup 443
guessed 443
fon@@ 443
darkness 443
sluggish 443
bloated 443
scoo@@ 443
box.@@ 443
flakes 443
cake@@ 443
where@@ 443
absorbing 443
go. 443
fastened 443
crimp 443
ks@@ 443
40d 443
us. 443
compound 443
unglued 443
dinosaur 443
worm 442
untill 442
lemonade 442
B. 442
arc 442
mie 442
antibiotics 442
discribed 442
placebo 442
ter.@@ 442
recomendado 442
nightgown 442
blacks 442
attending 441
best. 441
brac@@ 441
spir@@ 441
stuff. 441
groups 441
orthotic 441
shoe.@@ 441
past@@ 441
out.I 441
sci@@ 440
unbearable 440
nat@@ 440
commands 440
itI 440
transmitters 440
mistaken 440
pillow@@ 440
chefs 440
aesthetic 440
kick@@ 440
ben 440
cigars 440
rowenta 440
spreading 439
inline 439
05 439
ves. 439
gur@@ 439
thou 439
cheeses 439
simple@@ 439
climates 439
08 439
oca@@ 439
suffice 439
magical 439
swa@@ 438
had. 438
tengo 438
euro@@ 438
18-55mm 438
jumper 438
carton 438
readout 438
baby@@ 438
streak 438
faul@@ 438
balloon 438
duffle 438
stabilizer 438
ms@@ 438
merely 438
iomega 438
ineffective 437
cion 437
mming 437
ghts 437
rags 437
podiatrist 437
waves 437
speed@@ 437
tty 437
envi@@ 437
lifter 437
cs@@ 437
robot 437
fulfill 437
shiney 437
para@@ 436
Bravo 436
latter 436
batteries.@@ 436
pro-@@ 436
.can 436
thingy 436
friend. 436
laun@@ 436
remedies 436
afterward 436
78 436
pivot 436
hallway 436
samples 436
abilities 436
rad@@ 436
surgical 436
carefull 436
sturdily 436
whisks 436
altec 436
pea 435
ship@@ 435
irregular 435
Vicks 435
t4@@ 435
sleeveless 435
condition.@@ 434
gos 434
06 434
collars 434
Allegra 434
delays 434
epic 434
clown 434
travelers 434
pol@@ 434
fr 434
liter 434
excell@@ 434
fixtures 434
ung 434
84 434
47@@ 434
bootie 434
coke 434
lugging 434
t.this 434
logy 433
invented 433
pits 433
stale 433
dab 433
curls 433
exploded 433
necessities 433
hus@@ 433
charts 433
solely 433
Juicy 433
dress-up 433
cleansing 432
's. 432
fore 432
achilles 432
fish@@ 432
82 432
admired 432
rinsed 432
b.@@ 432
company@@ 432
whiter 432
ensures 432
nespresso 432
lifespan 431
instal 431
injuries 431
molex 431
cheated 431
pix@@ 431
mush 431
gag@@ 431
ingrown 431
ox@@ 431
warmed 431
dat@@ 431
lumps 431
aci@@ 431
bald 430
style@@ 430
lifeproof 430
laptop@@ 430
perspective 430
disappoint@@ 430
earpieces 430
phone. 430
ron@@ 430
spe@@ 430
hoodies 430
bac@@ 430
230 430
friends.@@ 430
bies 429
uno 429
barley 429
regular@@ 429
fisheye 429
ruffles 429
qua@@ 429
good.The 429
confusion 429
around. 429
Strangers 429
stall 429
wen 429
on-time 429
beca@@ 429
blur 429
Keepers 429
computing 429
57 428
stray 428
stain@@ 428
cod 428
ensemble 428
lathers 428
instruments 428
spen@@ 428
cul@@ 428
energized 428
over-the-@@ 428
UNRAVELING 428
.My 428
dispose 428
esp@@ 428
elegan@@ 428
estate 428
dosen 428
grandfather 427
stabilize 427
rashes 427
signed 427
69 427
foundation 427
concerts 427
7.0 427
tilts 427
roasts 427
dropper 427
ort 427
grounded 427
accepts 427
spy 427
shoes@@ 427
recorders 426
qual@@ 426
fier 426
Co@@ 426
crashing 426
disappoints 426
syncing 426
irs 426
ruc@@ 426
movie@@ 426
fastener 426
docs 426
nuisance 426
stews 426
lot@@ 426
tool@@ 426
128 426
translucent 425
ffe@@ 425
unsightly 425
varied 425
hyper@@ 425
lapse 425
ghter 425
stills 425
.one 425
equipped 425
strobe 425
shinier 425
hesitated 425
donuts 425
temporarily 424
antiperspirant 424
urban 424
1100 424
aggressive 424
sunscreen 424
9v 424
elbows 424
broiler 424
mediabridge 424
sad@@ 424
50th 424
exten@@ 424
ator@@ 424
snuggle 424
beloved 424
scratcher 424
ni 423
bru@@ 423
fec@@ 423
ond 423
bored 423
68 423
trivet 423
Accord 423
gel@@ 423
burps 423
alized 423
tack 423
scarfs 423
Styrofoam 423
handle@@ 423
University 423
PATHETIC 423
dealt 423
legging 423
Korea 423
store. 423
bright@@ 423
stiching 423
refurb 423
sole@@ 423
520 423
sucking 423
raincoat 423
wrapper 422
workstation 422
radi@@ 422
air-@@ 422
televisions 422
puddles 422
sub-@@ 422
gging 422
Goofy 422
summer@@ 422
overclocked 422
ove 422
3-d 422
functional@@ 422
accessing 422
chunk 422
mmed 422
modifications 422
issu@@ 422
lol@@ 422
graduated 422
short-@@ 422
batterys 422
torch 422
foreman 422
xl 422
ación 421
avoided 421
40.00 421
eraser 421
inclined 421
wicks 421
12.5 421
broke. 421
pudding 421
ama@@ 421
beaten 421
ex-@@ 421
ribbons 421
masher 421
vibr@@ 420
weather@@ 420
global 420
volu@@ 420
whimsical 420
washington 420
slats 420
ind 420
20-30 420
continu@@ 420
navigator 420
competitor 420
guar@@ 420
ent.@@ 420
hockey 420
forgiving 420
ed.the 420
beret 420
rada 420
leap 420
guides 420
adobe 419
teeny 419
ranges 419
cams 419
recognition 419
ig 419
think@@ 419
athlete 419
relationship 419
expen@@ 419
nicely. 419
aerator 419
buildup 419
detection 419
processors 419
handmade 419
S 419
utilitarian 419
Maxell 419
irobot 419
fosgate 418
ino 418
lov@@ 418
damage@@ 418
disadvantage 418
great.It 418
well.It 418
lancets 418
wou@@ 418
notices 418
't@@ 418
wrestling 418
used@@ 418
compress 418
hei@@ 418
roun@@ 418
proc@@ 418
dia 418
laundering 418
tapers 418
tamper 418
ttl 418
s.these 417
ssy 417
copied 417
easyshare 417
keds 417
260 417
ent. 417
sweatshirts 417
ralph 417
bargin 417
shortened 417
under-@@ 417
gorilla 417
neater 416
price.It 416
tter@@ 416
confi@@ 416
smash 416
audi@@ 416
around.@@ 416
co-@@ 416
motherboards 416
220v 416
often@@ 416
mp3s 416
bedrooms 416
generously 416
fires 416
mustard 416
d3200 416
personalized 416
walkers 415
boating 415
done. 415
sell@@ 415
get@@ 415
09 415
keyboar@@ 415
lands 415
oder 415
fibromyalgia 415
again.I 415
tripp 415
runny 415
ak 415
potentially 415
poop 415
cola 415
cocktails 415
Crest 415
CK 415
recon@@ 414
keepsake 414
gout 414
reall@@ 414
ement 414
-top 414
Dynamic 414
daughter. 414
happen@@ 414
carrot 414
stacks 414
swatch 414
cleanser 413
s.good 413
shielded 413
all-in-one 413
mping 413
slouch 413
sas 413
circumstances 413
tion.i 413
hassel 413
SCRAP 413
cranberry 413
strike 413
tem@@ 413
trackball 413
poacher 413
builder 413
lish 412
bro 412
bagless 412
rode 412
tweaking 412
distinctive 412
smoked 412
IBS 412
blueray 412
stories 412
exellent 412
visitors 412
delic@@ 412
inventory 412
shadows 412
import 412
selec@@ 411
drank 411
ware@@ 411
ul 411
fios 411
boar@@ 411
reccomended 411
remote@@ 411
suit@@ 411
enzymes 411
WI 411
EU 411
forums 411
blur@@ 411
mr@@ 411
bachelorette 411
hoods 411
verified 410
varies 410
floats 410
chronograph 410
pony 410
Wal 410
Tylenol 410
freshness 410
Granny 410
Expedition 410
lengthy 410
Lowes 410
th-@@ 410
lear@@ 410
emerald 410
yers 410
uniforms 410
zy@@ 410
scor@@ 410
bradley 410
rosary 410
gir@@ 409
danger 409
gather 409
rattles 409
T3 409
couples 409
deeply 409
safari 409
usability 409
font 409
oregon 409
ure@@ 409
workhorse 409
Dynasty 409
prolonged 409
poison 408
individuals 408
rin@@ 408
mod@@ 408
classical 408
Smith 408
bangs 408
mp4 408
40-@@ 408
drier 408
caller 408
poco 408
loudly 408
squash 408
-looking 408
ature 408
kar@@ 408
moo@@ 408
smokes 408
-ish 408
discarded 408
estado 407
splint 407
ones. 407
-ups 407
argue 407
8000 407
petticoat 407
hass@@ 407
chair@@ 407
appreciates 407
junky 407
Naturals 407
boarding 407
side. 407
hardy 407
ler@@ 407
ast 407
slouchy 407
2mm 406
banging 406
intensive 406
pny 406
product.The 406
evident 406
che 406
tablespoon 406
swapping 406
condiciones 406
warrenty 405
mustang 405
answering 405
furthermore 405
norm@@ 405
cylinder 405
charg@@ 405
simul@@ 405
Christmas. 405
expensive. 405
suppliers 405
divided 405
omelets 405
vans 405
similiar 405
RESETTING 405
bearable 405
convertible 405
mbt 405
avail@@ 404
gauze 404
proves 404
wonderfull 404
grandparents 404
value.@@ 404
conclusion 404
rc@@ 404
land@@ 404
edge@@ 404
66@@ 404
aesthetics 404
arts 404
Spade 404
screaming 404
matic 404
innovative 404
suprise 404
cherokee 403
ipo@@ 403
Rica 403
control@@ 403
fitflops 403
eness 403
role 403
4. 403
furry 403
ally.@@ 403
gran 403
dness 403
cross-@@ 403
noo@@ 403
aerosoles 403
rival 403
ian 403
ketones 403
stressed 403
pestle 403
re.@@ 402
durable.@@ 402
belong 402
thou@@ 402
.looks 402
Spain 402
veins 402
mics 402
foldable 402
mature 402
shrug 402
ack@@ 402
others.@@ 402
dev@@ 402
did.@@ 402
woul@@ 402
gifting 402
oversize 402
flaking 402
walnut 402
tubs 402
invoice 402
drilling 402
tamron 402
gallons 402
jade 402
PT 402
re. 402
winter@@ 402
variation 402
softbox 402
itches 401
snug@@ 401
thing.@@ 401
deliver@@ 401
steer 401
pou@@ 401
gli@@ 401
musty 401
tailor 401
Minnesota 401
coldest 401
thers 401
non-stop 401
childrens 401
reversed 401
ladder 401
tails 401
sq@@ 401
fulfills 401
wide@@ 401
singing 401
browning 401
overalls 401
ivy 400
ador 400
up.I 400
sie 400
colon 400
s2 400
variations 400
wra@@ 400
compete 400
humidifiers 400
disturb 400
d80 400
expanding 400
preset 400
bd@@ 400
space.@@ 400
elementary 400
blenders 400
muss 399
contest 399
receptacle 399
soli@@ 399
priority 399
present@@ 399
bakers 399
concerning 399
on.I 399
scream 399
puri@@ 399
sic 399
tation 399
fitment 399
saline 399
intu@@ 399
environmentally 398
times.@@ 398
indispensable 398
equalizer 398
dissa@@ 398
-type 398
value. 398
E 398
distilled 398
birthdays 398
liquor 398
intricate 398
Mills 398
cobalt 398
generations 398
struc@@ 398
Optimum 398
chipset 398
rotisserie 398
Pro@@ 398
pear 397
streams 397
aled 397
bed. 397
sleep@@ 397
mba 397
sport@@ 397
development 397
stealing 397
ps.@@ 397
pper@@ 397
n. 397
airlines 397
tangling 397
Kate 397
GNC 397
surgeries 397
ballerina 397
ai 397
bathrobe 397
kil@@ 396
overheats 396
re-ordered 396
good-@@ 396
house. 396
maine 396
bunching 396
enter@@ 396
old. 396
toslink 396
spea@@ 396
ultra-@@ 396
minute@@ 396
multimedia 396
som 396
full@@ 395
receipts 395
membership 395
unopened 395
conver@@ 395
kayaking 395
similarly 395
stretch@@ 395
small.@@ 395
answers 395
900@@ 395
Sis 395
ational 395
dering 395
thanks@@ 395
21@@ 395
aftershave 395
15.00 395
gad@@ 395
lef@@ 395
zz 395
ver. 394
buffer 394
user-friendly 394
desi@@ 394
comm@@ 394
drawbacks 394
league 394
balloons 394
oven@@ 394
sion@@ 394
fea@@ 394
hoo 394
abil@@ 394
weighty 394
aprons 394
helper 393
future@@ 393
bridesmaid 393
SER 393
3-6 393
achi@@ 393
chews 393
integrity 393
minnetonka 393
mark@@ 393
t-fal 393
03 393
Dawn 393
toilets 393
5v 393
paperweight 393
............. 393
gowns 393
occurs 393
vable 392
gosh 392
regu@@ 392
Bs 392
that.@@ 392
marginal 392
organ@@ 392
ture@@ 392
starch 392
table.@@ 392
tick 392
cut@@ 392
skipped 392
bandana 392
pavement 392
muffs 392
holder@@ 392
nice-looking 392
enclosures 392
SW 391
communion 391
kidney 391
detail@@ 391
shrimp 391
image@@ 391
bogs 391
cer 391
unwrapped 391
17.3 391
necks 391
ona 391
6-12 391
lb@@ 391
fine@@ 391
trains 391
ice@@ 391
reinstall 391
utili@@ 391
tel@@ 391
Jessica 391
Scout 390
5m 390
soo@@ 390
nikkor 390
devic@@ 390
waistline 390
watermelon 390
squish 390
25.00 390
charge. 390
massages 390
propane 390
fanny 390
compliment@@ 390
camcorders 390
spotting 390
gi 390
right.@@ 389
squirt 389
richer 389
rip-off 389
hills 389
satisified 389
ffles 389
either@@ 389
terri@@ 389
slave 389
ined 389
plea@@ 389
weed 389
49@@ 389
Cafe 389
77 389
drawn 389
e-reader 389
hope@@ 389
new. 389
wave 389
capturing 389
tu 389
flutes 389
shielding 389
xbmc 389
strokes 388
day.I 388
cat5e 388
prote@@ 388
cottage 388
cluttered 388
netting 388
clumps 388
eu@@ 388
techie 388
engage 388
paw 388
them.The 388
lookin 388
whit@@ 388
norm 388
musician 388
trip@@ 388
made.@@ 388
burp 388
tablecloths 387
ase 387
energetic 387
tional 387
mated 387
ultra@@ 387
British 387
aka 387
mouth@@ 387
forces 387
original@@ 387
stan@@ 387
pick@@ 387
christ@@ 387
docks 387
leak@@ 387
concentration 387
mu 387
chemo 387
bear@@ 387
parks 387
hace 387
Mag 387
21st 386
feelings 386
table. 386
mirrored 386
sh-@@ 386
inging 386
sceptical 386
check@@ 386
toed 386
grabs 386
mc 386
titles 386
upscale 386
metro 386
scuba 386
miracles 386
half-size 386
assisted 386
abit 386
equ@@ 385
200mm 385
injured 385
nooks 385
system. 385
slippage 385
toiletries 385
dreaded 385
clipping 385
sanuks 385
relation 385
70-200 385
6x@@ 385
cupboards 385
ago@@ 385
geforce 385
6gb 385
spa@@ 385
ringing 385
track@@ 385
560 385
ergonomics 384
resul@@ 384
airplanes 384
50s 384
ts.i 384
defintely 384
gimmick 384
refined 384
sassy 384
tto 384
comic 384
switch@@ 384
ce.@@ 384
sto 384
vw 384
disliked 384
additives 384
gged 384
surveillance 384
carter 384
phone.@@ 383
butter@@ 383
Ohio 383
resin 383
achy 383
time.The 383
trick@@ 383
io@@ 383
ruins 383
lacked 383
1,000 383
alway 383
spark 383
clothe@@ 383
bella 383
Hawaiian 383
ú@@ 382
smu@@ 382
esp. 382
abrasive 382
lex 382
window@@ 382
ust 382
paws 382
-off 382
productive 382
nipple 382
me-@@ 382
all-around 382
trained 382
2000@@ 382
Hinged 382
alterations 382
massaging 382
ceremony 382
plunge 382
tener 382
satellites 382
pac 382
ised 382
Jesus 382
hybrid 382
mec@@ 382
synology 382
ción 381
headphone@@ 381
sil 381
rex 381
achieved 381
sweatpants 381
entered 381
kitchens 381
egg@@ 381
issues. 381
collec@@ 381
renting 381
prett@@ 381
fat@@ 381
ate.@@ 381
pwr 381
alice 381
style. 381
Brownie 381
oning 381
bi-@@ 381
face@@ 381
buster 381
then@@ 381
startech 381
minu@@ 380
hr@@ 380
multitude 380
73 380
radio@@ 380
tiffany 380
`s 380
investing 380
handycam 380
raises 380
const@@ 380
presentable 380
les.@@ 380
enti@@ 380
duffel 380
vaccuum 380
anyone@@ 380
👍 380
mper 380
excitement 380
mass@@ 380
jl 379
framing 379
lun@@ 379
garnet 379
potency 379
litle 379
gb@@ 379
device.@@ 379
compati@@ 379
wan 379
`@@ 379
foun@@ 379
dad@@ 379
deformed 379
arctic 379
skeleton 379
tract 379
taught 379
crossover 379
litt@@ 379
neg@@ 379
lest 379
unzip 379
sco 379
vixia 379
process@@ 378
initi@@ 378
2500 378
jr 378
28-@@ 378
flattened 378
non-skid 378
creek 378
reapply 378
rr@@ 378
sn 378
denture 378
Saddle 378
Wat 378
turtles 378
ae@@ 378
R 378
need. 377
330 377
talks 377
site@@ 377
encounter 377
iner 377
glasse@@ 377
softgels 377
unraveled 377
contin@@ 377
unresponsive 377
propped 377
A 377
capresso 377
whilst 377
loft 377
bonito 377
loosens 377
cracker 377
use.The 377
exposing 377
metra 377
knee@@ 377
Presence 377
patties 377
crawling 377
light-@@ 377
ints 376
knocks 376
bruises 376
colleagues 376
barber 376
locating 376
raving 376
commercials 376
sers 376
mach@@ 376
printable 376
digitizer 376
spar@@ 375
efforts 375
culinary 375
tugging 375
orthopedic 375
armpits 375
demanding 375
woks 375
filed 375
cleaver 375
either. 375
cheery 375
regre@@ 375
uploaded 375
plaque 375
heal@@ 375
reheat 375
ance.@@ 375
bnc 375
d300 375
64-bit 375
eased 375
puff 374
match@@ 374
58mm 374
streamlined 374
swea@@ 374
mileage 374
weary 374
races 374
instruc@@ 374
lumbar 374
complaint@@ 374
teen@@ 374
insure 374
wid@@ 374
top.@@ 374
headline 374
were@@ 374
definitively 374
regulate 374
keg 374
.pros 374
smoothing 373
beli@@ 373
ve.i 373
carpeted 373
accompanying 373
zo@@ 373
horri@@ 373
tricks 373
origin@@ 373
humidi@@ 373
desktops 373
miniature 373
flicker 373
lls 373
victoria 373
vid 373
tickets 373
.And 373
58@@ 373
abu@@ 372
sel 372
routing 372
dg@@ 372
Whisper 372
workshop 372
card.@@ 372
speech 372
delivery.@@ 372
larger@@ 372
Very 372
sunshine 372
unusually 372
groo@@ 372
dressings 372
rinses 372
drastically 372
ssion 372
utterly 372
resonable 372
expected@@ 372
right-@@ 372
celestron 372
ariat 372
shifting 371
dishwashing 371
flickering 371
ventilated 371
EE 371
pocke@@ 371
hiss 371
sorting 371
tang@@ 371
koo@@ 371
impaired 371
less. 371
durable@@ 371
ili@@ 371
doe 371
{ 371
pig@@ 371
explore 371
tucks 371
у@@ 371
cores 371
humidor 371
docked 371
buenas 371
ggers 370
formatting 370
190 370
newspaper 370
Danskos 370
mops 370
ood 370
beforehand 370
ear-@@ 370
temper@@ 370
1080i 370
place@@ 370
corrupted 370
uti@@ 370
atly 370
t4i 370
advantages 370
moneys 370
tf@@ 370
peacock 370
lot.@@ 369
gie 369
sett@@ 369
cheapy 369
insertion 369
gth 369
Pacific 369
bie 369
twi@@ 369
mildly 369
Chuck 369
dvd-r 369
rfid 369
grates 369
NiMH 369
dvd-@@ 368
sos 368
slipp@@ 368
journey 368
armoire 368
dmc-@@ 368
compliant 368
ular 368
organiz@@ 368
gravity 368
click@@ 368
replacement.@@ 368
39@@ 368
3.00 368
bikes 368
promote 368
excel 368
rapido 368
appearing 368
Warner 368
evidently 368
,5 368
atch 368
arranged 367
mopping 367
coat@@ 367
distinguish 367
Bounty 367
dd-wrt 367
exposures 367
battlefield 367
dissapointing 367
laws 367
throughput 367
clean.@@ 367
dora 367
spra@@ 366
underarms 366
fiddling 366
uploading 366
eases 366
sprinkle 366
vostro 366
anodized 366
miserable 366
twists 366
pros@@ 366
zer@@ 366
competing 366
spillage 366
Merry 366
eller 366
mx@@ 366
deen 366
G5 366
comfy. 366
over-priced 366
have.@@ 366
tapping 366
omelet 366
7000 366
desde 365
sharpest 365
zojirushi 365
ADAPTABLE 365
pretty. 365
thee 365
from@@ 365
moldy 365
offensive 365
overflow 365
bali 365
mmy 365
pot@@ 365
plugin 365
mon 365
support.@@ 365
14k 365
type@@ 365
trouser 365
manages 365
dipping 365
A. 365
giraffe 365
triggers 365
redo 364
butt@@ 364
norpro 364
hours.@@ 364
parade 364
12-18 364
bland 364
defen@@ 364
programing 364
er.the 364
habits 364
fever 364
13-@@ 364
bott@@ 364
adverti@@ 364
doorstep 364
limitation 364
backward 364
recommended.@@ 364
bundt 364
results.@@ 364
walled 364
dj@@ 364
elf 363
memo 363
uppers 363
freight 363
sickness 363
costu@@ 363
narro@@ 363
phantom 363
satisfies 363
understandable 363
x10 363
hh@@ 363
goodbye 363
quilting 363
talla 363
scenes 363
br 363
fru@@ 363
seper@@ 363
stuhrling 363
sleepy 363
admittedly 363
it--@@ 363
splints 362
transportation 362
barrier 362
12-14 362
timed 362
ao 362
faithfully 362
tooth@@ 362
everything@@ 362
powerfull 362
driven 362
manufac@@ 362
products. 362
eyeglass 362
gold@@ 362
np-@@ 362
nurses 362
marca 362
wonder@@ 362
converters 362
color.@@ 362
beam 361
ang 361
dyed 361
crusts 361
tim@@ 361
brown@@ 361
dol@@ 361
consistant 361
cologne 361
crate 361
discolor 361
crunch 361
sailing 361
direction@@ 361
synced 361
polar@@ 361
mk@@ 361
scri@@ 360
lightness 360
looking.@@ 360
Elmo 360
squeaky 360
maroon 360
brand. 360
wks 360
spark@@ 360
eforcity 360
butcher 360
tom@@ 360
duds 360
Genie 360
sunglass 360
adverse 360
tactile 359
plastic. 359
intent 359
sav@@ 359
night. 359
fiddle 359
lowering 359
4k 359
jan@@ 359
pair. 359
domin@@ 359
emptying 359
lunch@@ 359
ravioli 359
tripping 359
absor@@ 359
scan@@ 359
discard 359
restroom 358
die@@ 358
confirmation 358
customer@@ 358
dove 358
for.I 358
beaker 358
consist@@ 358
ordered. 358
tain@@ 358
ene@@ 358
elph 358
tual 358
possi@@ 358
sweetener 358
mixers 358
actions 358
repairing 358
hf 358
laminated 358
website@@ 358
incomplete 357
spendy 357
bec@@ 357
clinical 357
header 357
mdr-@@ 357
rese@@ 357
tilting 357
jammies 357
athletes 357
tardis 357
175 357
ink@@ 357
lip@@ 357
inverter 357
buggy 357
oiled 357
disable 357
nik@@ 357
k-cup 357
lus 357
opteka 357
brita 356
ffs 356
scooter 356
liqui@@ 356
ón 356
groun@@ 356
2d 356
noble 356
flew 356
NC 356
gelatin 356
grit 356
articles 356
ples 356
eye-catching 356
blazing 356
corn@@ 356
roomier 356
puzzle 356
tradition 356
staring 355
complain@@ 355
disk@@ 355
absorbant 355
phi@@ 355
inflatable 355
tendon 355
airplay 355
droo@@ 355
coolers 355
connection@@ 355
moder@@ 355
raising 355
stressful 355
selector 355
midnight 355
retainer 355
though.@@ 355
530 355
colors.@@ 355
generate 355
gue 355
snowboarding 355
wares 354
lity 354
unit. 354
jiggle 354
ante 354
disapp@@ 354
diffrent 354
hid 354
utilized 354
ا@@ 354
ek 354
bed.@@ 354
jewerly 354
disagree 354
Crane 354
м@@ 354
oxford 354
menopause 354
13.3 354
freakin 354
get. 353
representation 353
visi@@ 353
mosquito 353
od 353
percentage 353
tamaño 353
heavenly 353
rows 353
judging 353
wir@@ 353
bumpy 353
Biotin 353
tas 353
tle 353
calfs 353
155 353
le.i 353
aviator 353
vibram 353
patriot 353
scrambled 352
atv 352
stamina 352
s.so 352
scored 352
horrid 352
old-fashioned 352
eee 352
modi@@ 352
ingenious 352
internally 352
activ@@ 352
don`t 352
representative 352
offic@@ 352
fen@@ 352
notic@@ 352
muslin 352
ava@@ 352
y--@@ 352
go-@@ 352
tv.@@ 352
strangely 352
metric 352
64bit 352
picture.@@ 352
envelopes 352
doubtful 351
starters 351
seperately 351
buildings 351
blue-ray 351
issue.@@ 351
replacment 351
caring 351
ave 351
suitcases 351
choo@@ 351
lier 351
yi 351
280 351
ddy 351
cider 351
scen@@ 351
scribe 351
itch@@ 350
180@@ 350
never@@ 350
logos 350
heights 350
reel 350
unreal 350
lock@@ 350
coils 350
hostess 350
handicapped 350
podcasts 350
unflattering 350
fast.@@ 350
furnace 350
t.I 350
5-7 350
backdrops 350
cand@@ 350
mped 350
compar@@ 350
odds 350
landfill 350
tended 349
marriage 349
excellent@@ 349
rib 349
yucky 349
slows 349
gravel 349
aa 349
hook-up 349
usb 349
soothes 349
swift 349
hooray 349
tri-@@ 349
cuddle 349
kon 349
koss 349
diferent 348
pvc 348
cubic 348
outage 348
hardcore 348
step@@ 348
remembering 348
polarizer 348
quarters 348
evil 348
inf@@ 348
replic@@ 348
astro@@ 348
yrs. 348
som@@ 348
breath@@ 348
react 348
í 348
sacrifice 348
flimsier 348
warping 348
percolator 348
wounds 348
д@@ 348
factor@@ 348
weeks. 348
waxed 348
wolverine 348
bare@@ 347
pottery 347
far.@@ 347
channel@@ 347
retention 347
sandal@@ 347
mere 347
xti 347
watery 347
resi@@ 347
vented 347
enhancement 347
512 347
Mystery 347
Rachel 347
obtained 347
point@@ 347
groomsmen 347
sma 347
flaky 347
quality-@@ 347
110V 347
motiv@@ 347
civic 347
Z@@ 347
step-@@ 347
PDF 347
ones.@@ 346
18-55 346
attitude 346
isolate 346
space. 346
complic@@ 346
welded 346
maxed 346
predicted 346
heat@@ 346
blue-@@ 346
rested 346
dding 346
offices 346
anything@@ 346
stew 346
ri 346
splurge 346
badger 346
excessively 346
detectors 346
acted 346
thr 346
hoody 346
golfing 346
tum@@ 346
poli@@ 346
marvel 346
wrinkly 345
foto 345
dingy 345
itz 345
ories 345
d40 345
pumas 345
baught 345
loosening 345
rivets 345
it.but 345
splinters 345
Twilight 345
Xlarge 345
е 345
illuminated 345
clin@@ 345
frees 345
compo@@ 345
soun@@ 345
wai@@ 345
malfunctioning 345
cuando 344
strong@@ 344
lightweight@@ 344
small.I 344
destroying 344
lumin@@ 344
thrift 344
If 344
minutes.@@ 344
-size 344
mite 344
camel 344
balancing 344
endure 344
craving 344
9.95 344
lauren 344
frosted 344
flake 344
ous. 344
beading 344
econs 344
pear@@ 344
midland 343
unseen 343
ich@@ 343
ot@@ 343
mx 343
dar 343
67@@ 343
gif@@ 343
lobes 343
business@@ 343
non-existent 343
somthing 343
pictures. 343
dis 343
ible 343
tweak 343
3xl 343
nicely.@@ 343
hiccups 343
customizable 343
Rum 343
USD 343
bandwidth 343
dered 343
everything. 343
Scholl 342
sol 342
bes 342
vers@@ 342
quarts 342
strapped 342
consider@@ 342
B-12 342
tinted 342
usar 342
tters 342
Adams 342
downward 342
inven@@ 342
requests 342
in-laws 342
adjustability 342
adventures 342
X@@ 342
life. 342
educational 342
trash@@ 342
this.I 342
sparks 342
glasses. 342
sk 341
kies 341
watch.@@ 341
rendered 341
bron@@ 341
zu@@ 341
perk 341
83 341
x5 341
cx@@ 341
crib 341
c.@@ 341
convient 341
booting 341
ocz 341
globe 341
need.@@ 341
lansing 341
shoul@@ 340
mechanic 340
veri@@ 340
purely 340
44@@ 340
spotty 340
crisp@@ 340
cared 340
sprint 340
pH 340
complimentary 340
kiddos 340
nighttime 340
overcome 340
promotion 340
recognizing 340
service. 340
switcher 340
capacitor 340
bleeds 340
metal@@ 339
oni@@ 339
officer 339
partly 339
acti@@ 339
chi 339
han 339
shatter 339
trendnet 339
fab@@ 339
gau@@ 339
contraption 339
cried 339
hydro@@ 339
.............. 339
They 339
beefy 339
boutique 339
insisted 339
friend.@@ 339
cheesecake 339
progra@@ 339
shi 339
buckets 339
cheeks 338
gee@@ 338
stopwatch 338
db@@ 338
thinnest 338
14.@@ 338
conceal 338
tted 338
pat 338
roasted 338
envio 338
evidence 338
crackling 338
template 338
drive.@@ 338
time.It 338
capezio 338
putty 338
8.0 338
dark@@ 338
irrit@@ 337
proo@@ 337
thu@@ 337
house.@@ 337
baggie 337
bakery 337
2.00 337
bigger@@ 337
d-up 337
matt 337
eyesight 337
unfold 337
tron 337
pesky 337
dimmer 337
hamburgers 337
adver@@ 337
porque 337
amazing.@@ 337
noses 337
belive 337
spreads 337
while. 337
pennies 337
others. 336
flowy 336
compart@@ 336
ghty 336
conforms 336
Russian 336
did. 336
925 336
legacy 336
strainers 336
cyber@@ 336
53 336
sediment 336
sick@@ 336
beers 336
hahaha 336
escort 336
softened 336
outages 336
88@@ 336
facil 335
sub-woofer 335
ism 335
personalize 335
medic@@ 335
seas@@ 335
crt 335
ono@@ 335
shove 335
eled 335
fx@@ 335
sati@@ 335
fortunate 335
kettles 335
americ@@ 335
beta 335
-and-@@ 335
300mm 335
alienware 335
slap 335
rider 335
unevenly 335
problema 335
1.00 335
rhinestone 334
unpack 334
beleive 334
Thailand 334
tape@@ 334
iodine 334
niacin 334
razer 334
coughing 334
jury 334
defense 334
interval 334
kayak 334
flimsy@@ 334
inform@@ 334
brilliantly 334
caramel 334
drive. 334
dle 334
dlink 334
prayer 334
combs 334
ered 334
faceplate 333
jaw 333
ported 333
clinic 333
dac 333
Sept 333
studies 333
Wisconsin 333
beauti@@ 333
well- 333
seem@@ 333
jean@@ 333
ty-@@ 333
quad@@ 333
54@@ 333
ggy 333
dable 333
poached 333
dB 333
it.Very 333
len 333
muchas 333
septic 333
ments. 333
panda 333
practicing 333
presets 333
145 332
.well 332
frag@@ 332
freshener 332
eater 332
arrange 332
cover. 332
deployment 332
thor@@ 332
excel@@ 332
powerbook 332
hf@@ 332
turing 332
fabulously 332
pilled 332
realiz@@ 332
MIL 332
zipping 332
gic 332
Nov 332
ero 332
log@@ 332
pistol 332
cartilage 332
VA 332
upwards 332
simpson 332
120hz 332
distribute 331
lattes 331
move@@ 331
instructor 331
toxins 331
one.It 331
fixture 331
recommen@@ 331
favorite@@ 331
structured 331
famil@@ 331
--just 331
snugger 331
wtf 331
dumped 331
access@@ 331
support. 331
survivor 331
well-packaged 331
peripheral 331
home. 331
pu 331
blade@@ 331
lars 331
zen@@ 331
eci@@ 331
ela@@ 331
homeopathic 331
expedited 331
walkie 331
slimline 331
fuses 331
employee 331
electro@@ 330
flatscreen 330
sturdiest 330
sweeping 330
FedEx 330
Xtra 330
charger. 330
sten@@ 330
moisturized 330
vital 330
explains 330
price- 330
werent 330
rotated 330
sharpie 330
repellent 330
fotos 330
requesting 330
contain@@ 330
-y 330
tutorial 330
к@@ 330
compre@@ 330
depression 330
quality.the 330
arsenal 330
push@@ 330
illness 329
flesh 329
carpeting 329
onally 329
fair@@ 329
diminished 329
superbly 329
surprise@@ 329
tablet.@@ 329
pet@@ 329
acquire 329
sever@@ 329
expectations.@@ 329
ric 329
urge 329
demands 329
forearm 329
shreds 329
ero@@ 329
ook 329
additions 329
deleted 329
god@@ 329
quilts 329
cities 329
short. 329
Unlimited 329
avi@@ 329
sharp@@ 329
Minolta 329
eco-drive 329
bokeh 328
sharpens 328
eventhough 328
towel@@ 328
difficul@@ 328
in-law 328
desperately 328
.otherwise 328
make-up 328
78@@ 328
dant 328
6x9 328
guage 328
eal 328
lessen 328
TENS 328
adored 327
happiness 327
thoughtful 327
tractor 327
foggy 327
wording 327
stuffs 327
gues 327
ate. 327
ffed 327
ross 327
63 327
son. 327
arrangement 327
blessed 327
esti@@ 327
barnes 327
aviators 327
water. 327
poun@@ 327
grow@@ 327
-style 327
chocolates 327
biker 327
hou@@ 327
descri@@ 327
Waring 327
foe 327
tender@@ 327
manuals 327
archos 327
rep@@ 326
batteries. 326
sible 326
passenger 326
inted 326
lease 326
photographing 326
clocks 326
etly 326
scu@@ 326
bt@@ 326
connector@@ 326
girth 326
muito 326
eye-@@ 326
x4 326
picnics 326
aide 326
gon@@ 326
sketchy 326
estos 326
wart 326
outdoor@@ 326
acorn 326
profit 325
dru@@ 325
apart. 325
ont 325
pocketbook 325
undo 325
ttes 325
tshirts 325
needs.@@ 325
apo@@ 325
stoked 325
tht 325
insul@@ 325
cks 325
rough@@ 325
pleather 325
1.5@@ 325
generator 325
sma@@ 325
Housewarming 325
ising 325
weak@@ 325
69@@ 325
leverage 325
navigating 325
complications 325
tough@@ 325
taps 325
flashlights 325
performance.@@ 325
rw 324
smidge 324
captured 324
job.@@ 324
ike 324
instruction@@ 324
adapted 324
distributed 324
insomnia 324
dandy 324
faithful 324
orange@@ 324
panini 324
flopping 324
handbags 324
ribbed 324
defected 324
tabletop 324
complaints. 324
spool 324
electr@@ 324
expire 324
edging 324
tumble 324
skyrim 324
literature 324
Bic 324
vacuumed 324
ed.it 324
turtleneck 324
payment 324
vtech 324
fron@@ 323
soaks 323
certificate 323
Mach 323
whe@@ 323
hours. 323
month. 323
7-inch 323
cas@@ 323
handlebar 323
emp@@ 323
balms 323
surfac@@ 323
grande 323
befor 323
versitile 323
s.a 323
speakers. 323
easel 323
greenish 323
valet 323
Mum 323
aero@@ 323
s.not 323
jungle 323
station@@ 323
W 323
-not 323
shipping@@ 323
curled 323
Greek 323
routes 323
flosser 323
burn@@ 322
sonido 322
fts 322
midrange 322
drys 322
party@@ 322
4.0 322
resemble 322
retirement 322
kit@@ 322
aries 322
SUV 322
prominent 322
me.The 322
awg 322
temp@@ 322
meatloaf 322
retaining 322
impulse 322
incre@@ 322
stoped 322
konov 322
uhf 322
worke@@ 322
yu@@ 322
accep@@ 322
notches 322
derby 322
tel 321
single-@@ 321
stiff@@ 321
designers 321
MPH 321
exists 321
gett@@ 321
properly.@@ 321
silverado 321
Definitley 321
restless 321
begin@@ 321
dit 321
Ro@@ 321
– 321
wonderful. 321
oxi@@ 321
slits 321
fave 321
contractor 321
impeccable 321
clip-on 321
boob 321
ands 321
scraped 321
religiously 321
contro@@ 321
hooded 321
unit@@ 321
nan@@ 321
crying 321
Optic 321
dancer 321
equipo 321
itive 321
AUTHORIZED 321
insects 321
glucosamine 321
200.00 320
veg@@ 320
roc@@ 320
ops 320
aggravation 320
realmente 320
frost 320
wheel@@ 320
unk 320
Rosewill 320
trace 320
ibook 320
conden@@ 320
ereader 320
mushrooms 320
gender 320
tasteless 320
confort 320
legal 320
convention 320
transcend 320
anywhere@@ 320
watered 320
specification 320
sipping 320
wrong. 320
bumping 320
soon@@ 320
speedlite 320
coordinates 319
rude 319
blurred 319
anticipating 319
causal 319
before. 319
sturdy@@ 319
advertise@@ 319
divi@@ 319
d600 319
be.@@ 319
za@@ 319
perfumes 319
chro@@ 319
burr 319
Kleenex 319
oooo 319
itself@@ 319
mir@@ 319
expectation@@ 319
bull 319
positively 319
artisan 319
idad 319
crayons 319
wife@@ 319
76 319
nutmeg 319
chewy 319
inj@@ 319
fiestaware 319
boosted 318
.Thanks 318
diarrhea 318
tm 318
erc@@ 318
rr 318
i`m 318
sb-@@ 318
clou@@ 318
muck 318
pounding 318
it.Thank 318
listens 318
protector@@ 318
laced 318
spacers 318
puddle 318
crepe 318
interferes 318
Mama 318
bracelet@@ 318
wierd 318
shoppers 318
briefly 318
dollar@@ 318
thinness 318
halves 318
fingernails 318
trimmers 318
transmitting 318
midwest 318
salts 318
Axe 317
dtv 317
restricted 317
gift@@ 317
pice 317
anime 317
GI 317
bricks 317
verall 317
teakettle 317
regi@@ 317
s.you 317
brow@@ 317
pre-workout 317
off.I 317
pos 317
refrigerated 317
kitchen. 317
noting 317
quality- 317
syringe 317
arived 317
vhf 317
580 317
Embossed 317
progressive 316
nois@@ 316
yi@@ 316
6-9 316
product- 316
itely 316
all-in-all 316
bush 316
outfit@@ 316
Sol 316
awareness 316
flim@@ 316
unsafe 316
ab 316
surpasses 316
transmits 316
vos 316
software@@ 316
jewelers 316
zester 316
space@@ 316
8x 316
Krill 316
sill 315
Jones 315
5w 315
weakness 315
interviews 315
Di 315
forty 315
machine.@@ 315
first-@@ 315
circulate 315
worked. 315
reflections 315
vered 315
portrayed 315
expose 315
remedied 315
thermals 315
void 315
oriented 315
consequently 315
--a 315
ergonomically 315
romantic 315
designing 315
pag@@ 315
plo@@ 315
6d 315
pk@@ 314
casu@@ 314
shimmer 314
aler@@ 314
wards 314
hipster 314
attended 314
malfunctioned 314
combines 314
degrade 314
fter 314
x3 314
responses 314
anymore. 314
Wort 314
's@@ 314
four-@@ 314
shredding 314
maximize 314
identified 314
Mrs. 314
CC 314
rect 314
simplehuman 314
cherries 314
did@@ 314
ah@@ 314
washcloths 314
bulk@@ 314
off-brand 314
Betty 314
toasters 314
tines 313
CREEPY 313
whipping 313
customized 313
vapor 313
filing 313
trouble@@ 313
adul@@ 313
attache@@ 313
degre@@ 313
of-@@ 313
ortho@@ 313
gold 313
steampunk 313
cuteness 313
broken. 313
ч@@ 313
leica 313
waterproofing 313
ket 313
d700 313
reco@@ 312
flawless@@ 312
thri@@ 312
itting 312
puc@@ 312
dispo@@ 312
communications 312
irritates 312
done.@@ 312
79@@ 312
static@@ 312
practices 312
surpri@@ 312
ago.@@ 312
chur@@ 312
setting@@ 312
concer@@ 312
aling 312
f150 312
etched 312
else. 312
finepix 312
mislead 312
respec@@ 312
clogging 312
robeez 312
d5000 312
oooo@@ 312
steams 312
merrells 312
lite@@ 312
boxing 312
constricting 312
recharger 312
mouses 312
addressed 312
donut 311
grommets 311
sequence 311
sooooooo 311
strand 311
rotary 311
concealed 311
best.@@ 311
cloves 311
plun@@ 311
dvd 311
eager 311
hissing 311
batt 311
card. 311
casseroles 311
officially 311
d.they 311
frien@@ 311
komputerbay 311
pay@@ 311
tdk 311
package. 311
drown 311
sped 311
dispenses 311
grated 311
appetizers 311
triangle 311
disco 310
dolby 310
ant. 310
intervals 310
fitflop 310
sar@@ 310
ene 310
out-@@ 310
frogs 310
and-@@ 310
daybed 310
170@@ 310
awfully 310
resembles 310
er.it 310
bounces 310
pcie 310
onyx 310
diseño 310
inte@@ 310
kinks 310
blow@@ 310
wacoal 310
cousins 310
lectures 310
amped 310
readjust 310
foul 309
acoustic 309
bastante 309
designe@@ 309
leans 309
desing 309
presario 309
regar@@ 309
usb-@@ 309
ning@@ 309
ver.@@ 309
autumn 309
fz@@ 309
ding@@ 308
ally. 308
buenos 308
camera.i 308
conve@@ 308
typed 308
ally@@ 308
grippers 308
Valley 308
graph@@ 308
tween 308
style.@@ 308
s.thanks 308
fanta@@ 308
program@@ 308
goose 308
scraps 308
tuna 308
day-@@ 308
15.@@ 308
grabber 308
glittery 308
warranty@@ 308
blog 308
dles 308
spon@@ 308
512mb 308
widely 307
Indiana 307
like. 307
deadline 307
gr8 307
.So 307
unpacking 307
sparingly 307
battery@@ 307
versa 307
balances 307
dug 307
bli@@ 307
dinning 307
220@@ 307
yellowish 307
Disneyland 307
cookbooks 307
Korean 307
lactose 307
suppress 307
manag@@ 307
s.and 307
d3@@ 307
davidson 307
epilator 307
flasks 307
boats 307
blonde 307
screams 307
UTI 307
onics 306
underarm 306
crevices 306
drift 306
inform 306
extra-@@ 306
earing 306
misrepresented 306
car. 306
pumped 306
freshen 306
rag@@ 306
heeled 306
meter@@ 306
70-@@ 306
maple 306
shoveling 306
pop@@ 306
subjects 306
pour@@ 306
penis 306
splitters 306
expectations. 306
sely 306
ario 306
side-@@ 306
i-phone 306
claws 306
fedora 306
borrowing 306
pkg 306
Bar@@ 306
obtrusive 306
choppy 306
ryka 306
compa@@ 306
admini@@ 306
thin. 306
minded 306
excelentes 306
trainers 306
goja 306
qualify 306
skir@@ 305
detergents 305
top-notch 305
gage 305
symbols 305
oner 305
improve@@ 305
strea@@ 305
legend 305
James 305
mango 305
itty 305
complemented 305
easy-@@ 305
intestinal 305
es- 305
ros@@ 305
bialetti 305
whir@@ 305
properly. 305
characteristics 305
whil@@ 305
iter 305
replacement. 305
fin 304
photograph@@ 304
WW 304
okay. 304
trustworthy 304
exper@@ 304
ing.this 304
insufficient 304
cramp 304
projec@@ 304
strengthen 304
98@@ 304
whine 304
mentioning 304
ik@@ 304
awesomely 304
zon 304
Fred 304
costume. 304
andi 304
audiobooks 304
bristle 304
fumes 304
addresses 304
myself. 304
seen@@ 304
replace@@ 304
about@@ 304
commuter 304
MSM 304
snoo@@ 304
patchouli 304
on-off 303
sandpaper 303
desks 303
easly 303
vpn 303
clear. 303
25-@@ 303
sures 303
avocado 303
budge 303
rechargeables 303
lovel@@ 303
discharged 303
tta 303
viera 303
MECHANICALLY 303
weber 303
vil@@ 302
tus 302
recieving 302
schoo@@ 302
spike 302
remodel 302
small-@@ 302
debated 302
hands-free 302
retained 302
get.@@ 302
airing 302
blen@@ 302
FIT.I 302
mber@@ 302
Thank-you 302
career 302
com. 302
soled 302
meantime 302
passages 302
batter@@ 302
entrance 302
dieting 302
red-@@ 302
subwoofers 302
ceilings 302
v2 302
mely 302
alle@@ 302
horns 302
forum 301
prop@@ 301
bulges 301
d5@@ 301
xsi 301
browse 301
person. 301
uch 301
boots.@@ 301
660 301
potholders 301
compac@@ 301
envisioned 301
sums 301
rectangle 301
wilson 301
strap@@ 301
mast 301
3s 300
vietnam 300
lay@@ 300
maxim@@ 300
outlook 300
episode 300
explanatory 300
generates 300
prevention 300
peg 300
bc@@ 300
Lo@@ 300
ringer 300
saturated 300
kool 300
awe@@ 300
surges 300
re-use 300
rs@@ 300
♥ 300
aju@@ 300
waist@@ 300
rented 300
tell@@ 300
mazda 300
Montana 300
— 300
rubbish 299
ipod. 299
preferences 299
drums 299
mies 299
package.@@ 299
pronounced 299
joseph 299
absolu@@ 299
therapeutic 299
textbooks 299
gluing 299
scanning 299
reveal 299
140@@ 299
cking 299
launders 299
pus 299
quil@@ 299
heartily 299
renders 299
poetic 299
hen 298
acked 298
executed 298
avi 298
tory 298
applic@@ 298
nextbook 298
tz@@ 298
waters 298
edgy 298
load@@ 298
mart 298
juic@@ 298
X-Small 298
gf@@ 298
separator 298
shorting 298
dest 298
silence 298
drew 298
fiio 298
choker 298
boa 298
saucers 298
plex 298
diagram 298
dinosaurs 298
tick@@ 298
passports 298
rest@@ 298
sonos 298
cache 298
blu-rays 298
j-@@ 298
m2 298
co2 298
nicel@@ 297
socks. 297
soft-@@ 297
elated 297
designated 297
heavy. 297
nes 297
leash 297
ST@@ 297
convince 297
fitt@@ 297
Cosmetics 297
accu@@ 297
wad 297
cir@@ 297
summary 297
gripper 297
rehab 297
prin@@ 297
so-@@ 297
OE 297
entertained 296
recie@@ 296
gals 296
odor@@ 296
1500@@ 296
punched 296
eck 296
baggies 296
shape. 296
glaze 296
phy@@ 296
1800 296
3ds 296
bobs 296
xl@@ 296
bbing 296
Scott 296
nearest 296
quali@@ 296
ums 296
zooming 296
looking@@ 296
stion 296
superglue 296
postal 296
frequ@@ 296
choic@@ 296
crushes 296
import@@ 296
pinches 296
one.The 296
tare 296
Zealand 296
bought. 295
120mm 295
discovering 295
mid-range 295
9m 295
armpit 295
preforms 295
52mm 295
isolating 295
1200@@ 295
medicines 295
relaxation 295
cameras@@ 295
recommendable 295
ln@@ 295
generated 295
handsets 295
helpful@@ 295
vy 295
ards 295
conten@@ 295
Russell 295
danner 295
winning 295
suppo@@ 295
swe@@ 295
celebration 295
Gate 295
casters 295
reheating 295
iled 295
drea@@ 295
Zest 295
doable 295
Phoenix 295
1d 295
waterbed 295
acking 295
wer@@ 295
desp@@ 294
gate 294
sylvania 294
Diego 294
sure. 294
dnt 294
should. 294
satisfied.@@ 294
--very 294
pill@@ 294
hideous 294
ded. 294
wins 294
styl@@ 294
Miami 294
dolls 294
engaged 294
expensive@@ 294
flames 294
height@@ 294
ings. 294
while.@@ 294
hemp 294
situ@@ 294
earpads 294
xx 294
upsetting 294
psy@@ 294
fastening 294
topped 294
aron 294
adv@@ 293
lens. 293
parece 293
ch-@@ 293
grou@@ 293
demo 293
kd@@ 293
s.thank 293
drainage 293
fixable 293
emer@@ 293
maker@@ 293
grapes 293
tiv@@ 293
hydrated 293
hog 293
Daisy 293
THEFT 293
only@@ 293
riedel 293
kink 293
buckwheat 293
ket@@ 293
gab@@ 293
excep@@ 293
optoma 293
easily@@ 293
5.25 293
eco-friendly 292
essence 292
ded.@@ 292
29.99 292
spicy 292
Kirkland 292
geor@@ 292
revi@@ 292
dough@@ 292
sensible 292
shea@@ 292
lla 292
effici@@ 292
able.i 292
350@@ 292
telescoping 292
nice.I 292
ern@@ 292
taxes 292
sugars 292
town@@ 292
walle@@ 292
--this 292
water-@@ 292
ousl@@ 292
robo@@ 292
310 292
ranch 291
radiation 291
ace@@ 291
spotted 291
git@@ 291
ed-@@ 291
ation.i 291
i3 291
good.It 291
smashing 291
stimul@@ 291
zation 291
reinforce 291
highlight 291
bangles 291
limiting 291
by-@@ 291
mermaid 291
seafood 291
lates 291
youll 291
ownership 291
п@@ 291
Premier 291
'n 291
had.@@ 291
christian 291
monroe 291
accessori@@ 291
contamin@@ 290
ew@@ 290
watchers 290
dunno 290
Formulas 290
diluted 290
az@@ 290
ii@@ 290
clings 290
positi@@ 290
idea@@ 290
soooooo@@ 290
bait 290
stee@@ 290
scru@@ 290
informative 290
Dads 290
16th 290
6mm 290
equals 290
sandalwood 290
shooter 290
illa 290
obstruc@@ 290
billed 290
smoothness 290
glamorous 290
batters 290
duper 290
amino 290
scientific 290
knuckles 290
admire 290
wimpy 289
needs. 289
art@@ 289
slush 289
wieght 289
wear.@@ 289
fragrances 289
implies 289
wold 289
novel 289
classics 289
jewel@@ 289
perspiration 289
cree@@ 289
ades 289
lin 289
ese 289
ener@@ 289
Inc 289
oD 289
shutoff 289
stir@@ 289
ments.@@ 289
ash 289
salomon 289
favor@@ 289
gary 289
uu@@ 289
recognizable 289
snuggie 289
cd-r 289
manor 289
gauges 289
Lilac 289
s4@@ 289
consoles 289
stings 288
thread@@ 288
restrictive 288
ues 288
informal 288
drab 288
rusts 288
vir@@ 288
powerline 288
resources 288
sor 288
evapor@@ 288
her. 288
ghosting 288
johns 288
hyper 288
5g 288
laughing 288
pleased.@@ 288
P.S. 288
poof 288
alled 288
player. 288
revere 288
drop@@ 288
eucalyptus 288
apar@@ 288
`t 288
seas 288
puchased 288
e-mails 288
joined 288
760 288
cctv 288
ris 288
size-@@ 288
---- 287
law@@ 287
reposition 287
wide-@@ 287
tuff 287
xbox360 287
bid 287
icons 287
Iraq 287
Trading 287
big-@@ 287
hoses 287
skating 287
atively 287
esperaba 287
's.@@ 287
mushy 287
t1i 287
pak 287
ached 287
Maxx 287
dead@@ 287
tickled 287
smartwool 287
stered 287
livingroom 287
gorge@@ 287
warranties 287
olives 287
ord 286
solu@@ 286
.excellent 286
es.the 286
bi 286
more.I 286
speedlight 286
strict 286
cowgirl 286
emptied 286
pec@@ 286
sha 286
carat 286
bubba 286
matter@@ 286
hehe 286
grad 286
artistic 286
daugher 286
goals 286
dislikes 286
hd-@@ 286
embedded 286
transformers 286
emul@@ 286
audi 286
jock 286
delivery. 285
head. 285
stil@@ 285
assistant 285
scons 285
centers 285
devi@@ 285
own@@ 285
plump 285
dvi-d 285
ild 285
stickiness 285
girlie 285
pleased. 285
s---@@ 285
are. 285
sodium 285
wetting 285
cryst@@ 285
composition 285
full-size 285
better.I 285
tment 285
hand. 285
line@@ 285
eyecup 285
oscillating 285
hush 285
arise 284
cubicle 284
bulging 284
print@@ 284
CoQ10 284
gil@@ 284
corner@@ 284
ush 284
returnable 284
widest 284
til@@ 284
clothesline 284
zoo@@ 284
y.this 284
anything.@@ 284
hing 284
reddish 284
nigh@@ 284
whiten 284
bill@@ 284
.If 284
offerings 284
reliever 284
slotted 284
vita@@ 284
approval 284
retri@@ 284
ADEMAS 284
earmuffs 284
inser@@ 283
accor@@ 283
advi@@ 283
outgrew 283
nish 283
kb 283
glove@@ 283
celebr@@ 283
blinks 283
over-sized 283
reds 283
Mocha 283
counterfeit 283
mega@@ 283
tical 283
medium-@@ 283
detract 283
mented 283
sured 283
Puffs 283
tweezer 283
skeptic 282
cloth@@ 282
economic 282
suppli@@ 282
outta 282
instructional 282
it.My 282
aller@@ 282
hp@@ 282
slowing 282
macular 282
dress. 282
peices 282
accessed 282
county 282
lateral 282
comfotable 282
promising 282
mel 282
ala 282
slowed 282
outline 282
public@@ 282
spur 282
ttle 282
outstand@@ 282
aly@@ 282
constric@@ 282
shocks 282
hmmm 282
player.@@ 282
sso 282
'am 282
frea@@ 282
in-between 282
iser 282
sliver 282
old-@@ 282
ext 282
3tb 282
magenta 282
veil 282
stra 282
sterile 281
más 281
off-white 281
soap@@ 281
collectors 281
SF 281
inspect 281
bas@@ 281
friends. 281
ceased 281
lags 281
kered 281
bearings 281
blingy 281
cker 281
presently 281
contours 281
bubb@@ 281
junk. 281
cognac 281
understand@@ 281
ini 281
cartoon 281
settling 281
pebble 281
todas 281
funnels 281
expecte@@ 281
squaretrade 281
.These 280
dig@@ 280
memor@@ 280
seniors 280
stare 280
snazzy 280
fumbling 280
timeframe 280
ento 280
unsatisfactory 280
disappoin@@ 280
workplace 280
huh 280
sony 280
exit 280
pp 280
carpenter 280
unibody 280
mercury 280
cell@@ 280
pedi 280
wicker 280
honey@@ 280
pci-e 280
80-@@ 280
trail@@ 280
headpiece 280
amongst 280
explode 280
parrot 280
sash 280
tch 280
muddler 280
upto 280
insignia 280
cornbread 280
condiments 280
strong. 279
cual 279
ornament 279
karaoke 279
smoo@@ 279
birth@@ 279
velcro@@ 279
crisper 279
distributes 279
halter 279
shutdown 279
LOBE 279
aur@@ 279
10K 279
deter 279
grooming 279
-wise 279
swabs 279
dermatologist 279
Swirl 279
flea 279
plasticky 279
detects 279
danced 279
line-@@ 279
disintegrated 279
dog@@ 279
Charlie 279
dan 279
Lenox 278
thieves 278
authenticity 278
doub@@ 278
gru@@ 278
lator 278
playlist 278
po 278
mbles 278
ي@@ 278
v. 278
vouch 278
kni@@ 278
testosterone 278
blueberry 278
ww@@ 278
lc@@ 278
razr 278
jay 278
happy@@ 278
rockports 278
slanted 278
aggravating 278
commuting 278
legged 278
indicators 278
patrick 278
win-win 278
movable 278
bell@@ 278
geat 277
itu@@ 277
promise@@ 277
lump 277
upd@@ 277
imagen 277
deserved 277
fins 277
perf@@ 277
nick@@ 277
d7100 277
sper@@ 277
deg 277
chr@@ 277
same@@ 277
punk 277
work-@@ 277
gn 277
20s 277
eron 277
fers 277
bark 277
hilfiger 277
CLAM 277
dumping 277
't.@@ 277
nc@@ 277
claiming 277
setups 277
thermaltake 277
taper 277
Lane 277
rooster 277
pickles 277
callus 277
Advil 277
insect 276
excellence 276
techno@@ 276
painfully 276
nauseous 276
outgrow 276
vacu@@ 276
rack@@ 276
prom@@ 276
two@@ 276
56@@ 276
minutes. 276
apart@@ 276
sna@@ 276
miscellaneous 276
dn@@ 276
tom 276
bays 276
hygiene 276
motif 276
write@@ 276
saggy 276
graduate 276
ddr2 276
custo@@ 276
sweeteners 276
grin@@ 276
chec@@ 276
vignetting 276
vastly 276
holmes 276
160@@ 276
hasta 276
docu@@ 276
74 276
iously 276
inpu@@ 275
portab@@ 275
barbie 275
quick. 275
marin@@ 275
weapon 275
tweeter 275
mints 275
accur@@ 275
ox 275
belief 275
purchase.I 275
raz@@ 275
gang 275
tsp 275
suppor@@ 275
coverlet 275
consu@@ 275
al.i 275
havn 275
upholstery 275
broad@@ 275
searches 275
leader 275
leisure 275
scum 275
б@@ 275
rained 275
labtop 275
skinomi 275
poin@@ 275
is.@@ 275
tarnishing 275
gusta 275
mooz 275
a500 275
contract 274
baths 274
shiping 274
things. 274
intentionally 274
entr@@ 274
compromised 274
vests 274
refunding 274
incoming 274
ries 274
trusty 274
andit 274
kiddo 274
1300 274
cheesecloth 274
sugar@@ 274
leaky 274
notification 274
3-pack 274
165 274
vd 274
popsicles 274
dave 274
UNDERGARMENTS 274
cleanings 274
rev 274
tacos 274
cheer 274
sneaker@@ 274
satisfied@@ 274
rebooted 274
easy-to-use 274
bandaids 274
md@@ 274
roommates 274
nana 274
scones 274
gou@@ 273
confined 273
ough 273
med. 273
aciones 273
test@@ 273
2,@@ 273
tingling 273
OCD 273
satisfied. 273
Omega-3 273
jugs 273
seven@@ 273
depicts 273
pai@@ 273
perfe@@ 273
here.@@ 273
knotted 273
goblets 273
bubbling 273
upward 273
FUZE 273
factors 273
carryon 273
ful. 273
earring@@ 273
preamp 273
spacer 273
AN@@ 273
gooey 273
carboy 273
thi 273
J. 273
design.@@ 273
f.@@ 273
ovulation 273
basin 273
mly 273
nab@@ 273
backgrounds 273
teri@@ 273
eyelets 273
5100 273
mock 273
injector 273
teething 272
ticks 272
mower 272
emplo@@ 272
hand-held 272
suspected 272
Jackson 272
ena 272
republic 272
unaware 272
cf@@ 272
lieu 272
order. 272
Whirlpool 272
reali@@ 272
feared 272
pinkish 272
compressor 272
collections 272
trad@@ 272
3.99 272
progre@@ 272
legos 272
outgrown 272
prefered 272
how@@ 272
-3 272
beaded 272
Singapore 272
saucer 272
alization 272
sphere 272
780 272
inside. 272
miz 272
aluminium 272
warrior 271
Re@@ 271
2a 271
eeee 271
first@@ 271
integration 271
cheer@@ 271
ontime 271
simplest 271
ros 271
heav@@ 271
discre@@ 271
34b 271
breezy 271
Francisco 271
ruler 271
impractical 271
gle 271
eeee@@ 271
d60 271
lantern 271
tches 271
ph 271
Husky 271
pir@@ 271
ud@@ 271
8.00 271
gp@@ 271
badass 271
jacket@@ 271
perfor@@ 271
jawbone 271
siding 271
4.3 270
reformat 270
x64 270
christening 270
bigger. 270
available.@@ 270
quar@@ 270
impressions 270
.buy 270
fashion@@ 270
sheepskin 270
heaviest 270
spouts 270
pls 270
aint 270
neutr@@ 270
get-@@ 270
ston 270
tingle 270
ornaments 270
wrinkling 270
quits 270
replied 270
geocaching 270
s-- 270
55mm 270
Bosch 270
kins 270
gaining 270
shou@@ 270
lind@@ 270
incredi@@ 270
rj45 270
inciden@@ 270
graphy 270
poncho 270
sateen 269
overload 269
etching 269
mules 269
Mexican 269
remarks 269
305 269
ED 269
traded 269
recogni@@ 269
pixel@@ 269
ohms 269
problem.I 269
lent 269
melon 269
brain@@ 269
resets 269
nzxt 269
Oct 269
hhh 269
ruff 269
uck 269
bartender 269
pefect 269
faults 269
defecti@@ 269
ency 269
BANS 269
spigot 269
comforable 269
knowledgeable 269
teaspoons 269
exelent 269
Viking 269
risers 269
d200 269
550@@ 268
princesses 268
moi@@ 268
squeaks 268
handlebars 268
occasion@@ 268
degeneration 268
bble 268
years.I 268
SUBMITTED 268
4x@@ 268
eno 268
separ@@ 268
.had 268
unreadable 268
hulk 268
requi@@ 268
deficiency 268
do.I 268
ce. 268
ux 268
popsicle 268
suspicious 268
satis@@ 268
mandoline 268
85@@ 268
explaining 268
neato 268
cp 268
Sams 267
centerpiece 267
logs 267
reflected 267
imaging 267
tro 267
penn@@ 267
210@@ 267
interfaces 267
receive@@ 267
admirably 267
competitively 267
horror 267
acids 267
perfu@@ 267
bloody 267
dier 267
oakleys 267
60.00 267
partition 267
articulo 267
knife@@ 267
customs 267
tial 267
recomendable 267
aval@@ 267
bloo@@ 267
petroleum 267
not-@@ 267
noise@@ 267
ques 267
No 267
netbooks 267
wells 267
And 267
spell 267
bates 267
carr@@ 267
• 267
DP 266
inclu@@ 266
enemy 266
stow 266
pas 266
device. 266
experien@@ 266
purchaser 266
restful 266
handkerchiefs 266
sweat@@ 266
piece. 266
synchron@@ 266
neede@@ 266
-a-@@ 266
nautical 266
caplets 266
subway 266
sia 266
3mm 266
intelligent 266
pink@@ 266
gear@@ 266
transformed 266
choke 266
amplify 266
comodos 266
exelente 266
We 266
infact 266
rocked 266
sister@@ 266
mannequin 266
inability 266
accounts 266
arrive@@ 266
80gb 266
ss. 266
jake 266
manufacture@@ 266
panic 266
chaffing 266
easy-to-@@ 266
” 266
acs 266
revived 266
xy@@ 266
jura 266
mus 266
topical 265
s.we 265
lied 265
uring 265
cial 265
.O@@ 265
bur 265
managing 265
mosquitoes 265
modulator 265
spurs 265
purpose. 265
59@@ 265
tax@@ 265
weir@@ 265
3yr 265
fullness 265
elliptical 265
medium@@ 265
contrasting 265
bun 265
rage 265
celery 265
focuses 265
-5 265
quickly@@ 265
dock@@ 265
grat 265
mink 265
salty 265
consi@@ 265
2yr 265
grad@@ 265
talkies 265
snagging 265
home-@@ 264
xoxo 264
train@@ 264
argu@@ 264
nikes 264
when@@ 264
rein@@ 264
thickest 264
absorbency 264
fot 264
shirt.@@ 264
ske@@ 264
coordinated 264
barga@@ 264
RA 264
exi@@ 264
fa 264
drunk 264
tow 264
h.@@ 264
preformed 264
altho 264
number@@ 264
stabili@@ 264
tucking 264
corer 264
brownish 264
previ@@ 264
boot. 264
machine. 264
knight 264
ghly 264
avoids 264
bottom@@ 264
combin@@ 263
everyday. 263
neuro@@ 263
rally 263
squared 263
nets 263
commonly 263
1400 263
disgusted 263
careful@@ 263
ggle 263
someplace 263
ozone 263
forewarned 263
dissapointment 263
QC 263
36c 263
tered 263
destruc@@ 263
backings 263
foot. 263
microphones 263
ital 263
5t 263
sneak 263
.00@@ 263
bodice 263
val 263
Bingo 263
woofers 263
lol. 263
bodysuit 263
zyliss 263
s.also 263
alli@@ 263
golfer 263
expressed 263
subdued 263
articul@@ 263
treads 263
stereos 263
case.i 263
ido 262
ui 262
radius 262
chords 262
rougher 262
rey 262
arr@@ 262
2.4 262
sentence 262
ripe 262
difference.@@ 262
yte 262
elevate 262
nylons 262
troublesome 262
itas 262
litte 262
refilled 262
verses 262
oring 262
stout 262
dige@@ 262
keyboard.@@ 262
todays 262
о 262
suckers 262
hack 262
osis 262
polishes 262
it.Great 262
itit 262
stemware 262
topic 262
soiled 262
alien 262
utilizing 262
wavy 262
yn@@ 262
neti 262
rap 261
poked 261
cranked 261
regalo 261
keyboard. 261
gly@@ 261
specialist 261
wth 261
hopper 261
totaly 261
googled 261
stru@@ 261
ford 261
ign 261
decides 261
convienent 261
luminox 261
deposits 261
magnific@@ 261
ejec@@ 261
cig 261
accommodating 261
32-@@ 261
Torque 261
alizing 261
stretchers 261
cm@@ 261
heavy.@@ 261
T.V 261
adheres 260
fruity 260
ding. 260
strained 260
5.6 260
ray@@ 260
definatley 260
ions 260
ok.@@ 260
half@@ 260
multiples 260
aroun@@ 260
waaaay 260
hv@@ 260
ated.@@ 260
hul@@ 260
pronation 260
6.00 260
numer@@ 260
lia 260
simplistic 260
licensed 260
cleat 260
soon.@@ 260
func@@ 260
B4 260
brag 260
problems.I 260
substandard 260
enthusiasts 260
u.@@ 260
grado 260
resists 260
potassium 260
carabiner 260
gm 260
carnival 260
trashcan 260
x100 260
red.i 260
unmatched 260
foam@@ 259
hiccup 259
label@@ 259
'e 259
lense@@ 259
ara 259
overlooked 259
ann@@ 259
1.1 259
positives 259
sour@@ 259
noisier 259
installations 259
fron 259
bull@@ 259
lubrication 259
passion 259
tooo 259
mia 259
2-pack 259
vel 259
objec@@ 259
ello 259
hs@@ 259
cham@@ 259
GMO 259
pedic 259
kel@@ 259
feeder 259
panoramic 259
8g 259
flavorful 259
xi 259
buttery 259
Violet 259
р@@ 259
stal@@ 259
comming 259
canceled 259
20d 259
1g 259
slam 259
1a 259
name@@ 259
| 259
vag@@ 259
machined 259
sau@@ 259
it.If 259
purchsed 259
flexable 258
geo@@ 258
Northeast 258
hottest 258
celsius 258
nerves 258
residual 258
shortening 258
nero 258
unlikely 258
releasing 258
Vader 258
lingering 258
landed 258
smiling 258
robin 258
ted@@ 258
durabil@@ 258
earthy 258
exce@@ 258
African 258
contemplating 258
gras 258
ci 258
ient 258
loader 258
pants. 258
firewall 258
Vortex 258
flavoring 258
countdown 258
oppo 258
in.i 258
dpi 258
scr@@ 258
tracked 258
stabilized 258
fotodiox 258
es.it 257
hugging 257
11.6 257
f2.8 257
bleached 257
overlap 257
calms 257
mowing 257
webbing 257
Cons 257
husband@@ 257
F. 257
compe@@ 257
emits 257
slant 257
soft.@@ 257
Elvis 257
percentile 257
anch@@ 257
phil@@ 257
shoes.i 257
hinder 257
stylish. 257
squeezer 257
expensive.@@ 257
santoku 257
ied 257
PR 257
warrant 257
crackle 257
8m 257
capacitors 257
lasko 257
pedi@@ 257
win8 257
commode 257
much.I 257
unfortunatly 257
tendonitis 257
knitted 257
ji 257
kardon 257
peep 257
flood 256
.still 256
figu@@ 256
sorted 256
dif@@ 256
df 256
twir@@ 256
isolated 256
puede 256
compan@@ 256
color-@@ 256
5ghz 256
slide@@ 256
s.no 256
4.00 256
inherited 256
52@@ 256
-2 256
sanded 256
clea@@ 256
cus 256
tured 256
differnt 256
span@@ 256
described@@ 256
main@@ 256
130@@ 256
7200 256
regulator 256
applesauce 255
heirloom 255
pop-up 255
jet 255
too-@@ 255
lb. 255
lighten 255
magically 255
serv@@ 255
hrs. 255
thir@@ 255
bal 255
firm@@ 255
squeezes 255
erratic 255
removeable 255
marke@@ 255
hav@@ 255
nut@@ 255
CS 255
flares 255
wolves 255
commen@@ 255
tampons 255
adjacent 255
mouse@@ 255
nies 255
dim@@ 255
craw@@ 255
waxy 255
capabil@@ 255
school@@ 255
4.99 254
pharmacies 254
CUMPLE 254
zirconia 254
creation 254
partic@@ 254
reattach 254
crun@@ 254
480 254
ion@@ 254
mended 254
dummy 254
ea 254
becouse 254
follows 254
allergens 254
menting 254
digit@@ 254
made.I 254
H. 254
arti@@ 254
automotive 254
lexus 254
60s 254
smartphones 254
Georgia 254
entre@@ 254
calcul@@ 254
8-9 254
bagged 254
salve 254
faucets 254
matted 254
marketplace 254
30-40 254
saber 254
vie@@ 254
mpe@@ 254
leveret 254
pumice 253
render 253
inspected 253
had@@ 253
isp 253
fuc@@ 253
stubby 253
pit@@ 253
drama 253
savy 253
Smh 253
esc@@ 253
softening 253
or. 253
dau@@ 253
270 253
slip-ons 253
markets 253
creased 253
illuminate 253
34C 253
nesco 253
reefs 253
asa 253
ches. 253
zip@@ 253
9-10 253
cheaper@@ 253
capacit@@ 253
bree@@ 253
unlocked 253
sx50 253
dragons 253
dium 253
Li-Ion 253
fran@@ 253
tenth 253
chintzy 253
regions 253
slicers 253
2- 253
Dan 253
numerals 253
nibs 253
immersion 253
hc@@ 252
une 252
equal@@ 252
colores 252
ffing 252
5yr 252
spring@@ 252
performances 252
aten@@ 252
worked.@@ 252
dynam@@ 252
20mm 252
player@@ 252
eligible 252
bian 252
tablespoons 252
shear 252
unfor@@ 252
ffin@@ 252
formulation 252
degraded 252
ipad3 252
marathons 252
bushnell 252
rea 252
.perfect 252
adjuster 252
inevitably 252
810 252
concise 252
hhhh@@ 252
dope 252
descrip@@ 252
iogear 252
contr@@ 252
arlo 252
tem 252
tim 252
rd 252
slim@@ 252
sweets 252
boosts 251
area. 251
necesit@@ 251
resource 251
expected.The 251
necklac@@ 251
picture.i 251
standar@@ 251
430 251
frustr@@ 251
darth 251
eria 251
approve 251
itter 251
untied 251
tively 251
ico 251
bounced 251
attach@@ 251
qaulity 251
careless 251
kon@@ 251
autistic 251
attacks 251
pepsi 251
womans 251
great--@@ 251
inward 251
kitten 251
fisherman 251
corporate 250
sacrificing 250
outgrows 250
introduce 250
toughest 250
stair@@ 250
imaginable 250
cred@@ 250
wed@@ 250
lopsided 250
info@@ 250
odorless 250
amaze 250
............... 250
hum@@ 250
unscrewed 250
j.@@ 250
fiberglass 250
deteriorated 250
silen@@ 250
proteins 250
ill@@ 250
inadvertently 250
microwa@@ 250
reunion 250
conf@@ 250
utter 250
tethered 250
viola 250
mechanics 250
belongings 250
dildo 250
RC 250
sket@@ 250
selves 250
tura 250
peroxide 250
pli@@ 250
g10 250
docker 250
owned. 249
lp 249
survival 249
Williams 249
1999 249
hesit@@ 249
stin@@ 249
routinely 249
party. 249
observed 249
guilty 249
indigo 249
cheetah 249
fty 249
spotless 249
Atlanta 249
candida 249
peanuts 249
libido 249
appe@@ 249
weeks.@@ 249
CATEGORIES 249
620 249
rapi@@ 249
vap@@ 249
kan@@ 249
nordstrom 249
indigestion 249
overlay 249
machine@@ 249
ises 249
otg 249
mn@@ 249
surgeon 248
sep@@ 248
identification 248
haze 248
dity 248
boun@@ 248
evers 248
aired 248
thirteen 248
atmosphere 248
dilute 248
vis@@ 248
shouldnt 248
wonderland 248
retrac@@ 248
knitting 248
cualquier 248
liber@@ 248
ert 248
luck@@ 248
accoun@@ 248
lyn@@ 248
boning 248
anda 248
exited 248
awe 248
instal@@ 248
brakes 248
graters 248
wright 248
pavillion 248
tful 248
capac@@ 248
stein 248
memori@@ 248
on-board 248
beau@@ 247
gence 247
ears. 247
1.2 247
outside@@ 247
clock@@ 247
gabba 247
lastly 247
oooooooo@@ 247
correction 247
O 247
knuckle 247
fairness 247
sensiti@@ 247
crossing 247
deviled 247
qued@@ 247
aty 247
tl@@ 247
nothing@@ 247
would. 247
tre 247
aro@@ 247
charm. 247
histor@@ 247
stimulation 247
lick 247
pictured. 247
croo@@ 247
mashing 247
stethoscope 247
brill@@ 247
cumpli@@ 247
tac 247
10s 247
mar 247
crutch 247
creativity 247
vornado 247
eni@@ 246
undersized 246
plumber 246
focus@@ 246
promp@@ 246
ultrasonic 246
warran@@ 246
overbearing 246
flimsey 246
headphones. 246
coc@@ 246
edi@@ 246
stoo@@ 246
ongoing 246
deaf 246
fren@@ 246
ipad. 246
labelled 246
megapixel 246
Houston 246
organizes 246
rev@@ 246
intermediate 246
legible 246
ram@@ 246
ntsc 246
flushing 246
him. 246
noctua 246
cabinet@@ 246
.does 246
wu@@ 246
tail@@ 246
90-@@ 246
Car@@ 246
wreath 246
problemas 246
secur@@ 246
watering 246
camry 246
hangover 245
respects 245
microwaves 245
artists 245
playlists 245
swit@@ 245
dietary 245
stack@@ 245
camouflage 245
virgin 245
item.I 245
ing.they 245
refund.@@ 245
fortable 245
submerged 245
noodle 245
follow@@ 245
chapter 245
weld 245
tant 245
now.I 245
believing 245
h. 245
divide 245
mage 245
crud 245
doc@@ 245
NJ 245
mardi 245
alongside 245
spoken 245
snob 245
xxxx 245
nin@@ 245
zoo 245
deficient 245
Carolina 245
iri@@ 245
fw@@ 245
snowflake 245
nutritionist 245
pullover 245
2.5mm 245
Eneloop 245
junk@@ 244
pray 244
thereby 244
roa@@ 244
clun@@ 244
modems 244
mj 244
aromatherapy 244
relaxes 244
atched 244
outlasted 244
802.11@@ 244
tains 244
agre@@ 244
tably 244
crossfire 244
poc@@ 244
cabbage 244
Brookstone 244
6400 244
soothe 244
yearly 244
product-@@ 244
peppercorns 244
Dakota 244
independently 244
Cruzer 244
distor@@ 244
usa 244
xy 244
les@@ 244
vessel 244
scrip@@ 244
omni 244
tc@@ 244
lice 244
slipper@@ 244
humi@@ 243
ihave 243
sque@@ 243
RN 243
dehydr@@ 243
macbooks 243
hobo 243
motivation 243
at-@@ 243
Canadian 243
ordered.@@ 243
masters 243
asin 243
--so 243
throught 243
conditioned 243
.have 243
yea@@ 243
struck 243
overwhelmed 243
vesa 243
PHOTOGRAPHIC 243
scattered 243
coffees 243
them- 243
bookbag 243
imprint 243
asi 243
а 243
restarted 243
evaluation 243
brew@@ 243
5lb 243
stle 243
rai@@ 243
purity 243
tervis 243
canals 243
revive 243
charmin 243
suprisingly 243
uction 243
reimbursed 243
flan@@ 243
dizzy 242
squeaking 242
preview 242
vee@@ 242
was. 242
mee@@ 242
nav 242
crumb 242
cked 242
chick 242
predecessor 242
gee 242
depic@@ 242
bit.@@ 242
batery 242
electrician 242
intrusive 242
lean@@ 242
ddle 242
dam 242
verse 242
shocking 242
ideally 242
rims 242
responsi@@ 242
U.S.A. 242
costume@@ 242
oon 242
inscription 242
Cad 242
prompted 242
IN@@ 242
own. 242
logged 242
contra@@ 242
15.4 242
nutri@@ 242
quility 242
Sorel 242
rad 242
aircraft 242
still@@ 241
bag.@@ 241
Cascade 241
phe@@ 241
tthe 241
corrosion 241
1-1 241
experience.@@ 241
expo@@ 241
ly.the 241
hl 241
potat@@ 241
light.@@ 241
prenatal 241
occassion 241
effecti@@ 241
ity@@ 241
8. 241
browned 241
fort 241
ambi@@ 241
skin. 241
econ@@ 241
siness 241
9th 241
lux 241
aaaa@@ 241
hawk 241
yn 241
gentleman 241
neces@@ 241
success@@ 241
TJ 241
dec. 241
fights 241
sectional 241
stunned 241
specialized 241
---i 241
ena@@ 241
elegante 241
atives 241
lor@@ 241
delicates 241
israel 241
online. 241
strung 241
broadband 241
piece.@@ 241
crosses 241
transpor@@ 241
phy 241
hosting 241
entryway 241
block@@ 241
kru@@ 241
Andis 241
perfectamente 240
legitimate 240
behavior 240
lungs 240
hhhh 240
deflate 240
posse@@ 240
tear@@ 240
fatter 240
produ@@ 240
west@@ 240
compl@@ 240
paints 240
celebrate 240
turnaround 240
ute 240
proofing 240
.Would 240
tine 240
higher-@@ 240
liqu@@ 240
forwar@@ 240
motivated 240
expectativas 240
sporadically 240
Elephants 240
invest@@ 240
basting 240
pleated 240
woun@@ 239
Opera 239
zie 239
squi@@ 239
yahoo 239
me.It 239
205 239
sling@@ 239
comfort@@ 239
chief 239
anymore@@ 239
males 239
cucumbers 239
nydj 239
aun@@ 239
dust@@ 239
yyy 239
metro@@ 239
hiker 239
workes 239
peek 239
evalu@@ 239
.amazon 239
Al@@ 239
loudest 239
stuc@@ 239
ño 239
mur@@ 239
sierra 239
и 239
alley 239
fluctu@@ 239
vocals 239
ount 239
temp. 239
synch 239
chassis 239
1.0 239
psy 239
Rio 238
amplification 238
digits 238
tain 238
foresee 238
should.@@ 238
adjustab@@ 238
knock-offs 238
uh 238
ked. 238
samsun@@ 238
resolutions 238
grief 238
nutritious 238
couplers 238
dg 238
alar@@ 238
oka@@ 238
10ft 238
cellar 238
investments 238
-no 238
tam@@ 238
1s 238
gue@@ 238
ret 238
splashing 238
inge@@ 238
color.I 238
misplacing 238
mentary 238
yel@@ 238
pedestal 238
t5@@ 238
skim@@ 238
jeggings 238
inconveni@@ 238
brutal 238
elle 238
julienne 238
mmer 238
shortwave 238
purchased. 237
6-inch 237
amazon.com@@ 237
footboard 237
wonky 237
ici@@ 237
hauling 237
provide@@ 237
s1 237
frame@@ 237
playroom 237
elev@@ 237
wink 237
tissot 237
lau@@ 237
requ@@ 237
v1 237
dash@@ 237
dx@@ 237
splice 237
dthe 237
occupied 237
pia 237
acurate 237
retracts 237
microwaving 237
attribute 237
enforcement 237
satelite 237
kava 237
subsequently 237
there.@@ 237
avia 237
itly 237
keystone 237
magnavox 237
mining 237
promised. 237
scooby 237
anolon 237
reviews. 236
museum 236
struggles 236
unwieldy 236
xxxl 236
stretchable 236
vs@@ 236
bel 236
smoothed 236
activation 236
mule 236
dragonfly 236
ts-@@ 236
longer. 236
-very 236
helpfull 236
MN 236
edged 236
embarra@@ 236
Canyon 236
lear 236
sustained 236
breaths 236
inthe 236
confuse 236
whovian 236
pom 236
colleague 236
e.I 236
horrendous 236
marginally 236
misc 236
inexpensively 236
didnot 236
vivo@@ 236
downtown 236
treat@@ 236
hotspot 236
Doo 236
ly.it 236
bowtie 236
chemistry 236
256 236
dial@@ 236
velvety 236
syringes 236
sorter 236
yada 236
WaterPik 236
Revolution 235
iton 235
flashed 235
ww 235
diffusers 235
rubb@@ 235
powdery 235
original. 235
say.@@ 235
ans@@ 235
ABS 235
pourer 235
Jamaica 235
sixteen 235
nubs 235
combining 235
HK 235
115@@ 235
jabra 235
dinged 235
screen.@@ 235
smarter 235
vig@@ 235
rum@@ 235
defec@@ 235
ance. 235
togethers 235
8oz 235
disper@@ 235
spongy 235
board. 235
tarts 235
rus@@ 235
colour@@ 235
kiwi 235
reson@@ 234
compla@@ 234
tevas 234
none@@ 234
creep 234
9000 234
Heather 234
gel-@@ 234
ffy 234
vacuum@@ 234
hormones 234
dyes 234
critters 234
foamy 234
unnoticeable 234
wasteful 234
processes 234
commenting 234
find. 234
spinach 234
mons 234
placemat 234
ref@@ 234
ult 234
lamb 234
exspensive 234
Amazon.I 234
jen@@ 234
plasticy 234
75-@@ 234
sanding 234
tamente 234
showy 234
Citrate 234
use.It 234
transfering 234
enjoy@@ 234
z. 234
mislabeled 234
a1 234
VALID 234
pedicure 234
2-inch 234
cheesecakes 234
infected 234
hav 234
infinite 234
iden@@ 234
pinned 234
autism 234
89@@ 234
registration 234
classier 234
enzyme 234
roocase 234
stars.@@ 234
ES@@ 234
end@@ 234
union 234
crimping 234
dsc-@@ 234
Sodastream 234
relied 233
servicio 233
cheat 233
chime 233
oxfords 233
g3 233
emb@@ 233
punishment 233
adi@@ 233
stone@@ 233
jew@@ 233
identi@@ 233
90s 233
depressed 233
850 233
justo 233
protection@@ 233
tts 233
mand@@ 233
gasoline 233
expression 233
smears 233
coverup 233
.Good 233
handwash 233
acoustics 233
dint 233
addict 233
aswell 233
satisfecho 233
rat 233
stripping 233
defrost 233
kobo 233
yongnuo 233
seller.@@ 232
dt 232
yor@@ 232
replacement@@ 232
compliments. 232
proportions 232
exact@@ 232
e-mailed 232
goood 232
body. 232
sexual 232
cord. 232
swinging 232
cock 232
blueberries 232
Paul 232
ped@@ 232
sequ@@ 232
havnt 232
contoured 232
hx@@ 232
carbide 232
melissa 232
lon 232
pru@@ 232
lacy 232
headlights 232
terk 232
performance@@ 232
120gb 232
antenna@@ 232
zzled 232
elled 231
cop@@ 231
tony 231
adapter.@@ 231
enlarged 231
registry 231
bey@@ 231
highlights 231
-10 231
stores. 231
-I 231
therefor 231
lps 231
flared 231
shout 231
ium 231
tiers 231
endowed 231
purposely 231
ل@@ 231
tow@@ 231
it.Thanks 231
ticle 231
crafting 231
necessar@@ 231
ing.I 231
.even 231
v.@@ 231
mentions 231
purchasers 231
GA 231
So 231
spits 231
tether 231
construction@@ 231
psoriasis 231
nose@@ 231
trivets 231
rup@@ 231
grandbaby 231
Blanks 231
tish 231
sags 231
almo@@ 231
actor 231
amazing@@ 231
ppies 231
30gb 231
nel 231
kne@@ 230
cram 230
cradles 230
sum@@ 230
in-line 230
dream@@ 230
pixelated 230
notepad 230
v3 230
slingbox 230
hacer 230
fast.I 230
arch@@ 230
cinderella 230
rgb 230
Swanson 230
hiked 230
505 230
rubber@@ 230
misaligned 230
phenom 230
Northwest 230
mot 230
quibble 230
renew 230
recital 230
gastric 230
heritage 230
numeric 230
stars. 230
noon 230
narrow@@ 230
visio 230
d3000 230
itrip 230
lowed 230
dependent 230
recovered 230
strenuous 230
luminous 230
forefoot 230
rab@@ 230
basil 230
ead 230
elly 230
Colombia 230
chiller 230
sounddock 230
ss-@@ 230
ouse 230
ooo 230
Woolite 230
tx-@@ 230
screwdrivers 230
flags 230
unsuccessful 229
misshapen 229
withing 229
conect 229
items. 229
7.00 229
rises 229
believes 229
cary 229
230@@ 229
greats 229
bulkiness 229
't. 229
date.@@ 229
toting 229
flat-@@ 229
unbroken 229
comfortable.The 229
م@@ 229
size- 229
4yr 229
theat@@ 229
kings 229
redesigned 229
perfect.the 229
sher@@ 229
pigs 229
deducted 229
description@@ 229
ep 229
kets 229
.with 229
broadcasts 229
mitten 229
я 229
six-@@ 229
prolong 229
nostalgic 229
scores 229
cot 229
aga@@ 229
moshi 229
SPF 229
wishlist 229
sterili@@ 229
squir@@ 229
oyster 229
sauc@@ 229
into@@ 228
receiver@@ 228
35-@@ 228
published 228
neewer 228
PA@@ 228
begining 228
owne@@ 228
trucker 228
abc 228
spil@@ 228
semester 228
breakdown 228
minimizes 228
antiqu@@ 228
sleepwear 228
also.@@ 228
females 228
ov@@ 228
fie 228
tn 228
s.easy 228
nb@@ 228
promoted 228
34d 228
mf@@ 228
as-@@ 228
newbie 228
urn 228
facts 228
annoy 228
cran@@ 228
crusty 228
hot-@@ 228
imported 228
fing 228
triathlon 228
velour 228
lado 228
Good 228
straight@@ 228
PB 228
rivals 228
origin 228
warrantee 228
cd-@@ 228
distr@@ 228
comply 228
work.The 228
lack@@ 228
bio 228
km 228
fuzz@@ 228
firefly 228
scooba 228
torture 227
mph 227
lysol 227
fantastic. 227
flip@@ 227
fascitis 227
tripo@@ 227
dvd@@ 227
ali 227
chrome@@ 227
surrounded 227
er- 227
refun@@ 227
ghted 227
cucumber 227
brea@@ 227
distribu@@ 227
610 227
tn@@ 227
perfectly.the 227
gtx@@ 227
inevitable 227
stats 227
relevant 227
appointment 227
incorporate 227
cervical 227
diminish 227
uniqueness 227
elt 227
wheeled 227
excepted 227
cies 227
sanitize 227
Fitbit 227
Ben@@ 227
imper@@ 227
everday 227
185 227
ding.@@ 227
driver@@ 227
drin@@ 227
cop 227
ree 227
.definitely 227
distraction 227
mousepad 227
comprehensive 227
s100 227
feeds 227
resveratrol 227
gradu@@ 226
backpack@@ 226
antena 226
sonoma 226
rust@@ 226
subaru 226
rebooting 226
lex@@ 226
short.@@ 226
RadioShack 226
everywhere@@ 226
breasted 226
bottle@@ 226
him@@ 226
kra@@ 226
insists 226
ed- 226
soil 226
Matrix 226
tible 226
skinnier 226
hang@@ 226
junkie 226
cau@@ 226
fluids 226
Conair 226
board@@ 226
armitron 226
wall. 226
630 226
medicinal 226
df@@ 226
compactly 226
Clorox 226
optiplex 226
acy 226
groggy 226
earlobes 226
ounds 226
alfa 226
reward 226
gui 226
tassimo 226
Perry 226
out-of-@@ 226
rx100 226
popovers 226
diabetics 225
restrict 225
bean 225
motorcycles 225
V. 225
ato@@ 225
that.I 225
lens.@@ 225
yy 225
watch.i 225
rising 225
versatil@@ 225
orgasm 225
cost. 225
drink@@ 225
yyyy@@ 225
sub-par 225
pub 225
patterned 225
3d 225
kohls 225
Switzerland 225
iron@@ 225
grat@@ 225
milli@@ 225
chers 225
zar@@ 225
en-el@@ 225
Vaseline 225
tofu 225
timbuk2 225
adapts 224
over. 224
80.00 224
supri@@ 224
prodcut 224
xp@@ 224
yet.@@ 224
worl@@ 224
challenges 224
ppo@@ 224
wiggling 224
grand-@@ 224
boosting 224
G2 224
sity 224
plex@@ 224
stik 224
oid 224
frumpy 224
overjoyed 224
skim 224
annoy@@ 224
jiffy 224
choice.@@ 224
completel@@ 224
opp@@ 224
Proraso 224
soon. 224
ican 224
mbers 224
casting 224
pronto 224
jumpsuit 224
came@@ 224
troubleshoot 224
nostalgia 224
sharpeners 224
ei 224
trou@@ 224
victorian 224
db 224
atel@@ 224
en. 224
convinient 224
cnet 224
1545 224
Seventh 223
.2 223
inspire 223
does. 223
onlin@@ 223
shoulder@@ 223
smoothest 223
changeable 223
freed 223
everything.@@ 223
book. 223
hot. 223
iring 223
navig@@ 223
otherwi@@ 223
waaay 223
rit@@ 223
infants 223
tack@@ 223
stere@@ 223
resilient 223
waste@@ 223
carved 223
blunt 223
executive 223
pleasurable 223
fudge 223
anim@@ 223
warts 223
10m 223
obli@@ 223
force@@ 223
enlarge 223
10x@@ 223
unzipped 223
160gb 223
cha 223
inconspicuous 223
garters 223
iphone@@ 223
detectable 223
tiled 223
compet@@ 223
You 223
exhausted 223
mt@@ 223
circu@@ 223
kernel 223
drobo 223
exploring 222
Avenue 222
believable 222
breastfeeding 222
touch. 222
tch@@ 222
perforated 222
q-@@ 222
0.5 222
mmer@@ 222
reat 222
x32 222
shortage 222
deffin@@ 222
nv@@ 222
d.great 222
non-functional 222
SO. 222
wife. 222
swiftly 222
weigh@@ 222
economically 222
deteriorate 222
taiwan 222
filthy 222
aquos 222
fus@@ 222
yr@@ 222
bieber 222
Microplane 222
[...]
