#version: 0.2
t h
a n
i n
th e</w>
r e
i t</w>
i s</w>
an d</w>
e r
o u
e r</w>
e d</w>
h a
o r
i t
t o</w>
o n
in g</w>
o r</w>
a l
a r
a t</w>
th e
l y</w>
s t
th is</w>
f or</w>
e n
s e</w>
v e</w>
o o
o n</w>
a s</w>
e s</w>
e a
i c
c o
r o
m y</w>
b u
i n</w>
l e</w>
v er
e l
e c
a t
n o
s t</w>
a c
l o
o f</w>
g h
l i
m e</w>
t i
u r
s i
s h
e e
c a
w as</w>
ver y</w>
co m
w or
w it
bu t</w>
p ro
wit h</w>
a b
g re
r i
l d</w>
no t</w>
u c
gre at</w>
ha ve</w>
gh t</w>
m a
d i
e n</w>
ar e</w>
i l
s o</w>
th at</w>
w h
ic e</w>
the y</w>
k e</w>
l a
k s</w>
on e</w>
e x
t er</w>
e t</w>
al l</w>
t o
' t</w>
y o
p p
yo u</w>
ou ld</w>
d e
a n</w>
s o
oo d</w>
t s</w>
the se</w>
q u
u se</w>
h o
ou t</w>
g ood</w>
m en
l oo
b e
u s
l e
el l</w>
p er
d uc
d o
al ly</w>
a y</w>
u n
pro duc
' s</w>
a l</w>
c h
u st</w>
il l</w>
p r
the m</w>
b e</w>
li ke</w>
ab le</w>
c ha
th er</w>
f or
n e
w ould</w>
. .
v er</w>
produc t</w>
j ust</w>
er e</w>
w ell</w>
p l
lo ve</w>
i r
s u
a d
ou n
ou ght</w>
f ec
a g
d e</w>
it y</w>
t r
ea s
k ing</w>
m o
w i
or e</w>
f in
t ed</w>
b o
m e
s p
ha d</w>
s s</w>
u p</w>
per fec
d s</w>
ca n</w>
w e
s a
pr ice</w>
ea r</w>
c on
w ill</w>
g h</w>
it s</w>
p o
ou r</w>
wor ks</w>
t a
si z
t er
f a
p ur
b ought</w>
ha t</w>
g o
m ore</w>
f it</w>
th ing</w>
s m
re com
qu al
s e
sh o
th an</w>
t ly</w>
t t
f u
t h</w>
wh en</w>
f e
qual ity</w>
r a
re d</w>
w a
recom men
w hat</w>
com p
c h</w>
n o</w>
o ther</w>
i f</w>
v ed</w>
n ice</w>
en t</w>
g et</w>
re ally</w>
f ro
v i
it t
eas y</w>
s ed</w>
t ur
fro m</w>
siz e</w>
ti me</w>
ou gh</w>
pur cha
oun d</w>
ha s</w>
p a
to o</w>
m on
at i
e ly</w>
an y</w>
d ed</w>
recommen d</w>
s c
k ed</w>
p re
itt le</w>
g e</w>
l ittle</w>
c e</w>
b a
uc h</w>
a m</w>
on ly</w>
ex p
wor k</w>
bu y</w>
co l
g i
t able</w>
er s</w>
ac k</w>
perfec t</w>
re c
w e</w>
c u
com for
h i
no w</w>
d er</w>
.. .</w>
d a
y s</w>
a f
v en</w>
m s</w>
d o</w>
m uch</w>
e ar
ee n</w>
v es</w>
i r</w>
on g</w>
f t</w>
s h</w>
p s</w>
so me</w>
l u
go t</w>
p u
do es</w>
w ere</w>
y our</w>
be t
o f
comfor table</w>
ti on</w>
w at
ab out</w>
g e
s s
us ed</w>
ma de</w>
g er</w>
b ec
b le</w>
an d
bec a
af ter</w>
el l
w an
d on</w>
l ea
beca use</w>
re a
loo ks</w>
fu l</w>
in g
b i
sm all</w>
pl ac
t u
m i
b r
d ay</w>
bet ter</w>
h ea
al so</w>
pro b
p ic
exp ec
al l
w ay</w>
at ter
w ear</w>
d n</w>
e m</w>
ha pp
t e</w>
f i
s n</w>
on s</w>
an y
cha r
h e</w>
it e</w>
loo k</w>
sh e</w>
e ven</w>
p la
. .</w>
l ar
e i
n ee
b atter
f ee
' m</w>
m at
s ur
t w
f its</w>
ri ght</w>
ha r
in st
k es</w>
k ee
di d</w>
men t</w>
in e</w>
b een</w>
loo king</w>
a in</w>
en d</w>
ex c
p le</w>
at e</w>
ma z
e ver
e y</w>
y ing</w>
ca se</w>
happ y</w>
ar d</w>
ever y
w n</w>
re n
f ir
sh i
de red</w>
m er
p ar
th ere</w>
prob le
col or</w>
ic h</w>
of f</w>
ne ed</w>
to p</w>
or dered</w>
s ee
f fe
b ack</w>
st ill</w>
ne w</w>
sho es</w>
ag ain</w>
o ld</w>
b l
s on</w>
so me
wh ich</w>
tur e</w>
t e
d er
purcha sed</w>
it em</w>
pu t</w>
d ing</w>
us ing</w>
ac k
' ve</w>
p er</w>
in k</w>
ch ea
r u
w s</w>
l ong</w>
t ri
purcha se</w>
st o
b oo
ear s</w>
j o
s et</w>
i d</w>
wi th
k e
u e</w>
p h
be st</w>
fir st</w>
c ould</w>
l l</w>
n i
re plac
i c</w>
d y</w>
b ea
ca mer
tw o</w>
le ss</w>
v e
ag e</w>
v ing</w>
m in
ing s</w>
perfec tly</w>
b y</w>
n ec
rec ei
mo st</w>
g o</w>
si de</w>
it i
ca me</w>
mon ey</w>
ma ke</w>
h el
bi g</w>
ho w</w>
ati on</w>
lo ves</w>
o ver</w>
g r
hi gh
ic k</w>
do e
f e</w>
batter y</w>
b it</w>
g u
wor ked</w>
p e</w>
tt y</w>
ex ac
g la
wat ch</w>
pre tty</w>
r y</w>
nee ded</w>
expec ted</w>
re s</w>
t ec
ic k
fin d</w>
w er</w>
r oo
su pp
camer a</w>
th ough</w>
c or
gh ter</w>
lo t</w>
or t</w>
ar ri
t ing</w>
c oo
th an
di dn</w>
en ough</w>
an other</w>
or s</w>
t y</w>
li ght</w>
c ou
p i
da u
o p
de fin
f ri
doe sn</w>
gi ft</w>
c lo
lo w</w>
fin e</w>
s ound</w>
di ffe
si g
wh i
diffe ren
re tur
n ed</w>
s in
w ar
i m
wor th</w>
a pp
or der</w>
f ac
exac tly</w>
h er</w>
u l
tt ing</w>
ea si
b ro
s er
vi e
st ar
kee p</w>
exc ell
pl u
on es</w>
g a
fa r</w>
with out</w>
y ears</w>
sc re
u ti
an t</w>
the n</w>
i P
A maz
b and</w>
st r
t oo
excell ent</w>
p e
m es</w>
w ee
whi le</w>
n ing</w>
c ar
har d</w>
dau ghter</w>
pa ir</w>
high ly</w>
sur e</w>
s li
el i
i s
defin it
fee l</w>
fa st</w>
st ic</w>
bea uti
definit ely</w>
pro tec
for e</w>
roo m</w>
ho l
ma kes</w>
ta ke</w>
arri ved</w>
pic ture</w>
ec i
Amaz on</w>
i ght</w>
ar ound</w>
recei ved</w>
wan ted</w>
wh o</w>
re ad
cu te</w>
shi pp
pl eas
m any</w>
l en
s ec
la st</w>
chea p</w>
fe w</w>
wan t</w>
y ear</w>
th ink</w>
si ve</w>
el s</w>
sa me</w>
st u
st ur
be fore</w>
e very</w>
sho e</w>
si m
lo ved</w>
lar ge</w>
i es</w>
in to</w>
ne ver</w>
s k
re vie
t en
wh ere</w>
sh ould</w>
e ss</w>
er i
sin ce</w>
st y
di sa
s el
st a
f f
ho we
every thing</w>
h and
s ay</w>
howe ver</w>
o ver
a s
proble m</w>
we ight</w>
th s</w>
beauti ful</w>
se e</w>
e ver</w>
ou s</w>
pp o
l es</w>
r e</w>
d ur
f ound</w>
d ri
d re
see ms</w>
wa ys</w>
0 0</w>
bo x</w>
differen t</w>
ba g</w>
a m
la p
k now</w>
de sig
ou t
t ic
th ought</w>
h ou
sh ir
mat eri
c lea
b ed</w>
so ft</w>
v ice</w>
men ts</w>
ppo in
s l
s ha
ti mes</w>
we ar
disa ppoin
th r
o th
t ab
m an
g in
stur dy</w>
exp en
con nec
any one</w>
jo b</w>
f o
s n
T V</w>
wi sh</w>
mon ths</w>
pleas ed</w>
clea n</w>
l et</w>
sc ri
comp u
tri ed</w>
ch an
al ways</w>
ho ld</w>
t ely</w>
or i
some thing</w>
f un
expen sive</w>
l dn</w>
a p
wor king</w>
C h
do wn</w>
t re
qu ick
a d</w>
.. ..</w>
easi ly</w>
ti ons</w>
p ack
lap top</w>
go ing</w>
scre en</w>
m er</w>
ca ble</w>
ea l</w>
at ed</w>
pi ec
hi gh</w>
v en
ac c
co me</w>
fee t</w>
h us
st er</w>
h an
f re
h is</w>
materi al</w>
m b
con t
an s</w>
tr a
w on
f il
so lu
proble ms</w>
re mo
sel f</w>
h e
w in
de scri
sp eci
v y</w>
l s</w>
hus band</w>
c le
r un
st e</w>
a we
da ys</w>
ge tting</w>
par t</w>
compu ter</w>
ri st
ac tu
f l
quick ly</w>
co ver</w>
is su
st ra
b rea
m as</w>
g ed</w>
ac e</w>
col ors</w>
d eli
st ed</w>
bo ard</w>
e ment</w>
su per</w>
w r
ba d</w>
k er</w>
the ir</w>
in t</w>
se ver
awe some</w>
bu ying</w>
' re</w>
m u
ur e</w>
d iti
shir t</w>
ac h
wa sh
bo th</w>
a maz
g s</w>
war m</w>
u m</w>
i l</w>
br and</w>
f la
sever al</w>
thr ough</w>
ori gin
y et</w>
p ing</w>
c k</w>
gi ve</w>
c l
p ri
pp ed</w>
qu ite</w>
on al</w>
n ic
shipp ing</w>
pla stic</w>
wat er</w>
sm all
pre s
tr y</w>
on d</w>
disappoin ted</w>
in c
desig n</w>
u p
l on
boo ts</w>
hea vy</w>
pr ic
po wer</w>
p t</w>
sp ea
c ks</w>
Ch rist
ex tr
v al
hea d
Christ mas</w>
comp la
1 0</w>
ti ve</w>
tu res</w>
s .
ch es</w>
u s</w>
fri end</w>
s ati
than ks</w>
retur n</w>
ph one</w>
f f</w>
be ing</w>
l ine</w>
s si
replac ement</w>
fu l
s y
d es</w>
ss es</w>
t or</w>
r ing</w>
s es</w>
qu i
actu ally</w>
small er</w>
it ch
la r</w>
sl ee
ha ving</w>
ter s</w>
st ore</w>
un it</w>
too k</w>
bl ack</w>
c la
ab ly</w>
d eal</w>
rea d</w>
char ge</w>
any thing</w>
m ar
extr a</w>
k i
w al
than k</w>
read y</w>
on ce</w>
on t</w>
wi fe</w>
oun t</w>
origin al</w>
ab solu
t y
sa id</w>
won der
g ra
in d
batter ies</w>
at ely</w>
piec e</w>
f oo
al s</w>
d ec
' ll</w>
revie ws</w>
r s</w>
gh t
ad ver
lon ger</w>
a way</w>
o d</w>
no thing</w>
wear ing</w>
k et</w>
j u
c an
o k</w>
o se</w>
sec ond</w>
c ho
over all</w>
adver ti
inst all
al most</w>
me di
p or
me ly</w>
char ger</w>
com es</w>
s on
ru n</w>
ho me</w>
di o</w>
fun c
li d</w>
fi ed</w>
sim ple</w>
loo ked</w>
c r
l l
amaz ing</w>
absolu tely</w>
sati s
lar ger</w>
f r
y er</w>
d u
k ers</w>
di s
dur able</w>
val ue</w>
inst all</w>
v o
U S
ad ap
recommen ded</w>
ti ght</w>
ga ve</w>
ul t</w>
e ss
si on</w>
p an
produc ts</w>
h u
ful ly</w>
th ings</w>
plac e</w>
bi g
comp le
kee ps</w>
th re
or y</w>
en ds</w>
ff ic
gla d</w>
oth ers</w>
dre ss</w>
n er</w>
th in</w>
cle an
sty le</w>
s ing</w>
j e
a u
p ho
bro ke</w>
g ing</w>
re al</w>
c ard</w>
tr ue</w>
an ce</w>
lo w
to ge
cou ple</w>
in d</w>
li ked</w>
d r
ke y
a re
nee ds</w>
der ing</w>
e t
ma y</w>
f ea
see m</w>
st and</w>
diti on</w>
pe o
ph ones</w>
hel p</w>
ea d</w>
coo l</w>
iP ad</w>
r at
n ex
peo ple</w>
comp li
h ere</w>
toge ther</w>
hol ds</w>
un der</w>
ati ons</w>
mon th</w>
fe els</w>
w on</w>
speci ally</w>
s ell
vi de
gla sses</w>
ha l
. I</w>
replac e</w>
w ent</w>
supp ort</w>
tab let</w>
ho t</w>
e f
m ed</w>
sh ort</w>
po c
co st</w>
s .</w>
in side</w>
ex tre
el t</w>
wee ks</w>
en jo
sy st
wonder ful</w>
m p
cor d</w>
adverti sed</w>
ha ven</w>
w ea
of f
satis fied</w>
k en</w>
per i
cl ear</w>
al ready</w>
e specially</w>
US B</w>
ta in
c er
co ffe
pack ag
el se</w>
f lo
wee k</w>
dri ve</w>
th ose</w>
coffe e</w>
it e
nic ely</w>
i z
cou ldn</w>
big ger</w>
ser vice</w>
k y</w>
ter n
m ust</w>
qu ick</w>
bu l
star s</w>
p tion</w>
t al</w>
t to
f li
gr and
e d
p il
ee l</w>
fac e</w>
b lu
t ou
descri bed</w>
prob ably</w>
st ay</w>
sa ys</w>
s uch</w>
k itch
thre e</w>
iP od</w>
sur pri
us u
n u
' d</w>
lea ther</w>
bo tto
hea d</w>
wa ste</w>
ve l</w>
h oo
ge ts</w>
key board</w>
w are</w>
wh ite</w>
nex t</w>
hou se</w>
sp ace</w>
extre mely</w>
so cks</w>
t es</w>
l in
plu s</w>
issu es</w>
len s</w>
pp er</w>
s har
o wn</w>
si c</w>
fu ll</w>
d ro
w o
ag o</w>
b ack
r an
op en
kitch en</w>
stu ff</w>
hal f</w>
syst em</w>
p ed</w>
f an
n or
per for
g es</w>
de vice</w>
wr ong</w>
ro w</w>
pro vi
h and</w>
compli ments</w>
adap ter</w>
. i</w>
st s</w>
si l
ki ds</w>
w ou
foo t</w>
wi se</w>
lo ts</w>
ni ght</w>
d ra
li fe</w>
min u
p ay</w>
2 0
f ab
s en
n a
f an</w>
di ffic
p en
v el
m ou
pic tures</w>
g th</w>
wa sn</w>
b ag
hou rs</w>
bo tt
c re
retur ned</w>
str ong</w>
plu g</w>
in ts</w>
cu t</w>
s oo
t un
run ning</w>
con si
fa v
wh y</w>
c ra
ri c</w>
ca r</w>
d en
st and
f y</w>
m y
p ack</w>
comp any</w>
m ine</w>
co stu
ac t</w>
botto m</w>
m ic
fri ends</w>
g ir
at t
inst ead</w>
- -
fab ric</w>
a r</w>
re gu
ea ch</w>
ta kes</w>
st ing</w>
ch ing</w>
bu tt
st re
ta king</w>
st i
ite ms</w>
mi ght</w>
el e
wor n</w>
g en
oth er
sell er</w>
bl es</w>
r ings</w>
hi m</w>
us e
l ing</w>
ma y
spea kers</w>
k ni
vide o</w>
il ity</w>
deli very</w>
tr an
d ry</w>
st or
wi de</w>
every one</w>
hand le</w>
rea son
us es</w>
e st</w>
ma king</w>
inc lu
bu il
al though</w>
b ir
at ing</w>
mo de
may be</w>
car ry</w>
i ma
s ent</w>
z i
r uc
fu n</w>
shipp ed</w>
so lid</w>
bu r
inst ruc
d one</w>
wou ldn</w>
1 0
pla y</w>
th er
fo l
an ds</w>
g ri
m ing</w>
cont ro
g ar
sm oo
su l
i sn</w>
star ted</w>
i se</w>
st e
c ur
v a
k ind</w>
m ach
expec t</w>
diffic ult</w>
chan ge</w>
ma n</w>
easi er</w>
fav or
str uc
blu e</w>
other wise</w>
wa sh</w>
so f
costu me</w>
fa mi
pp ing</w>
cu sto
un der
ch oo
b b
t en</w>
sh ee
li sh</w>
e y
ar y</w>
o w
go es</w>
chea per</w>
s un
di sp
v ac
rec i
p ly</w>
my self</w>
2 0</w>
co ld</w>
t ell</w>
ve red</w>
or dering</w>
li ght
th ick</w>
m p</w>
tr ying</w>
head phones</w>
pla yer</w>
pa id</w>
pan ts</w>
ty pe</w>
mb er</w>
pack age</w>
len gth</w>
us h</w>
it ed</w>
s y</w>
a ir</w>
st ick</w>
tr ac
d d
bo dy</w>
ver s</w>
in s</w>
exc e
gla ss</w>
fre e</w>
ch ed</w>
o l
wor e</w>
with in</w>
p ac
m mer</w>
ir e</w>
ti l</w>
fac t</w>
op en</w>
tou ch</w>
s iti
en tly</w>
fami ly</w>
d eci
per son</w>
sc rat
th in
sh or
i ly</w>
win do
di rec
minu tes</w>
ea se</w>
l ed</w>
on e
lea st</w>
p an</w>
ind le</w>
usu ally</w>
gu ess</w>
w ing</w>
wh o
clo se</w>
b eli
re ly</w>
ir s</w>
regu lar</w>
uc k</w>
ou ble</w>
c oun
1 2</w>
s and
lo st</w>
boo t</w>
ef fec
hel ps</w>
man u
un til</w>
install ed</w>
favor ite</w>
K indle</w>
d ar
con struc
can not</w>
stra p</w>
bro ken</w>
k no
ho pe</w>
im pres
ei ther</w>
ra dio</w>
al e</w>
t ally</w>
b s</w>
issu e</w>
an tly</w>
en ce</w>
l at
c li
sh ed</w>
d ont</w>
f er</w>
mach ine</w>
pho to
sto res</w>
lo ws</w>
D V
beli e
mode l</w>
ou s
sm ell</w>
s k</w>
i ent</w>
com fy</w>
at es</w>
cor rec
y ed</w>
c up</w>
ti on
i ld</w>
fan ta
v ely</w>
o t</w>
mu sic</w>
me m
ati ve</w>
bir th
1 00</w>
ne ss</w>
instruc tions</w>
fr ont</w>
mou se</w>
sn u
remo te</w>
n s</w>
bag s</w>
d ue</w>
wor k
sha pe</w>
ad d</w>
m ul
sk in</w>
some one</w>
mon it
re sul
d .
d ate</w>
re li
pric ed</w>
as se
gh tly</w>
on y</w>
in y</w>
n t</w>
dur ing</w>
on line</w>
loo se</w>
differen ce</w>
wa it</w>
g ged</w>
li kes</w>
. 5</w>
ma l</w>
5 0</w>
pur po
ta ste</w>
buil t</w>
pa in</w>
every day</w>
be at</w>
.. ..
p es</w>
boo k</w>
e l</w>
soo n</w>
y .
fanta stic</w>
g g
d .</w>
a va
ar i
comple tely</w>
i m</w>
for tun
ad ju
birth day</w>
con ven
siz es</w>
tur n</w>
supp o
revie w</w>
con dition</w>
n y</w>
who le</w>
tic al</w>
b in
sty lish</w>
w all</w>
run s</w>
brea k</w>
rea son</w>
w een</w>
f all</w>
fin i
bet ween</w>
z e</w>
po w
compla ints</w>
p ad
wear s</w>
ke ts</w>
et c</w>
se ar
gr ad
oun ds</w>
ous ly</w>
b right</w>
ex peri
in ch</w>
t .
t .</w>
han ds</w>
di sh
a part</w>
shar p</w>
3 0</w>
w ell
gre at
po or</w>
o s</w>
ava il
fin ally</w>
expec t
me tal</w>
suppo sed</w>
c al
nec k
ac h</w>
some times</w>
sa w</w>
hu ge</w>
l ace</w>
cont in
s pr
descri ption</w>
dec ent</w>
ch e
are a</w>
ear rings</w>
d ding</w>
ou r
ta in</w>
b ri
le ft</w>
d ly</w>
gi ves</w>
itt ing</w>
f ood</w>
hand y</w>
protec tion</w>
s een</w>
ru bb
no tic
f ra
ic es</w>
comfor t</w>
b la
S ony</w>
surpri sed</w>
lo c
ri ble</w>
w n
e .
b ab
h ear
gh ts</w>
am ount</w>
light weight</w>
br ac
y .</w>
to tally</w>
bott le</w>
mem ory</w>
comp a
ab ility</w>
pre vi
n a</w>
enjo y</w>
medi um</w>
avail able</w>
w ard</w>
tra vel</w>
stre t
stor age</w>
DV D</w>
ke pt</w>
s wit
an g
reason able</w>
ca bles</w>
je ans</w>
su mmer</w>
replac ed</w>
st ic
m ount</w>
belie ve</w>
it self</w>
el ec
deci ded</w>
da ily</w>
sta r</w>
poc ket</w>
out side</w>
g oo
ack et</w>
ch ec
m sy</w>
su b
c ro
fortun ately</w>
C an
i de
in expensive</w>
g it
sto pped</w>
s uc
pr o</w>
he at</w>
ra ther</w>
o k
custo mer</w>
oo k</w>
c i
sa ve</w>
use ful</w>
da ma
ti onal</w>
g y</w>
att ach
e .</w>
en ty</w>
l ou
fil ter</w>
do or</w>
do wn
g ge
impres sed</w>
windo ws</w>
shee ts</w>
connec t</w>
f all
at trac
s end</w>
monit or</w>
ca re
of ten</w>
.. ...</w>
sho w</w>
ha ir</w>
la y</w>
ti c</w>
spea ker</w>
su gge
re qui
win ter</w>
o c
un i
li ve</w>
ow ned</w>
re al
d ers</w>
Can on</w>
wi re
s it
en ti
s ing
wal king</w>
s or
m i</w>
read ing</w>
al low
mat ch</w>
li st
ma g
m en</w>
do ing</w>
w all
b ar
go tt
w el
fli msy</w>
sli ghtly</w>
m il
p ort</w>
clean ing</w>
la sted</w>
ss y</w>
f elt</w>
purcha sing</w>
j ec
h d
fea tures</w>
purpo se</w>
ide a</w>
qu e</w>
po ssi
sim il
po t</w>
fu ture</w>
s ite</w>
contro l</w>
acc ur
protec t</w>
s choo
pl enty</w>
t ment</w>
compa red</w>
packag ing</w>
n ar
b elt</w>
deli vered</w>
vac u
g an
pa st</w>
m or
st able</w>
un fortunately</w>
br a</w>
pa d</w>
e ven
piec es</w>
po int</w>
par ty</w>
hel d</w>
ss ing</w>
nor mal</w>
ar t</w>
en ded</w>
fl at</w>
pro per
the s</w>
we dding</w>
siz ed</w>
simil ar</w>
smoo th</w>
ca l</w>
com ing</w>
s sed</w>
plu gged</w>
m oun
c are</w>
c k
gre en</w>
mo vi
te a</w>
ic s</w>
slee p</w>
t ter</w>
expect ations</w>
bab y</w>
attrac tive</w>
neck lace</w>
snu g</w>
pil low</w>
sho wer</w>
im pro
con tain
sp e
ne t
bo w
schoo l</w>
ol der</w>
mul ti
P C</w>
in tern
se t
al ong</w>
comp act</w>
il s</w>
w ood</w>
wire less</w>
tu red</w>
1 5</w>
d nt</w>
mic ro
fea ture</w>
gi ven</w>
in ter
a p</w>
l ec
at s</w>
ll ed</w>
ex i
resul ts</w>
pla n</w>
wa i
si des</w>
tri p</w>
el ing</w>
mo ve</w>
on -
cha in</w>
iP h
o per
poc kets</w>
remo ve</w>
pro c
st ri
g ers</w>
ad dition</w>
tr u
star t</w>
ok ay</w>
o b
- -</w>
h or
butt on</w>
mo m</w>
o d
z y</w>
asse m
expec ting</w>
exce pt</w>
f our</w>
au dio</w>
g er
hol ding</w>
perfor man
pho to</w>
w ire</w>
ee p</w>
ver sion</w>
compla int</w>
f ic
el et</w>
pp ers</w>
j acket</w>
conven ient</w>
c y</w>
kni fe</w>
tran s
gott en</w>
do l
app le</w>
it .</w>
lo cal</w>
ho ping</w>
clo thes</w>
wash er</w>
vo lu
d el
off ice</w>
b re
f ell</w>
or gan
l er</w>
ba th
po siti
mo ther</w>
h ur
im medi
wal k</w>
wash ed</w>
tur ned</w>
so l
char ging</w>
packag ed</w>
cho ice</w>
h eel</w>
en ts</w>
fi g
di git
v ari
pres ent</w>
sp end</w>
brac elet</w>
iPh one</w>
s al
d able</w>
g b</w>
p ink</w>
il ed</w>
af for
k it</w>
nar row</w>
proper ly</w>
b al
sig n
sh ou
m ea
no ise</w>
spe ed</w>
car ds</w>
performan ce</w>
d ic
je wel
rec or
it .
tr ouble</w>
gen er
pur se</w>
tw ice</w>
fa ir
digit al</w>
c ant</w>
pl an
p ment</w>
inclu ded</w>
kee ping</w>
ch il
ir d</w>
vacu um</w>
pa per</w>
tu re
s ea
retur ning</w>
ell s</w>
stand ard</w>
protec tor</w>
cou r
re sp
te st</w>
o il</w>
construc tion</w>
le ts</w>
sta ys</w>
sim ply</w>
st ea
sa fe</w>
ran ge</w>
shir ts</w>
pa irs</w>
min i</w>
te m
fini sh</w>
manu fac
dar k</w>
connec tion</w>
j un
be d
acc ess
it ing</w>
re l
fla sh</w>
rubb er</w>
sli p</w>
w ra
see med</w>
al lows</w>
f ur
lat er</w>
bul ky</w>
le gs</w>
nec k</w>
sil ver</w>
en er
experi ence</w>
ar m</w>
su al</w>
no t
c e
ar ly</w>
ca p
fair ly</w>
a in
an ten
r ou
lou d</w>
0 0
gi f
accur ate</w>
hol der</w>
volu me</w>
ex ten
y es</w>
s qu
sta in
nor m
fi ve</w>
s p</w>
open ed</w>
lea ve</w>
H D</w>
cu ps</w>
ad ded</w>
gra ph
ver age</w>
f ru
thin king</w>
ca ses</w>
. the</w>
re st</w>
correc t</w>
char ged</w>
as k</w>
pro mi
d in
b el
s wea
s ounds</w>
possi ble</w>
immedi ately</w>
ri st</w>
desig ned</w>
hel ped</w>
wh e
pow er
sun g</w>
disp lay</w>
previ ous</w>
m m</w>
w ed</w>
mi x
s wi
le ss
to day</w>
th ick
sh el
st er
shi p</w>
set up</w>
wall et</w>
norm ally</w>
de ta
c d</w>
col lec
solu tion</w>
a w
organ iz
un less</w>
pr ac
M ac
am sung</w>
S amsung</w>
re fun
ca m
ad or
ca ke</w>
na me</w>
sand als</w>
so le</w>
sof tw
st ly</w>
sp o
w ha
bath room</w>
he al
lo ck</w>
v it
t iny</w>
1 1</w>
softw are</w>
k le</w>
br ush</w>
gi ving</w>
pu tting</w>
comp ar
w rist</w>
care ful</w>
ca sual</w>
v ent</w>
lo wer</w>
al ot</w>
d -
sho ws</w>
pr oo
di r
hd mi</w>
up grad
G old</w>
st eel</w>
pl ease</w>
lo ad</w>
i ous</w>
jewel ry</w>
ea ble</w>
func tional</w>
exc ited</w>
en s</w>
h it</w>
t al
lo vely</w>
ba s
w oo
for m</w>
too th</w>
bu n
pro fe
co tt
ag ain
ac ks</w>
t or
min d</w>
i er</w>
c en
se tt
to e</w>
br ands</w>
coo king</w>
swit ch</w>
in ten
k ey</w>
ma il</w>
d ge</w>
coun ter</w>
D ell</w>
el ess</w>
wea ther</w>
butt ons</w>
pic tured</w>
par ts</w>
ma c</w>
profe ssi
Mac B
MacB ook</w>
zi pper</w>
protec ts</w>
b at
photo s</w>
fra me</w>
notic ed</w>
siz ing</w>
bo x
h our</w>
co vers</w>
an c
bro wn</w>
to a
sign al</w>
ador able</w>
sn t</w>
qui et</w>
app ears</w>
sto p</w>
wash ing</w>
ele g
w ine</w>
too l</w>
ti es</w>
high er</w>
for ward</w>
char m</w>
por t
multi ple</w>
fa ster</w>
se ts</w>
b en
h un
any where</w>
pro gra
ba ss</w>
comfor tab
ni k
at ur
stra ps</w>
anten na</w>
c all
fo re
mar ket</w>
6 0</w>
mor ning</w>
the m
G P
b ly</w>
de v
un comfortable</w>
shou l
h ear</w>
par tic
b all</w>
t ors</w>
flo or</w>
kni ves</w>
func tion</w>
bl an
grand son</w>
cour se</w>
on ic</w>
. it</w>
dish washer</w>
bu ild</w>
la sts</w>
install ation</w>
assem ble</w>
proo f</w>
g ro
fig ure</w>
pro jec
ir on</w>
t -
gir l</w>
bu sin
real iz
ba r</w>
oc ca
mat tre
hol es</w>
elec tr
f ill</w>
rec ently</w>
wor ri
con cer
se par
ic ally</w>
ca use</w>
at a</w>
cott on</w>
su it</w>
wan ts</w>
n on-
hel p
wai st</w>
cu shi
s it</w>
le ar
sh u
affor dable</w>
to ld</w>
sh oo
in a</w>
recei ve</w>
provi des</w>
stand ing</w>
l ab
ma ker</w>
l ic
con st
ch i
are n</w>
jun k</w>
han g</w>
hoo k</w>
nik on</w>
e g
wor ry</w>
fi x</w>
si ster</w>
shor ts</w>
do c
1 3</w>
busin ess</w>
speci al</w>
stain less</w>
wat ches</w>
pu ll</w>
GP S</w>
se tting</w>
allow een</w>
H alloween</w>
l y
h ei
4 0</w>
at or</w>
fil ters</w>
ba se</w>
lo ad
p ans</w>
. T
sur face</w>
dau gh
pre fer</w>
fre sh</w>
sec ure</w>
ch ild</w>
lar s</w>
nu mber</w>
pr int</w>
fe eling</w>
eleg ant</w>
sh ing</w>
contin ue</w>
r ack</w>
intern et</w>
po d</w>
s er</w>
fi c</w>
mi c</w>
grand daughter</w>
exac t</w>
ba sed</w>
in ted</w>
bo y
1 2
g or
wor ds</w>
sing le</w>
us er</w>
resp on
gri p</w>
consi dering</w>
g ly</w>
any more</w>
di dnt</w>
st ated</w>
op tion</w>
e qui
im port
in ser
mattre ss</w>
sho wn</w>
ad just</w>
por table</w>
l ac
sugge st</w>
co at</w>
c at
col or
g lu
gif ts</w>
b er
lo se</w>
refun d</w>
bu ds</w>
we b
in t
supp ly</w>
m a</w>
chec k</w>
comple te</w>
pro mp
sp ent</w>
k ne
fre e
effec tive</w>
ter rible</w>
in te
w ers</w>
ta ken</w>
reli able</w>
on .
fl exi
t all</w>
st ick
sk ir
ti me
coo k
de sk</w>
professi onal</w>
ac tion</w>
sa ved</w>
inc re
g l
s low</w>
ad diti
re qu
ba rely</w>
connec ted</w>
us eless</w>
m ee
help ful</w>
ke ys</w>
some what</w>
dev ices</w>
tra vel
or ies</w>
th row</w>
mat ter</w>
po ster</w>
dd le</w>
coo k</w>
f itting</w>
movi es</w>
la w</w>
i den
con ver
pre ss</w>
re si
n atur
pic k</w>
di a
car r
ca p</w>
cer tain
chea ply</w>
ti mely</w>
partic u
dr ink</w>
l a</w>
ra z
incre di
sp ec
t on</w>
any way</w>
i on</w>
r ound</w>
le vel</w>
dre n</w>
ati c</w>
certain ly</w>
si ons</w>
li ghter</w>
ic al</w>
chil dren</w>
s pl
sh es</w>
promi sed</w>
. 00</w>
provi de</w>
every where</w>
boy friend</w>
d eep</w>
k new</w>
ou gh
li er</w>
in -
char ges</w>
war ran
lu e
for m
c le</w>
to ps</w>
fla v
sp ar
len ses</w>
dr in
beauti fully</w>
fa shi
cli p</w>
sto ck</w>
ima ge</w>
wat er
attach ed</w>
o ven</w>
g one</w>
B lue
sear ch</w>
m in</w>
promp tly</w>
Blue tooth</w>
bott les</w>
ve ment</w>
n et</w>
an ti
b le
cha ir</w>
nec ess
ma in
b an
gor ge
ga mes</w>
d ust</w>
ne g
fall ing</w>
rou ter</w>
s wee
back pack</w>
bed room</w>
de fec
fin ding</w>
fir e</w>
sli m</w>
ti e</w>
du ty</w>
me mber</w>
li ghts</w>
direc tions</w>
bow l</w>
clean er</w>
stret ch</w>
c y
e p
an ge</w>
r ate</w>
m et</w>
P O
gorge ous</w>
da d</w>
t an
not ice</w>
st uck</w>
sti ff</w>
e -
adju stable</w>
supp le
d ouble</w>
tru ly</w>
recei ver</w>
al low</w>
ba sic</w>
dro p</w>
ro ss</w>
bu cks</w>
z z
bu b
l un
worri ed</w>
X L</w>
cho se</w>
cre am</w>
b ill</w>
we i
20 0
p ou
y ou
har d
hur t</w>
mi ssing</w>
vi br
scre w</w>
t ory</w>
H P</w>
sp or
ener gy</w>
enti re</w>
requi red</w>
re co
rat ing</w>
li m
an no
n ers</w>
ho le</w>
ang le</w>
so ld</w>
a ir
an t
g y
ren t</w>
lo l</w>
th ri
ho ped</w>
pla ying</w>
en t
cu tting</w>
brea d</w>
sc ar
sho p</w>
del ic
out fit</w>
hor rible</w>
happ ier</w>
n d</w>
actu al</w>
hei ght</w>
str on
5 0
d a</w>
sli de</w>
manufac ture
k ind
ac ross</w>
wi d
supp or
sm ells</w>
warran ty</w>
re gre
w et</w>
ey e</w>
b on
M P
at ure</w>
ste re
D E</w>
fi x
z ed</w>
acc ess</w>
a verage</w>
h er
1 4</w>
op tions</w>
t ex
st y</w>
t end</w>
ta pe</w>
clo th</w>
ab o
stra ight</w>
camer as</w>
chan ce</w>
func tions</w>
er y</w>
ho pe
additi onal</w>
di ed</w>
f it
th ird</w>
g loves</w>
wo men</w>
open ing</w>
di sh</w>
thick er</w>
sli ppers</w>
he sit
n ear</w>
s d</w>
m b</w>
mu g</w>
dro pped</w>
comp ati
ha te</w>
ac ked</w>
ir r
fac tory</w>
p atter
c ri
contin u
hand les</w>
fla w
c ru
in ches</w>
di sc
ing .</w>
d ent</w>
doe snt</w>
f i</w>
st one</w>
ti v
ec e</w>
ca bin
carr ying</w>
r an</w>
I t</w>
usu al</w>
oo n</w>
st ment</w>
cla ssy</w>
construc ted</w>
ll ing</w>
pre ss
Ch ina</w>
func tion
d ou
co vered</w>
do g</w>
cle ans</w>
dol lars</w>
blan ket</w>
scre ws</w>
w els</w>
d ead</w>
dec or
ap pro
ex tern
gir l
el a
stere o</w>
wi res</w>
bo y</w>
dama ged</w>
dri ves</w>
cr o</w>
smoo th
wo w</w>
su per
pur ple</w>
s ex
natur al</w>
ro ll</w>
al i
ma in</w>
in ve
vel cro</w>
in ing</w>
daugh ters</w>
import ant</w>
di st
e s
oo m</w>
gu y</w>
equi pment</w>
no te</w>
reason ably</w>
extern al</w>
slee ve</w>
sc ent</w>
p s
abo ve</w>
o h</w>
fa ult</w>
photo graph
mi x</w>
al tern
d or</w>
fri en
app reci
in k
wash es</w>
less ly</w>
to es</w>
up date</w>
E D</w>
scrat ches</w>
fli p</w>
disappoin ting</w>
stic ks</w>
am p</w>
n ea
shel f</w>
su s</w>
tu be</w>
sen siti
again st</w>
MP 3</w>
wid th</w>
on ing</w>
st a</w>
won t</w>
n one</w>
neg ative</w>
gr ound</w>
compla in</w>
in ed</w>
g a</w>
const antly</w>
upgrad e</w>
fo am</w>
sec on
recom end</w>
reli e
tr ick</w>
sn ea
rec e
on to</w>
as ked</w>
d en</w>
s eas
ren tly</w>
flexi ble</w>
re duc
materi als</w>
plac ed</w>
th u
ing .
head set</w>
O E
y our
list en</w>
cla ssi
OE M</w>
press ure</w>
l bs</w>
ed ge</w>
we l</w>
er c
thri lled</w>
mi ddle</w>
ar ch</w>
hea vi
cen ter</w>
ch y</w>
y oun
s ale</w>
g ain</w>
sett ings</w>
to tal</w>
sm art</w>
hope fully</w>
au to
to wels</w>
wr ite</w>
e sti
me ter</w>
tec h
access ories</w>
ch ee
dama ge</w>
mag ne
2 5</w>
contain er</w>
chan ged</w>
v al</w>
sex y</w>
li ving</w>
fre qu
l it
travel ing</w>
pac ked</w>
t ea
t ough</w>
mat ches</w>
ter ri
s ons</w>
collec tion</w>
sel ec
boo ks</w>
sp ot</w>
m eas
sn ap</w>
m us
pla y
fore ver</w>
p ea
sp are</w>
le g</w>
kind a</w>
f er
z er</w>
be h
well -
ra m</w>
proc ess</w>
app lic
uni que</w>
bla de</w>
tri pod</w>
s ink</w>
n on</w>
com bin
so ap</w>
di es</w>
correc tly</w>
at ten
micro wa
ar ms</w>
th y</w>
pil ls</w>
skir t</w>
wee k
sec u
3 .
br ought</w>
sp ee
choo se</w>
ear ly</w>
ed ges</w>
po or
fa iled</w>
plac es</w>
classi c</w>
pr in
pad s</w>
a vo
pric ey</w>
clo sed</w>
e ts</w>
l ls</w>
your self</w>
sor ry</w>
p at
manu al</w>
c lar
8 0</w>
hea ter</w>
plu gs</w>
m ps</w>
beh ind</w>
inten ded</w>
r ay</w>
s ou
girl friend</w>
wa iting</w>
ne l</w>
el low</w>
shee t</w>
tem per
ey es</w>
si x</w>
T S</w>
co m</w>
ear lier</w>
e ty</w>
hoo ked</w>
s oun
op in
st ers</w>
ne arly</w>
in es</w>
fol low
consi der</w>
a x
gy m</w>
ag es</w>
sh iny</w>
du al</w>
ca kes</w>
pro te
iti es</w>
di vi
mi s
reci e
el d</w>
s ke
anno ying</w>
wat ching</w>
spr ing</w>
ha sn</w>
re -
fa ir</w>
lea ves</w>
sho t</w>
fin ger</w>
web site</w>
.. ....</w>
necess ary</w>
b er</w>
2 nd</w>
ind ic
compati ble</w>
y -
tra sh</w>
re member</w>
ha ss
f lu
gr in
r o</w>
s itting</w>
provi ded</w>
protec ted</w>
ela stic</w>
p en</w>
app ly</w>
s an
b ra
manufacture r</w>
en ed</w>
supp ose</w>
raz or</w>
li c</w>
vie w</w>
R TS</w>
PO RTS</w>
sc ale</w>
su n</w>
me ss</w>
power ful</w>
1 6</w>
t ele
c ed</w>
y r</w>
mea su
connec tor</w>
hear d</w>
consi st
m ers</w>
br u
e at</w>
ga r</w>
ob vi
en ing</w>
cr y
gre e</w>
rece ption</w>
sun glasses</w>
po p</w>
d ata</w>
ser ves</w>
wor ld</w>
reco g
tur ns</w>
mo d
poor ly</w>
g love</w>
shor ter</w>
ven dor</w>
la un
inclu ding</w>
k in
min s</w>
5 -
on ed</w>
brea king</w>
- up</w>
heavi er</w>
be come</w>
d less</w>
n er
pp y</w>
c all</w>
d v
cla ss</w>
com m
bea ch</w>
lar ly</w>
fin gers</w>
flav or</w>
ta st
b ent</w>
dish es</w>
d ant</w>
slee k</w>
s at
nic er</w>
ar ds</w>
.T he</w>
vide os</w>
oo l</w>
fi gu
me ans</w>
opin ion</w>
call ed</w>
l uc
f ad
bl en
L ED</w>
han ging</w>
sho pping</w>
bo ther</w>
comfor ter</w>
2 -
shoul der</w>
att ach</w>
surpri se</w>
2 .
in f
k id</w>
enjo yed</w>
under stand</w>
kne e</w>
c ir
wor d</w>
t a</w>
le y</w>
slee ves</w>
th ro
cr acked</w>
gir ls</w>
patter n</w>
the re
bal ance</w>
er ing</w>
im possible</w>
on er</w>
con diti
cu p
2 00</w>
p ush</w>
C D</w>
sil ic
spr ay</w>
r ough</w>
prote in</w>
l o</w>
y e
ca pac
rec com
recog ni
3 0
il ing</w>
wor st</w>
it ter</w>
th ats</w>
un like</w>
p et</w>
so les</w>
realiz e</w>
dis k</w>
g al
c lu
de sk
microwa ve</w>
s ell</w>
comfortab ly</w>
fol low</w>
t ee
e mp
in iti
vi a</w>
as onic</w>
ge st</w>
G ar
bro ther</w>
b or
s have</w>
c es</w>
wha te
doc tor</w>
cur tain</w>
in ny</w>
W al
whate ver</w>
ffic ient</w>
s our
all er
tast es</w>
lu s</w>
back up</w>
li gh
8 0
v ir
particu lar</w>
L CD</w>
vo l
mi sta
scrat ch</w>
qual it
pen ny</w>
f ans</w>
u n</w>
mb ers</w>
n it
y ellow</w>
ti red</w>
pic ked</w>
s eal</w>
sh r
ty pic
in e
t le</w>
positi on</w>
b ands</w>
s. i</w>
dra wer</w>
cry st
tu ally</w>
1 8</w>
wonder fully</w>
l uck</w>
cabin et</w>
sen ding</w>
p -
b a</w>
us able</w>
sensiti ve</w>
prac tical</w>
bla des</w>
gu ys</w>
c ell</w>
ta il</w>
an kle</w>
bon us</w>
cor ds</w>
ga me</w>
secon ds</w>
s now</w>
re ach</w>
mo stly</w>
2 4</w>
defec tive</w>
vari ety</w>
m ac
l ate</w>
replac ing</w>
clo set</w>
bur n</w>
do ors</w>
clo thing</w>
h ood</w>
fr ag
bub bles</w>
ing ly</w>
i red</w>
sub st
inc rea
pl ate</w>
ef for
i al</w>
b by</w>
lun ch</w>
out standing</w>
P an
to wel</w>
g ging</w>
me dic
- in-
remo ved</w>
par tment</w>
com ments</w>
lo ss</w>
ab sor
or ange</w>
fil es</w>
tr ay</w>
ti p</w>
tec h</w>
Pan asonic</w>
pl ic
figu red</w>
mo der
de pen
sa fe
mo i
m ming</w>
wo man</w>
li qu
be gin
vi sion</w>
shi pment</w>
brea k
suc tion</w>
wra p</w>
si ble</w>
fi er</w>
hass le</w>
ell ing</w>
m ale</w>
i le</w>
ser ve</w>
3 -
pad ding</w>
pu ts</w>
progra m</w>
frien dly</w>
asse mb
ba king</w>
exc ee
altern ative</w>
a de
t it
li fe
st ones</w>
ra in</w>
peri od</w>
regre t</w>
pil lows</w>
app ear</w>
er r
a sus</w>
dir ty</w>
app li
ad ds</w>
sp ac
n els</w>
bu t
fan cy</w>
movi e</w>
water proof</w>
cho col
fix ed</w>
Gar min</w>
trans fer</w>
cra zy</w>
br ing</w>
sy n
vari ous</w>
perfor ms</w>
sty lus</w>
c on</w>
avo id</w>
1 5
z oom</w>
vac ation</w>
pro m
tri c</w>
e m
s ort</w>
9 0</w>
gi es</w>
lac es</w>
ca m</w>
co lo
swea ter</w>
flaw lessly</w>
app ear
in form
bre e
ne at</w>
wea k</w>
su it
ver sati
st ands</w>
cont ac
rel ati
dr yer</w>
z en</w>
dra w
go l
tr ad
recie ved</w>
we b</w>
ge l</w>
3 D</w>
recor d</w>
impro vement</w>
cu ts</w>
per son
kno wn</w>
too ls</w>
mil k</w>
oper ate</w>
sand al</w>
versati le</w>
9 9</w>
up on</w>
scar f</w>
swee t</w>
wi der</w>
mo ving</w>
pla in</w>
desk top</w>
fru it</w>
dir t</w>
be g
ma j
cle arly</w>
for get</w>
box es</w>
st itch
ste p</w>
ma sk</w>
tee th</w>
p li
separ ate</w>
h a</w>
revie wers</w>
g ear</w>
bar gain</w>
sp ort</w>
wi fi</w>
ne i
s we
cu s</w>
tri ps</w>
a while</w>
fe ren
fil led</w>
b es</w>
v ic
p in</w>
st ation</w>
thre w</w>
windo w</w>
moun ted</w>
read er</w>
previ ously</w>
ni fic
sp ite</w>
4 -
deta il</w>
concer ned</w>
effec t</w>
f old</w>
fa bul
no se</w>
he els</w>
ni ece</w>
capac ity</w>
liqu id</w>
g on
fall s</w>
f le
th i
minu te</w>
lim ited</w>
7 0</w>
cre d
proc ess
c arri
ho li
po st</w>
we ird</w>
pleas antly</w>
b age</w>
ty pes</w>
prom pt</w>
origin ally</w>
bu d
be ware</w>
thr u</w>
star ting</w>
chocol ate</w>
gar bage</w>
blen der</w>
assemb ly</w>
cla sp</w>
glu e</w>
dri ver</w>
man ner</w>
hard ware</w>
net work</w>
sa ver</w>
dou b
b lo
supple ment</w>
u ps</w>
tex ture</w>
elec tric</w>
hu mi
li ds</w>
mea n</w>
s mo
dro ps</w>
ra id</w>
bl ed</w>
g ad
pa in
1 6
off er</w>
mu y</w>
coo ler</w>
d le</w>
v els</w>
cra p</w>
ur ing</w>
ss age</w>
roo my</w>
ade qu
protec tive</w>
mo ther
b ac
h y
mat ching</w>
atten tion</w>
gal ax
toa ster</w>
af raid</w>
men tion
se at</w>
great .</w>
ho me
un able</w>
temper ature</w>
ar s</w>
fil m</w>
ad ult</w>
shoo t</w>
gi c</w>
b ility</w>
inform ation</w>
fit ted</w>
fo cus</w>
sk et</w>
ti mer</w>
po inted</w>
al ity</w>
v able</w>
sho wed</w>
y ear
ta b</w>
sear ching</w>
secu rely</w>
c and
to y</w>
le .</w>
mo de</w>
fi le</w>
li sted</w>
ex erc
r ice</w>
li k
galax y</w>
thin ner</w>
arri ve</w>
ske p
laun dry</w>
ther mo
wan ting</w>
work out</w>
see ing</w>
re search</w>
delic ate</w>
bas ically</w>
s its</w>
bu ck
ear buds</w>
hear t</w>
b o</w>
terri fic</w>
foo t
no is
direc tly</w>
on ics</w>
m el
fur nit
compu ters</w>
bree ze</w>
col le
ki e</w>
fa st
pen dant</w>
pric es</w>
fabul ous</w>
z er
qu it</w>
g ine</w>
appear ance</w>
it is</w>
b all
inte re
resi st
dur ability</w>
cra f
cont act</w>
can c
s co
ro ad</w>
pro s</w>
h on
x i
ver s
head phone</w>
ro t
ima l</w>
mar t</w>
ri pped</w>
am in</w>
chan nels</w>
te sted</w>
bl ing</w>
c at</w>
ess enti
ga ming</w>
inser t</w>
inve stment</w>
silic one</w>
r ated</w>
ir ing</w>
re n</w>
i ve</w>
bun ch</w>
al one</w>
furnit ure</w>
con s</w>
bu tter</w>
flo ors</w>
youn g</w>
mer ic
experi en
stu ff
cri sp</w>
mista ke</w>
read s</w>
1 9
j ack</w>
per ha
li st</w>
medi a</w>
.... ....
cushi on</w>
fir m</w>
mat e</w>
hoo ks</w>
too th
vit a
re pair</w>
bo se</w>
perha ps</w>
cer tain</w>
ju ice</w>
sal t</w>
sto ve</w>
pre vent</w>
fi sh</w>
irr it
seas on</w>
cred it</w>
contro ls</w>
so oner</w>
pla ys</w>
mention ed</w>
th ers</w>
sn a
no w
la mp</w>
g n
fa ther</w>
i or</w>
vit amin</w>
be y
requi res</w>
n ook</w>
th us</w>
bow ls</w>
colle ge</w>
bo ys</w>
st ren
fru str
supp li
de spite</w>
enjo ying</w>
vibr ant</w>
un its</w>
skep tical</w>
b end</w>
sa ves</w>
stick y</w>
o w</w>
ro be</w>
tab les</w>
dia mon
i p
positi ve</w>
de p
cli ps</w>
on ally</w>
tran sm
-in- law</w>
c king</w>
min or</w>
ti ps</w>
u ro
su gar</w>
sa ying</w>
fashi on</w>
are as</w>
i deal</w>
incredi bly</w>
har dly</w>
lin es</w>
r .</w>
lik ely</w>
tab lets</w>
pa ying</w>
3 00</w>
access ory</w>
load ed</w>
af ter
k in</w>
snea kers</w>
r d</w>
so ck</w>
dol lar</w>
sol ved</w>
moun ting</w>
l y.
an s
min i
4 0
defin ately</w>
s -
. 1</w>
to dd
lit er
colo red</w>
di e</w>
per s</w>
dar ker</w>
maj or</w>
pow der</w>
sho ts</w>
tt le</w>
bar s</w>
t ar
aw ful</w>
t ear</w>
bey ond</w>
slee ping</w>
b lock</w>
Amaz on.
install ing</w>
ad ly</w>
requ ire</w>
dri vers</w>
heal th</w>
occa si
j am
A C</w>
li ps</w>
wor se</w>
acc ep
t ons</w>
sear ched</w>
under nea
relati vely</w>
qu esti
mod els</w>
be sides</w>
dre sses</w>
to shi
fe red</w>
mou th</w>
P ri
per s
le .
appreci ate</w>
s light</w>
as su
down side</w>
cir cu
l ink</w>
p ounds</w>
il ls</w>
h ey</w>
cor n</w>
c o</w>
swe at</w>
even ly</w>
relie f</w>
comp on
sk inny</w>
men tion</w>
tr ust</w>
c s</w>
vita mins</w>
nee ding</w>
bat h</w>
feren ce</w>
3 rd</w>
suc c
down load</w>
toshi ba</w>
ca st</w>
goo d
hea ting</w>
do ck</w>
- shirt</w>
Wal mart</w>
pac ks</w>
ta d</w>
lin ing</w>
in gre
bo w</w>
undernea th</w>
comp are</w>
we st</w>
pa ss</w>
contain ers</w>
out door</w>
1 st</w>
there fore</w>
spor ts</w>
obvi ously</w>
sc i
. It</w>
pers onal</w>
ri d</w>
gri ll</w>
se al
m .</w>
cryst al</w>
conven i
st atic</w>
r ich</w>
n e</w>
se .</w>
n or</w>
acc iden
sc oo
com ment</w>
even tually</w>
ac tiv
sour ce</w>
ex change</w>
o z</w>
cook ies</w>
whe ther</w>
tan k</w>
ingre di
in er</w>
m ec
gre y</w>
dis sa
re ments</w>
combin ation</w>
bea ts</w>
. this</w>
stitch ing</w>
z ing</w>
A meric
co a
respon se</w>
exc el
notic eable</w>
exce p
od or</w>
T -shirt</w>
clo sure</w>
drin ks</w>
la sting</w>
t on
ul ty</w>
pleas ant</w>
wi g</w>
t ments</w>
i e</w>
effor t</w>
ru b</w>
US A</w>
ber ry</w>
re s
sp en
prin ter</w>
scrat ched</w>
D s</w>
fir m
out put</w>
s lot</w>
ser ies</w>
sing ly</w>
Pri me</w>
mo tor
fini shed</w>
recei ving</w>
projec tor</w>
off ers</w>
1 .
spar k
expec te
sh y</w>
excee ded</w>
sto m
incredi ble</w>
cam cor
lea k</w>
l dnt</w>
ch est</w>
mil es</w>
ssi on</w>
spo ts</w>
stea m</w>
loc ally</w>
pic s</w>
app a
disp en
st ro
5 00</w>
1 8
po ts</w>
h one
sp oon</w>
an o</w>
gg ings</w>
adequ ate</w>
f at</w>
cor ner</w>
lab el</w>
de al
te en
chec ked</w>
pl ates</w>
fl atter
sa uc
disappoin tment</w>
ser i
out let</w>
da y
ca u
ph e
st rea
hea ts</w>
a ware</w>
eg gs</w>
v o</w>
in divi
resul t</w>
to il
mic ro</w>
stom ach</w>
p ic</w>
pac king</w>
us age</w>
thr ough
chan ging</w>
6 0
pou ch</w>
o s
effec ts</w>
than k
ima gine</w>
sl ic
clo ck</w>
bel ow</w>
el se
zer o</w>
we ren</w>
sta ins</w>
moi stur
impro ved</w>
we red</w>
coo ker</w>
list ening</w>
co ver
aw k
it es</w>
3 2</w>
color ful</w>
sta yed</w>
liter ally</w>
fun ny</w>
bul b</w>
connec tors</w>
wor th
ll a</w>
cy cle</w>
squ ee
no te
S L
clar ity</w>
shu t</w>
organiz ed</w>
follow ed</w>
de ter
j ar</w>
open er</w>
wh en
tr ack</w>
man ag
SL R</w>
pro per</w>
sig nific
flo ps</w>
ne w
din ner</w>
of fered</w>
wa sted</w>
ro ck</w>
le ggings</w>
ad ding</w>
pi zz
happ ened</w>
cap su
ben e
spo ons</w>
an k
amaz ed</w>
lear n</w>
win d</w>
re gar
ne phe
wr ink
dist ance</w>
graph ics</w>
u mb
vie wing</w>
pa int</w>
t ters</w>
heal thy</w>
bul k</w>
7 0
an tic
flatter ing</w>
g -
ba sket</w>
mee ts</w>
grin der</w>
mat ched</w>
mo ved</w>
perfec t
me ant</w>
a head</w>
ac cor
disp la
p ati
hone stly</w>
electr onics</w>
coo ks</w>
recor ding</w>
bl ood</w>
clean ed</w>
a th
p ear
et c
sh ine</w>
hesit ate</w>
lu gg
gr an
gl are</w>
ll er</w>
zi p</w>
applic ation</w>
gener al</w>
cor ners</w>
lin er</w>
speci fic
v an
mec han
m at</w>
me at</w>
hi king</w>
wha t
co sts</w>
surpri singly</w>
car pet</w>
c ount</w>
chee se</w>
re la
ea red</w>
c ked</w>
mix er</w>
f m</w>
connec tions</w>
u m
gh ted</w>
d on
men t
ve g
pa ired</w>
exten sion</w>
compar tments</w>
stren gth</w>
l y.</w>
ad v
m bo
c ket</w>
ou ts</w>
coo kie</w>
happ en</w>
sec ur
frequ ently</w>
che mic
perfor med</w>
re solution</w>
remo ving</w>
e fficient</w>
cha l
cha irs</w>
ke ttle</w>
t ch</w>
doub t</w>
char g
re tail</w>
realiz ed</w>
well .</w>
S tu
camcor der</w>
iti on</w>
e s.
pe t
cro ss</w>
lugg age</w>
ach es</w>
adap ters</w>
k en
t wi
sa d</w>
ri de</w>
in put</w>
dis c</w>
p ool</w>
ch er</w>
up d
t ac
reccom end</w>
ca ps</w>
ti ght
nu mbers</w>
antic ip
1 7</w>
when ever</w>
pad ded</w>
ve ge
A A</w>
shr ink</w>
co zy</w>
mee t</w>
under wear</w>
tu b</w>
en ter
pu mp</w>
con fi
pu lled</w>
e sp
or a</w>
typic al</w>
ima ges</w>
con su
tr a</w>
sea ms</w>
mar ks</w>
st ations</w>
sha ving</w>
seri ously</w>
al arm</w>
pri or</w>
lo sing</w>
sur ger
wra pped</w>
a id</w>
w il
p ill</w>
n ur
lea ving</w>
de si
u r</w>
gr ay</w>
st ate</w>
acc e
draw back</w>
su b</w>
m m
un e</w>
gr and</w>
C A</w>
K ing</w>
connec ting</w>
o ds</w>
shoo ting</w>
war ds</w>
sc ra
v et</w>
ser ving</w>
anc es</w>
x -
p in
C o
i de</w>
cur rently</w>
in de
beca me</w>
l and</w>
ad o</w>
mb s</w>
au to</w>
1 4
appro pri
ti l
su peri
exten ded</w>
r ust</w>
ro id</w>
star ts</w>
ac he</w>
ti ll</w>
ar thr
mag net</w>
m uc
ff le</w>
g ue</w>
la p</w>
awk ward</w>
ear phones</w>
todd ler</w>
do gs</w>
r in
on .</w>
moder n</w>
sk i
ri p</w>
DV Ds</w>
well- made</w>
li p</w>
mo re
dri ving</w>
de tec
po wered</w>
st at
suc ks</w>
secur ity</w>
v in
replac e
function ality</w>
cand y</w>
bur ned</w>
superi or</w>
won der</w>
col our</w>
ec h</w>
s or</w>
stron ger</w>
di al</w>
g le</w>
gon na</w>
bo ards</w>
nois y</w>
fa ke</w>
comp re
M ic
dre ssy</w>
h ic
sli des</w>
m atic</w>
T he</w>
chan nel</w>
ta g</w>
fi ber</w>
a se</w>
t at
protec tors</w>
to wn</w>
sel ves</w>
har der</w>
ea n</w>
spen ding</w>
else where</w>
lea se</w>
te e</w>
contac ted</w>
ac er</w>
meas uring</w>
y s
allow ed</w>
pe pper</w>
sen se</w>
c rea
pr ints</w>
mo ld</w>
el ed</w>
ba se
ingredi ents</w>
iti onal</w>
gu e
boo k
y ea
ch ick
si de
deta ils</w>
sell ing</w>
bi ke</w>
initi ally</w>
hu bby</w>
di men
con for
err or</w>
i a</w>
ea ting</w>
tic s</w>
p our</w>
pric e.
tur ning</w>
nephe w</w>
produc t.</w>
ac tive</w>
al o
lo gy</w>
str ing</w>
process or</w>
la yer</w>
w in</w>
m eal</w>
se ly</w>
photograph y</w>
tt e</w>
eg g</w>
subst anti
war m
purcha ses</w>
th is
w rist
vi sible</w>
re charg
up set</w>
con ce
s lots</w>
protec ting</w>
s ation</w>
dic ul
bud get</w>
a partment</w>
s us
o o</w>
a gree</w>
st ain</w>
ser ved</w>
in sul
cal i
fer red</w>
shi eld</w>
roo ms</w>
pre ci
eli min
ro lls</w>
ga u
g row</w>
sugge sted</w>
mb er
sea m</w>
u t</w>
lo go</w>
perfor m</w>
f ar
ch ro
appa rently</w>
what so
toil et</w>
br as</w>
nu mer
sty les</w>
produc e</w>
magne tic</w>
s ore</w>
pric e.</w>
ser ious</w>
surger y</w>
re r</w>
cur rent</w>
exerc ise</w>
te mp
wr iting</w>
chan ges</w>
ligh ting</w>
mu gs</w>
smooth ly</w>
re gi
N ano</w>
p y</w>
p hi
y ers</w>
coun try</w>
E uro
y o</w>
u gly</w>
sit u
on o
nex us</w>
anc ed</w>
through out</w>
l ite</w>
gh s</w>
l ack</w>
por tion</w>
in ner</w>
plan ning</w>
se .
fol ds</w>
res so</w>
stri ps</w>
ma x</w>
li ft</w>
u ten
tic ally</w>
val u
sof ter</w>
pic ks</w>
resist ant</w>
sli pp
rea r</w>
min imal</w>
it ch</w>
week end</w>
fac es</w>
fur ther</w>
ec t</w>
p .</w>
al u
d y
compar tment</w>
stron gly</w>
app ed</w>
shoul ders</w>
re lease</w>
fri dge</w>
cu tter</w>
sa ving</w>
squ are</w>
ro lling</w>
sp a
ne wer</w>
thick ness</w>
sho wing</w>
tit le</w>
c les</w>
t ter
so a
lin ks</w>
t i</w>
cal f</w>
gad get</w>
accep table</w>
lo ving</w>
de f</w>
j ars</w>
stic king</w>
di et</w>
li f
mi ss</w>
frag ile</w>
char gers</w>
sh ell</w>
ri dicul
hea ds</w>
and roid</w>
1 1
tr uck</w>
man ship</w>
war mer</w>
bu yer</w>
pres ent
lear ning</w>
ye ster
essenti al</w>
accor ding</w>
st un
ou rs</w>
pre ven
fil ls</w>
a a
vo ice</w>
p and
super b</w>
shel ves</w>
brea ks</w>
di ff
ad vi
d ru
re lla</w>
3. 0</w>
pic ture
ick y</w>
bo at</w>
ac com
tech no
uten si
mo l
gol f</w>
bur ning</w>
mon ey
p un
g en</w>
meas ure</w>
gar age</w>
o es</w>
whatso ever</w>
th o</w>
pizz a</w>
mo p</w>
direc t</w>
buck le</w>
purpo ses</w>
st ates</w>
disc s</w>
ca used</w>
recommen d
pre -
ex po
lea ding</w>
comp et
net book</w>
grad e</w>
mother board</w>
k s
dr ying</w>
p al
10 0
s ca
is m</w>
free zer</w>
3 5</w>
en vir
kne es</w>
ar t
emp ty</w>
4 5</w>
pa ren
inclu de</w>
ad he
reci pi
main ly</w>
v ity</w>
produc t.
sur round</w>
lap tops</w>
ju st
bea ds</w>
ren ch</w>
spl it</w>
you tube</w>
en ted</w>
N a
ru gged</w>
wa ke</w>
hear ing</w>
vi d</w>
bri ef
arri val</w>
ser v
gg le</w>
coo ling</w>
fec t</w>
envir on
x x
me sh</w>
ball s</w>
gu est</w>
4 00</w>
sof t
f low</w>
one .</w>
u pper</w>
bu st</w>
yester day</w>
on able</w>
conveni ence</w>
t all
te red</w>
o m
drin king</w>
sha ke</w>
out fits</w>
regu larly</w>
pu s</w>
hel ping</w>
person ally</w>
stor ing</w>
mar k</w>
ener ation</w>
G eneration</w>
tele vision</w>
i an</w>
i ds</w>
e red</w>
dra in</w>
sha ped</w>
od d</w>
po p
p u</w>
wh eel</w>
Amazon. com</w>
cl ick</w>
T heater</w>
safe ty</w>
d ance</w>
attach ment</w>
e s.</w>
kno wing</w>
iti ve</w>
micro phone</w>
bro w
re fl
trad itional</w>
kin ds</w>
gener ic</w>
k er
intern al</w>
shar pen
d ough</w>
e mail</w>
lo git
pi e</w>
par a</w>
fin ger
k a</w>
6 -
i ke</w>
en cy</w>
m irr
su ff
m .
ra di
be er</w>
particu larly</w>
lea ks</w>
p itch
sli pping</w>
beg an</w>
a mic</w>
boo st</w>
note book</w>
n is</w>
qu een</w>
X mas</w>
v a</w>
paren ts</w>
e vent</w>
Na vy</w>
chick en</w>
ti s
ve hic
im um</w>
co ating</w>
cook ware</w>
ni ght
mo vement</w>
impro ve</w>
ho se</w>
some where</w>
substanti al</w>
fl at
s en</w>
char t</w>
alu min
cr ack</w>
tal k</w>
non- stick</w>
gra b</w>
fil ling</w>
am pli
car d
esp resso</w>
dd en</w>
monit ors</w>
logit ech</w>
experien ced</w>
ell o</w>
any body</w>
care fully</w>
alumin um</w>
them .</w>
de gre
m med</w>
do m</w>
ad s</w>
con f
vi g
ten ds</w>
spar kle</w>
al le
stret chy</w>
at ul
inf o</w>
tou ch
anticip ated</w>
mo tor</w>
ps 3</w>
l g</w>
impres sive</w>
projec t</w>
li ves</w>
umb rella</w>
i ms</w>
su its</w>
spee ds</w>
amaz ingly</w>
ti ghts</w>
ell ed</w>
ha ts</w>
rec order</w>
men ted</w>
ty ping</w>
mat ically</w>
shar e</w>
pl at
deli ghted</w>
p .
I I</w>
s wal
dec or</w>
conditi ons</w>
appropri ate</w>
whe els</w>
t one</w>
gue sts</w>
blu -
ten nis</w>
br acket</w>
m my</w>
them selves</w>
8 .5</w>
produc t
. 99</w>
speci fic</w>
pu lling</w>
worth less</w>
gen u
com bo</w>
en te</w>
n on
itt en</w>
continu ed</w>
st eal</w>
ni ghts</w>
mode m</w>
pri mar
b ee
mo ves</w>
sk il
ff y</w>
X box</w>
lin ed</w>
woo den</w>
work manship</w>
ir oning</w>
f low
chi p</w>
at e
tain s</w>
app s</w>
. very</w>
numer ous</w>
de vel
consist ent</w>
sto cking</w>
s ata</w>
fi re
depen ding</w>
oper ation</w>
pur e</w>
adju stment</w>
plan e</w>
d dy</w>
stri p</w>
re fri
l an
mp ed</w>
cam ping</w>
. they</w>
suit able</w>
woo fer</w>
even ing</w>
i sh</w>
ro a
pe st</w>
hu b</w>
th read</w>
re min
len o
iden tical</w>
fi eld</w>
sh e
etc .</w>
supple ments</w>
s. the</w>
comp an
selec tion</w>
sol ve</w>
ba ke</w>
co verage</w>
p id</w>
occa sion</w>
f ly</w>
botto ms</w>
electr onic</w>
connec ts</w>
th o
p ins</w>
bo l
st ru
comple ments</w>
s se
cla ims</w>
ha m
nei ther</w>
ri ding</w>
pand ora</w>
th or
m on</w>
ma x
ad m
la dy</w>
scri ption</w>
cer amic</w>
tra ining</w>
r ic
ed .</w>
ar m
begin ning</w>
stur di
over priced</w>
do s</w>
sc u
goo d.</w>
sha de</w>
wat ch
cro cs</w>
qu il
desig ns</w>
mo ment</w>
cat ch</w>
ele ts</w>
sto ps</w>
m o</w>
an a</w>
1 -
diffic ulty</w>
u x</w>
ke t
back ground</w>
arthr itis</w>
increa se</w>
ma ssage</w>
op tical</w>
ap p</w>
4 th</w>
for ce</w>
an ts</w>
us ers</w>
bas is</w>
b and
U l
v ga</w>
T ar
zi ppers</w>
j a
sp atul
s low
as king</w>
lear ned</w>
degre es</w>
luc ki
Tar get</w>
fe male</w>
a c</w>
y l
wi shed</w>
snu gly</w>
dra w</w>
net fli
measu rements</w>
p age</w>
gener ally</w>
wi pe</w>
sna ps</w>
ti er</w>
techno logy</w>
sha ver</w>
replace ments</w>
cou ch</w>
t een</w>
lucki ly</w>
le vels</w>
hol ders</w>
happ ens</w>
h ers</w>
7 .5</w>
pa jam
c pu</w>
genu ine</w>
d ea
la u
st ab
sp ir
whe re
kno ws</w>
rec ent</w>
ph ys
it u
am ple</w>
recipi ent</w>
H D
stun ning</w>
concer n</w>
the me</w>
c ds</w>
y ard</w>
oo oo
od or
Ul tra</w>
gro cer
o ils</w>
muc h
ta r</w>
t ro
sp on
humi di
v i</w>
great est</w>
.... ...</w>
pop corn</w>
conce pt</w>
ju ic
specific ally</w>
pet ite</w>
holi day</w>
fr action</w>
bu en
sli ding</w>
ed .
cre ate</w>
sha me</w>
tri m</w>
D r.</w>
1 3
well .
y l</w>
m al
dre ss
chal len
cau ght</w>
po in
one .
netfli x</w>
upgrad ed</w>
app eared</w>
blu- ray</w>
du ll</w>
coo l
or din
X P</w>
ta sting</w>
coun ter
ic ks</w>
s ick</w>
iz ed</w>
ss d</w>
wa x</w>
pla yed</w>
ti le</w>
load ing</w>
fa il</w>
ag s</w>
g as</w>
y a</w>
moistur e</w>
han gers</w>
sa m
clo ser</w>
mi d</w>
pro file</w>
refri ger
7 5</w>
E n
e mer
sti on</w>
enter tain
bl ur
big gest</w>
K o
ban g</w>
slipp ery</w>
sn apped</w>
20 13</w>
tech nic
ch ur
te mp</w>
bea u
thu mbs</w>
suppor tive</w>
seal ed</w>
mix ed</w>
ati on
a ss
wi red</w>
bel ly</w>
call s</w>
capsu les</w>
2 5
adverti se
ima gin
delic ious</w>
re fur
e ms</w>
da sh</w>
yea h</w>
li on</w>
na vig
thin ks</w>
ma gic</w>
ro cks</w>
goo d.
coo ked</w>
toa st</w>
k -
e qu
di stor
dimen sions</w>
pic ky</w>
c ity</w>
wa ited</w>
un belie
d ges</w>
s i</w>
pre gn
Stu dio</w>
comm un
conver ter</w>
s che
p eel</w>
instruc tion</w>
bu ck</w>
indivi dual</w>
c ans</w>
ad vice</w>
quick er</w>
S ha
warm th</w>
HD TV</w>
dis covered</w>
reduc e</w>
ti ghtly</w>
mon th
itt y</w>
il er</w>
t age</w>
custo mers</w>
mon ster</w>
lo s</w>
D SLR</w>
foo ds</w>
cal ves</w>
k a
hou se
ve st</w>
re por
prac t
rela x
ati onal</w>
par ties</w>
ag er</w>
dri ed</w>
hand ling</w>
Americ an</w>
fashi onable</w>
every body</w>
recharg eable</w>
po ints</w>
mis leading</w>
pan el</w>
inter ior</w>
inter face</w>
thermo meter</w>
la dies</w>
sur vi
sand w
dra wers</w>
ans wer</w>
de gree</w>
s wa
recogni zed</w>
loc ation</w>
t t</w>
adhe sive</w>
R CA</w>
reci pe</w>
l li
lo ver</w>
ack ets</w>
intere sted</w>
fro zen</w>
5 mm</w>
excep tional</w>
ne y</w>
loc king</w>
le g
occa sions</w>
G od</w>
son gs</w>
luc ky</w>
t an</w>
ear ring</w>
che f</w>
f rench</w>
ec ono
hun g</w>
s in</w>
tre e</w>
com plic
au di
2- 3</w>
whi st
gh ten
acciden tally</w>
po pped</w>
bru shes</w>
mbo o</w>
confor table</w>
gen tle</w>
ba mboo</w>
a bu
thu mb</w>
pre ferred</w>
woo l</w>
const ant</w>
adju sted</w>
sec tion</w>
time .</w>
po lar
po ps</w>
great ly</w>
scre ens</w>
y a
sto red</w>
un ky</w>
ti ghter</w>
ou d</w>
refl ec
frustr ating</w>
assem bled</w>
o m</w>
sk y
chea pest</w>
mix ing</w>
war ning</w>
gr ind</w>
ank les</w>
adap tor</w>
I n
re ver
pract ice</w>
syst ems</w>
f -
tr al</w>
sou p</w>
ey e
wa snt</w>
qu ant
m ble</w>
bl end</w>
ly m
high est</w>
inser ts</w>
fe min
auto matically</w>
enjo ys</w>
leno vo</w>
d or
me ssy</w>
dre am</w>
dissa pointed</w>
trans action</w>
sta irs</w>
recogni ze</w>
si ght</w>
s sive</w>
pre t
ou ter</w>
just ice</w>
cup cakes</w>
loo p</w>
tra ys</w>
men d</w>
af e</w>
tre at</w>
re d
organiz er</w>
inst antly</w>
e f</w>
r oun
occasi onally</w>
compon ents</w>
transm itter</w>
l ying</w>
remo vable</w>
z es</w>
wr itten</w>
t ang
c ore</w>
fol ks</w>
disappoin t</w>
brea th
3 60</w>
compar able</w>
8 -
st age</w>
mo bi
suppor ts</w>
but t</w>
O lym
ou se</w>
pa sta</w>
moun ts</w>
chur ch</w>
par t
me .</w>
T i
uni vers
pleas ure</w>
craf t
o ppo
s adly</w>
ha vent</w>
re charge</w>
do cu
fad ed</w>
m ping</w>
Olym pus</w>
ath le
pr inted</w>
mirr or</w>
hi de</w>
loo k
veg gies</w>
re pea
exce ption</w>
shou ldn</w>
st in
requ e
skir ts</w>
10 -
m ill</w>
great .
fre sh
scoo p</w>
o cu
char ac
out doors</w>
g lo
w iring</w>
po l
swi m</w>
- old</w>
stret ched</w>
wall s</w>
produc to</w>
str ange</w>
vege tables</w>
1 50</w>
e mb
reci pes</w>
pu l
diamon d</w>
organiz e</w>
ex tend</w>
clo ths</w>
spr a
e x</w>
dre ssed</w>
stea mer</w>
ser ver</w>
rubb ing</w>
ster ling</w>
univers al</w>
sp il
tr icky</w>
over night</w>
mechan ism</w>
succ ess</w>
play ers</w>
s lo
dispen ser</w>
b in</w>
y rs</w>
ter m</w>
e tly</w>
bi o
mo tion</w>
nei gh
revie wer</w>
wa sha
han gs</w>
femin ine</w>
not ch</w>
b list
ma ster</w>
de odor
swit ched</w>
flo wer</w>
high -
. great</w>
ul ts</w>
it .I</w>
c el
tight en</w>
mat ed</w>
l int</w>
grocer y</w>
life time</w>
fle ece</w>
ff s</w>
brac elets</w>
star ter</w>
possi bly</w>
T V
pa ssed</w>
b acks</w>
auto matic</w>
every time</w>
al ing</w>
10 80
den ts</w>
sig n</w>
adju st
custo m</w>
desi red</w>
disp os
cover ing</w>
magne ts</w>
re order</w>
ca using</w>
glu ed</w>
mobi le</w>
photograph er</w>
inde ed</w>
at temp
st ack</w>
bel ts</w>
card board</w>
st ory</w>
tab le
tall er</w>
i M
h rs</w>
compli ment</w>
en han
D e
sli pper</w>
N or
comm on</w>
fra mes</w>
o h
beau ty</w>
e ma
sp read</w>
deta iled</w>
c in
tal king</w>
consi der
-- -
sli ps</w>
produc es</w>
g .</w>
stre ss</w>
mat s</w>
d ee
disa pp
some how</w>
pain ful</w>
fol ded</w>
ine se</w>
cho ices</w>
exi sting</w>
k n
er .</w>
ad a</w>
st -
20 12</w>
deli vers</w>
can i
pi one
mus cle</w>
du le</w>
the n
pitch er</w>
hesit ant</w>
ab il
H ello</w>
to ys</w>
s ks</w>
at h</w>
Ch inese</w>
stre am</w>
main tain</w>
1 7
sturdi er</w>
wrist s</w>
in sp
bub ble</w>
de partment</w>
break fast</w>
do se</w>
re ment</w>
f al
ta pes</w>
suppli es</w>
r ance</w>
re set</w>
D y
. but</w>
me th
for mal</w>
effec ti
s -</w>
qu o
sur faces</w>
sit es</w>
follow ing</w>
z e
sat ell
bur ner</w>
washa ble</w>
li l</w>
absolu te</w>
pric e
ti st</w>
goo gle</w>
8 00</w>
3 2
utensi ls</w>
swea t
ter .</w>
cor dless</w>
refur bi
so li
gar lic</w>
deli ver</w>
ca uses</w>
tooth brush</w>
environ ment</w>
un happy</w>
sco pe</w>
wi pes</w>
affor d</w>
b ad
load s</w>
bri ght
gr ou
Mic ro
grad u
kno ck</w>
fac tor</w>
ca s
i -
th reads</w>
tri es</w>
gre ase</w>
holi days</w>
aller gies</w>
syn c</w>
s. it</w>
cou ldnt</w>
Euro pe</w>
e de</w>
th at
plu gging</w>
open s</w>
col lar</w>
sen sor</w>
pr inc
vin yl</w>
B el
h i</w>
swal low</w>
ffic i
cla ss
recommend ation</w>
e ther
o l</w>
cu bes</w>
z zy</w>
bor n</w>
vehic le</w>
re f
swi mming</w>
off ic
form at</w>
3 6</w>
blist ers</w>
al right</w>
appreci ated</w>
i g
den ce</w>
tw in</w>
pione er</w>
pi x
car afe</w>
proble m
jo ke</w>
ho pes</w>
win d
tr o</w>
na ils</w>
5 5</w>
bri lli
O O
s d
skil let</w>
s and</w>
excel ente</w>
ru bs</w>
commun ic
pp er
ro se</w>
su e</w>
conver sation</w>
jec t</w>
itch y</w>
wei gh</w>
me ssage</w>
2. 0</w>
stick er</w>
fa il
s ma
hi p</w>
ether net</w>
ma de
devel op
ra rely</w>
inclu des</w>
por tra
wash ings</w>
ne u
sal ad</w>
l -
buil ding</w>
bin ocu
c ing</w>
i o</w>
soo oo</w>
beg in</w>
in j
home made</w>
compre ssion</w>
soo o</w>
sa v
co -
Bel kin</w>
smooth ies</w>
progra ms</w>
bag gy</w>
to -
humidi fier</w>
tw ee
an i
10 00</w>
resi due</w>
g ent</w>
comp ari
h il
bo ar
f ers</w>
va c</w>
wrink les</w>
z on
f us
diamon ds</w>
p ice</w>
b il
appli ed</w>
thro wing</w>
spea k</w>
extr as</w>
m g</w>
app et
respon sive</w>
hi ps</w>
men s</w>
ti al</w>
or d</w>
bene fit</w>
squee ze</w>
oper ating</w>
con ten
year -old</w>
z z</w>
tab s</w>
as si
ci al</w>
motor cycle</w>
un k</w>
9 .5</w>
base ment</w>
work outs</w>
g ur
b low</w>
or ing</w>
F l
ner v
fla w</w>
refriger ator</w>
v int
lu x
da k</w>
complic ated</w>
typic ally</w>
extre me</w>
6 00</w>
peri ods</w>
in kle</w>
ridicul ous</w>
bal anced</w>
to te</w>
te l</w>
2 2</w>
o -
swi vel</w>
camer a
N ike</w>
y e</w>
rec y
de f
stea dy</w>
initi al</w>
present ation</w>
po li
sp i
refurbi shed</w>
min t</w>
T han
pric ing</w>
in vic
me als</w>
be comes</w>
mar k
il la</w>
over ly</w>
pl es</w>
mo di
m it
for mer</w>
l and
b ing</w>
iM ac</w>
b adly</w>
indic ated</w>
fig ur
car t</w>
allow ing</w>
out lets</w>
no ted</w>
it al</w>
cushi oning</w>
gau ge</w>
do zen</w>
separ ately</w>
hea l</w>
han ger</w>
san disk</w>
br ings</w>
ad ults</w>
fla p</w>
applic ations</w>
str ic
Ko dak</w>
compari son</w>
nerv ous</w>
is nt</w>
er .
ul ti
questi on</w>
na sty</w>
bat ch</w>
hoo die</w>
g li
c ats</w>
g all
expect ation</w>
ri sk</w>
use .</w>
in door</w>
wal ks</w>
cla im</w>
bac king</w>
them .
er o
st ood</w>
intere sting</w>
fad e</w>
a k
Micro soft</w>
s. I</w>
me x</w>
bea d</w>
advi se</w>
fee d
bu d</w>
appet ite</w>
vint age</w>
t ells</w>
pajam as</w>
anti -
ca sh</w>
i i</w>
p h</w>
l it</w>
se wn</w>
mi ssed</w>
au then
m ir
cre ative</w>
to pper</w>
st on</w>
firm ware</w>
u res</w>
smo ke</w>
sm ile</w>
th ing
re fill</w>
b ou
electr ical</w>
any time</w>
v as</w>
p le
me an
ho sp
scrat chy</w>
oun ce</w>
f ty</w>
su fficient</w>
sil ver
econo mic
ad e</w>
2 x</w>
gi e</w>
fall en</w>
cr an
exp la
lea king</w>
s now
po tat
qualit y.</w>
s a</w>
go pro</w>
yo ga</w>
D ec
alo g</w>
up right</w>
signific antly</w>
com pr
wou ldnt</w>
spark ly</w>
ma ss
hea ted</w>
A s
the med</w>
safe ly</w>
ve .</w>
bre ath</w>
p c
snea ker</w>
cr it
20 11</w>
to wer</w>
H E
sub woofer</w>
t ren
war dro
k itty</w>
a spec
twi st</w>
si o</w>
neck laces</w>
clar ks</w>
attach ments</w>
po ly
pe eling</w>
mat ely</w>
trac tion</w>
2 .5</w>
hou sing</w>
spatul a</w>
d .i</w>
f ing</w>
po lish</w>
1080 p</w>
lo cks</w>
gu ard</w>
pre mi
le mon</w>
n ap
cle ar
su ede</w>
inst ant</w>
ori da</w>
deodor ant</w>
l er
dri es</w>
pa ste</w>
i sin
zi o</w>
stu pid</w>
bri ghter</w>
cl ing</w>
h s</w>
er ry</w>
signific ant</w>
As ics</w>
en closure</w>
di ab
deci de</w>
supp lier</w>
spec s</w>
sm an
satell ite</w>
Fl orida</w>
direc tion</w>
dis continued</w>
lux ur
slow ly</w>
r y
bun dle</w>
flo p</w>
emer gen
adv ant
sho ck</w>
pe el
carri es</w>
pr on
kee per</w>
continu es</w>
f ying</w>
ru ined</w>
n ine</w>
lo a
kno b</w>
i en
invic ta</w>
wa re
n yl
suit case</w>
over -
abu se</w>
k o</w>
plac ing</w>
ter ms</w>
cas sett
s ch
le tters</w>
dro pping</w>
daugh ter
ang les</w>
tem por
worri es</w>
re ta
pret tier</w>
the less</w>
consist ently</w>
lou der</w>
ac king</w>
rin se</w>
esti mated</w>
un bea
flexi bility</w>
contro ller</w>
sil ky</w>
pic king</w>
7 -
-- --
chi ps</w>
sm a</w>
d an
S pice</w>
carri ed</w>
wal ked</w>
adm it</w>
feed back</w>
me .
it ary</w>
wardro be</w>
lea ked</w>
sil k</w>
pre pa
fu r</w>
even ts</w>
car s</w>
b ay</w>
gr oo
stu dent</w>
l ers</w>
chemic al</w>
un usable</w>
easi est</w>
bat ter</w>
succ ess
k ick</w>
thro wn</w>
strea ming</w>
li ved</w>
fi ance</w>
soun ded</w>
9 5</w>
pu b
ei ght</w>
obvi ous</w>
import antly</w>
a side</w>
vi sta</w>
ver sions</w>
po ten
sl ick</w>
per man
pear ls</w>
flaw less</w>
ru g</w>
craft sman
reque sted</w>
mar ked</w>
D C</w>
t b</w>
bab ies</w>
lo tion</w>
de st</w>
low ing</w>
k il
d al</w>
nu ts</w>
h in
breath able</w>
won ders</w>
ni vers
dec k</w>
qualit y.
con figur
co py</w>
con tra
y y
man age</w>
com mer
ou ch</w>
real i
o pp
dis comfort</w>
time .
ac i
ro d</w>
cu isin
un plug</w>
len g
ra w</w>
gu ide</w>
col lap
for med</w>
de stro
pan ties</w>
gar ment</w>
g ger</w>
pea ce</w>
deci sion</w>
quant ity</w>
la y
doc king</w>
bene fits</w>
win ner</w>
a -
ec k</w>
gu ar
p ant</w>
t in</w>
ni a</w>
neu tral</w>
b one</w>
H a
brief s</w>
coa sters</w>
mach ines</w>
fl ats</w>
use .
gro wing</w>
bre w</w>
teen age</w>
ri es</w>
l b</w>
a pr
i li
free ze</w>
sur ge</w>
potat oes</w>
pa inted</w>
ma ke
suppli ed</w>
dr ag
swit ching</w>
increa sed</w>
en gin
for got</w>
re sta
st ry</w>
ach ing</w>
pear l</w>
9 0
ri ght
lat est</w>
slic er</w>
dis ks</w>
5 .
multi -
cu tters</w>
rea sons</w>
u lar</w>
4 2</w>
di ge
compon ent</w>
i .
resta ur
h t
ac y</w>
4 .
sl ice</w>
po sted</w>
h h
din ing</w>
bu sy</w>
6 .5</w>
l as</w>
craftsman ship</w>
Ti mex</w>
3- 4</w>
1 20</w>
ru b
loc ked</w>
chro me</w>
po lic
sta ying</w>
p oo
re port</w>
mi d
spee dy</w>
dv r</w>
run ner</w>
sp ill</w>
uni form</w>
unbelie vable</w>
sub tle</w>
cuisin art</w>
stre et</w>
du vet</w>
N o
medic al</w>
juic er</w>
wat t</w>
cap ability</w>
A u
P A</w>
bu mps</w>
upd ated</w>
dep th</w>
adju sting</w>
ve .
ser vic
sell s</w>
h ori
se ven</w>
W a
el ly</w>
v s</w>
pal m</w>
athle tic</w>
flu ffy</w>
hd d</w>
me mbers</w>
ha dn</w>
5 00
flo ss</w>
occasi onal</w>
ic king</w>
i dent</w>
hus bands</w>
situ ation</w>
cu ff</w>
1 9</w>
produc tion</w>
ach ed</w>
sc al
R V</w>
sig ns</w>
function ing</w>
absor bent</w>
tran sport</w>
mus cles</w>
prepa red</w>
adjust ments</w>
conf using</w>
is ing</w>
char ms</w>
sm elled</w>
3 00
m n</w>
lab els</w>
gott a</w>
binocu lars</w>
dia meter</w>
li e</w>
ic h
st ability</w>
men u</w>
pres sed</w>
ver tical</w>
n as</w>
4 gb</w>
c ent</w>
brilli ant</w>
t v</w>
g un
stra i
regre ts</w>
mo date</w>
in soles</w>
h its</w>
p inch</w>
high s</w>
compla ined</w>
TV s</w>
d ang
wil ling</w>
tar ni
ff in</w>
power ing</w>
in tu
pi erc
f ry</w>
p ound</w>
accom modate</w>
sc an
tur ing</w>
mi le</w>
d as</w>
nyl on</w>
hon est</w>
thor ough
cla im
sl ices</w>
ch r
projec ts</w>
pres ented</w>
tr ou
tor n</w>
cru ise</w>
ampli fier</w>
N ature</w>
hun ting</w>
all .</w>
sci ss
soun d
t s.</w>
spl itter</w>
sto ck
ro ck
economic al</w>
in sole</w>
frag rance</w>
fol ding</w>
ati ves</w>
p y
flav ors</w>
stra iner</w>
princ ess</w>
lab eled</w>
scre w
ap y</w>
regar dless</w>
dv i</w>
sho cked</w>
hosp ital</w>
grou p</w>
er t</w>
chemic als</w>
wai st
ol a</w>
ho tel</w>
sc rub</w>
provi ding</w>
pe ts</w>
authen tic</w>
s le
or al</w>
for th</w>
7 .
3 4</w>
ben ch</w>
ce iling</w>
stu ds</w>
neigh b
wei ght
cra ppy</w>
t uc
me ss
ff les</w>
recom ien
so cket</w>
pou ring</w>
vol tage</w>
preven ts</w>
da in
e sta</w>
brea st</w>
fav or</w>
disc ount</w>
bur ns</w>
al iz
r ad
fal se</w>
g low</w>
fo c
T om</w>
enjo y
desig n
ba ked</w>
decor ative</w>
we dge</w>
tre at
thorough ly</w>
sha kes</w>
favor ites</w>
D is
l oun
vi zio</w>
nur sing</w>
mon o
conten ts</w>
cont ent</w>
fla sh
hi dden</w>
cu mber
pu lls</w>
imagin ed</w>
for mul
app e
to ms</w>
o x</w>
fo il</w>
air port</w>
descri be</w>
dispos able</w>
she er</w>
sp ices</w>
excel ent</w>
ca sio</w>
ing ing</w>
on i
car har
mul ti</w>
5 th</w>
ar tic
su m
sha des</w>
wr inkle</w>
str ings</w>
consi dered</w>
stra ws</w>
st ool</w>
reduc ed</w>
premi um</w>
I tal
tur n
expecte d.</w>
Americ a</w>
k ing
ha ted</w>
to ler
quil t</w>
c c
acce ssi
pres ents</w>
stat ement</w>
fu j
se as</w>
sp out</w>
be ar
ha ha</w>
cabin ets</w>
but ter
co pper</w>
s w
fami li
activ ities</w>
set -up</w>
f our
assu me</w>
ri bb
questi ons</w>
t ore</w>
pla sma</w>
work .</w>
ble w</w>
youn ger</w>
ro ller</w>
head ache</w>
any ways</w>
abil ities</w>
wor kers</w>
nee dless</w>
sh i</w>
house hold</w>
phys ical</w>
e ffici
sp ills</w>
8 .
pa ss
m itt
ta x</w>
atter s</w>
re pu
f ear</w>
ton gue</w>
m -
en vel
one -
im p
ti fic
entertain ment</w>
craf ted</w>
min imum</w>
mix es</w>
dain ty</w>
sp an
sche dule</w>
tra vels</w>
ti ed</w>
t s.
free zing</w>
qualit y
men te</w>
compan ies</w>
chec king</w>
k een</w>
cam per</w>
J u
da r</w>
hori zon
yo gur
s --
li king</w>
gar den</w>
confi dence</w>
. if</w>
jo int</w>
. my</w>
tra v
soun ding</w>
pre scription</w>
be ans</w>
costu mes</w>
Z une</w>
h z</w>
di stri
wh it
pa s
mac ro</w>
flow ers</w>
Dy son</w>
m ly</w>
scri be</w>
polic y</w>
organ ic</w>
manag ed</w>
hur ts</w>
ven der</w>
distri bu
sm elling</w>
sauc e</w>
to m</w>
f rea
circu l
g ate</w>
anc ing</w>
wal ker</w>
satis factory</w>
com .</w>
t ation</w>
pil low
or tun
na il</w>
3 .5</w>
lap to
radi os</w>
fl our</w>
pl ush</w>
nea tly</w>
A id</w>
qu ar
manufac tured</w>
g lish</w>
te sting</w>
advant age</w>
B i
t u</w>
bl ends</w>
al .</w>
blo wn</w>
ad dress</w>
swi m
recomien do</w>
bu yers</w>
bu cket</w>
dre ssing</w>
in puts</w>
ta p</w>
sha ker</w>
cumber some</w>
1 .5</w>
trad e</w>
sm alle
li qui
c ise</w>
an e</w>
sho w
pat ch</w>
sus p
st oo
d ings</w>
brea the</w>
z ers</w>
sl acks</w>
inte l</w>
emb ar
re t</w>
expo sed</w>
X XL</w>
de l</w>
sea m
mel ted</w>
gr y</w>
cha mp</w>
contain s</w>
smalle st</w>
perfec t.</w>
subst itu
co de</w>
so lar</w>
pi x</w>
b -
hand led</w>
ter .
R I
sn ack</w>
6 4</w>
vacu u
tea m</w>
pi es</w>
conver t</w>
an alog</w>
v il
pro p</w>
nu t</w>
i sed</w>
J ap
sky pe</w>
s uck</w>
bla h</w>
W ii</w>
cor k</w>
3 x</w>
En glish</w>
sk ec
lin ux</w>
scrat ching</w>
pun ch</w>
spac es</w>
pa per
measu red</w>
clo se
in ven
nu tr
lu min
be l</w>
an nivers
war ned</w>
decor ation</w>
th ough
emergen cy</w>
yogur t</w>
remo tes</w>
r ac
cr ack
pub lic</w>
g ag
can vas</w>
depen dable</w>
combin ed</w>
bur nt</w>
run k</w>
jo bs</w>
deli ver
6 5</w>
fin der</w>
comfortab le
12 -
comfortab le.</w>
co ats</w>
7 00</w>
ti ghten
til t</w>
medic ine</w>
re main
fle x</w>
mi ld</w>
f light</w>
ca pe</w>
.... ....</w>
tab lec
guar an
w w
so o</w>
di g
L e</w>
lea d</w>
blo cks</w>
acc ent</w>
ar o
fla shes</w>
stick ers</w>
fo li
some time</w>
remin ds</w>
cl unky</w>
le f
2 4
b its</w>
B ra
primar ily</w>
the tic</w>
wonder ing</w>
fu zzy</w>
c -
thi ghs</w>
tempor ary</w>
mat te</w>
lo west</w>
cra ft</w>
nee de
deter gent</w>
af fect</w>
er a</w>
bu mmer</w>
be ard</w>
prac tically</w>
defin ite</w>
ant a</w>
l le
an ded</w>
adverti sing</w>
jo b
sciss ors</w>
int act</w>
in fec
ex ter
a do
loo sen</w>
cali dad</w>
bal m</w>
oun ts</w>
l ity</w>
produc ed</w>
en e</w>
enti rely</w>
aw some</w>
pla stic
tablec lo
plat form</w>
el der
annivers ary</w>
over sized</w>
mir ac
st .</w>
opp ortun
confi dent</w>
compla ining</w>
arm band</w>
to ss</w>
chi pped</w>
en sure</w>
ban ana</w>
sm u
ph one
mag ni
dis like</w>
resp ond</w>
pa pers</w>
gri ps</w>
tis sue</w>
il ton</w>
awe some
insp iron</w>
in ess</w>
lac king</w>
at ors</w>
O M
ta sk</w>
men d
w ro
bu gs</w>
br and
o re
ing .i</w>
requi rements</w>
in .</w>
cr acks</w>
vi vid</w>
su res</w>
spon ge</w>
reccom mend</w>
dar n</w>
contra st</w>
br ace</w>
sil ly</w>
sil ent</w>
buil t-
di a</w>
micro fiber</w>
fi shing</w>
ks ys</w>
dri p</w>
sweat shirt</w>
nar ro
mi d-
ab les</w>
10 .5</w>
18 -
K itch
O X
pregn ant</w>
indivi du
co f
v -
uti li
as l
se qu
reali stic</w>
la n</w>
sty ling</w>
shi ft</w>
m all</w>
dia per</w>
dee per</w>
u re
jo y</w>
grand children</w>
inte gr
packag es</w>
en Aid</w>
Kitch enAid</w>
se y</w>
ga re
den tist</w>
clo sing</w>
OX O</w>
b rist
un a</w>
for ced</w>
soli dly</w>
shu tter</w>
d les</w>
bu en</w>
accessi ble</w>
Dis ney</w>
se wing</w>
g ab
A n
ow ner</w>
lif ting</w>
f es</w>
tang led</w>
promi se</w>
cani ster</w>
vie w
gro wn</w>
ch ers</w>
gg y</w>
apr on</w>
van illa</w>
mil itary</w>
trans former</w>
lin ksys</w>
all -
ther mal</w>
ski p</w>
sha pes</w>
au x</w>
develop ed</w>
wat ts</w>
ic a</w>
hel met</w>
so da</w>
e u
or der
over seas</w>
e tic</w>
b are</w>
at er</w>
k u</w>
lat ch</w>
cal ci
peel er</w>
cof fee
d ity</w>
be dding</w>
ta sty</w>
bir d</w>
me tal
built- in</w>
A AA</w>
her bs</w>
G un</w>
satis fac
appli ance</w>
up side</w>
la ying</w>
tion ally</w>
ag ing</w>
recor ds</w>
ju mp</w>
2 1</w>
no -
consu mer</w>
con v
mp y</w>
cassett e</w>
can e</w>
t ags</w>
2 50</w>
k ins</w>
sto re
gr ab
f on
tiv ity</w>
o live</w>
a mon
swea ters</w>
sof ten
d s
m per</w>
good ness</w>
asl eep</w>
appli ances</w>
siz e.</w>
r r
prin ting</w>
ma d</w>
h ell</w>
bac on</w>
as y</w>
si vely</w>
ri m</w>
stab ili
ci gare
U V</w>
cro ss
b c</w>
lin ers</w>
dress er</w>
sell ers</w>
non stick</w>
claim ed</w>
ca ble
buen a</w>
bu g</w>
the ses</w>
displa yed</w>
de fi
ex ample</w>
re e
th ier</w>
mu st
k up</w>
R E
stu dents</w>
di c</w>
out .</w>
h en
po pu
ff er</w>
skec hers</w>
for ms</w>
an imal</w>
scre en
cup cake</w>
8 gb</w>
frequ ent</w>
blan kets</w>
sli pped</w>
oo o</w>
10 .1</w>
ro lled</w>
re trac
phi c</w>
stoo ls</w>
hea v
app lying</w>
f fin
fire wire</w>
technic al</w>
G er
commer cial</w>
m elt</w>
sy mp
stra w</w>
proc e
bas kets</w>
F ri
ho t
clo gs</w>
calci um</w>
hy dr
hun dre
ab le
wor ker</w>
j ackets</w>
st co</w>
pu shing</w>
clean up</w>
al bu
ra sp
int end</w>
it. It</w>
br ick</w>
Fri day</w>
vi sit</w>
sti ve</w>
k i</w>
h eck</w>
formul a</w>
recom ended</w>
fa ulty</w>
da y.
aller gic</w>
insul ated</w>
d red</w>
cushi oned</w>
a qu
the red</w>
tre mend
sp in</w>
remo val</w>
bl ack
th ou
tea pot</w>
re pe
ex per
re bel</w>
Co stco</w>
shu ffle</w>
cu z</w>
ti re</w>
selec t</w>
fa ils</w>
carhar tt</w>
di g</w>
wro te</w>
the -
pre cise</w>
ge m</w>
t- shirts</w>
ton gs</w>
fru its</w>
er gon
head band</w>
go wn</w>
canc er</w>
- fi</w>
roun ded</w>
i g</w>
acc ount</w>
C on
3 8</w>
H oo
snu gg
da y.</w>
su ited</w>
bright ness</w>
requ est</w>
n ings</w>
i d
20 00</w>
at ures</w>
e ster</w>
e st
acc ident</w>
pa r</w>
firm ly</w>
thank fully</w>
cur ve</w>
3 4
tr act</w>
sof a</w>
am d</w>
in fin
distor tion</w>
tra il</w>
su pri
de t
t elling</w>
rub bed</w>
defec t</w>
gall on</w>
indic ator</w>
20 10</w>
cushi ons</w>
appro xi
sever e</w>
ma ins</w>
at tem
ster n</w>
gi d</w>
wat ched</w>
s at</w>
intu itive</w>
sm art
ma id</w>
ergon o
gra phic</w>
th ir
k ick
2 7</w>
terri bly</w>
hard wood</w>
si ded</w>
low -
elder ly</w>
be i
C lar
again .</w>
inter ference</w>
refun ded</w>
origin als</w>
d den
ha irs</w>
pr oud</w>
bi a</w>
a vid</w>
S .</w>
zi pp
re searched</w>
o x
hi m
D r</w>
v c</w>
se per
n am
ca ddy</w>
bo iling</w>
tr ain</w>
sh runk</w>
bu mp</w>
hundre ds</w>
up .</w>
cali br
ass or
light ning</w>
co w
max imum</w>
an e
po ds</w>
o .
sat in</w>
kno w
shor tly</w>
Hoo ver</w>
impres sion</w>
head aches</w>
ca sing</w>
sign als</w>
hor se</w>
fail ure</w>
c r</w>
r out
ma kers</w>
hand some</w>
o pe</w>
bl u</w>
aspec t</w>
manufacture rs</w>
wra pping</w>
t in
ri des</w>
patter ns</w>
exten der</w>
co ated</w>
bl ouse</w>
cre ated</w>
spec tac
h ence</w>
goo ds</w>
cu test</w>
P o
m ood</w>
ali g
sto pper</w>
cre ates</w>
fe ed</w>
direc ted</w>
r acks</w>
attach es</w>
no tes</w>
challen ge</w>
attem pt</w>
m oon</w>
com mented</w>
cap abilities</w>
b ells</w>
tem ps</w>
tu m
stra in</w>
sk i</w>
liqui ds</w>
Sha ck</w>
C lu
wa sting</w>
tri mmer</w>
a wa
ordin ary</w>
k u
s per
vi l</w>
re tro</w>
ga p</w>
E R
vir tually</w>
m atters</w>
mer chan
wh el
raz ors</w>
la b</w>
inser ted</w>
ro ll
fr ying</w>
y .i</w>
sugge stion</w>
ear ing</w>
a un
pen s</w>
OM G</w>
wear able</w>
ei ko</w>
bre wing</w>
roo m
re mains</w>
an cy</w>
spac ious</w>
scre wed</w>
ob jec
PO R</w>
suppor ted</w>
tur key</w>
po le</w>
finger prints</w>
cr ad
shu ts</w>
s ong</w>
d i</w>
stain ed</w>
S eiko</w>
popu lar</w>
te d.
kno ck
cat ching</w>
al co
.T hey</w>
mol ds</w>
har ness</w>
fl ush</w>
configur ation</w>
t ent</w>
hun dred</w>
gi g</w>
ar ily</w>
cli ents</w>
siz e.
bo ss</w>
ich es</w>
dru g</w>
primar y</w>
mean ing</w>
flat ware</w>
er -
Ju ly</w>
ch erry</w>
cap ture</w>
un usual</w>
re st
bi en</w>
al ittle</w>
grand ma</w>
e B
eB ay</w>
cro w
I R</w>
cu t
bo ld</w>
S anta</w>
moun tain</w>
ben ding</w>
ll en</w>
car tri
separ ated</w>
moder ate</w>
down loaded</w>
M art</w>
in i</w>
cou sin</w>
ga g</w>
la g</w>
con tain</w>
on- line</w>
stru gg
inve st</w>
Ha wai
clo ses</w>
opportun ity</w>
mb a</w>
ber ries</w>
wa ffle</w>
e mber</w>
loc ate</w>
dec rea
thi gh</w>
regar ding</w>
. thanks</w>
poly ester</w>
defi antly</w>
l en</w>
t ears</w>
meth od</w>
ac id</w>
suff er</w>
plan tar</w>
la zy</w>
an u
k .</w>
tr af
unbea table</w>
absor b</w>
sou th</w>
sle pt</w>
oppo sed</w>
embar ra
selec ted</w>
ha ir
bei ge</w>
tur quo
te c</w>
nu vi</w>
fla shy</w>
re fre
hear t
bb ly</w>
wind shield</w>
o tter
b ble</w>
tea cher</w>
p i</w>
beauti ful
her o</w>
daughter -in-law</w>
sav ings</w>
t ick
repor ts</w>
pr e</w>
len se</w>
d s.
strai ght
defin etly</w>
Dec ember</w>
2 8</w>
- in</w>
wei gh
tun er</w>
sn acks</w>
ca se
Clu b</w>
pleas ing</w>
in doors</w>
plan ned</w>
. would</w>
sho pped</w>
s qui
ran dom</w>
her self</w>
collec t</w>
col um
cau tion</w>
stra w
op ti
el bow</w>
1 20
ste ps</w>
loc ated</w>
expecte d.
Amazon. com.</w>
po pping</w>
fla ws</w>
hin ge</w>
grand mother</w>
dor m</w>
recei pt</w>
re usable</w>
se x</w>
jo ints</w>
su rely</w>
rot ate</w>
t. the</w>
situ ations</w>
cla sses</w>
disa pointed</w>
approxi mately</w>
dri ll</w>
cryst als</w>
1 10</w>
exp and</w>
rel ated</w>
pa ir
Clar k</w>
sc o</w>
lar gest</w>
col ours</w>
ag e
tt ered</w>
or ders</w>
toa sty</w>
ab led</w>
li me</w>
gu m</w>
fin e.
cen tr
e ter</w>
acce pt</w>
w ound</w>
soft ness</w>
su dden
restaur ant</w>
pas sport</w>
po stage</w>
aller gy</w>
ab le.</w>
re main</w>
sp in
n oo
grand kids</w>
gi ant</w>
ta sted</w>
p ti
sensiti vity</w>
ph en
upd ates</w>
se als</w>
pr a
cl ou
ex press</w>
ba re
gre asy</w>
fl an
to m
t uck</w>
symp toms</w>
sharpen er</w>
envel ope</w>
for nia</w>
be coming</w>
cap able</w>
V al
mini -
up coming</w>
ma p</w>
ks giving</w>
susp ect</w>
me ssed</w>
light -
too .</w>
e p</w>
sp la
nur se</w>
can ning</w>
amaz on.
turquo ise</w>
displa ys</w>
c it
b li
Than ksgiving</w>
stock ings</w>
foli o</w>
zipp ered</w>
whist les</w>
grin ding</w>
mi ze</w>
perfor ming</w>
e ve</w>
relie ve</w>
re action</w>
F e
ribb on</w>
ra sh</w>
al y</w>
ha ble</w>
. so</w>
d ying</w>
head sets</w>
go -
T ur
ther apy</w>
par k</w>
ind u
bo d
ali fornia</w>
activ ity</w>
retur ns</w>
pu mps</w>
e e</w>
substitu te</w>
sol ves</w>
i. e.</w>
vibr ation</w>
imp act</w>
capsu le</w>
C alifornia</w>
br on
har sh</w>
9 -
repe at</w>
land sca
hur ting</w>
diff user</w>
y et
sh er</w>
ab le.
rasp berry</w>
ll as</w>
y al</w>
pl un
manufac turing</w>
accur ately</w>
y ay</w>
fin e.</w>
cu be</w>
k ill</w>
hon ey</w>
lo vers</w>
li sting</w>
hand bag</w>
brist les</w>
3 6
manufac ture</w>
P en
por tab
lea n</w>
gh z</w>
begin ner</w>
H ar
traf fic</w>
sandw iches</w>
ch ic</w>
sudden ly</w>
me l</w>
war ming</w>
w and</w>
te d.</w>
fus s</w>
t ori
sha l
equ al</w>
C re
p ages</w>
otter box</w>
elimin ate</w>
br ic
eri or</w>
a sa
9 .99</w>
.T his</w>
swit ches</w>
del ay</w>
an sk
motor ola</w>
whi sk</w>
ver sat
t ack
la vender</w>
at man</w>
exter ior</w>
am ounts</w>
duc t</w>
at ly</w>
B atman</w>
sal es</w>
alco ho
sandw ich</w>
sa ir</w>
rel eas
decor ating</w>
D ansk
tu bes</w>
s lower</w>
p ir
o ak
color ing</w>
V en
9 .
pu shed</w>
loa f</w>
ha el</w>
w ings</w>
r ite</w>
le -
pro ven</w>
pan cakes</w>
iz er</w>
gad gets</w>
di scre
un fortun
gri ddle</w>
fe e</w>
iP ods</w>
him self</w>
purcha se
di se</w>
amon g</w>
slic ing</w>
la yers</w>
effecti vely</w>
b an</w>
par ing</w>
S har
where ver</w>
perfec tion</w>
it ches</w>
ga z
fi ght</w>
tran spa
bri dge</w>
ba thing</w>
poli shed</w>
b et</w>
t ted</w>
sca red</w>
v ar
ri se</w>
f s</w>
teen ager</w>
stret ches</w>
po ta
bro ad
spectac ular</w>
qu e
re t
da mn</w>
g in</w>
ag ed</w>
web cam</w>
tableclo th</w>
sc rubs</w>
ri gid</w>
perfect ly.
wi -fi</w>
un even</w>
wor thy</w>
x s</w>
A si
ge .</w>
I .</w>
progra mming</w>
humi dity</w>
hi lips</w>
b ye</w>
stu dy</w>
me ga</w>
ce real</w>
2 6</w>
tr ack
stea k</w>
manu ally</w>
se es</w>
be ds</w>
adverti zed</w>
af tern
af fec
P hilips</w>
vi si
list ened</w>
to x
ca mp</w>
spark les</w>
inj ur
cha ins</w>
M on
u no
mag nific
b lea
again .
I N
w ok</w>
spor ting</w>
s ab
net gear</w>
is es</w>
ske t
d ancing</w>
or tho
aftern oon</w>
ri g</w>
pur i
positi ons</w>
co al</w>
mar ke
clean ers</w>
portra it</w>
cou pl
ban k</w>
speci fied</w>
we stern</w>
wrink led</w>
ther a
small .</w>
poten tial</w>
inf erior</w>
counter top</w>
co stly</w>
B ean</w>
t less</w>
il l
gu ess
gri pe</w>
e ste</w>
ra ised</w>
er al</w>
a es
de als</w>
tiv o</w>
trans fer
i on
four th</w>
lon ge
cor sair</w>
Stu d</w>
cro ck</w>
connec tivity</w>
siz e
accur acy</w>
wi de
ing es</w>
engin e
this .</w>
f it.</w>
over whel
electr ic
dang er
stuff ed</w>
st .
gener ous</w>
pi pe</w>
di ss
soa k</w>
revie wed</w>
com b
ac ting</w>
a st</w>
n one
c roo
bol t</w>
fl ying</w>
con cre
B a
after market</w>
treat ment</w>
ne ws</w>
head board</w>
bra iner</w>
ac hi
wal k
se a</w>
cou p
waist band</w>
fri ed</w>
ro bust</w>
deal er</w>
moi st</w>
Sha kers</w>
a v
la ser</w>
h o</w>
remo ves</w>
swa p</w>
lu bric
fin al</w>
th ing.</w>
sc roll</w>
wei ghs</w>
irrit ation</w>
wan na</w>
t v
con sole</w>
compla ins</w>
han es</w>
excep tionally</w>
di ag
po sts</w>
bi e</w>
trac king</w>
son ic</w>
l ing
silver ware</w>
thermo s</w>
plac ement</w>
to ssed</w>
le tting</w>
pea n</w>
rou gh
sim plic
reco very</w>
un done</w>
snugg ly</w>
m ice</w>
replac es</w>
ma gaz
detec tor</w>
den im</w>
su bs</w>
ed ul
ro c
od ors</w>
o .</w>
li ke
2 gb</w>
U G
qu art</w>
prac tic
money .</w>
fun ky</w>
circul ation</w>
under water</w>
swim suit</w>
o pa
less on</w>
le st</w>
i sol
alcoho l</w>
sin us</w>
expen se</w>
en gra
Euro pean</w>
tex t</w>
key boards</w>
great er</w>
gr ounds</w>
deal ing</w>
part ner</w>
c tion</w>
nic e.</w>
m arri
3 3</w>
mu ffin</w>
gr ate</w>
fra med</w>
ro ku</w>
pro ved</w>
so phi
p har
wa ffles</w>
temper atures</w>
re ll</w>
lo ses</w>
. good</w>
sch edul
re paired</w>
se w</w>
b lows</w>
W D</w>
gradu ation</w>
g t
ffin s</w>
descri p
an ch
trav elling</w>
perman ent</w>
al so
cla mp</w>
pati ent</w>
clea rer</w>
cho pping</w>
scri bed</w>
foot ball</w>
wo l
swi ss</w>
merchan dise</w>
fashi oned</w>
st em</w>
irrit ating</w>
ch eep</w>
a per
sel f
d. the</w>
reli ability</w>
r ab
rela x</w>
longe vity</w>
ex changed</w>
concre te</w>
assu med</w>
sa fer</w>
ni es</w>
simplic ity</w>
on k
tuc ked</w>
s m</w>
real y</w>
en se</w>
ti ally</w>
em bro
d .I</w>
re fills</w>
offic ial</w>
off ering</w>
for .</w>
ear phone</w>
stret ching</w>
descri be
ment ation</w>
f oun
cr acking</w>
relax ing</w>
with stand</w>
sun light</w>
on g
new born</w>
gi a</w>
decor ate</w>
t .i</w>
shar p
20 14</w>
survi ved</w>
shipp er</w>
ma ps</w>
fad ing</w>
cu ter</w>
stand ards</w>
ru sted</w>
dec ei
b t
perfect ly.</w>
bo il</w>
sh ines</w>
j ean</w>
equ ally</w>
a mat
-- -</w>
us b
wo bbly</w>
tum bl
fuj i</w>
fea thers</w>
famili ar</w>
br ackets</w>
individu ally</w>
g f</w>
sen n
real ity</w>
han ded</w>
gra ss</w>
co ck
shal low</w>
ca pr
gi gab
en gag
after wards</w>
g ee
di ly</w>
me ters</w>
comfortab le.
. a</w>
so y</w>
ati s
0 00</w>
valu able</w>
uti lity</w>
mo thers</w>
lon g-
it. The</w>
blur ry</w>
it o</w>
fin ds</w>
boo m</w>
tu mmy</w>
revie w
hesit ation</w>
enjoy able</w>
. not</w>
do or
syn thetic</w>
desig ner</w>
nap kins</w>
asa p</w>
B u
ve ments</w>
m bled</w>
iden ti
b ic
u v</w>
soo thing</w>
make up</w>
embro i
sour ces</w>
luxur ious</w>
le mon
tw enty</w>
tren dy</w>
in vol
flan nel</w>
con centr
le x</w>
ic ked</w>
e tt
al mon
ya ma
open ings</w>
s la
p j</w>
s well
fea ther</w>
al -
cur tains</w>
b on</w>
ing y</w>
c e.
lim it</w>
gre ens</w>
gra ph</w>
excee ds</w>
gh test</w>
can non</w>
bul let</w>
lu mix</w>
ic ing</w>
frustr ated</w>
fini shing</w>
be an
a ss</w>
ter min
senn hei
re mark
no vel
cu te
M arch</w>
2 3</w>
l ery</w>
cri sp
war s</w>
un sure</w>
hor ri
ver sus</w>
heal ing</w>
con figure</w>
chro me
stuff er</w>
stru ggle</w>
satisfac tion</w>
ni e</w>
en try</w>
in king</w>
colum bia</w>
horizon tal</w>
l .</w>
l acks</w>
di das</w>
r are</w>
ad ore</w>
wei ghts</w>
recom en
blan k</w>
read ings</w>
sto len</w>
ol ds</w>
gre w</w>
th a
chea p
swea ty</w>
ra pi
p lo
vi sit
ic ed</w>
d. it</w>
scar ves</w>
man eu
de ss
10 .
van ity</w>
transpa rent</w>
to wards</w>
ridicul ously</w>
po sters</w>
charac ter</w>
diab etic</w>
clu tter</w>
v in</w>
v ary</w>
ne ver
men t.
li p
bi os</w>
e .i</w>
ten sion</w>
process ing</w>
navig ate</w>
compar ing</w>
Bra un</w>
h em</w>
tri gger</w>
mu ffins</w>
pa ins</w>
ulti mate</w>
fi f
down fall</w>
ro duc
metal lic</w>
grin ds</w>
contac ts</w>
onk yo</w>
b att
a ids</w>
Shar k</w>
yama ha</w>
v .</w>
lef to
z one</w>
su ally</w>
mu d</w>
gu s</w>
ca res</w>
cho p
turn table</w>
s ag
ma inten
ham per</w>
wor r
sophi stic
equi val
compati bility</w>
arri ves</w>
appe aling</w>
. and</w>
mass ager</w>
diss atis
t our</w>
intern ational</w>
pan try</w>
o p</w>
ki d
i p</w>
pen c
ke ur
ic o</w>
ent ine</w>
cro tch</w>
200 9</w>
ru gs</w>
phar mac
wh ose</w>
tion .</w>
polar ized</w>
en ter</w>
qu a
ac compli
oun ces</w>
be verage</w>
sc ul
hou r
J une</w>
pain ting</w>
medic ation</w>
it a</w>
i pp
exp ired</w>
clo sely</w>
ch rist
read ers</w>
danger ous</w>
advertise ment</w>
mer rell</w>
loo sen
ed iting</w>
shor t
no body</w>
an as</w>
pp le</w>
shi f
ac ts</w>
silic on</w>
pric y</w>
n as
attach ing</w>
Val entine</w>
Hawai i</w>
exc ess</w>
T h
versat ility</w>
Ital y</w>
schedul ed</w>
ran do
portab ility</w>
dra g</w>
ar my</w>
B O
wa y
pl ated</w>
war ped</w>
s cam</w>
men tal</w>
ema iled</w>
S E
4 00
. thank</w>
gir ly</w>
frequ ency</w>
recor ded</w>
mirac le</w>
wa x
pre ssing</w>
d l
bir ds</w>
a er
lu be</w>
l ack
brea ker</w>
soo ooo</w>
p ine</w>
cre ating</w>
rot ating</w>
roo mba</w>
sor ts</w>
pro bio
play back</w>
de pic
smooth ie</w>
b ear</w>
. you</w>
wou l
rel ative</w>
novel ty</w>
aun t</w>
r on</w>
exerc ising</w>
ele ments</w>
U K</w>
the y
fa ux</w>
ex as</w>
bul bs</w>
anu ary</w>
ret ina</w>
ac e
tr unk</w>
cam o</w>
4 8</w>
200 8</w>
tou ching</w>
fr yer</w>
e v
shoo ts</w>
perfec t.
keur ig</w>
docu ments</w>
crad le</w>
a ster</w>
S un
so cc
secu red</w>
s. this</w>
rad ar</w>
insul ation</w>
an im
socc er</w>
consider ably</w>
qui eter</w>
pur ses</w>
ite m
gu i
cru shed</w>
recommen ding</w>
bare foot</w>
T exas</w>
jun ction</w>
lea f</w>
dd ly</w>
4- 5</w>
squ ea
in duc
hoo king</w>
cat ches</w>
app les</w>
blu e
expen si
toge ther
re in
pre fect</w>
pe an
p c</w>
off -
ne o
for mat
fi sh
up load</w>
cr ust</w>
cigare tte</w>
shr ink
c ement</w>
b ends</w>
te dly</w>
p a</w>
free zes</w>
fi es</w>
v cr</w>
smoo ther</w>
p are</w>
loo ps</w>
kn it</w>
irrit ate</w>
k ha
grand daughters</w>
err ors</w>
off .</w>
con tr
c m</w>
J anuary</w>
re stric
j er
ar ches</w>
tom tom</w>
shi ps</w>
hur ry</w>
g al</w>
di m</w>
J oh
z y
tor so</w>
carri er</w>
pota to</w>
el ement</w>
O c
j vc</w>
gr ater</w>
exper t</w>
m ous</w>
lon g
us eable</w>
se l</w>
none theless</w>
ans a</w>
repor ted</w>
organiz ing</w>
adv anced</w>
so le
loc ations</w>
bo ws</w>
po lo</w>
k o
S ansa</w>
4 g</w>
th ong</w>
gu it
cal ories</w>
v hs</w>
repu tation</w>
extr act</w>
anti que</w>
reduc es</w>
i st</w>
d s.</w>
spea ker
no where</w>
go- to</w>
for k</w>
touch pad</w>
R o
wra ps</w>
ther ing</w>
pean ut</w>
fe el
cu ffs</w>
croo ked</w>
.... .....</w>
narro wer</w>
flu id</w>
measu rement</w>
gr ate
d ick
do s
bas ket
phen o
ra iny</w>
light- weight</w>
dr y
bri ef</w>
6 .
ow ning</w>
E aster</w>
so ci
int roduc
im m
class room</w>
A r
. no</w>
ic ago</w>
compet itive</w>
rou te</w>
lau gh</w>
j uni
bor ing</w>
ven ess</w>
r h
, 000</w>
pu ppy</w>
il lumin
happ ily</w>
ow ners</w>
consist ency</w>
amat e
sam ple</w>
s x
sha ft</w>
mainten ance</w>
b al</w>
inter mitt
in spec
tw o-
landsca pe</w>
en thu
A didas</w>
- like</w>
pack ets</w>
flo ppy</w>
di str
zz le</w>
vol t</w>
nois es</w>
me ds</w>
co ordin
cho le
rando mly</w>
li br
cl oud</w>
mother -in-law</w>
ad dic
L uv</w>
well .I</w>
surpri sing</w>
sou ps</w>
mi z
glo ssy</w>
enthu si
sof ten</w>
s. they</w>
sk ul
Ch icago</w>
un plugged</w>
pri l</w>
. also</w>
dis gu
A pril</w>
sennhei ser</w>
r a</w>
c ies</w>
bu ys</w>
fli m
divi ders</w>
tri ple</w>
t earing</w>
sy r
mi -
dec an
b ell</w>
ema ils</w>
ea st</w>
week ly</w>
e os</w>
pati o</w>
gro w
bru shed</w>
vel vet</w>
pregn ancy</w>
pow ers</w>
P hil
pe red</w>
co ar
str ali
min us</w>
king ston</w>
ic y</w>
e z
communic ation</w>
co con
-- i</w>
trou ble
Wa ve</w>
squ a
immedi ate</w>
comple ted</w>
clu msy</w>
effici ently</w>
bea ting</w>
a k</w>
spor ty</w>
che wed</w>
s ity</w>
s ers</w>
no i
equival ent</w>
oppo site</w>
manag ement</w>
ad 2</w>
Dansk o</w>
worr ying</w>
ten den
t inny</w>
oak ley</w>
br anded</w>
wha ts</w>
contain ed</w>
th ous
re me
y um
t angle</w>
rubb er
lo gi
exp ir
win ters</w>
k le
B B
fa sci
ti mber
scan ner</w>
retrac table</w>
W ilton</w>
1- 2</w>
sh in
mi st</w>
super -
reta iler</w>
all .
gen tly</w>
dissatis fied</w>
den tal</w>
one si
gran daughter</w>
sec ret</w>
Y I</w>
F YI</w>
ob se
inten se</w>
gro ss</w>
ear bud</w>
dev ic
coo ls</w>
foo l</w>
sea gate</w>
ver i
j s</w>
utensi l</w>
u ll</w>
ic an</w>
tter ing</w>
screw driver</w>
iP ad2</w>
M ex
whist le</w>
gro ws</w>
cy cles</w>
bu mmed</w>
ga sket</w>
M S</w>
thro at</w>
requi rement</w>
o id</w>
ipp o</w>
i v
en ough
ti ming</w>
grate ful</w>
c ell
Z ippo</w>
te sts</w>
so -
en a
air plane</w>
brief case</w>
st ir</w>
f it.
4 6</w>
sec tions</w>
re presented</w>
jewel er</w>
g ust</w>
I M
. com</w>
dissa ppoin
destro yed</w>
you rs</w>
to mat
pron gs</w>
kin i</w>
spil ling</w>
relax ed</w>
j i
heal thier</w>
com po
almon d</w>
dis connect</w>
M ar
sus pen
mil lion</w>
in correct</w>
ga mer</w>
ta sks</w>
c ents</w>
bol ts</w>
un ks</w>
quar ter</w>
pat ches</w>
defin ition</w>
u ms</w>
m and</w>
2 9</w>
h inges</w>
gla ss
c a</w>
be fore
en ger</w>
tenden cy</w>
stor m</w>
main tain
M y</w>
infin ity</w>
cho p</w>
Wal -
ra ise</w>
pa iring</w>
bron ze</w>
5 .1</w>
ear th</w>
cla sp
b ills</w>
back -up</w>
ar oun
J eep</w>
natur ally</w>
basket ball</w>
C F</w>
plac e
hu man</w>
gra in</w>
ex ec
down loading</w>
pre ference</w>
power shot</w>
con junction</w>
bo t</w>
le tter</w>
twee zers</w>
rat ings</w>
adverti se</w>
touch screen</w>
sk in
or ity</w>
ick ey</w>
sk ull</w>
it ters</w>
chee sy</w>
c ele
it h</w>
re ference</w>
d rea
y. the</w>
tack y</w>
st af
z el</w>
un es</w>
sophistic ated</w>
o t
ind ers</w>
da mp</w>
chrome book</w>
advi sed</w>
ru p
indic ate</w>
Mon day</w>
tru sive</w>
pro gre
n -
fu sion</w>
car ro
ssi ons</w>
pl ant</w>
an der</w>
syst em
mu te</w>
d 3
bu s</w>
vil le</w>
cran k</w>
X M</w>
v an</w>
b ones</w>
Wal- Mart</w>
3 50</w>
sc rubbing</w>
foo led</w>
car bon</w>
P A
-- it</w>
wi ggle</w>
materi al
g els</w>
ul tr
oper ated</w>
lo af
fortun e</w>
d m
work .
tion .
in sur
sy mbo
mem ories</w>
cle ver</w>
ati on.
a .
ta i
mi gra
it ation</w>
guaran tee</w>
conditi oner</w>
........ ........
smo king</w>
refre shing</w>
cur ves</w>
ster ol</w>
oper ates</w>
gran ite</w>
com cast</w>
com o</w>
2 .</w>
v s.</w>
in o</w>
re use</w>
bat ches</w>
tun e</w>
reduc tion</w>
clo g</w>
l b
sli d</w>
notic ea
transfer ring</w>
ed it</w>
swell ing</w>
per fu
pati ence</w>
min im
cocon ut</w>
por tions</w>
pi st</w>
objec ts</w>
col der</w>
chop sticks</w>
3 5
val ent
hi ke</w>
differen tly</w>
cur ved</w>
bet ter
ha u
don gle</w>
stri de</w>
ps u</w>
loo sing</w>
en coun
A l
p m</w>
ell a</w>
thank ful</w>
elimin ates</w>
base ball</w>
re x</w>
p ha
guess ing</w>
some body</w>
pr one</w>
dy e</w>
dep ends</w>
M A
kno cked</w>
t s
son -in-law</w>
mor nings</w>
men ting</w>
charac ters</w>
it ouch</w>
fl ex
pre pare</w>
concer ns</w>
remo ver</w>
jo gging</w>
iP ads</w>
expla in</w>
expir ation</w>
slo ppy</w>
gli de</w>
d ated</w>
F i
t les</w>
re solved</w>
more .</w>
mi es</w>
cool pix</w>
eri e</w>
ver se</w>
up .
know le
t read
aro ma</w>
tooth paste</w>
h itting</w>
function ed</w>
fanta stic
d ele
comp ac
assu ming</w>
ke l</w>
bri de</w>
brea sts</w>
16 gb</w>
r ati
mis placed</w>
fo ssi
fli es</w>
electric ity</w>
bl ee
tru sted</w>
l ately</w>
i o
Phil lips</w>
char coal</w>
too .
gu ms</w>
bri dal</w>
st ir
sharp ness</w>
sc ented</w>
mo s</w>
Nor th</w>
ff ed</w>
ch unky</w>
bt w</w>
to s</w>
j acks</w>
i pad
en cour
stur d
ex tra
comple ment</w>
cl icking</w>
bu y
pu ma</w>
en er</w>
ea ts</w>
sna g</w>
dec al</w>
d in</w>
Sun day</w>
f ere</w>
bu zz
15 00</w>
repea ted</w>
m ickey</w>
exp lo
exc lu
1 50
ti ble</w>
pan ty</w>
li sh
8 5</w>
sp ire</w>
re l</w>
dos age</w>
valent ines</w>
upgrad ing</w>
ac ry
l itt
cro wn</w>
conv inc
chole sterol</w>
blur ay</w>
b lowing</w>
se mi-
rh ine
pheno men
nic e.
man s</w>
ant i</w>
sub ject</w>
assi st
stitch ed</w>
magne si
collec ts</w>
B lack
wh il
roa st</w>
la sk
inst ru
f ati
Black berry</w>
si sters</w>
x ious</w>
cup board</w>
fa uc
cor set</w>
mechan ical</w>
en t.
bo thered</w>
al ert</w>
be side</w>
x e</w>
ware house</w>
success fully</w>
resist ance</w>
gh o
L E
struc ture</w>
ing -
conf used</w>
attemp ts</w>
anim als</w>
E x
Co le</w>
5 d</w>
ri pping</w>
over powering</w>
emp lo
picture .</w>
ne on</w>
for d</w>
ele v
sur fing</w>
ec co</w>
chil ly</w>
ain bow</w>
aes the
pi le</w>
pa yed</w>
fla sk</w>
R ainbow</w>
shrink age</w>
preci ous</w>
for ks</w>
exp and
compli mented</w>
t 3
b f</w>
pix els</w>
organiz ation</w>
ti fied</w>
k ru
call ing</w>
ca se.</w>
sharpen ing</w>
see -
m it</w>
ha tes</w>
lea k
it unes</w>
fin e
fig uring</w>
back wards</w>
assor tment</w>
z ard</w>
ref used</w>
insur ance</w>
great .I</w>
dri ve
6 00
mar ath
bli ster</w>
m our</w>
g age</w>
ó n</w>
tri bu
e dition</w>
whe el
dige stive</w>
b ite</w>
la ther</w>
d -</w>
R A
shar per</w>
mol ded</w>
mar a</w>
c iti
3 g</w>
tor ti
fun nel</w>
decei ving</w>
acry lic</w>
vi sual</w>
j a</w>
cra mps</w>
boo ster</w>
Au gust</w>
grand sons</w>
g eable</w>
d ad
b last</w>
A V</w>
yum my</w>
v is</w>
shar pen</w>
p on
bu ni
t read</w>
cli mate</w>
Z en</w>
sha ttered</w>
inter fere</w>
neo pre
na mes</w>
fossi l</w>
en closed</w>
s can</w>
brea thing</w>
albu m</w>
t ant</w>
s len
po o</w>
p hal
char ge
amate ur</w>
O A</w>
vo red</w>
foot print</w>
f ps</w>
cir cle</w>
bi kini</w>
staf f</w>
spil led</w>
p el
it er</w>
inst ep</w>
encoun tered</w>
b ounce</w>
M r.</w>
injur y</w>
un expected</w>
pre p</w>
oc ean</w>
mat es</w>
disapp eared</w>
g an</w>
fic ation</w>
tre ats</w>
re mind</w>
o v
mb ing</w>
go d
fac ing</w>
sha ms</w>
rout ine</w>
magnesi um</w>
l ly</w>
i b
che w</w>
R O
artic le</w>
IN G</w>
O mega</w>
8 .1</w>
wh ey</w>
swea ting</w>
price .I</w>
ar tific
surpri ses</w>
dec ently</w>
wel come</w>
ru s</w>
g ate
fri lls</w>
3 8
use ful
pol k</w>
out .
defec ts</w>
xx xx
ven til
sha m
vac cu
s 3</w>
regi ster</w>
f ed</w>
key pad</w>
ki er</w>
fea ture
stri pes</w>
deter mine</w>
12 00</w>
tomat oes</w>
t to</w>
ci sco</w>
to ber</w>
sli ghtest</w>
sha ves</w>
re .</w>
br oo
w ns</w>
satis fy</w>
ro yal</w>
requ iring</w>
je wel</w>
ett i</w>
ch u
at tire</w>
F ord</w>
su ffe
r on
Pen tax</w>
to do</w>
n at
circu it</w>
ad ven
1 30</w>
w l</w>
re ordered</w>
flash light</w>
vide o
ani um</w>
the res</w>
o xi
nas al</w>
ergono mic</w>
Mic hael</w>
15 .
marri ed</w>
de b
chr onic</w>
am ps</w>
serv ices</w>
in convenient</w>
h int</w>
sub scribe</w>
professi onally</w>
libr ary</w>
kitch en
dea th</w>
s lu
neopre ne</w>
di stur
5 5
sho e
ra in
elec tro
ch ill</w>
e vi
war mers</w>
v ine
oc cur
nic est</w>
ma il
ma iled</w>
en vi
9 8</w>
s r
hun gry</w>
hi des</w>
che w
x- large</w>
sp an</w>
respon ded</w>
kle in</w>
hon ey
guit ar</w>
continu ous</w>
T his</w>
pr ong</w>
never theless</w>
lun ch
Oc tober</w>
D OA</w>
sha pe
ru in</w>
measu res</w>
De pot</w>
je w
fasci itis</w>
er als</w>
du plic
compet it
and -
- free</w>
cor k
box ers</w>
todd lers</w>
gran ted</w>
dama ging</w>
be ver
anno y
plu g-
bur gers</w>
slee ps</w>
oni ons</w>
d der</w>
compan ion</w>
chil d
ma scul
high- quality</w>
san iti
bin ding</w>
adju sts</w>
20 -
Ba ker</w>
ta u
neighb ors</w>
cli ent</w>
anten nas</w>
th ing.
dra wing</w>
canc elling</w>
ve mber</w>
blea ch</w>
vege table</w>
made .</w>
eas y
cow boy</w>
tra iler</w>
t ones</w>
man i
s ac
p cs</w>
kno bs</w>
cu l
amaz on</w>
or n</w>
li ghtly</w>
co in</w>
tu pper
fast est</w>
success ful</w>
ra ft</w>
goo d-
gh ting</w>
un stable</w>
rever se</w>
puri fier</w>
do t</w>
3 7</w>
pro mo
p js</w>
box er</w>
tick et</w>
sum mer
rab bit</w>
mus ic
l or
ther n</w>
lun ches</w>
duc k</w>
b locking</w>
ti m
preci o</w>
bri de
and y</w>
syr up</w>
neighb or</w>
imm une</w>
gl itter</w>
gate way</w>
de ser
c ough</w>
c one</w>
del a
coa x</w>
br inging</w>
b l</w>
up stairs</w>
pierc ing</w>
fil ter
cu shy</w>
rubber maid</w>
lo g
bri m</w>
BB Q</w>
s me
necess ity</w>
hal f-
tread mill</w>
to mor
iv ory</w>
bed spread</w>
as soci
S u
suc ked</w>
pir ate</w>
induc tion</w>
d at
dick ies</w>
O r
z oo
no vice</w>
ck ey</w>
a gre
tr uc
t. it</w>
phal on</w>
noticea bly</w>
a ero
200 7</w>
h c</w>
clu tch</w>
bu sted</w>
vi sor</w>
ra pid</w>
mea ts</w>
timber land</w>
sol o</w>
foot bed</w>
bud dy</w>
4 S</w>
si ri
engag ement</w>
unbelie v
specific ations</w>
color .</w>
coa ster</w>
woo ds</w>
umb a</w>
fon dant</w>
fla vored</w>
de grad
coffee maker</w>
an ce
un necessary</w>
ing ton</w>
dist ances</w>
co s</w>
br oom</w>
tri al</w>
tou gh
sh m
ha mmer</w>
c ure</w>
rati o</w>
m c
cal phalon</w>
Z umba</w>
No vember</w>
ze bra</w>
thera pist</w>
te fl
sha ll</w>
on gs</w>
f use</w>
Jap an</w>
b oun
tele scope</w>
s day</w>
over clo
ma ssive</w>
invol ved</w>
attemp ted</w>
as ks</w>
war n</w>
rever sible</w>
ni c</w>
d 5
le vi</w>
le op
hand held</w>
bi king</w>
sk im
n au
mon y</w>
la ke</w>
g el
smart phone</w>
der y</w>
compet ition</w>
spatul as</w>
bu ff
re tri
phenomen al</w>
p ale</w>
me d
le ver</w>
da sh
bac ter
sta ple</w>
the se.</w>
supri sed</w>
leop ard</w>
d ged</w>
' nt</w>
sen ior</w>
mo del
je al
. S.</w>
sun ny</w>
s wear</w>
re charging</w>
loo sely</w>
sal ads</w>
do c</w>
9 00</w>
sha do
op ted</w>
mascul ine</w>
70 -
wal lets</w>
con vi
tupper ware</w>
seas ons</w>
men t.</w>
dri ps</w>
stra p
survi ve</w>
sm ar
necess arily</w>
inf user</w>
ga ined</w>
ten der</w>
lu str
bra in</w>
acc ents</w>
Asi an</w>
t eal</w>
strali a</w>
drag on</w>
sea ts</w>
hi le</w>
S atur
the at
on da</w>
m hz</w>
in di
buck les</w>
artific ial</w>
A spire</w>
spee d
sauc ony</w>
k its</w>
iz ing</w>
pa sses</w>
nic el
install s</w>
gre en
foot wear</w>
Au stralia</w>
vine gar</w>
ta il
product .I</w>
ta ste
slen der</w>
b it
aa aa
S ky</w>
tou ched</w>
re ached</w>
de serves</w>
now .</w>
coar se</w>
pe pper
le tte</w>
gol den</w>
H onda</w>
mou th
de x</w>
tefl on</w>
t. v.</w>
re tain
in visible</w>
har ley</w>
hand -
en t.</w>
b y
Mex ico</w>
30 -
or an
la id</w>
fa iling</w>
tomor row</w>
ma ss</w>
loo ser</w>
appro x</w>
de hydr
cy cling</w>
bee f</w>
provi der</w>
3 1</w>
vi s
tox ic</w>
leng ths</w>
di e
who m</w>
dra ins</w>
decan ter</w>
cho sen</w>
ball et</w>
ava il</w>
stea ming</w>
spin ning</w>
bir ken
an k</w>
j elly</w>
Ger many</w>
supp re
arthr it
st an</w>
overwhel ming</w>
do ts</w>
ane se</w>
to ma
over heating</w>
ful l-
am a</w>
- off</w>
wi ld</w>
emp o</w>
tit anium</w>
plun ger</w>
key chain</w>
i ded</w>
distor ted</w>
draw string</w>
w .
ser ial</w>
sauc es</w>
j am</w>
choo sing</w>
win dy</w>
tre ble</w>
rec ep
1 80</w>
ver iz
h itch</w>
car pets</w>
trans fers</w>
t int</w>
mb ps</w>
el a</w>
de tac
coo lest</w>
8 00
un -
navig ation</w>
la min
consu ming</w>
butter fly</w>
ari an</w>
70 00</w>
wei ghted</w>
twi sted</w>
op hile</w>
l .
bever ages</w>
sd hc</w>
s is</w>
r ics</w>
me ga
loun ging</w>
back ups</w>
10 00
sho es.</w>
ite m.</w>
circu m
30 00</w>
sl and</w>
ca ffe
Jap anese</w>
re serv
ow l</w>
n ing
li ps
enhan ce</w>
remain ing</w>
recy cl
op tics</w>
o ily</w>
dia pers</w>
chec k
sim ul
gra pe
fra yed</w>
box ed</w>
50 mm</w>
strea ks</w>
exi st
regi on</w>
mor tar</w>
inven tion</w>
grow th</w>
essenti ally</w>
docu mentation</w>
cy ber
lin en</w>
ha m</w>
frustr ation</w>
be e</w>
altern atives</w>
ag en</w>
rea dily</w>
l ex
hea ven</w>
dissappoin ted</w>
a vi
I sland</w>
1 5-
sti ons</w>
r ing
r ace</w>
par tially</w>
nee dle</w>
dist inc
much .</w>
C B</w>
recie ve</w>
sel f-
read ed</w>
kni fes</w>
ju sti
bra ss</w>
al .
per cent</w>
partic les</w>
do .</w>
de fea
concer t</w>
collec tor</w>
inte rest</w>
ha ve
gh ty</w>
fast .</w>
mono pod</w>
De vil</w>
.... ......</w>
ye a</w>
lay out</w>
ex pres
ad es</w>
0 .
minu te
ma h</w>
ken wood</w>
ht c</w>
comple x</w>
b t</w>
x l</w>
tran siti
obse ssed</w>
gen i
fi ghting</w>
di sin
convinc ed</w>
bin der</w>
audi o
` s</w>
ti empo</w>
se ed</w>
in fl
f at
revie wing</w>
crea ms</w>
A f
t ing
bor ro
T T
6 5
5 .5</w>
3. 5mm</w>
t3 i</w>
indic ates</w>
reta il
exp an
jeal ous</w>
eleg ance</w>
bride sma
swee per</w>
resi st</w>
fl are</w>
ali st</w>
I II</w>
Can ada</w>
32 gb</w>
ow ns</w>
col ander</w>
wo mens</w>
ke a</w>
D I
un damaged</w>
the irs</w>
re searching</w>
mee ting</w>
bean ie</w>
slic ed</w>
sa y
ra ve</w>
or de
ink pad</w>
d ors</w>
seam less</w>
po pper</w>
pe eled</w>
dep lo
Th inkpad</w>
Ar mour</w>
il a</w>
heart beat</w>
fix ing</w>
brow sing</w>
stic s</w>
ree bo
reduc ing</w>
detac hable</w>
Tur tle</w>
pl er</w>
ment ary</w>
hal f
cani sters</w>
b day</w>
1 60</w>
sof test</w>
fi anc
de vi
cla d</w>
batter i
back drop</w>
zi pped</w>
thou ght
t eas
seper ate</w>
lat or</w>
clasp s</w>
T I
3 9</w>
siri us</w>
secon d
maneu ver</w>
k not</w>
hun ger</w>
di an</w>
d j</w>
additi onally</w>
C o</w>
br ittle</w>
7 d</w>
tre ating</w>
expect ation
co sting</w>
bun tu</w>
ben ef
sp ins</w>
ri ps</w>
por ch</w>
h um</w>
b out</w>
tran sl
se -
recommen de
re at</w>
p sp</w>
func ion
preci sion</w>
gin al</w>
fr ank
v ings</w>
u u
bo dy
Har ry</w>
re se
fac ial</w>
exten ds</w>
ef s</w>
definit ly</w>
cur vy</w>
wonder ful
whe at</w>
un ra
regar ds</w>
money .
loo m</w>
con do
cit rus</w>
cal m</w>
ap c</w>
lay ering</w>
` t</w>
see ds</w>
m A
lar ge
ear ings</w>
den ted</w>
con den
appa rent</w>
ag ged</w>
a st
sho ps</w>
la ys</w>
te va</w>
smu dges</w>
mA h</w>
gl and</w>
si ster
o tto
in ks</w>
heavi ly</w>
essenti als</w>
pc i</w>
decor ations</w>
clea ts</w>
ce dar</w>
al ized</w>
2 2
tele phone</w>
squ ir
s wing</w>
ran ge
r ush</w>
c run
t ying</w>
suspen ders</w>
ss ell</w>
roo f</w>
roa ster</w>
re plic
in fla
T shirt</w>
lle go</w>
gu n</w>
I kea</w>
un pleasant</w>
a ms</w>
pul se</w>
nu tri
ca ve</w>
bur gun
lo dge</w>
hor n</w>
arthrit ic</w>
travel ed</w>
excell ant</w>
exce ssive</w>
boo ties</w>
uc e</w>
tre es</w>
poc ket
l any
hun t</w>
char ger
n g</w>
mode st</w>
co- workers</w>
t ings</w>
sham poo</w>
re vi
audi ophile</w>
am bi
y. it</w>
penc il</w>
k .
itu de</w>
carr y-
war ms</w>
sc ents</w>
poin ting</w>
itch ing</w>
a .</w>
O ster</w>
.T han
tarni sh</w>
re solve</w>
nutr ition</w>
humi d</w>
fri es</w>
ch ant</w>
an gry</w>
sche me</w>
ren tal</w>
pajam a</w>
du tch</w>
begin ners</w>
E ve</w>
suff ering</w>
st eep</w>
nap kin</w>
mo ments</w>
g t</w>
eg a</w>
4 5
entertain ing</w>
dri lled</w>
an xi
N Y</w>
A B
spla sh</w>
slee per</w>
decor ated</w>
ca ss
bru shing</w>
al together</w>
solu tions</w>
so m
rubb ery</w>
resp ec
ne ar
d d</w>
tan e
2 20</w>
s 4</w>
ru sting</w>
cha mp
st eri
no v
gr aci
ch ord</w>
st im
see- through</w>
sci ence</w>
re c</w>
per spir
e or
doc tors</w>
b 00
U n
Bi ssell</w>
use full</w>
disapp ear</w>
sa u
go s</w>
cra shed</w>
ban anas</w>
all s</w>
worth while</w>
v ag
ther -in-law</w>
sl ing</w>
re tain</w>
no pe</w>
m oo
kru ps</w>
impro ves</w>
gu m
cli ppers</w>
9 .00</w>
span dex</w>
min ec
expo sure</w>
en gine</w>
after taste</w>
a h</w>
ve -
tw ea
re p
mag el
luxur y</w>
loun ge</w>
adequ ately</w>
li es</w>
lask a</w>
A laska</w>
ta m
k lips
comb ine</w>
ca mara</w>
vehic les</w>
toma to</w>
medi oc
gl ance</w>
12 v</w>
la ge</w>
hoo kup</w>
ei ther
collec ting</w>
citi zen</w>
burgun dy</w>
6 th</w>
magel lan</w>
boo bs</w>
H R</w>
t each</w>
pan els</w>
N Y
tremend ous</w>
sugge stions</w>
nu de</w>
gu age</w>
eri zed</w>
ea th</w>
Cre w</w>
medioc re</w>
ch in
so ck
re b
ki dding</w>
dro id</w>
deser t</w>
caffe ine</w>
be zel</w>
visit ing</w>
st acked</w>
por ts</w>
of -
hy pe</w>
ee ee
clea red</w>
capr is</w>
. we</w>
wr ang
happ ening</w>
h t</w>
X X</w>
veg an</w>
purcha se.</w>
v ey</w>
tarni shed</w>
straw berry</w>
fl ick
4 .5</w>
good .I</w>
cr uc
G eor
ren dering</w>
ear piece</w>
e. the</w>
En gland</w>
trac ks</w>
sti ff
in formed</w>
ec es</w>
conven tional</w>
sli mmer</w>
cl in
bru ary</w>
swee ten
recommen ds</w>
mo des</w>
assi st</w>
un o</w>
he ft</w>
yea st</w>
tal ked</w>
mer chant</w>
klips ch</w>
bla me</w>
200 6</w>
veriz on</w>
tremend ously</w>
them .I</w>
o tter</w>
flo ating</w>
d- link</w>
co sp
spra yed</w>
pl ans</w>
ne x</w>
lou sy</w>
lo red</w>
cra sh</w>
re v
fab rics</w>
er ts</w>
z ation</w>
li ver</w>
in san
iPh ones</w>
gra iny</w>
cut lery</w>
tighten ed</w>
magaz ine</w>
fli ghts</w>
drin ker</w>
de dic
HE PA</w>
1 x</w>
ven dors</w>
pre fers</w>
ing u
hi story</w>
en tr
sim ple
NY C</w>
p al</w>
elimin ated</w>
depic ted</w>
comp e
tre ated</w>
perfect ly
mon o</w>
mark ings</w>
lefto vers</w>
home work</w>
adv ance</w>
Fe bruary</w>
to p
du sty</w>
lat ex</w>
1 gb</w>
oc cu
minec raft</w>
logi st</w>
cla mps</w>
1 40</w>
sket chers</w>
sett led</w>
lic ense</w>
detec t</w>
absor bs</w>
11 .5</w>
whi sk
to ward</w>
ortho tics</w>
gla dly</w>
sma shed</w>
rot ation</w>
ne west</w>
effecti veness</w>
dige stion</w>
camera .</w>
a par
ñ o</w>
uno b
tun nel</w>
tou ches</w>
se mi</w>
ob ject</w>
ht pc</w>
fauc et</w>
fati gue</w>
ec o</w>
al pine</w>
pen d
o val</w>
infec tion</w>
hand le
din ess</w>
crit ical</w>
ar row</w>
6 4
wa king</w>
st ink</w>
spra ys</w>
promi ses</w>
direc tv</w>
challen ging</w>
bun d
break able</w>
purcha se.
foc using</w>
Mar ine</w>
N B</w>
K .</w>
Dec ker</w>
sa pp
ro w
photo graph</w>
lon gest</w>
buen o</w>
Satur day</w>
7 20
hoo ps</w>
glu ten</w>
in convenience</w>
compa res</w>
7 5
tru th</w>
san u
re ply</w>
re boot</w>
bea st</w>
ac tions</w>
G E</w>
wh ite
stur e</w>
pa stry</w>
fab ric
mi ssion</w>
i po
har d-
h r
fla me</w>
com f
4 X</w>
y te</w>
we dd
stin ks</w>
dis cover</w>
de fault</w>
condo ms</w>
ta ped</w>
sk agen</w>
rec liner</w>
fi shy</w>
divi der</w>
p tic</w>
j bl</w>
h ul
te x</w>
i gn
E N
utili ze</w>
s no
on ic
magnific ation</w>
lea ds</w>
la ws</w>
in depen
hen sive</w>
co ins</w>
. for</w>
unfortun ate</w>
din ner
break age</w>
who ever</w>
suppo se
sc ore</w>
satis fying</w>
re aches</w>
ligh ted</w>
irrit ated</w>
in seam</w>
h f</w>
gr oun
de w</w>
altern ate</w>
remark able</w>
pre scribed</w>
pati ents</w>
experien ces</w>
e sto
desi re</w>
continu ously</w>
rel le</w>
marath on</w>
ac cu
T HE
L E</w>
ver tically</w>
scra pe</w>
o e</w>
inf ant</w>
doub ts</w>
close st</w>
Joh n</w>
professi on
or k</w>
b ins</w>
u buntu</w>
d dr
me ssing</w>
gar s</w>
d ingly</w>
che er
canc el</w>
c t</w>
tr onics</w>
th under
sur roun
see m
d ul
ste red</w>
pack et</w>
ba kes</w>
roo m.</w>
re aching</w>
pain less</w>
o in
modi fy</w>
assem bling</w>
ac qu
Fi esta</w>
rubb erized</w>
fl u</w>
dur e</w>
canc eling</w>
sp a</w>
ri dge</w>
ch in</w>
sc en
retail ers</w>
qui etly</w>
bet ter.</w>
I f</w>
tt es</w>
soa ked</w>
ro pe</w>
ide as</w>
walk man</w>
sub -
S am</w>
co by</w>
cat eg
fo g</w>
retur n
hoo p</w>
fit ness</w>
ag ers</w>
ter y</w>
shi el
new ly</w>
de sper
compr a</w>
cho pper</w>
at able</w>
u gh</w>
t ness</w>
gri lling</w>
gau dy</w>
deci ding</w>
b ough</w>
th x</w>
spr ings</w>
gla sse
f ellow</w>
e valu
dou bles</w>
In dia</w>
sa ke</w>
pix el</w>
ne st</w>
supp le</w>
over head</w>
comp any
ar tist</w>
accom mod
year s.
stri pped</w>
rough ly</w>
recor dings</w>
cock tail</w>
stuff ing</w>
stre ssed</w>
ar ti
the se
ssi er</w>
b u</w>
al ed</w>
dess ert</w>
swea ts</w>
sin ks</w>
preven ting</w>
less er</w>
en abled</w>
al arms</w>
te mber</w>
pic al</w>
chan geable</w>
cartri dge</w>
ac he
. these</w>
clo the
wor l
ke .</w>
gt x</w>
dep end</w>
contac ting</w>
w -
to .</w>
repea tedly</w>
pu shes</w>
plan ts</w>
J et</w>
tun es</w>
rhine stones</w>
ge e</w>
dis solve</w>
tri mming</w>
m are</w>
b itter</w>
awesome .</w>
neg atives</w>
ingredi ent</w>
ca pp
bur ger</w>
achi eve</w>
vacuu ming</w>
rou ters</w>
gg les</w>
e- mail</w>
clean -up</w>
ca uti
work s.</w>
suppose dly</w>
st ating</w>
st at</w>
s able</w>
mach in
ex plan
b ers</w>
assist ance</w>
k icks</w>
fi ers</w>
chea p.</w>
whi p</w>
pr ou
com b</w>
back .</w>
tw el
seal ing</w>
re d.</w>
h ire</w>
exclu sively</w>
book shelf</w>
IM O</w>
ten ing</w>
si m</w>
i or
dou bled</w>
cl icks</w>
ang led</w>
. its</w>
watch .</w>
re d.
off s</w>
experien cing</w>
contro ll
re start</w>
pl ea
in si
dis connected</w>
5- 6</w>
though .</w>
gra ms</w>
doc kers</w>
car pe
sk id</w>
pic kup</w>
mess enger</w>
c kets</w>
mel ting</w>
k ar
fac e
correc ted</w>
conveni ently</w>
con temporary</w>
carro ts</w>
b read
S h
spa gh
sho es.
pat ent</w>
ed .i</w>
dar ling</w>
y i
unbeliev ably</w>
stri al</w>
sto ppers</w>
in take</w>
el et
crit ic
cal en
bul kier</w>
relie ved</w>
re charged</w>
pre tt
pou rs</w>
du o</w>
Po tter</w>
5 2</w>
perman ently</w>
p ee
ou tr
integr ated</w>
eas y-
dash board</w>
carry- on</w>
ac ne</w>
2 7
suffe red</w>
sm elly</w>
roll ers</w>
qu ir
ep tember</w>
an o
S eptember</w>
h h</w>
conditi on
0 -
sn or
i i
cat cher</w>
bo iled</w>
an gel</w>
shar ing</w>
cork screw</w>
con version</w>
co relle</w>
cin nam
champ ag
A mber</w>
horri bly</w>
Y ork</w>
G S</w>
scoo ps</w>
lany ard</w>
f ir</w>
d is</w>
cinnam on</w>
wea ve</w>
tran spor
mod ul
e qual
tan ks</w>
re- order</w>
ma son</w>
li thi
knowle dge</w>
diffic ul
bl ind</w>
back light</w>
UG GS</w>
suppor ting</w>
soften er</w>
sen sation</w>
s u</w>
reli ably</w>
key boar
ig n</w>
brac es</w>
an ker</w>
vo ila</w>
oin tment</w>
it a
ec tion</w>
ado res</w>
po st
im press</w>
gu lar</w>
cha p
- on</w>
te ens</w>
re lo
positi oned</w>
ok .</w>
ni fty</w>
ju mping</w>
fr on
ati on.</w>
LE Ds</w>
stim ul
le ttering</w>
iz e</w>
heav y-
g loss</w>
el u
describe d.</w>
Su per
Con tour</w>
un dies</w>
tighten ing</w>
read able</w>
mu st-
ku dos</w>
grape fruit</w>
di p</w>
dar k
coun ts</w>
a rent</w>
P D
sho wers</w>
pa y
neede d.</w>
mi ss
inser ting</w>
hu g</w>
ge ms</w>
strugg ling</w>
mee tings</w>
eri a</w>
cosp lay</w>
c e.</w>
B o
har m</w>
exc iting</w>
e. it</w>
cass ero
at ory</w>
. love</w>
se c</w>
pro be</w>
loc ker</w>
fla shing</w>
crea ses</w>
aper white</w>
P aperwhite</w>
z .</w>
second ary</w>
nic kel</w>
de br
be .</w>
anxi ety</w>
x t</w>
tun ing</w>
satis fi
re g
ly -
du mp</w>
do ll</w>
under standing</w>
spagh etti</w>
cand le</w>
alle vi
spec k</w>
out puts</w>
jer ky</w>
compu ter
ulti mately</w>
skul l
n ab
loa ves</w>
fe wer</w>
def en
appropri ately</w>
lea ther
du mb</w>
spea king</w>
scal es</w>
rat es</w>
f o</w>
emplo ye
di ve</w>
bod um</w>
ad d-
wo b
under wire</w>
un acceptable</w>
p it</w>
fast en</w>
deter min
infec tions</w>
es ata</w>
ell ent</w>
an g</w>
pow ders</w>
paper work</w>
on ion</w>
h d</w>
for .
m or</w>
embroi dery</w>
champag ne</w>
cele br
they re</w>
spark ling</w>
spa res</w>
ro s
pa use</w>
o ven
ho tter</w>
h -
cr ush</w>
you th</w>
recy cle</w>
ra ys</w>
pa vi
ho mas</w>
clo gged</w>
T homas</w>
reebo k</w>
free dom</w>
un reliable</w>
rec k</w>
mi ds</w>
man fro
geni us</w>
coa st</w>
Ital ian</w>
tra ils</w>
t 2
sc rea
remain ed</w>
al ty</w>
non- slip</w>
loc ket</w>
cartri dges</w>
graci as</w>
con es</w>
z ens</w>
pin ea
pi lot</w>
night mare</w>
he als</w>
gi gs</w>
coup on</w>
. overall</w>
pres choo
month ly</w>
medic ations</w>
hea t
cur ious</w>
clo sures</w>
buzz ing</w>
bou ght
present ations</w>
leak age</w>
lau gh
il ty</w>
et ary</w>
2. 8</w>
sur passed</w>
se wed</w>
hear ts</w>
he fty</w>
boo m
. only</w>
juni or</w>
decrea se</w>
G il
A N
su dden</w>
sp inner</w>
sha red</w>
bec u
50 00</w>
ju dge</w>
j ack
indu strial</w>
gra vy</w>
contro lled</w>
twel ve</w>
re ve
por cel
compa q</w>
str o</w>
sto pping</w>
sti ffer</w>
spon ges</w>
soa king</w>
so l</w>
pavi lion</w>
me .I</w>
mar ble</w>
life saver</w>
hu gs</w>
en able</w>
eg as</w>
cor ks</w>
ca se.
b loo
b acked</w>
alig n</w>
z om
t f
snu g
m f
la me</w>
gu ards</w>
gli des</w>
cal cu
break -in</w>
ur o</w>
rot ates</w>
fu e</w>
embarra ssed</w>
dimen sion</w>
diag no
c ells</w>
1 1.
y ar
spir it</w>
reme dy</w>
i 7</w>
gif ted</w>
bro thers</w>
box .</w>
wit ch</w>
un used</w>
time .I</w>
portra its</w>
po int
ni eces</w>
lif ts</w>
8 mm</w>
tr ous
sur f</w>
straight forward</w>
releas ed</w>
preci sely</w>
groo ves</w>
ble .</w>
a y
4 4</w>
t -</w>
sn app
mitt ens</w>
men us</w>
identi fy</w>
ali ke</w>
al y
pou ches</w>
gra v
capp uc
ble -
th a</w>
t ches</w>
side ways</w>
recy cling</w>
er ran
al as</w>
No rel
E gy
7 2</w>
tex tured</w>
stat us</w>
se ssions</w>
fa i
disa sse
A D
dru g
dre ssier</w>
debr is</w>
con ference</w>
V egas</w>
wor ke
le tt
ic tion</w>
fav ors</w>
exten sive</w>
K e
A M</w>
web sites</w>
to p-
sli mming</w>
sin s</w>
run ners</w>
communic ate</w>
w .</w>
over heat</w>
le vel
hil ari
gar den
st en</w>
mo ms</w>
ble ed</w>
P re
C ol
tu al</w>
se tu
proble m.
peri ph
mo dule</w>
crow d</w>
ali ve</w>
4- 6</w>
pu mp
bu zz</w>
b reads</w>
sen s
produc ing</w>
mo bo</w>
lim its</w>
clear ance</w>
book let</w>
art work</w>
remin der</w>
pe di
neigh bor
man ly</w>
con duc
bi es</w>
adap t</w>
st ation
sh ears</w>
introduc ed</w>
glu co
c d-
acciden tly</w>
E C
pre paring</w>
pp ies</w>
fu zz</w>
en ables</w>
bre ville</w>
boar ding</w>
rock port</w>
maj ority</w>
leng th
effor t
detec ted</w>
D i
2 t</w>
y el
sha king</w>
pre sses</w>
plan et</w>
ne uro
go al</w>
equi p
co- worker</w>
car go</w>
ski ing</w>
open ers</w>
Norel co</w>
z a</w>
re fer</w>
nic e
must ache</w>
m s
deli ght
bra ke</w>
bath rooms</w>
S ears</w>
week ends</w>
ur s</w>
uni on</w>
sk ins</w>
remo tely</w>
neck line</w>
j o</w>
fee ding</w>
expla ined</w>
che ers</w>
ca bin</w>
alig ned</w>
win der</w>
scu ff</w>
pillow case</w>
phys ically</w>
manfro tto</w>
il es</w>
frank ly</w>
aliz e</w>
re rs</w>
pharmac y</w>
m bling</w>
er n
cruc ial</w>
cen tral</w>
attemp ting</w>
anti- glare</w>
. however</w>
trou bles</w>
re cover</w>
manag eable</w>
ful ler</w>
f ter</w>
down stairs</w>
5 lbs</w>
-- and</w>
y r
su es</w>
strap less</w>
otto man</w>
m c</w>
col ds</w>
GP U</w>
q t</w>
pri ze</w>
fro ze</w>
dis abled</w>
compla int
ye p</w>
un g</w>
sc ary</w>
re pairs</w>
n vi
moun tains</w>
gee k</w>
excell ently</w>
car dig
be red</w>
G reat</w>
6 50</w>
un wanted</w>
pillow cases</w>
dedic ated</w>
bo mb</w>
bas ics</w>
air flow</w>
tw ins</w>
ste pped</w>
p uc
expan sion</w>
cru mbs</w>
aqu a</w>
a rea
4 t</w>
re tired</w>
pres en
kha ki</w>
fianc é</w>
de s
cell phone</w>
auto -
S an</w>
v age</w>
transm it</w>
transiti on</w>
tai lored</w>
soo oooo
dv d-
bir th</w>
- it</w>
y r.</w>
wo ven</w>
vacuu ms</w>
in side
clou dy</w>
cal vin</w>
bla zer</w>
bet ter.
stur diness</w>
st ack
see king</w>
s ite
re .
ran k</w>
anch or</w>
view finder</w>
cor por
chee sec
-- the</w>
wa ve</w>
rel uc
impro vements</w>
crisp y</w>
bo ils</w>
ho bby</w>
guaran te
frien d
exec u
er sey</w>
ear plugs</w>
e k</w>
deli ght</w>
compo site</w>
P S</w>
O .
J ersey</w>
7 1</w>
2 50
right .</w>
py le</w>
pic k
na use
indu stry</w>
bri ghten
K ir
toa sts</w>
fol ders</w>
d ear</w>
T ide</w>
zi ps</w>
wrang ler</w>
ro bot</w>
in ers</w>
blee ding</w>
ro ad
i- pod</w>
bag els</w>
7 00
us et</w>
symbo l</w>
plan es</w>
mo bility</w>
lu x</w>
le e</w>
Gil lette</w>
ee red</w>
den tly</w>
con fir
app re
th y
pro m</w>
o u</w>
much o</w>
this .
pre dic
peri od
inde x</w>
erran ds</w>
capac it
tat too</w>
recommend ations</w>
py rex</w>
ju ices</w>
job .</w>
her b</w>
ela stic
Ger man</w>
outr age
main tains</w>
lo we
fro ther</w>
de er</w>
200 5</w>
z ag
val ve</w>
to yo
sli p-
ing .the</w>
PO S</w>
sim pler</w>
O. K.</w>
frea king</w>
experi ment</w>
bear able</w>
y -</w>
ti mers</w>
resul ting</w>
porcel ain</w>
U .S.</w>
Po lar</w>
M art
de serve</w>
A L
x oom</w>
ventil ation</w>
qu ad</w>
polar oid</w>
min eral</w>
magni fying</w>
gh ani
continu ally</w>
b ites</w>
B e
. highly</w>
r pm</w>
m and
h tt
fro sting</w>
d c
bed time</w>
x ps</w>
reb ate</w>
me t
easi ly.
clean se</w>
bro ad</w>
anten na
work s.
r f</w>
hol low</w>
half way</w>
fr iction</w>
disgu sting</w>
birth stone</w>
bic y
wh ites</w>
shif ts</w>
po sture</w>
ful filled</w>
f arm</w>
crea my</w>
co p
al lot</w>
ti ene</w>
quant ities</w>
associ ated</w>
ro ds</w>
pro ve</w>
hilari ous</w>
format ted</w>
ey e-
O T
st le</w>
sc -
recei vers</w>
mo squ
at least</w>
aesthe tically</w>
unob trusive</w>
su shi</w>
sh ells</w>
s well</w>
mattre sses</w>
ez u
an swe
1 .</w>
tran sporting</w>
toyo ta</w>
h ing</w>
con sti
720 p</w>
smo ker</w>
ri ver</w>
recom med</w>
poin ty</w>
inj a</w>
h ill</w>
fi replace</w>
qual ities</w>
must- have</w>
mo tiv
dinner ware</w>
defea ts</w>
con ge
use .I</w>
ultr ab
lo gic</w>
k al
batter y.
spe c</w>
seam lessly</w>
relo j</w>
dec ades</w>
12 5</w>
. just</w>
u de</w>
pli able</w>
ling erie</w>
l i</w>
10 80</w>
ver y
sta mped</w>
roa sting</w>
nvi dia</w>
fo cal</w>
ds l</w>
deter ior
d ation</w>
at tic</w>
B M
A nd</w>
ing ed</w>
engra ved</w>
en tre
R aid</w>
under shirt</w>
por k</w>
lit ter</w>
din o
chi pping</w>
ch a</w>
- sized</w>
ure ka</w>
suff ers</w>
sh ed
ob tain</w>
it ations</w>
ghani stan</w>
f itt
en i
N inja</w>
gl o</w>
en vy</w>
di gging</w>
S T
- out</w>
sco tch</w>
proper ties</w>
the ory</w>
fif th</w>
fa sc
8- 10</w>
dis ease</w>
appro ved</w>
D D</w>
sol der</w>
pa m
ff led</w>
di ving</w>
boo ted</w>
bi scu
ter ry</w>
te as</w>
ly .i</w>
ha bit</w>
fla g</w>
di o
boom box</w>
E ureka</w>
ta ils</w>
she ds</w>
kil ler</w>
et es</w>
cli mbing</w>
M ike</w>
2 4-
sse l</w>
sister -in-law</w>
det ached</w>
sty lish
snor k
m t</w>
lithi um</w>
Af ghanistan</w>
ur a</w>
toa sting</w>
sh een</w>
in case</w>
categ ory</w>
advertise d.</w>
we dges</w>
ven ts</w>
rapi dly</w>
lo ve
jo h
effort lessly</w>
de stin
10 x</w>
uni den</w>
plan tronics</w>
per o</w>
l ands</w>
grand -
el ds</w>
consti p
arm or</w>
E lite</w>
. works</w>
wheel chair</w>
lett uce</w>
kick er</w>
comp en
co workers</w>
ti dy</w>
seal er</w>
micro sd</w>
d ge
bro ken
benef ic
anno yed</w>
H am
2 mm</w>
tumbl er</w>
that .</w>
s word</w>
mu ddy</w>
la mps</w>
ace book</w>
F acebook</w>
s wo
pol ice</w>
pe ice</w>
le an
gri lled</w>
engine ering</w>
bu y.</w>
answe red</w>
absolu tly</w>
20 .00</w>
shor ted</w>
it ted</w>
do me</w>
dl p</w>
t 4
sim pli
resp ect</w>
ref uses</w>
recommen t</w>
rec all</w>
m me
do min
coun ters</w>
com post</w>
boo t
bath tub</w>
air y</w>
OO O
E ee</w>
theat re</w>
skull candy</w>
shr inking</w>
pat ty</w>
neighbor hood</w>
mp tion</w>
lemon s</w>
far .</w>
book case</w>
acciden tal</w>
3 M</w>
. she</w>
tri p
soa ps</w>
so re
pl us
k g</w>
hoo k
gif t.</w>
day light</w>
I V
D ur
3 .</w>
tis sues</w>
quick ly.
pli ers</w>
mil dew</w>
fli ps</w>
ele gan
pi on</w>
photograph ers</w>
micro -
lapto p
flo or
en dless</w>
3 T</w>
track pad</w>
her bal</w>
Ke ens</w>
shel ving</w>
probio tics</w>
o at
li sts</w>
htt p</w>
M ega</w>
1 3.
. W
tumbl ers</w>
tr ick
mb re
ka ya
dou ble-
disc oun
broo ks</w>
air line</w>
M P</w>
tele photo</w>
me j
fa int</w>
dec ep
S tar
. will</w>
pass word</w>
mess ages</w>
hi kes</w>
C oral</w>
vi sually</w>
re sc
pl ating</w>
hun ter</w>
e vo</w>
ar a</w>
ag e.
win 7</w>
whit ening</w>
recycl ed</w>
ner gi
good will</w>
enthusi ast</w>
Star bucks</w>
60 d</w>
problem s.</w>
notic able</w>
n y
at el
s. very</w>
migra ines</w>
flo at</w>
dra ining</w>
co sme
chan ger</w>
ch .</w>
6 1</w>
2 8
1 10
re sts</w>
pri vac
or th
o ddly</w>
audi ble</w>
U T
si x
reflec tive</w>
ho o</w>
hau l</w>
en cies</w>
ca shm
c er</w>
M in
M ax
B S</w>
cashm ere</w>
an do</w>
Ham ilton</w>
60 00</w>
qual i
mar vel
lapto p.</w>
fr ay</w>
thermo stat</w>
tau pe</w>
m is</w>
cu ff
ci a</w>
vie ws</w>
time piece</w>
photograph s</w>
mic s</w>
room mate</w>
pri v
ju mped</w>
ite m.
ga ps</w>
elu xe</w>
ca ve
bre ws</w>
D eluxe</w>
year s.</w>
mo c
ki a</w>
Geor ge</w>
Dur ac
Bo ston</w>
4 1</w>
ver ing</w>
ul tra
stea ks</w>
sc rubber</w>
rat t
pinea pple</w>
lunch box</w>
lo g</w>
co des</w>
5 s</w>
ru sty</w>
r t</w>
pti an</w>
iti vely</w>
consider ation</w>
chi ro
at ter</w>
9 7</w>
5 .00</w>
sig ma</w>
privac y</w>
jo ckey</w>
di als</w>
bur st</w>
activ ate</w>
sin ce
nic ks</w>
mu ted</w>
hon or</w>
fad es</w>
un g
so res</w>
sapp hire</w>
ref use</w>
mit ts</w>
j our
c inch</w>
b order</w>
tic king</w>
thous ands</w>
temp ted</w>
lon don</w>
en or
cute .</w>
cand les</w>
b .</w>
transm is
thunder bolt</w>
re medi
justi fy</w>
ear ned</w>
wi fes</w>
roo m.
pro b</w>
f ond</w>
ep son</w>
Cre uset</w>
wo bble</w>
va io</w>
skil lets</w>
reci ever</w>
re ef</w>
proce ssed</w>
perfu me</w>
pa rent</w>
me sses</w>
man ds</w>
high- end</w>
fu el</w>
bea ter</w>
b locked</w>
s ni
conver ting</w>
b ati
toler ate</w>
sn ap
photo shop</w>
per sons</w>
lu g</w>
it tery</w>
expand able</w>
ad here</w>
Egy ptian</w>
unbea m</w>
t ag
spi der
positi oning</w>
comm and</w>
S unbeam</w>
w us
stin ky</w>
serv ings</w>
oat meal</w>
i am</w>
d 7000</w>
aspec ts</w>
. easy</w>
ven de
ur al</w>
thir ty</w>
rein forced</w>
su ffici
lon ger
hou ses</w>
ezu ela</w>
encour age</w>
e le</w>
dis colored</w>
dino sa
cro c</w>
cha t</w>
advertise d.
acciden ts</w>
trans ferred</w>
ste p
wea rer</w>
un cle</w>
problem s.
p oun
fl ate</w>
b ind</w>
app eal</w>
TV .</w>
6- 8</w>
sh red
ser rated</w>
r ounds</w>
it -</w>
en e
cardig an</w>
back -
7 .1</w>
har dest</w>
fl oral</w>
conden sation</w>
con firm</w>
bur ners</w>
ble mi
1 tb</w>
........ ...</w>
where as</w>
shor ten</w>
qu is
pend ants</w>
op tional</w>
mac s</w>
f ence</w>
e co-
critic ism</w>
chal ky</w>
zag g</w>
roo t</w>
ha v
flu ff</w>
be st
bacter ia</w>
ari o</w>
4 7</w>
win ding</w>
sp ouse</w>
sn oring</w>
sa g</w>
p ci
near by</w>
isol ation</w>
hi -
displa ying</w>
contr ary</w>
10 .00</w>
si er</w>
ro cket</w>
re all
fol der</w>
easi ly.</w>
di me</w>
conver ted</w>
ch ore</w>
ca sually</w>
Mac y</w>
E nergi
resc ue</w>
relati ves</w>
re ser
mem or
ke st</w>
gri ffin</w>
flow ing</w>
dri pping</w>
descrip tions</w>
S o</w>
to ssing</w>
ter rain</w>
sk y</w>
ol dest</w>
life style</w>
fil ler</w>
di mini
collap se</w>
cli pper</w>
bu mped</w>
b at</w>
ac ou
J a
swo llen</w>
gu mmy</w>
down loads</w>
ol d-
my self
hope ful</w>
g .
diab etes</w>
sav vy</w>
gigab it</w>
ga me
d un
wr iter</w>
swi vels</w>
sim p
gri d</w>
engin eered</w>
amaz ing.</w>
all -in-
affec ted</w>
RO W</w>
9 9
re ss</w>
mbre llas</w>
maintain ing</w>
ma iling</w>
increa ses</w>
fra ying</w>
dist ingu
bl inking</w>
ag grav
U mbrellas</w>
N C</w>
recharg able</w>
or ado</w>
fac ed</w>
en can
cappuc cin
bar rel</w>
back yard</w>
Ti ger</w>
sub scription</w>
sli der</w>
relie ves</w>
person ality</w>
l t</w>
issu ed</w>
gho st</w>
er .i</w>
de scent</w>
broad cast</w>
Ven ezuela</w>
torti llas</w>
spi kes</w>
poc ke
le y
i ed</w>
head phone
gi ble</w>
fre ely</w>
discre et</w>
clean ly</w>
bu bb
D .</w>
5 50</w>
s wears</w>
ir oned</w>
head bands</w>
bea n</w>
7 7
val s</w>
ung sten</w>
sugge sts</w>
ste ve</w>
ren ce</w>
hass les</w>
gar ments</w>
for mats</w>
do zens</w>
di sli
cla y</w>
chiro prac
po ke</w>
fl atten
fa v</w>
di d
custo mize</w>
ach i</w>
accor dingly</w>
T ungsten</w>
thro ws</w>
tane ously</w>
fla ps</w>
d roo
competit ors</w>
bag .</w>
an xious</w>
z o
sub mit</w>
strugg led</w>
re mem
mus cu
inter changeable</w>
in- ear</w>
ga thering</w>
bo thers</w>
tar gus</w>
stir ring</w>
progra mmed</w>
pp les</w>
n .</w>
l in</w>
glass ware</w>
girl friends</w>
un plugging</w>
straw berries</w>
neede d.
mo vements</w>
leg it</w>
circu lar</w>
2 x
separ ating</w>
o date</w>
no zzle</w>
j im</w>
gigab yte</w>
bul k
benefic ial</w>
noo dles</w>
monit oring</w>
kin der
com mu
al ter
S wi
s. great</w>
ma sks</w>
fu ton</w>
cra vings</w>
coun tries</w>
O reck</w>
50 -
200 mm</w>
perfec to</w>
back packs</w>
D 3</w>
wus th
sh re
on ia</w>
night stand</w>
moc ca
crea se</w>
comfortable .I</w>
appre hensive</w>
F l</w>
ver bati
tur ner</w>
tea ching</w>
ou ses</w>
mon key</w>
it -
hand ful</w>
fu ture
exist ent</w>
s car</w>
re fresh</w>
hi ding</w>
en ers</w>
cli pped</w>
ca mi</w>
ab ra
whi m</w>
le go</w>
it `s</w>
heavy- duty</w>
gg ers</w>
d re</w>
canc ell
affor d
ter i
sound bar</w>
sk ills</w>
projec tion</w>
pe els</w>
onesi es</w>
minim alist</w>
fin est</w>
car b</w>
v ap
t2 i</w>
stain ing</w>
scra ping</w>
po tty</w>
horizon tally</w>
fli pping</w>
deta iling</w>
bar n</w>
a ver
wai sted</w>
i do</w>
flo ws</w>
c z</w>
at ro
add- on</w>
Col orado</w>
you .</w>
wi ped</w>
pan cake</w>
gr inders</w>
gen t
co bra</w>
ar du
T P</w>
us to</w>
stuff ers</w>
s war
replic a</w>
more .
gar ter</w>
diff er
ca ge</w>
accom odate</w>
X D</w>
U N
Ko re
stri pe</w>
st itch</w>
sc ene</w>
pri de</w>
kil ling</w>
in .
borro wed</w>
H o
we e</w>
refl ect</w>
pou red</w>
pe d
flav or
du d</w>
watch band</w>
v r</w>
quality .I</w>
ph a</w>
zi p
vel ed</w>
ve ts</w>
tr unks</w>
snow y</w>
proble m.</w>
one .I</w>
f x</w>
cro ck
coupl ed</w>
albu ms</w>
a min
H u
tra iner</w>
sto ve
seas oned</w>
k ies</w>
fin ed</w>
ch lor
PA P</w>
C PAP</w>
tooth brushes</w>
replac eable</w>
plat in
instruc ted</w>
fresh er</w>
fil tered</w>
an n
B PA</w>
te k</w>
play station</w>
hol ster</w>
goo dies</w>
fe sti
conditi oned</w>
con do</w>
big .</w>
an ger</w>
2 20
sh in</w>
mi er</w>
fai th
dr -
con c
b eep</w>
w rench</w>
vibr ator</w>
stren g
slee p
ho mes</w>
e tte</w>
cor ro
consider able</w>
artic ul
adven ture</w>
uni sex</w>
sho ddy</w>
scra per</w>
k ors</w>
calen dar</w>
bear ing</w>
US PS</w>
yet .</w>
st al
pric eless</w>
pierc ed</w>
pat ri
fro th</w>
el ess
di lu
cheer ful</w>
tt a</w>
probio tic</w>
pin ky</w>
pic nic</w>
h l</w>
enhan ces</w>
d ness</w>
T a
L o
wear .</w>
vie wed</w>
per c
lb s.</w>
lan guage</w>
guarante ed</w>
e. g.</w>
cushi ony</w>
becu ase</w>
D a
us b</w>
tech ni
ro cking</w>
j an
exc use</w>
3 s</w>
stiff ness</w>
sna ke</w>
pi vo
ow ls</w>
out dated</w>
lubric ant</w>
in accurate</w>
great -
flu x</w>
effor tless</w>
den on</w>
accep ted</w>
wea ther
v v
st an
par tial</w>
fi ance
er o</w>
clu e</w>
ch ment</w>
M ary</w>
DI Y</w>
ri sh</w>
reg ard</w>
pa ssing</w>
muscu lar</w>
me -
mb p</w>
e do</w>
Durac ell</w>
7 50</w>
6 x
vo ir</w>
under stated</w>
supp er</w>
sn ags</w>
sl i</w>
recei ves</w>
quick ly.</w>
promi se
pre par
lac ie</w>
ha snt</w>
devel op</w>
I on</w>
A F
wa y.
verbati m</w>
onic are</w>
me more
m un
filter ing</w>
en zy
e ved</w>
cur b</w>
cook top</w>
ambi ent</w>
S onicare</w>
---- ----
w rest
ton ight</w>
t ful</w>
surroun ding</w>
poin ter</w>
par a
o sc
moder ately</w>
0 1</w>
twi sting</w>
opa que</w>
exi st</w>
de mand</w>
com promise</w>
won dered</w>
sac ri
repu table</w>
A P
5 5mm</w>
y .I</w>
s ack</w>
qui et
indi glo</w>
det ach</w>
4 3</w>
z en
t is</w>
ste el
scre wing</w>
ru ining</w>
intermitt ent</w>
inde struc
hor ses</w>
e sp</w>
buil ds</w>
buff et</w>
affec ts</w>
2 40</w>
wo ke</w>
wi fe
us si
spl itting</w>
sh inny</w>
remin ded</w>
o ak</w>
in fra
eye bro
dra ws</w>
calibr ation</w>
bi c</w>
V ery</w>
y u
wi ping</w>
shu tting</w>
pi g</w>
lau ghs</w>
in jec
ca mp
brow nies</w>
F rance</w>
wan ted.</w>
nu t
materi al.</w>
i so
gu es</w>
foc used</w>
e duc
. cons</w>
ul a</w>
stra ining</w>
si len
sett le</w>
s so
rec tan
good- looking</w>
destro y</w>
d ates</w>
bo o</w>
RE C
2 XL</w>
win ds</w>
war p</w>
ty .</w>
rea pp
mb o</w>
i ding</w>
frequ encies</w>
d é
V era</w>
REC IV
RECIV ED</w>
st itches</w>
re store</w>
memore x</w>
in ver
fr o</w>
ena mel</w>
differen ces</w>
ca sts</w>
bridesma ids</w>
blen ding</w>
I V</w>
15. 6</w>
un screw</w>
se ssion</w>
s ick
it y.
fan atic</w>
vic tori
v eable</w>
tu s</w>
trans it</w>
platin um</w>
na p</w>
magni fier</w>
gl itches</w>
co il</w>
attrac ti
ad a
accu mul
7 th</w>
200 4</w>
sto cks</w>
sh rank</w>
scu ffed</w>
restaur ants</w>
progre ss</w>
nu ff</w>
go o</w>
e sc
di ssi
blu e-
teen agers</w>
st one
sea ting</w>
respon ding</w>
qui red</w>
ps 2</w>
ox y
medi um
mani pu
im perfec
ex pl
b ound</w>
adverti ses</w>
W ar
wusth of</w>
vol ts</w>
tou ts</w>
te es</w>
oo ps</w>
dele te</w>
con clu
aliz er</w>
5 x</w>
tu tu</w>
o z.</w>
el li
c or</w>
H ea
Energi zer</w>
wh it</w>
ultrab ook</w>
displa y
coup ons</w>
conver sati
ar mp
12 .
weigh ing</w>
ri dges</w>
reflec tion</w>
nutri ents</w>
fuj i
fr ye</w>
f el
enhan ced</w>
defin atly</w>
be gun</w>
subst ance</w>
stic ally</w>
mul tit
in correctly</w>
g ears</w>
de fic
clou ds</w>
ori e</w>
oran ges</w>
juic ing</w>
is er</w>
engine er</w>
effici ency</w>
distr acting</w>
di l
day s.</w>
cen tered</w>
fiance e</w>
du de</w>
color ation</w>
ben to</w>
R u
4 50</w>
wi shes</w>
priv ate</w>
min erals</w>
ken ne
in cl
fil ming</w>
S S</w>
BO B</w>
1 4-
snork eling</w>
re production</w>
lab eling</w>
la dle</w>
instru ment</w>
d l</w>
co ax
cancell ation</w>
Sh ure</w>
Al pha</w>
you .
y n</w>
ww w.
wire lessly</w>
vari able</w>
upd ating</w>
toler able</w>
stri king</w>
rectan gular</w>
pa ys</w>
nam ed</w>
mel ts</w>
foo ted</w>
cho ps</w>
UG G</w>
tre k</w>
ster y</w>
out come</w>
g- shock</w>
er as
delight ful</w>
cave at</w>
-- but</w>
thor ough</w>
loosen ed</w>
ent ation</w>
3 3
tri -
ten s</w>
ste via</w>
pan ty
nee dles</w>
F a
than x</w>
sturd y.</w>
sa usage</w>
reluc tant</w>
mini mi
gin ger</w>
deliver ing</w>
ro m</w>
pu ffy</w>
ne ice</w>
ha ll</w>
ele ph
th readed</w>
pro tru
con ec
S ta
pro du
kinder gar
flat ter</w>
cur l</w>
Super man</w>
youn gest</w>
un known</w>
sore ness</w>
sen ce</w>
pi ed</w>
min nie</w>
mej or</w>
knock off</w>
e di
devi se</w>
compa ss</w>
Sta ples</w>
RI CA</w>
AF RICA</w>
veri fy</w>
under side</w>
sho el
pad dle</w>
con figured</w>
stro ke</w>
o li
mu ffs</w>
mi ele</w>
install .</w>
gr ating</w>
fix es</w>
dur ation</w>
cook book</w>
controll ers</w>
3 5mm</w>
ur ge</w>
sol dering</w>
ni sh</w>
dru gs</w>
d sc-
d ging</w>
wa y.</w>
veg gie</w>
light scribe</w>
id k</w>
co ach</w>
M a
w it</w>
w ick</w>
swal lowing</w>
period ically</w>
ec ho</w>
d ora</w>
coun ting</w>
car bon
bo dies</w>
at e.
- to-
tu bing</w>
tra p</w>
pra ise</w>
cho ic
cheap o</w>
anticip ate</w>
200 3</w>
2 6
wax ing</w>
vaccu m</w>
lu ster</w>
k v
fus sy</w>
en .</w>
d5 100</w>
con vin
cin ia</w>
assor ted</w>
ti pping</w>
suffici ently</w>
su bi
re tains</w>
nex -
mar ker</w>
ign ore</w>
engra ving</w>
dispen se</w>
dad dy</w>
accompli shed</w>
B ut</w>
t ley</w>
sm s</w>
par chment</w>
moistur izer</w>
jam med</w>
buni on</w>
ble ssing</w>
Wa com</w>
sub jec
s q</w>
partic le</w>
over- the-
im men
dur able.</w>
Har mony</w>
x- mas</w>
under stood</w>
sel dom</w>
pro pri
on lin
n i</w>
mea t
ir ons</w>
ex quis
ex changing</w>
cro ssed</w>
clean .</w>
al tered</w>
vende dor</w>
th reading</w>
port folio</w>
par is</w>
mm able</w>
je wels</w>
i- pad</w>
i home</w>
cra shes</w>
bl ended</w>
belie ved</w>
al kal
Gar cinia</w>
tr ic
technic ally</w>
m l</w>
g ly
contro lling</w>
begin s</w>
R ROW</w>
OOO O</w>
BO RROW</w>
ne tting</w>
c ine
S OO
J oe</w>
st acking</w>
remem bered</w>
mu sh
mo du
meth y
den se</w>
car bs</w>
bea ti
a wake</w>
vege t
o y
m si</w>
fuji film</w>
fo scam</w>
dispos al</w>
dama ge
ardu ino</w>
3 7
water proo
thous and</w>
sto le</w>
sin uses</w>
pres to</w>
monit or
manipu late</w>
ju g</w>
in consistent</w>
far ber
fa mous</w>
eleph ant</w>
SOO OOOO</w>
S a
S A</w>
weight .</w>
us eless
swar ov
su ite</w>
respon si
par king</w>
mit subi
ligh tening</w>
ful l
cu touts</w>
cou l
chan ces</w>
al ex</w>
Mart ini</w>
t down</w>
soun d.</w>
sharpen ed</w>
sc or
repea ter</w>
mel on</w>
imperfec tions</w>
hand y
ha zard</w>
embarra ssing</w>
compen s
ck els</w>
anti bio
Ta yl
ow ne
mar y</w>
kil led</w>
infla mm
in al</w>
destin ation</w>
d3 100</w>
ce re
brea thes</w>
bac hel
11 -
z in
vol ley
th ic</w>
off .
ing .it</w>
fin er</w>
fa mil
dissi p
chil i</w>
chew able</w>
wedd ings</w>
tri mmed</w>
to b
speci alty</w>
seem ingly</w>
re flux</w>
pu ll
nephe ws</w>
la st
fir mer</w>
eas ed</w>
e s.i</w>
prin ters</w>
pre serve</w>
our selves</w>
enor mous</w>
continu ing</w>
cir cles</w>
bicy cle</w>
applic ator</w>
R K
woul d
squi shy</w>
retri eve</w>
notic ing</w>
ma dden</w>
w a</w>
sm ell
out -
mouth wash</w>
inspec tion</w>
hot els</w>
hea ding</w>
fil l
addic ted</w>
a methy
war y</w>
spea ks</w>
ro ads</w>
pin ched</w>
gr out</w>
dis charge</w>
dd les</w>
M .</w>
K en
sty list</w>
nab i</w>
mini mize</w>
lamin ate</w>
indic ation</w>
gri ppy</w>
fav our
en ought</w>
duplic ate</w>
de -
conv ection</w>
chil led</w>
S t.</w>
y on</w>
tr ation</w>
sl ate</w>
ski pping</w>
se t.</w>
s ends</w>
magaz ines</w>
lab or</w>
it achi</w>
distribu tion</w>
def .</w>
dau g
che vy</w>
bre wer</w>
z a
transmis sion</w>
sta mp</w>
pu ppies</w>
or na
ag le</w>
H en
trac tor</w>
ra il</w>
kenne th</w>
intermitt ently</w>
har m
di um</w>
d --
compu ter.</w>
tro pical</w>
to pa
spee do</w>
soun d.
ra g</w>
plug- in</w>
note books</w>
mitsubi shi</w>
ham pion</w>
esti mate</w>
discoun ted</w>
can ned</w>
awa y.</w>
Hen ckels</w>
C hampion</w>
zom bie</w>
whisk ey</w>
pow dered</w>
po tent</w>
ob sole
i ally</w>
hu mming</w>
farber ware</w>
elastic ity</w>
decrea sed</w>
back packing</w>
att en</w>
C am
4 2
lex ar</w>
ka h</w>
in ti
for ming</w>
confir med</w>
co st
brow ser</w>
bow ling</w>
at tract</w>
agre ed</w>
W is
G ood</w>
x y</w>
wr ites</w>
wi shing</w>
under stand
sho e.</w>
sequ ins</w>
seas oning</w>
re ordering</w>
prou dly</w>
ner ve</w>
mix ture</w>
marke ting</w>
bra via</w>
tun ed</w>
h ue</w>
exten sively</w>
dra matically</w>
di ous</w>
cen tur
ca mi
A RI
re charges</w>
loaf ers</w>
k on</w>
foo d
exp anded</w>
easy- to-
du st
coun tless</w>
5 10</w>
woo d
as th
Ven ue</w>
6 ft</w>
wea k
ti pped</w>
thank s.</w>
inflamm ation</w>
heal th
ec static</w>
cosme tic</w>
T hur
wat tage</w>
ser y</w>
questi onable</w>
met als</w>
i phone
e uro</w>
dec als</w>
col lea
ag e.</w>
SE S</w>
Fa thers</w>
ARI SES</w>
. other</w>
windo w
k icking</w>
f t
dm c-
dis solves</w>
cho res</w>
ass et</w>
ali gn
RK ER
RKER S</w>
MA RKERS</w>
7 7</w>
yy yy
tic a</w>
shed ding</w>
sand al
recomen d
it z</w>
ha ll
g g</w>
fa x</w>
day s.
d 90</w>
coo led</w>
chiroprac tor</w>
band ages</w>
S ox</w>
t .I</w>
s king</w>
ne ss
cor n
í a</w>
wa ste
tru ely</w>
topa z</w>
stu bb
recom mand</w>
preven ted</w>
p each</w>
m k</w>
in sec
fi bers</w>
ff ing</w>
ex ha
dre st</w>
ch unks</w>
W ar</w>
V S</w>
100 .00</w>
10- 15</w>
rup ted</w>
re purchase</w>
r -
poli shing</w>
knock -off</w>
instruc tion
frea k</w>
exten ding</w>
disin te
cour te
avail ability</w>
amaz on.</w>
G oo
16 -
10- 12</w>
1 35</w>
z o</w>
w ir
volley ball</w>
reserv ation</w>
reser voir</w>
realiz ing</w>
po e</w>
pil ling</w>
outrage ous</w>
on .I</w>
lat te</w>
lat itude</w>
kee p
e vga</w>
e stab
clea vage</w>
shi p
sens ors</w>
r ms</w>
or ginal</w>
is .</w>
i os</w>
cra w
bou ti
wil d
volu mes</w>
visi bility</w>
ver ry</w>
usb 3</w>
regu lar
pat h</w>
even ings</w>
di v
dd ling</w>
birken stock</w>
acc o</w>
vi ol
u es
twee ters</w>
te ster</w>
sto cked</w>
mil li
manag er</w>
excell ent.
enjoy ment</w>
en ess</w>
co z</w>
ac u
E l
wol f</w>
p ts</w>
order d</w>
ga mble</w>
flo ssing</w>
beli ever</w>
star t
rat tle</w>
on in</w>
in to
imagin ation</w>
hur ric
g lows</w>
defin e
cassett es</w>
P M</w>
C VS</w>
5- 10</w>
to tal
re sort</w>
marvel ous</w>
gi sh</w>
exce ed</w>
bright en</w>
awk war
S hi
well .The</w>
stove top</w>
scra pes</w>
pul p</w>
pizz as</w>
lo va</w>
k nee
eas y.</w>
2 g</w>
.Than k</w>
. nice</w>
tific ation</w>
tan e</w>
t rea
swarov ski</w>
spo ke</w>
p w
over heated</w>
oooo oooo
ob no
custo miz
proper ty</w>
n es</w>
ke e</w>
gra m</w>
den sity</w>
-- not</w>
thri ve</w>
inve sted</w>
funcion a</w>
co pies</w>
50 .00</w>
z ar
un packed</w>
sh er
gra sp</w>
cru tches</w>
compli ment
al o</w>
Swi ffer</w>
. now</w>
wear ings</w>
shr inks</w>
ga ins</w>
fo x</w>
awa y.
Thur sday</w>
I rish</w>
Ha an</w>
sauc e
s ar
r ma</w>
r al
fantastic ally</w>
at e.</w>
le ot
la ps</w>
gl itch</w>
gi z
bre wed</w>
aper ture</w>
strea m
stack able</w>
skim py</w>
ro bes</w>
month s.</w>
men tally</w>
lip stick</w>
la under</w>
it ely</w>
M o
vibr ate</w>
reflec tor</w>
po ly</w>
im itation</w>
i 5</w>
for gotten</w>
eas y.
di zed</w>
cross -
as ha
an i</w>
z on</w>
tri pods</w>
serv ative</w>
clo sets</w>
E Z</w>
war m.</w>
t el
sanu k</w>
mono price</w>
lu m</w>
lon g.</w>
fla ir</w>
christ ma
ad or</w>
Asi a</w>
well- built</w>
tren d</w>
op y</w>
lapto p.
g our
expres so</w>
en ding</w>
def fin
cour t</w>
allevi ate</w>
R em
8 1</w>
wa st</w>
vac ations</w>
some day</w>
pe w
p ec
i dea
esto y</w>
descri bes</w>
be it</w>
so ckets</w>
p itch</w>
infra red</w>
gri pping</w>
di er</w>
child ren
cel tic</w>
5- star</w>
t z</w>
ssi vely</w>
si l</w>
mus ical</w>
kno ts</w>
gri lls</w>
fla kes</w>
far ther</w>
difficul ties</w>
3- 5</w>
2 40
vi be</w>
sor ies</w>
len ght</w>
ha ha
dé cor</w>
dra matic</w>
challen ged</w>
ca b</w>
ba ke
Tayl or</w>
6 6</w>
vo x</w>
spra ying</w>
sp ic
sc rolling</w>
ou red</w>
le m</w>
grand child</w>
famili es</w>
do sent</w>
determin ed</w>
describe d.
car dio</w>
bu y.
an other
activ ated</w>
Ken more</w>
H itachi</w>
s. my</w>
remo del
po sting</w>
p oon</w>
ja zz</w>
ba ss
ar r
80 s</w>
4 9</w>
2 9
16 00</w>
upgrad es</w>
tha heel</w>
since rely</w>
possi bility</w>
l le</w>
big ger
A .</w>
sm al
s atur
re son
pepper mint</w>
pa w</w>
mit t</w>
feren ces</w>
cle ars</w>
beautiful .</w>
Bu lova</w>
1 ,
uc ky</w>
lab s</w>
k is</w>
h r</w>
dra iner</w>
conge stion</w>
Or thaheel</w>
z uc
vi sits</w>
spl atter</w>
prepar ation</w>
po llen</w>
panty hose</w>
miz uno</w>
coupl er</w>
cor ded</w>
co co
cauti ous</w>
cassero le</w>
app are
ac es</w>
termin als</w>
ski ps</w>
re p</w>
l on</w>
fac il
du sting</w>
direc tional</w>
biscu its</w>
S c
16 0
. don</w>
zon a</w>
tra sh
sou thern</w>
der .</w>
co ck</w>
bed side</w>
Wal greens</w>
Nor thern</w>
w an</w>
ues day</w>
tim eless</w>
spo iled</w>
s- video</w>
perspir ant</w>
mel at
k ills</w>
ent a</w>
drug store</w>
T uesday</w>
A ri
. there</w>
wi zard</w>
weigh ed</w>
teas poon</w>
sper ry</w>
spac ed</w>
po st-
pe dal</w>
he mmed</w>
gra pe</w>
e uro
con form</w>
cer tified</w>
cappuccin o</w>
al d</w>
ac ted</w>
8 8</w>
un satisfied</w>
stri ped</w>
proce dure</w>
ic ian</w>
E agle</w>
4 x
vibr ations</w>
te dious</w>
fif teen</w>
f t.</w>
exp ands</w>
dan g</w>
bag gage</w>
ad d
An ne</w>
stre ets</w>
re stocking</w>
raz il</w>
r able</w>
inten sity</w>
fl atten</w>
exerc ises</w>
ex el
ener gi
al ter</w>
Ari zona</w>
z -
stor ms</w>
sal on</w>
ho ly</w>
fini sh
constip ation</w>
ban ged</w>
back side</w>
E L
tele sco
sh ri
resul ted</w>
jewel ery</w>
fe es</w>
big gie</w>
batter y.</w>
ap t</w>
align ment</w>
al beit</w>
tr yed</w>
tob acco</w>
sh ining</w>
organiz ers</w>
j et</w>
dea d
con stric
combin ations</w>
Hu bs</w>
travel er</w>
together .</w>
ss an</w>
servic eable</w>
se t.
sci enti
sc ious</w>
micro scope</w>
lo wered</w>
infl ated</w>
ic on</w>
exquis ite</w>
can ner</w>
ag gre
accompli sh</w>
B razil</w>
9 1</w>
zin c</w>
tat too
me tab
he el
dehydr ator</w>
chu bby</w>
bu ster</w>
ab road</w>
S age</w>
shir t.</w>
reflec ts</w>
of ten
nutr iti
n ite</w>
n c</w>
loc k
gu t</w>
firm ness</w>
fil ms</w>
fa ith</w>
fa b</w>
f en
absor ption</w>
9 6</w>
30 .00</w>
t ch
remodel ed</w>
r ural</w>
mp h</w>
k k
j e</w>
gr ated</w>
fi del
amethy st</w>
wan ted.
sh ore</w>
gh ly</w>
fla ke</w>
finger print</w>
enter ing</w>
employe es</w>
dis connects</w>
craf ts</w>
can opy</w>
absor bed</w>
u ous</w>
sty led</w>
ron man</w>
respon ds</w>
preschoo l</w>
pew ter</w>
modu lar</w>
m bles</w>
i ones</w>
flo ss
en dur
decep tive</w>
bul ge</w>
band age</w>
Nor dic</w>
I ronman</w>
the se.
straight en</w>
st el
pp l</w>
nutr itional</w>
in v
grand- daughter</w>
cu ddly</w>
consu mption</w>
commun ity</w>
com mute</w>
char ming</w>
B P</w>
........ ....</w>
swa pped</w>
r ant</w>
melat onin</w>
la wn</w>
kv m</w>
j ello</w>
increa sing</w>
es per
cyber shot</w>
cl ingy</w>
check book</w>
Ro lex</w>
Rem ington</w>
10 1</w>
x b
vo ices</w>
tight ness</w>
shado w</w>
pump kin</w>
net works</w>
hi gan</w>
con scious</w>
bad .</w>
. when</w>
y y</w>
sl ou
se ve
pro por
le s.</w>
ha w
define tely</w>
dama ges</w>
amazon. com</w>
air tight</w>
sli m
disappoin t
cuff links</w>
bla dder</w>
1. 4</w>
u -
ps 4</w>
place mats</w>
p ity</w>
nee d
it. W
gum mies</w>
fore ign</w>
exha ust</w>
cheesec a
access ori
O pti
vibr ating</w>
ti les</w>
super market</w>
suc ker</w>
no kia</w>
mu ffled</w>
m mm</w>
lat ches</w>
kn uc
garden ing</w>
ern ity</w>
ea ge</w>
design .</w>
cross fit</w>
cal orie</w>
au i</w>
Mic higan</w>
F lo
5 8</w>
wash ers</w>
use ing</w>
thou ghts</w>
roc ker</w>
propri etary</w>
la ye
fe stive</w>
e pi
e gg
d angle</w>
comb at</w>
bl a</w>
th .</w>
ta mente</w>
simul taneously</w>
sha wl</w>
progra mmable</w>
on board</w>
it. Than
g 4</w>
fan ci
fail ures</w>
di scription</w>
c .</w>
bun k</w>
stubb orn</w>
squee zing</w>
sha bby</w>
ro s</w>
ri g
k- cups</w>
indestruc tible</w>
gif t.
g p</w>
capr i</w>
brighten s</w>
b bed</w>
E R</w>
8 9</w>
you re</w>
view sonic</w>
too .I</w>
stabili zation</w>
rr rr
hea ters</w>
dig iti
crow ded</w>
bo ther
bee ps</w>
M aui</w>
4 6
us al</w>
stand by</w>
ra ils</w>
on a</w>
lif ted</w>
wa kes</w>
technic ian</w>
ss or</w>
sp ine</w>
snapp ing</w>
sha ved</w>
re pair
oh m</w>
lo b
i son</w>
fee t.</w>
etc .
deb ating</w>
compre ssed</w>
coax ial</w>
bi bs</w>
vie wer</w>
son ite</w>
product s.
opti mal</w>
in corpor
day time</w>
pr y</w>
mi e</w>
loo ses</w>
ken sing
k om
i so</w>
es cape</w>
c uc
acce sories</w>
C .</w>
. 3</w>
vis ited</w>
v y
respon sible</w>
mi ser
ci gar</w>
cho pped</w>
ur ine</w>
ro ws</w>
plo rer</w>
p ace</w>
in o
gg ling</w>
ever thing</w>
entre ga</w>
dec ade</w>
cat 5</w>
H ou
work able</w>
them .They</w>
te h</w>
sp indle</w>
pric ier</w>
mar io</w>
ic onia</w>
gh i</w>
co worker</w>
cal ming</w>
O RI
B D</w>
wi l</w>
tun ic</w>
th ongs</w>
spac ing</w>
ri bs</w>
mi li
lo bes</w>
hy gi
g lowing</w>
di stressed</w>
anch ors</w>
200 2</w>
10 th</w>
un lock</w>
ratt ling</w>
onesi e</w>
n el
mi ghty</w>
disappoin ted.
collap sible</w>
b i</w>
an al</w>
Ex plorer</w>
8 th</w>
spider man</w>
modi fication</w>
min a</w>
grad er</w>
flu ke</w>
fidel ity</w>
cap tain</w>
boo ting</w>
a i
1 40
sha vers</w>
recogni zes</w>
po ps
figu res</w>
ever .</w>
dra ined</w>
comfor ters</w>
bea ters</w>
appe ti
T X</w>
woo fers</w>
u d</w>
thank you</w>
swee p</w>
squee gee</w>
sk ill</w>
net working</w>
modi fied</w>
me st</w>
ick er</w>
hand ic
grab bing</w>
e ject</w>
d ough
conditi oning</w>
ca ms</w>
buni ons</w>
bl ouses</w>
spl in
sn oo
remark ably</w>
qua ilty</w>
pin ching</w>
in ge</w>
great .The</w>
fin ely</w>
butter flies</w>
alkal ine</w>
M r</w>
De c</w>
x 2</w>
under shirts</w>
scrat ch
pa thy</w>
ou ting</w>
ligh ters</w>
harm ful</w>
groo ve</w>
ger ms</w>
day care</w>
che wing</w>
asha med</w>
too l
so apy</w>
ru ffle</w>
lin ens</w>
kensing ton</w>
go ggles</w>
e -</w>
du ster</w>
calcu lator</w>
bi b</w>
a x</w>
sta sh</w>
sig ned</w>
side -
re ti
re stored</w>
r .
por ted</w>
pl ed</w>
no- brainer</w>
less -
ga mers</w>
down .</w>
comp atable</w>
chap stick</w>
ba ses</w>
atro l</w>
sum mers</w>
od ge</w>
drag ging</w>
chi p
ac custo
Bi ble</w>
. what</w>
ze ma</w>
wil l
wa s
ti ff
t 5
so cial</w>
shipp ing.
selec tions</w>
oxy gen</w>
mo mmy</w>
inst al
ho ya</w>
din ners</w>
deplo yed</w>
cra mped</w>
back lit</w>
b less</w>
appare l</w>
ad mi
-- they</w>
water -
t act</w>
station ary</w>
ss ss
scal p</w>
pe op
o c</w>
lo tions</w>
l lustr
d anc
cl one</w>
bro ther-in-law</w>
I llustr
y uck</w>
vari e
ta x
stric tly</w>
so- so</w>
reli gi
pe gs</w>
mem ori
dela yed</w>
cur ling</w>
cre at
cha ble</w>
box y</w>
ati vely</w>
sou l</w>
si on
sam sonite</w>
issu es.
grab bed</w>
fi st</w>
consu mers</w>
D odge</w>
uc tion</w>
tis m</w>
spec tive</w>
sn agged</w>
si p</w>
seve rely</w>
s b
rin sing</w>
ra ins</w>
puc ha
ni ssan</w>
n ada</w>
compr e</w>
0 4</w>
tu tori
tooth picks</w>
sequ ently</w>
selec ting</w>
sal sa</w>
immen sely</w>
favour ite</w>
er s.</w>
disp o
bel ongs</w>
accusto med</w>
veget arian</w>
substanti ally</w>
sk ate</w>
po se</w>
plu ged</w>
in sides</w>
fro st</w>
elimin ating</w>
color s.</w>
buil d
bb ing</w>
ar ran
R a
F or
un comfortably</w>
squee zed</w>
nic e-
max i</w>
jew lery</w>
i ss</w>
fli pped</w>
br an
asth ma</w>
1 70</w>
- i</w>
wob bles</w>
trouble shooting</w>
toil e
shipp ing.</w>
screen .</w>
sc ep
re used</w>
nu mb</w>
V ita
D X</w>
un it.
pops ic
point less</w>
pa ste
mi a</w>
ing -</w>
i di
dra pes</w>
circum ference</w>
cen ter
bo thering</w>
scri p
remo te
r w</w>
pun c
pol ka</w>
p rist
occu r</w>
laye red</w>
ju mbo</w>
flim sy
exi sted</w>
de to
crack ers</w>
bad ge</w>
annoy ance</w>
a sed</w>
9 2</w>
un finished</w>
play book</w>
pel ican</w>
na ked</w>
n .
foot age</w>
fi red</w>
cigare ttes</w>
c ry</w>
Y up</w>
Kir by</w>
H A</w>
9 4</w>
7 20</w>
san itary</w>
pam pered</w>
modul es</w>
light .</w>
experi menting</w>
embroi dered</w>
ei ve</w>
defin ed</w>
concentr ated</w>
bu tane</w>
bu mper</w>
at or
ab s</w>
S andy</w>
6 4gb</w>
40 00</w>
ser vers</w>
quil ted</w>
pi pes</w>
lo yal</w>
ffe l</w>
www. amazon.com</w>
un expecte
tribu te</w>
releas es</w>
qu est</w>
p int</w>
low ed</w>
li ary</w>
hd x</w>
hand set</w>
ff alo</w>
excell ent
calibr ate</w>
a meric
P ro
N i
D HA</w>
C ar
10 5</w>
- 3</w>
ste pping</w>
ru stic</w>
po king</w>
migra ine</w>
ki sh</w>
insan e</w>
hi p
fi bro
ear -
do .
dess erts</w>
a po
Bi o
ten ed</w>
pur ch
pa st
o il
mar king</w>
m mer
le ary</w>
heal ed</w>
bl in
aller gen
Cam bo
work ing.</w>
vir us</w>
time -
sho es
pro ps</w>
ok a
nause a</w>
motor home</w>
kick stand</w>
com pl
bott led</w>
assu red</w>
ampli fied</w>
M er
Bu ffalo</w>
z ap
syn dro
do w
d ice</w>
convi en
adap tors</w>
- the</w>
ta min
servic e.
n ational</w>
gun s</w>
deodor ants</w>
au xi
at os</w>
x x</w>
toa sted</w>
s. if</w>
it os</w>
gr oom</w>
gi mm
for giving</w>
dis coloration</w>
un scented</w>
tran sc
su re
ph one.</w>
moistur izing</w>
le ery</w>
i `
ga s
fac ility</w>
f .</w>
disa ster</w>
den tures</w>
car ib
brow ns</w>
batteri es.
bag el</w>
at x</w>
all .I</w>
a spir
8 6</w>
40 -
war mest</w>
vi c</w>
si e</w>
scu ffs</w>
sati si
ro wn</w>
pen e
men opa
log ical</w>
impro ving</w>
g on</w>
deal .</w>
comple tes</w>
co w</w>
ar ray</w>
accommod ates</w>
S e
4 7
x .</w>
ti ara</w>
tall a</w>
r j
pi ano</w>
off set</w>
natur alizer</w>
fro thing</w>
favor able</w>
enthusi a
c s
bra ided</w>
Con verse</w>
200 1</w>
scar s</w>
s. but</w>
o ve</w>
fi fty</w>
exten ders</w>
est buy</w>
back .
B estbuy</w>
A llen</w>
- top</w>
wa aa
ta pered</w>
sec uring</w>
re sting</w>
obsole te</w>
no t.</w>
eye glasses</w>
e ing</w>
ddr 3</w>
b d
al e
ab a
T SA</w>
B B</w>
0 7</w>
w icking</w>
var ying</w>
u ts</w>
t n
span x</w>
sm iles</w>
re present</w>
lat es</w>
la sag
kind les</w>
inten tion</w>
ger ber</w>
attrac ted</w>
U A</w>
6 8</w>
wrist band</w>
tra shed</w>
stel lar</w>
mat ernity</w>
hi ght</w>
cru sher</w>
bil ities</w>
arri ving</w>
an nu
Tur bo</w>
PD A</w>
N ative</w>
5 5-
- made</w>
trous ers</w>
lefto ver</w>
j us</w>
hea drest</w>
ec zema</w>
e h</w>
dist ort</w>
cl icked</w>
bri ghtly</w>
ti est</w>
saniti zer</w>
ig no
hh hh
gui del
cut out</w>
cru shing</w>
vag ue</w>
prist ine</w>
ligh test</w>
c ient</w>
abu sed</w>
J e
A T
work .I</w>
useful ness</w>
sab i</w>
r ada</w>
n son</w>
in ox</w>
ic o
hea ded</w>
environ ments</w>
del on
cha pped</w>
app le
vir tual</w>
unexpecte dly</w>
to mmy</w>
t c</w>
spec tr
relie ving</w>
recep tac
much .
me mber
lu mpy</w>
laun dered</w>
hea ven
god send</w>
el ated</w>
e q</w>
desper ate</w>
dd d</w>
commer ci
a ve</w>
4 e</w>
1. 8</w>
. -</w>
treat ments</w>
squea k</w>
speci fy</w>
sea ted</w>
pre fer
juni ors</w>
fitt ings</w>
drea ms</w>
dist il
co ded</w>
canc elled</w>
at test</w>
also .</w>
all- clad</w>
- ups</w>
se mble</w>
mar in
maintain ed</w>
hoo kah</w>
exten sions</w>
expensi ve
er d</w>
d. this</w>
comple tly</w>
ben eath</w>
W oo
D avid</w>
syndro me</w>
seas onal</w>
ple x</w>
pa ula</w>
mat h</w>
lo v
install er</w>
de humidifier</w>
collap ses</w>
carib bean</w>
blo ating</w>
absor b
C K</w>
win es</w>
tough er</w>
thre e-
re actions</w>
oven s</w>
nur sery</w>
mo vie
m k
lo t.</w>
hurric ane</w>
cur sor</w>
car ving</w>
b f
ten der
rac ing</w>
out ings</w>
no t.
ne sday</w>
grocer ies</w>
ga ther
chan ge
bun ny</w>
ag ent</w>
tu g</w>
stu mbled</w>
side .</w>
pu n</w>
inve sti
fun gus</w>
en g</w>
da ir
bed skirt</w>
auxi liary</w>
H i
thu mb
stro kes</w>
sp here</w>
shred ded</w>
ri ll</w>
pric e-
over s</w>
metab oli
in adequate</w>
i ffy</w>
expecte d.I</w>
distinc t</w>
degrad ation</w>
contain ing</w>
b lower</w>
alo e</w>
Vita mix</w>
S U
. he</w>
us ed
torti lla</w>
stea med</w>
or n
mis place</w>
lar ger
ed nesday</w>
a mi
W ednesday</w>
O N</w>
B 12</w>
An cient</w>
A F</w>
500 gb</w>
. as</w>
wa sabi</w>
spl en
size .I</w>
sha ky</w>
rece ssed</w>
po di
pan or
ori entation</w>
month s.
fro g</w>
coo kers</w>
circum st
ada ys</w>
A c
there .</w>
proble matic</w>
mis -
happ y.</w>
fri g</w>
c p</w>
b- day</w>
any how</w>
air ports</w>
D V</w>
win ter
ra de
ma shed</w>
hard drive</w>
dur able
cool .</w>
coco a</w>
camera .
w ich</w>
tu x
honey well</w>
disc us
dis continue</w>
di scar
conversati ons</w>
ans w
Joh nson</w>
In flate</w>
shoel aces</w>
je an
inst ance</w>
fl ic
cre me</w>
bu ns</w>
bake ware</w>
attrac ts</w>
al lo
al es</w>
ag ging</w>
M a</w>
x 10</w>
wea ker</w>
squa res</w>
s to</w>
periph erals</w>
pe e</w>
over kill</w>
neuro pathy</w>
n inten
meth ods</w>
magnific ent</w>
le vis</w>
laugh ed</w>
k ong</w>
i dle</w>
great -</w>
function ally</w>
fil tration</w>
eyebro ws</w>
endur ance</w>
delon ghi</w>
cy ber</w>
chr ono
bee ping</w>
beauti full</w>
antenna e</w>
re presentation</w>
price. The</w>
pi ssed</w>
ob struc
chlor ine</w>
T .I</w>
RE SE
8. 9</w>
6 7</w>
sh eath</w>
se ptic</w>
rock ford</w>
ri po
heart burn</w>
fea tured</w>
conver ts</w>
boo th</w>
a uti
G M
zuc ch
su m</w>
slee ved</w>
sl it</w>
o le</w>
nau tica</w>
leot ard</w>
ju mps</w>
in ger</w>
gr a</w>
electro lux</w>
dang ling</w>
chick ens</w>
chea p.
chal k</w>
ba u
b angle</w>
T .</w>
7- 8</w>
- y</w>
zucch ini</w>
war nings</w>
show ering</w>
pa i
coordin ate</w>
chr on
b inders</w>
mat ure</w>
explan ation</w>
co at
B AM</w>
2- 4</w>
sus an</w>
sur ve
pierc ings</w>
he re
goo g
ea ten</w>
de fl
cat 6</w>
box ing</w>
amaz on
V EL
P am</w>
tu x</w>
smal lish</w>
sand les</w>
mo th</w>
inc iden
hal o</w>
gir af
enough .</w>
dra pe</w>
crack er</w>
R e
unra vel</w>
swi pe</w>
mar tens</w>
lac ing</w>
kha kis</w>
indepen dent</w>
en tes</w>
e pil
disappoin ted.</w>
d 800</w>
work ing.
ru les</w>
out last</w>
now adays</w>
li v
indic ating</w>
fur ther
don ate</w>
concentr ate</w>
che sted</w>
avo iding</w>
arri ve
ag o
un wearable</w>
si st
qu art
pre tend</w>
plastic s</w>
foun tain</w>
flo oring</w>
fasc in
er s.
distur bing</w>
di ff</w>
d oo
bu sty</w>
blu es</w>
ste ms</w>
overclo cking</w>
ob ics</w>
ninten do</w>
mon str
mirr ors</w>
i ri
gradu ally</w>
ee ded</w>
de po
de d.
d- up</w>
ca bling</w>
ank let</w>
with stood</w>
vic tor
un available</w>
t as</w>
run n
re e</w>
over clock</w>
ke tt
insul in</w>
g b
da y-
co iled</w>
ab a</w>
to wers</w>
t oned</w>
soft ball</w>
mi sl
look .</w>
illumin ation</w>
d an</w>
cu red</w>
com p</w>
brac let</w>
ba p
appro ach</w>
y land</w>
ver .</w>
t l
pu mping</w>
pla id</w>
ob tain
ni ghtly</w>
lim itations</w>
gas kets</w>
crit eria</w>
cra b</w>
con dom</w>
boun cing</w>
at ley</w>
any o</w>
a sh
sturd y.
sc are</w>
re connect</w>
ni pples</w>
mi sm
ma s.</w>
idi ot</w>
grand pa</w>
g ical</w>
extra ordinary</w>
cli mb</w>
bun n</w>
ass ure</w>
ac quired</w>
1 3-
spectr um</w>
sp ends</w>
re im
na mic</w>
g ru
fon due</w>
dro ve</w>
dre w</w>
wild life</w>
wide screen</w>
to mic</w>
te d
spl its</w>
skul ls</w>
re pl
ped als</w>
pe g</w>
more over</w>
mail box</w>
li p-
bea tles</w>
app o
1 15</w>
so ggy</w>
ham burger</w>
gour met</w>
dro w
conditi on.</w>
clu ttered</w>
J arrow</w>
In dian</w>
A tomic</w>
6 x</w>
5 7
thy roid</w>
t f</w>
sto p
sh -
n n
mar gar
il li
i est</w>
eye piece</w>
evalu ate</w>
cop ying</w>
chil ds</w>
ch er
car ou
bud dies</w>
bl ink</w>
M EN
L .</w>
Cambo gia</w>
t ins</w>
pe dition</w>
gluco se</w>
bund led</w>
tele vi
secu res</w>
reco vering</w>
quo ted</w>
perfor mer</w>
pe tt
multi vitamin</w>
mo ths</w>
ine vit
ho st</w>
gi gan
gather ings</w>
dair y</w>
con servative</w>
centur y</w>
can al</w>
6 8
. after</w>
uni qu
sof t.</w>
recei ve
pitch ed</w>
pen ed</w>
p at</w>
mol ding</w>
mm mm
m á
m ur
don ated</w>
die sel</w>
. all</w>
vit ar</w>
ti vely</w>
sa il
ro man
re filling</w>
product. It</w>
pi ping</w>
mi sses</w>
medi ums</w>
marke ted</w>
high way</w>
g unk</w>
f a</w>
ben dable</w>
a mo
R x</w>
L ord</w>
5 k</w>
5 4</w>
. do</w>
stron gest</w>
sal mon</w>
quo te</w>
phys ician</w>
min .</w>
e ve
d are</w>
crock pot</w>
can dies</w>
be ha
batt le</w>
ar range</w>
aer obics</w>
V it</w>
K iss</w>
un clear</w>
sor ta</w>
re f</w>
ph one.
o ved</w>
li mes</w>
kno cking</w>
go wns</w>
fa ther-in-law</w>
ec h
discre te</w>
clear ing</w>
bu ff</w>
bo iler</w>
be ars</w>
ar c
squi shed</w>
sign ature</w>
quir ky</w>
oun ced</w>
o tic</w>
non sense</w>
min es</w>
kindergar ten</w>
insp ired</w>
develop ing</w>
birken stocks</w>
beati ful</w>
P H
x 100</w>
tou chy</w>
st en
slu g
reve aling</w>
recipi ents</w>
mal function</w>
j itters</w>
for getting</w>
for cing</w>
cro p</w>
bro ke
S anyo</w>
A R</w>
6 2</w>
- 1</w>
wi gs</w>
well- constructed</w>
sha m</w>
reim bur
pen dent</w>
men tho
less ons</w>
leg al</w>
int elli
flaw less
finger tips</w>
display port</w>
diagno sed</w>
cred ited</w>
cla w</w>
ba of
ba k
A Z</w>
table t.</w>
ta ke
squ are
sp resso</w>
separ ation</w>
obno xious</w>
le ans</w>
j ar
it self
ex ag
ed ited</w>
cra pped</w>
bil l
at i</w>
tra ps</w>
si gh</w>
sen der</w>
rel and</w>
re presents</w>
pa int
fo to
crea mer</w>
5 1</w>
tu m</w>
til ted</w>
sub mer
str ands</w>
soften s</w>
op tion
mou se
mocca sins</w>
food saver</w>
elev ated</w>
do ses</w>
awkwar dly</w>
alle l</w>
tra de
loaf er</w>
ful .</w>
fini shes</w>
epi so
e go</w>
de pt</w>
att end</w>
a a</w>
Un ited</w>
OT C</w>
war t</w>
stret cher</w>
ripo ff</w>
re conditioned</w>
qu es</w>
plac e.
pet als</w>
ma xi
fast eners</w>
distribu tor</w>
cine ma</w>
cam pus</w>
boy friends</w>
Co sta</w>
50 d</w>
to ggle</w>
spra yer</w>
regi stered</w>
pro lon
par allel</w>
no tified</w>
new spa
gu in</w>
do g
beca sue</w>
R anger</w>
J ane</w>
I reland</w>
70 s</w>
0 2</w>
sha per</w>
rea sure</w>
me g</w>
le i
inve st
gu ed</w>
di gs</w>
carou sel</w>
T reasure</w>
J an</w>
x l
us ed.</w>
qua ility</w>
purpo se
po th
peel ers</w>
lin ked</w>
lar ge.</w>
happ y.
fine .I</w>
extre mly</w>
dispen sing</w>
butt on
Wa hl</w>
B ond</w>
AB LE</w>
z ones</w>
who le
week .</w>
paste l</w>
me h</w>
it as</w>
emb lem</w>
drive way</w>
chec ks</w>
ar range
P lum</w>
Amaz ons</w>
9 3</w>
5 9</w>
3 gs</w>
20 x
wr ong
stre ss
si es</w>
see k</w>
s the</w>
red ness</w>
re ferred</w>
podi at
p s.</w>
mentho l</w>
ge tt
fl uc
d vi
cha mber</w>
2 tb</w>
truc ks</w>
to p.</w>
t art</w>
separ ates</w>
s se</w>
s al</w>
pp ings</w>
of fe</w>
n it</w>
me dal</w>
k ra
inc ident</w>
il les</w>
hy dro
hul u</w>
ho p</w>
ha ve.</w>
fin icky</w>
cur ly</w>
C offe</w>
zip lock</w>
wr t</w>
to tes</w>
tac o</w>
re tract</w>
quick ly
os x</w>
gr at
counter tops</w>
all ed</w>
Pen guin</w>
Illustr ated</w>
A im</w>
2 10</w>
vit a</w>
vel ing</w>
up -
un attractive</w>
tr i</w>
tr apped</w>
sha ping</w>
sa i
recommende d.</w>
r i</w>
ma sh</w>
h ong</w>
gigan tic</w>
enter tain</w>
br ad
an tec</w>
acc es
L i
BM W</w>
. that</w>
wid ths</w>
uti lit
ta ping</w>
smu dge</w>
ra ved</w>
projec tors</w>
fo rest</w>
dist ant</w>
d g
creat ine</w>
craft manship</w>
2 e</w>
100 -
ty pe
span ish</w>
o ps</w>
mista ken
mf g</w>
disasse mble</w>
cel lu
att ack</w>
ar chi
3 20</w>
2. 1</w>
sm i
sl ing
regu l
possi bilities</w>
po sed</w>
ph an
ker chi
immedi atel
hu mor</w>
fic ations</w>
daug ther</w>
compu ter.
cli p-
any one.</w>
-- no</w>
zi plo
yar n</w>
victor inox</w>
varie ties</w>
tight .</w>
th ay</w>
ste ering</w>
rade on</w>
ra ining</w>
projec ted</w>
profession als</w>
po d
ner d</w>
in tric
igno red</w>
er ase</w>
de ff</w>
cuc u
circul on</w>
cha se</w>
bun ched</w>
bother some</w>
binocu lar</w>
Be es</w>
y i</w>
un breakable</w>
time s.</w>
sol dered</w>
sk elet
s our</w>
ru le</w>
mal es</w>
lasag na</w>
jo g</w>
in dispen
fo s
fla wed</w>
execu tion</w>
en dor
courte ous</w>
co bal
bun ches</w>
5 6</w>
wr on
slip- on</w>
si ghtly</w>
secon dly</w>
quart z</w>
po les</w>
mu m</w>
jo in</w>
hand s-
fluc tu
fi ber
eni x</w>
econo my</w>
con dic
cami sole</w>
calibr ated</w>
bu m</w>
absolu tley</w>
a waiting</w>
Ru by</w>
M e
vibr ates</w>
ti mel
stuff y</w>
re wind</w>
pa ssive</w>
now .
mu dd
mat ress</w>
lob ster</w>
ker nels</w>
guidel ines</w>
giz mo</w>
format ting</w>
en to</w>
dru m</w>
cre pes</w>
. in</w>
war ren
va st</w>
tattoo s</w>
sp it</w>
si onal</w>
perfectly .I</w>
on ship</w>
fee t.
excell ent.</w>
dry wall</w>
dry ness</w>
desi rable</w>
crun chy</w>
X XX</w>
15- 20</w>
worl ds</w>
well- designed</w>
taste ful</w>
super hero</w>
stur dy
stone ware</w>
spi der</w>
ro ti
metaboli sm</w>
jam bu</w>
in nov
consu me</w>
ca d
bou gth</w>
atten ded</w>
US O</w>
RE E
60 -
5 ft</w>
zap atos</w>
year .</w>
ty -
tur t
to ppers</w>
plat ter</w>
pe ppers</w>
pan e</w>
o ste
n f
k it
fore head</w>
disapp ears</w>
di ver</w>
correc t
co ding</w>
co b</w>
car pal</w>
brac elet
bla ster</w>
at ch</w>
al gia</w>
8 7</w>
ziplo c</w>
sati fied</w>
s. would</w>
perfect .I</w>
pe dic</w>
mo d</w>
j ittery</w>
e sta
cra wl</w>
collap sed</w>
charac teri
al li
adap ter
ac her</w>
w er
sp er</w>
sag ging</w>
pret tiest</w>
no stal
m mers</w>
it. This</w>
ic kest</w>
configur ations</w>
com o
L Y</w>
7 50
- e</w>
us er-
to dos</w>
ste p-
refre shed</w>
re lay</w>
money .I</w>
m ma</w>
m ite</w>
in valuable</w>
fo b</w>
du h</w>
costu mer</w>
boo ts.</w>
aspir in</w>
any one.
R A</w>
300 mm</w>
wa res</w>
vel ess</w>
tea chers</w>
stu dying</w>
sl ack</w>
promi sing</w>
op to
o ta</w>
do wns</w>
dis pleased</w>
bap tism</w>
b aller
auto focus</w>
at o
appli es</w>
M D</w>
C L
y ards</w>
vo ip</w>
valu es</w>
tux edo</w>
strai ghten
peri o
occur red</w>
n ick</w>
i ons</w>
ha y</w>
gr itty</w>
cra mping</w>
19 .99</w>
v ei
tec hi
ta h</w>
recommen d.</w>
pha se</w>
over weight</w>
mista kes</w>
min ty</w>
loo oo
le um</w>
just in</w>
ge tic</w>
g usto</w>
fresh ly</w>
disc our
bru sh
at ched</w>
al erts</w>
ag o.</w>
L P</w>
B -
17 -
we ir
v- neck</w>
sty l
stand ar
st al</w>
sc run
roc ky</w>
poin tment</w>
pa il</w>
manufac tures</w>
long- lasting</w>
k icked</w>
baof eng</w>
any where
al read
V i
Sa vers</w>
B ur
termin al</w>
reserv ations</w>
plu g
penc ils</w>
ore tte</w>
nu is
mar il
lowe pro</w>
long- term</w>
lip- Flo
lip-Flo ps</w>
ja ms</w>
ing en
imp ec
extra -
el even</w>
defen der</w>
compens ate</w>
cha fing</w>
cat alog</w>
HE S</w>
F lip-Flops</w>
y um</w>
whi pped</w>
vi vitar</w>
techni que</w>
summer time</w>
slee pers</w>
s z</w>
regre tted</w>
pitch ers</w>
oper ator</w>
mistaken ly</w>
in compatible</w>
by pass</w>
bo wel</w>
blemi shes</w>
au th
ac company</w>
Shi elds</w>
x 1</w>
vy weight</w>
sm en</w>
scoo ping</w>
regi men</w>
re serve</w>
p sy
oper ational</w>
mul tic
li shed</w>
k oh
festi val</w>
fair y</w>
e se</w>
compr ar</w>
E S
wal le
transl uc
tooth pick</w>
rac hael</w>
peo ples</w>
orth op
oper ations</w>
mi zed</w>
iti sh</w>
inst ea
fil lers</w>
char ity</w>
any thing.</w>
Hea vyweight</w>
Fe b</w>
7 9</w>
sur fac
spir al</w>
si fter</w>
shu n</w>
r ing.</w>
la dy
gr ace</w>
fr inge</w>
f ting</w>
cu t-
child hood</w>
ble .
b y-
ac ion</w>
4 8
- size</w>
v or</w>
to .
sh red</w>
plac e.</w>
ph y
heat sink</w>
fla x</w>
fibro my
du al-
di gest</w>
con tamin
collec ted</w>
blu er
be hold</w>
a o
y wood</w>
w icked</w>
tr y
sw ings</w>
ri p-
re g</w>
ra ves</w>
qu ad
pea k</w>
not -
loo n</w>
ib m</w>
dispen sers</w>
dis connecting</w>
con di
annu al</w>
M i
IM H
tac tical</w>
syn cs</w>
sauce pan</w>
recommen d.
ra y
pro state</w>
pat ch
op t</w>
min net
it y.</w>
insan ely</w>
gra ins</w>
ex tent</w>
docu ment</w>
IMH O</w>
6- 7</w>
thermo meters</w>
tang les</w>
f are</w>
de monstr
car a
5 .</w>
2 3
ve ter
sho pper</w>
or ga
maril yn</w>
look ing.</w>
lean ing</w>
honey moon</w>
he re.</w>
comfor ting</w>
cap tures</w>
at t</w>
a h
with .</w>
sea ttle</w>
sa y.</w>
ro ses</w>
mi sc
it i</w>
gri me</w>
fanci er</w>
f ou
f al</w>
drin kers</w>
di ps</w>
deto x</w>
cour ses</w>
cable .</w>
c i</w>
c d
us ed.
us .</w>
un glued</w>
start up</w>
slug gish</w>
recommen ed</w>
n ick
mu s</w>
gue ssed</w>
go .</w>
fo am
fast ened</w>
emergen cies</w>
dinosa ur</w>
dark ness</w>
cri mp</w>
comp ound</w>
ch uc
ca ke
box .
boo ty</w>
blo ated</w>
absor bing</w>
T hey</w>
G en
40 d</w>
wor m</w>
un till</w>
too n</w>
s nee
recomend ado</w>
place bo</w>
ph y</w>
night gown</w>
lemon ade</w>
di scribed</w>
chea p-
bl acks</w>
ar c</w>
antibio tics</w>
M S
B .</w>
.Than ks</w>
v as
stuff .</w>
sho e.
out .I</w>
ortho tic</w>
ing o</w>
grou ps</w>
f ice</w>
exc it
d ous</w>
be st.</w>
atten ding</w>
P F</w>
un bearable</w>
transm itters</w>
ta pe
ste m
row enta</w>
per col
mista ken</w>
it I</w>
hus band
er ly</w>
envel op
com mands</w>
ci gars</w>
ch efs</w>
b en</w>
aes thetic</w>
ve s.</w>
tho u</w>
suff ice</w>
spac e
sp reading</w>
protec tor
ow es</w>
o ca
men ded</w>
mag ical</w>
in line</w>
e sses</w>
cli mates</w>
chee ses</w>
am i</w>
K ee
0 8</w>
0 5</w>
whi ms
ten go</w>
strea k</w>
stabili zer</w>
read out</w>
medi ab
me rely</w>
ju mper</w>
io mega</w>
il lustr
ha d.</w>
gar y</w>
fa ul
du ffle</w>
dol lar
car ton</w>
bal loon</w>
bab y
18- 55mm</w>
wa ves</w>
tter y</w>
sp reads</w>
shin ey</w>
r ags</w>
podiat rist</w>
lu m
lif ter</w>
in effective</w>
ful fill</w>
far i</w>
dd -
ci on</w>
br e</w>
5 e</w>
whi sks</w>
ver all</w>
tou r
thing y</w>
sur gical</w>
sturdi ly</w>
sam ples</w>
remedi es</w>
pro -
pivo t</w>
pett ico
le man</w>
lat ter</w>
im mer
hall way</w>
frien d.</w>
dish wash
care full</w>
c x
ban da
al tec</w>
after ward</w>
Bra vo</w>
A lle
7 8</w>
1 30
. can</w>
sol ving</w>
slee veless</w>
pe a</w>
on y
k les</w>
ir regular</w>
for cement</w>
V icks</w>
travel ers</w>
t. this</w>
lu gging</w>
lit er</w>
hand kerchi
fix tures</w>
f r</w>
ep ic</w>
dela ys</w>
da il
conditi on.
col lars</w>
co ke</w>
clo wn</w>
boo tie</w>
ad dle</w>
Alle gra</w>
8 4</w>
0 6</w>
st ale</w>
sole ly</w>
sim o</w>
p its</w>
necess ities</w>
inven ted</w>
f z
explo ded</w>
dress -up</w>
da b</w>
cur ls</w>
char ts</w>
ap or
Ju icy</w>
whit er</w>
roti ss
rin sed</w>
recog n
ne spresso</w>
ma r</w>
en sures</w>
clean sing</w>
b .
at in</w>
admi red</w>
ach illes</w>
8 2</w>
' s.</w>
war med</w>
re present
pro p
mo lex</w>
m ush</w>
lu mps</w>
life span</w>
inst al</w>
injur ies</w>
ing rown</w>
chea ted</w>
80 2.
5 12
- d</w>
yy y</w>
sty le
si a</w>
per spective</w>
osc ill
life proof</w>
ju li
j ur
hoo dies</w>
frien ds.
ear pieces</w>
bal d</w>
2 30</w>
w en</w>
v p
tran gers</w>
st all</w>
ru ffles</w>
ro foam</w>
ra viol
on- time</w>
n an
good. The</w>
ge m
fu zz
fish eye</w>
con fusion</w>
compu ting</w>
blu r</w>
bar ley</w>
aroun d.</w>
S trangers</w>
Kee pers</w>
wi e
str ay</w>
so ta</w>
p on</w>
la thers</w>
instru ments</w>
gin s</w>
energi zed</w>
en semble</w>
ear ring
e state</w>
do sen</w>
disp ose</w>
co d</w>
acc en
VEL ING</w>
UN RA
UNRA VELING</w>
5 7</w>
. My</w>
til ts</w>
stabili ze</w>
sp y</w>
siz e-
roa sts</w>
ra shes</w>
groun ded</w>
grand father</w>
foun dation</w>
ec u
dro pper</w>
concer ts</w>
accep ts</w>
C os
7. 0</w>
6 9</w>
wide -
vi gor
un it
syn cing</w>
ste ws</w>
recor ders</w>
nuis ance</w>
m pers</w>
lo t
fast ener</w>
doc s</w>
disappoin ts</w>
cro sso
cra shing</w>
bal lo
avo ca
12 8</w>
vari ed</w>
un sightly</w>
transluc ent</w>
st robe</w>
st ills</w>
shin ier</w>
mar ket
lap se</w>
hy per
hesit ated</w>
for war
equi pped</w>
don uts</w>
T rad
. one</w>
ur ban</w>
tr in
tempor arily</w>
sun screen</w>
snu ggle</w>
scrat cher</w>
s ad
pe dic
no logy</w>
mediab ridge</w>
el bows</w>
bro iler</w>
ben ch
bel oved</w>
anti perspirant</w>
aggre ssive</w>
EC T
9 v</w>
50 th</w>
1 100</w>
ty rofoam</w>
tri vet</w>
t ack</w>
suc king</w>
store .</w>
stic hing</w>
scar fs</w>
refur b</w>
rain coat</w>
per cen
nivers ity</w>
le gging</w>
iti ons</w>
in ely</w>
deal t</w>
bur ps</w>
bo red</w>
U niversity</w>
TI C</w>
THE TIC</w>
S tyrofoam</w>
PA THETIC</w>
Kore a</w>
Ac cord</w>
5 20</w>
wra pper</w>
work station</w>
tor ch</w>
televi sions</w>
shor t-
pu ddles</w>
overclo cked</w>
modi fications</w>
lo l
lan ce
jack et
gradu ated</w>
function al
fore man</w>
f loo
ed ly</w>
dv d</w>
dra in
ch unk</w>
batter ys</w>
al er
air -
access ing</w>
Goo fy</w>
3- d</w>
w icks</w>
susp ec
st ee
si mili
ribb ons</w>
pu dding</w>
ma sher</w>
incl ined</w>
hy bri
f uc
ex er
ex -
es ca
eras er</w>
ch ero
bro ke.</w>
bea ten</w>
avo ided</w>
aci ón</w>
a ma
40 .00</w>
12 .5</w>
whims ical</w>
wash ington</w>
sor ted</w>
sl ats</w>
navig ator</w>
lea p</w>
ho ckey</w>
gui des</w>
glo bal</w>
ed .the</w>
da mp
competit or</w>
be ret</w>
batt le
after -
20- 30</w>
vo c
utilit arian</w>
thin k
teen y</w>
relati onship</w>
recogn ition</w>
ran ges</w>
process ors</w>
nicel y.</w>
i robot</w>
hand made</w>
detec tion</w>
build up</w>
b arri
athle te</w>
aer ator</w>
ado be</w>
Max ell</w>
wrest ling</w>
well .It</w>
tt l</w>
ta pers</w>
ta mper</w>
notic es</w>
laun dering</w>
lance ts</w>
k or</w>
great .It</w>
fur n
fos gate</w>
dis advantage</w>
compre ss</w>
clo ck
' t
under -
sweat shirts</w>
shor tened</w>
s. these</w>
ral ph</w>
ke ds</w>
gor illa</w>
easy share</w>
co pied</w>
cer tific
bar gin</w>
atur als</w>
ar mo
6 6
2 60</w>
- S
th west</w>
sma sh</w>
pro min
price. It</w>
person alized</w>
nea ter</w>
must ard</w>
mp 3s</w>
mother boards</w>
gener ously</w>
fi res</w>
di m
d3 200</w>
bed rooms</w>
aroun d.
am ine</w>
S o
S C
220 v</w>
wal kers</w>
trip p</w>
run ny</w>
poten tially</w>
poo p</w>
o der</w>
in hal
he se</w>
ge t
fibromy algia</w>
fac ts</w>
exp i
de d.</w>
d one.</w>
col a</w>
cock tails</w>
bo ating</w>
again .I</w>
C rest</w>
0 9</w>
wi sh
st acks</w>
sl ink</w>
s watch</w>
re con
r is</w>
keep sake</w>
in flat
happ en
g out</w>
daugh ter.</w>
cy lin
cre e
carro t</w>
Dy namic</w>
turt len
track ball</w>
tion .i</w>
ti ly</w>
su red</w>
stri ke</w>
str ang
sl ouch</w>
shiel ded</w>
s. good</w>
s as</w>
ran ny</w>
po acher</w>
leno l</w>
ha ssel</w>
el le</w>
cran berry</w>
clean ser</w>
circumst ances</w>
buil der</w>
all-in- one</w>
SC RA
SCRA P</w>
visit ors</w>
twea king</w>
stor ies</w>
smo ked</w>
shado ws</w>
ro de</w>
inven tory</w>
im port</w>
ex ellent</w>
e ves</w>
distinc tive</w>
br o</w>
bluer ay</w>
bag less</w>
authen tic
adm ir
Ro se
I BS</w>
C U
u l</w>
reccom ended</w>
m r
l n
hoo ds</w>
for ums</w>
fi os</w>
enzy mes</w>
dr ank</w>
bachel orette</w>
W I</w>
T wi
E U</w>
5 w</w>
y lenol</w>
veri fied</w>
var ies</w>
uni forms</w>
th -
sett ing
ros ary</w>
qu et</w>
p ony</w>
leng thy</w>
fresh ness</w>
flo ats</w>
emer ald</w>
chrono graph</w>
ch or
brad ley</w>
W al</w>
T ylenol</w>
L owes</w>
G ranny</w>
Ex pedition</w>
work horse</w>
us ability</w>
to se</w>
sa fari</w>
re jec
rat tles</w>
prolon ged</w>
ore gon</w>
mit h</w>
ga ther</w>
frag ran
f ont</w>
e ys</w>
e al
descri bed
dee ply</w>
dan ger</w>
cou ples</w>
bu sh
T 3</w>
Dy nasty</w>
wol ver
un ic
str on</w>
squa sh</w>
smo kes</w>
pres so</w>
poc o</w>
po ison</w>
pad e</w>
on ka</w>
o logist</w>
mp 4</w>
mor ous</w>
lou dly</w>
individu als</w>
en sive</w>
dri er</w>
discar ded</w>
class ical</w>
call er</w>
ban gs</w>
S mith</w>
- looking</w>
- ish</w>
wr it
t d
spl int</w>
slou chy</w>
sa r</w>
rin ger</w>
propor tion
pettico at</w>
pene tr
one s.</w>
no c
nic s</w>
jun ky</w>
har dy</w>
est ado</w>
con sul
cha ir
ar gue</w>
appreci ates</w>
N aturals</w>
80 00</w>
uti ve</w>
table spoon</w>
swa pping</w>
product. The</w>
p ny</w>
mil k
m mend</w>
inten sive</w>
exp e
evi dent</w>
e dic</w>
deplo y
condic iones</w>
ch e</w>
ban ging</w>
6 4-
warren ty</w>
v ans</w>
suppli ers</w>
spr ink
simili ar</w>
re ha
om elets</w>
ne ts</w>
must ang</w>
mb t</w>
ju mp
it ate</w>
further more</w>
fe rent</w>
expensi ve.</w>
divi ded</w>
cylin der</w>
conver tible</w>
answ ering</w>
TT ING</w>
RESE TTING</w>
M I
Christ mas.</w>
wonder full</w>
valu e.
tex t
supri se</w>
screa ming</w>
r c
pro ves</w>
innov ative</w>
grand parents</w>
gau ze</w>
ed ge
der mat
conclu sion</w>
colo gn
b ell
ar ts</w>
aesthe tics</w>
S pade</w>
ti m</w>
st il
ro le</w>
ri val</w>
pe stle</w>
ne sota</w>
men to</w>
ket ones</w>
gr an</w>
fur ry</w>
fit flops</w>
disc er
contro l
chero kee</w>
all y.
aero soles</w>
a ay</w>
R ica</w>
4 .</w>
wal nut</w>
ve ins</w>
vari ation</w>
tu bs</w>
tam ron</w>
soft box</w>
sh rug</w>
rec re
over size</w>
other s.
ma ker
j ade</w>
in voice</w>
gif ting</w>
gall ons</w>
fol dable</w>
fla king</w>
en ne</w>
dur able.
dri lling</w>
di d.
bel ong</w>
S pain</w>
P T</w>
A R
2 5-
. looks</w>
un t</w>
tail or</w>
ste er</w>
sing ing</w>
s q
rever sed</w>
over alls</w>
non- stop</w>
mu sty</w>
la dder</w>
ful fills</w>
drin k
col dest</w>
children s</w>
brow ning</w>
Min nesota</w>
vari ations</w>
up .I</w>
ti fy</w>
spac e.
s 2</w>
pre set</w>
kin ess</w>
into sh</w>
i vy</w>
humidi fiers</w>
g ou
expand ing</w>
ele mentary</w>
distur b</w>
d 80</w>
compe te</w>
col on</w>
blen ders</w>
t em</w>
scre am</w>
sal ine</w>
receptac le</w>
pri ority</w>
po sse
pi sto
mus s</w>
mir ro
mb ering</w>
mar shm
home opa
fit ment</w>
ev apor
e for
cr ink
concer ning</w>
con test</w>
ba kers</w>
valu e.</w>
time s.
sen ti
rotiss erie</w>
liqu or</w>
intric ate</w>
indispen sable</w>
in ju
gg in</w>
gener ations</w>
equal izer</w>
environ mentally</w>
distil led</w>
cor ns</w>
cobal t</w>
chip set</w>
birth days</w>
Y ou</w>
Opti mum</w>
M ills</w>
A A
- type</w>
tang ling</w>
surger ies</w>
strea ms</w>
ste aling</w>
spor t
sen sati
pa k</w>
p s.
p ear</w>
ke red</w>
hd -
develop ment</w>
con spic
be d.</w>
bath robe</w>
baller ina</w>
ar ch
air lines</w>
a mente</w>
a i</w>
K ate</w>
G NC</w>
y an
x y
ultra -
to slink</w>
so m</w>
sli de
re- ordered</w>
over heats</w>
ol d.</w>
multi media</w>
ma ine</w>
hou se.</w>
fi d</w>
ergono mic
de mand
bun ching</w>
bi do</w>
at ri
J ack
uno pened</w>
u es</w>
thank s
stret ch
spr ing
small .
simil arly</w>
recei pts</w>
member ship</w>
le dge</w>
kaya king</w>
j ir
ey ec
ess ica</w>
d son</w>
cou gh
c ó
ans wers</w>
al i</w>
after shave</w>
S is</w>
P R</w>
9 00
2 1
15 .00</w>
weigh ty</w>
user- friendly</w>
tren d
off er
lea gue</w>
fa ults</w>
draw backs</w>
dol ph
di se
bu ffer</w>
ballo ons</w>
apr ons</w>
aly p
toil ets</w>
t- fal</w>
ro se
paper weight</w>
occur s</w>
minnet onka</w>
j en
integr ity</w>
hh h</w>
hel per</w>
fli p-
fec tly</w>
drag on
che ws</w>
camer as
bridesma id</w>
SE R</w>
E D
Da wn</w>
5 v</w>
3- 6</w>
0 3</w>
........ .....</w>
that .
tab le.
t ick</w>
star ch</w>
ski pped</w>
pli es</w>
pa vement</w>
nice- looking</w>
mar ginal</w>
i ans</w>
hol der
go sh</w>
en closures</w>
co tt</w>
band ana</w>
B s</w>
7 100</w>
xi a</w>
un wrapped</w>
tra ins</w>
ta ma
shri mp</w>
re install</w>
nec ks</w>
mar kets</w>
kid ney</w>
ima ge
ic e
di ana</w>
deta il
comm union</w>
bo gs</w>
a im
S W</w>
J essica</w>
6- 12</w>
17 .3</w>
xxxx xxxx
water melon</w>
waist line</w>
squi sh</w>
spo tting</w>
sc r
qu ed
pro pane</w>
nik kor</w>
mass ages</w>
l eas
inc i
ho st
g i</w>
fan ny</w>
char ge.</w>
camcor ders</w>
ali en
Sc out</w>
B r
5 m</w>
25 .00</w>
xb mc</w>
we ed</w>
squir t</w>
sla ve</w>
shiel ding</w>
satisi fied</w>
rip- off</w>
right .
ric her</w>
new .</w>
h ills</w>
g ing
flu tes</w>
ex hau
e- reader</w>
dra wn</w>
de duc
cap turing</w>
C afe</w>
4 9
them .The</w>
techi e</w>
surve ill
sch e</w>
nor m</w>
neck lac
má s</w>
music ian</w>
made .
loo kin</w>
hi o</w>
ha ul
every where
en gage</w>
day .I</w>
cott age</w>
clu mps</w>
cat 5e</w>
ca sting</w>
bur p</w>
ane ous</w>
accen tu
th ed</w>
tableclo ths</w>
par ks</w>
origin al
m u</w>
hor mon
ha ce</w>
for ces</w>
exag ger
ener getic</w>
do cks</w>
contr ap
concentr ation</w>
che mo</w>
a ka</w>
N o</w>
Ma g</w>
Br itish</w>
up scale</w>
to ed</w>
tit les</w>
tab le.</w>
scu ba</w>
scep tical</w>
rev ei
pen n
mirro red</w>
mirac les</w>
me tro</w>
half- size</w>
grab s</w>
feel ings</w>
d sl
cu lin
assi sted</w>
ab it</w>
2 1st</w>
toile tries</w>
system .</w>
slipp age</w>
sanu ks</w>
rel ation</w>
r inging</w>
pa re
noo ks</w>
inju red</w>
hi b
ge t-
ge force</w>
d readed</w>
d 6
cup boards</w>
con flic
cli pping</w>
ch o</w>
70- 200</w>
6 gb</w>
5 60</w>
v w</w>
t s.i</w>
swit ch
surveill ance</w>
sa ssy</w>
re fined</w>
n um</w>
h n</w>
gimm ick</w>
ergono mics</w>
disli ked</w>
defin tely</w>
de pres
com ic</w>
che mi
car ti
car ter</w>
ca de</w>
air planes</w>
additi ves</w>
Q 10</w>
50 s</w>
16 00
. O
v ices</w>
u shi</w>
time .The</w>
spar k</w>
sab er</w>
ru ins</w>
res in</w>
re tro
ov ul
lac ked</w>
ca pe
brea st
b ella</w>
al way</w>
ach y</w>
O hio</w>
Hawai ian</w>
1 ,000</w>
. S
vel cro
up hol
tra ined</w>
ten er</w>
sy nology</w>
satell ites</w>
produc tive</w>
plun ge</w>
pa ws</w>
pa c</w>
ni pple</w>
mass aging</w>
i ss
hybri d</w>
esp .</w>
cere mony</w>
alter ations</w>
all- around</w>
abra sive</w>
Je sus</w>
H inged</w>
20 00
sweat pants</w>
sty le.</w>
star tech</w>
sho cks</w>
row nie</w>
ren ting</w>
pw r</w>
kitch ens</w>
issu es.</w>
en tered</w>
ci ón</w>
ca sed</w>
bi -
al ice</w>
achi eved</w>
B rownie</w>
vaccu um</w>
tiff any</w>
radi o
ra ises</w>
presen table</w>
multit ude</w>
le s.
inve sting</w>
i ors</w>
handy cam</w>
excit ement</w>
du ffel</w>
any one
ac company
7 3</w>
vi xia</w>
un zip</w>
tau ght</w>
tab ly</w>
skelet on</w>
poten cy</w>
lit le</w>
j l</w>
gin ally</w>
ge oc
gar net</w>
fra ming</w>
err a</w>
devic e.
de formed</w>
crosso ver</w>
ce il
brand -
arc tic</w>
u .
tur tles</w>
reapp ly</w>
non- skid</w>
li ed</w>
j r</w>
flatten ed</w>
den ture</w>
cre ek</w>
con firm
a e
W at</w>
S addle</w>
S O
2 8-
2 500</w>
whil st</w>
use .The</w>
unra veled</w>
un responsive</w>
tal ks</w>
sus pic
soft gels</w>
r ho
pro pped</w>
pat ties</w>
or -
nee d.</w>
me tra</w>
m h</w>
loosen s</w>
lo ft</w>
gl ori
expo sing</w>
en counter</w>
di f
craw ling</w>
ca presso</w>
bon ito</w>
Pre sence</w>
3 30</w>
vi or</w>
u tter
ro t</w>
ra ving</w>
pro d
prin table</w>
p o</w>
of- the-
m d
loc ating</w>
kno cks</w>
iz ation</w>
in fo
hy po
digiti zer</w>
commerci als</w>
collea gues</w>
cho s</w>
bru ises</w>
bo s</w>
bar ber</w>
wo ks</w>
up loaded</w>
tu gging</w>
re heat</w>
pla que</w>
orthop edic</w>
ir on
g n</w>
fil ed</w>
either .</w>
effor ts</w>
demand ing</w>
d 300</w>
culin ary</w>
con gr
clea ver</w>
che ery</w>
b nc</w>
armp its</w>
anc e.
AL I
64- bit</w>
wear y</w>
we re
to p.
stream lined</w>
sh ment</w>
regu late</w>
rac es</w>
q -
pu ff</w>
mil eage</w>
mat ch
lum bar</w>
ke g</w>
in sure</w>
ho or
head line</w>
en cry
defin itively</w>
de gener
ber t</w>
A d
5 8mm</w>
. pros</w>
victori a</w>
vi b
ve .i</w>
u d
tr icks</w>
tic kets</w>
su me</w>
smoo thing</w>
mini ature</w>
flick er</w>
desk tops</w>
carpe ted</w>
accompany ing</w>
5 8
. And</w>
zo jir
work shop</w>
utter ly</w>
un usually</w>
sun shine</w>
spe ech</w>
rou ting</w>
rin ses</w>
right -
reson able</w>
re ten
le ys</w>
kni fe
hu m
hi sper</w>
expecte d
dress ings</w>
dra stically</w>
deliver y.
ch et</w>
cele stron</w>
car d.
bl on
ari at</w>
W hisper</w>
UT H
ventil ated</w>
tuc ks</w>
sor ting</w>
shif ting</w>
r ack
pi g
ol y
nex t
less .</w>
k oo
in som
im paired</w>
humi dor</w>
hi ss</w>
flick ering</w>
expl ore</w>
doc ked</w>
do e</w>
dish washing</w>
co res</w>
buen as</w>
ath lon</w>
acc oun
N iM
E E</w>
t4 i</w>
ri e
pea cock</w>
ow ner
os is</w>
newspa per</w>
mon eys</w>
mo ps</w>
hr ling</w>
cor rupted</w>
before hand</w>
advant ages</w>
aci fic</w>
Dansk os</w>
3 2-
1080 i</w>
1 90</w>
tru st
r fid</w>
oun ty</w>
mil dly</w>
lo t.
inser tion</w>
gr ates</w>
expensi ve.
dvd- r</w>
chea py</w>
ch ick</w>
b bles</w>
P acific</w>
NiM H</w>
M ag
Ch uck</w>
ur in
so s</w>
se ven
s not</w>
replace ment.
rapi do</w>
promo te</w>
pi o</w>
jour ney</w>
gra vity</w>
exce l</w>
evi dently</w>
emp ha
compli ant</w>
cl ick
ch ir
bi kes</w>
as is</w>
armo ire</w>
appear ing</w>
am p
War ner</w>
L O
3 9
3 .00</w>
, 5</w>
vi su
u al</w>
through put</w>
sy l
sc aling</w>
mo pping</w>
me ster</w>
expo sures</w>
distingu ish</w>
dissa pointing</w>
dd- wrt</w>
clean .
chea per
che s.</w>
battle field</w>
arran ged</w>
adm itt
B ounty</w>
vo stro</w>
up loading</w>
under arms</w>
twi sts</w>
ta pping</w>
spr inkle</w>
spil lage</w>
pro s
p ink
over- priced</w>
om elet</w>
miser able</w>
ma ils</w>
m x
ha ve.
fi ddling</w>
ell er</w>
eas es</w>
d een</w>
compe ting</w>
comf y.</w>
ar sen
ano dized</w>
M erry</w>
G 5</w>
zojir ushi</w>
trous er</w>
tri ggers</w>
the e</w>
suppor t.
shar pest</w>
roo k
re le
prett y.</w>
po t
plu gin</w>
p as</w>
over flow</w>
off ensive</w>
mol dy</w>
man ages</w>
giraf fe</w>
fro m
e jec
di pping</w>
des de</w>
con tem
bal i</w>
T ABLE</w>
B rook
AP TABLE</w>
AD APTABLE</w>
14 k</w>
wall ed</w>
the st</w>
ster one</w>
se di
resul ts.
recommende d.
re do</w>
ran e</w>
progra ming</w>
par ade</w>
nor pro</w>
ne sses</w>
mac book
lim itation</w>
hour s.
ha bits</w>
gy m
g ator</w>
fe ver</w>
er .the</w>
door step</w>
d j
ca me
bund t</w>
bl and</w>
back ward</w>
12- 18</w>
understand able</w>
u ppers</w>
stu hrling</w>
slee py</w>
sick ness</w>
scen es</w>
satis fies</w>
quil ting</w>
phan tom</w>
mem o</w>
it --
good bye</w>
fre ight</w>
el f</w>
b r</w>
admitt edly</w>
H AN
En el
8 8
z able</w>
v ities</w>
uni form
transpor tation</w>
to ff</w>
ti med</w>
spl ints</w>
product s.</w>
power full</w>
nur ses</w>
n p-
mar ca</w>
gol d
faith fully</w>
eye glass</w>
every thing
e .I</w>
du m
dri ven</w>
conver ters</w>
color .
barri er</w>
a o</w>
12- 14</w>
us s</w>
syn ced</w>
sa iling</w>
lic en
fli p
dis color</w>
direc tion
d yed</w>
crun ch</w>
cru sts</w>
cr ate</w>
consist ant</w>
cologn e</w>
bro wn
bea m</w>
w ks</w>
te ka</w>
sun glass</w>
squea ky</w>
r s.</w>
ph il
pet ro
mar oon</w>
look ing.
light ness</w>
im pe
ex plic
efor city</w>
du ds</w>
di al
den ed</w>
da vi
but cher</w>
brand .</w>
adver se</w>
M y
Gen ie</w>
El mo</w>
5 r</w>
yy yy</w>
tri pping</w>
tac tile</w>
raviol i</w>
r ick</w>
plastic .</w>
pair .</w>
night .</w>
ni ac
low ering</w>
int ent</w>
fi ddle</w>
emp tying</w>
disc ard</w>
C ons</w>
4 k</w>
web site
ta mp
sweeten er</w>
rest room</w>
re pairing</w>
re gal
orde red.</w>
mix ers</w>
lamin ated</w>
j .
gen ts</w>
for .I</w>
el ph</w>
do ve</w>
custo mer
confirm ation</w>
c il</w>
bea ker</w>
ar ing</w>
F ran
til ting</w>
tar dis</w>
spen dy</w>
op teka</w>
o iled</w>
m t
m dr-
k- cup</w>
jam mies</w>
inver ter</w>
in complete</w>
hea der</w>
dis able</w>
da ms</w>
clin ical</w>
bu ggy</w>
athle tes</w>
a ware
1 75</w>
win -
volu tion</w>
trad ition</w>
scoo ter</w>
roo mier</w>
pu zzle</w>
no ble</w>
gr it</w>
gel atin</w>
fle w</w>
eye- catching</w>
e u</w>
cu bic
br ita</w>
bla zing</w>
artic les</w>
C O
70 k</w>
2 d</w>
ti f</w>
though .
ten don</w>
stress ful</w>
star ing</w>
snow boarding</w>
selec tor</w>
se g
sa mine</w>
s ley</w>
retain er</w>
ra ising</w>
mid night</w>
len se
lab el
inflat able</w>
h x
gener ate</w>
f le</w>
di sk
cool ers</w>
coo per
connec tion
compla in
color s.
co st-
air play</w>
absorb ant</w>
5 30</w>
z s
we d
utili zed</w>
un it.</w>
s an</w>
recharg ea
ox ford</w>
nec e
min d
menopa use</w>
ji ggle</w>
jew erly</w>
hi d</w>
h ir
groo m
frea kin</w>
disa gree</w>
diff rent</w>
car pen
bo ke
be d.
an te</w>
C rane</w>
13. 3</w>
vib ram</w>
tama ño</w>
sen ten
percen tage</w>
patri ot</w>
mosqu ito</w>
le .i</w>
k an
ju dging</w>
heaven ly</w>
ge t.</w>
d c</w>
cru m
cal fs</w>
bu mpy</w>
avi ator</w>
a my</w>
P u
Bio tin</w>
15 5</w>
y --
tv .
strang ely</w>
sta mina</w>
scra mbled</w>
sco red</w>
s. so</w>
represent ative</w>
picture .
old- fashioned</w>
mus lin</w>
me tric</w>
ma ster
intern ally</w>
ingen ious</w>
hor rid</w>
hi de
envelop es</w>
ee e</w>
don `t</w>
bacter ial</w>
at v</w>
802. 11
64 bit</w>
suit cases</w>
star ters</w>
seper ately</w>
replac ment</w>
re ne
pl ing</w>
na c</w>
issu e.
emb el
el ite</w>
doub tful</w>
col our
ci der</w>
car ing</w>
buil dings</w>
blue- ray</w>
S cho
2 80</w>
un real</w>
un flattering</w>
sur ge
re el</w>
r it
pod casts</w>
od ds</w>
min al</w>
lo gos</w>
land fill</w>
host ess</w>
hei ghts</w>
handic apped</w>
furn ace</w>
fast .
e stro
co ils</w>
back drops</w>
ache l</w>
5- 7</w>
1 80
y ucky</w>
x box
vo lun
ten ded</w>
swi ft</w>
soo thes</w>
s lows</w>
ri b</w>
nor d
marri age</w>
ko ss</w>
hoor ay</w>
hook -up</w>
he a</w>
ha il
gra vel</w>
gar bag
cu ddle</w>
yr s.</w>
wolver ine</w>
week s.</w>
week en
wax ed</w>
war ping</w>
w ounds</w>
tr aba
san ity</w>
sacri fice</w>
reme mbering</w>
re act</w>
quar ters</w>
polar izer</w>
percol ator</w>
patch ou
p vc</w>
out age</w>
jo y
hard core</w>
flim sier</w>
fac tor
e vil</w>
di ferent</w>
cu bic</w>
bed ded</w>
a stro
1 i</w>
x ti</w>
water y</w>
ven ted</w>
tem pur
sa di
reten tion</w>
qualit y-
po ttery</w>
obtain ed</w>
m ere</w>
groom smen</w>
fla ky</w>
far .
enhan cement</w>
ci vic</w>
chan nel
can di
app ar
R achel</w>
PD F</w>
My stery</w>
5 12</w>
4 4
110 V</w>
wel ded</w>
w u
ther m
th r</w>
ste w</w>
spl urge</w>
spac e.</w>
sl an
re sted</w>
predic ted</w>
one s.
off ices</w>
max ed</w>
mar vel</w>
isol ate</w>
ind a</w>
hoo dy</w>
gol fing</w>
exce ssively</w>
di arr
detec tors</w>
bad ger</w>
att itude</w>
any thing
18- 55</w>
wrink ly</w>
tan a</w>
splin ters</w>
spec t</w>
sh ei
ri vets</w>
pu mas</w>
mal functioning</w>
m n
loosen ing</w>
it. but</w>
illumin ated</w>
fre es</w>
fr ac
fo to</w>
en -
d ingy</w>
d 40</w>
con tribu
co g
bau ght</w>
X large</w>
Twi light</w>
u v-
tr un
thri ft</w>
stron g
small .I</w>
ou s.</w>
minute s.
light weight
lau ren</w>
fro sted</w>
fi esta
en dure</w>
ec ons</w>
destro ying</w>
cu ando</w>
cra ving</w>
ca mel</w>
bea ding</w>
bal ancing</w>
9. 95</w>
wall -
v ul
un seen</w>
twea k</w>
som thing</w>
sho ck
picture s.</w>
ol ta</w>
non- existent</w>
nicel y.
mid land</w>
m x</w>
kom pu
i ble</w>
hic cups</w>
gr un
every thing.</w>
customiz able</w>
com fo
ch im
busin ess
be y</w>
band width</w>
US D</w>
R um</w>
I MP
6 7
3 xl</w>
100 s</w>
us ar</w>
this .I</w>
t inted</w>
stra pped</w>
spar ks</w>
reque sts</w>
quar ts</w>
mo v
life .</w>
li an</w>
in- laws</w>
impres se
hosp it
glasse s.</w>
educ ational</w>
down ward</w>
ag us</w>
adven tures</w>
adjust ability</w>
Scho ll</w>
B- 12</w>
A dams</w>
z u
x 5</w>
watch .
tre x</w>
ren dered</w>
per k</w>
p uni
oc z</w>
nee d.
lan sing</w>
in adver
im ple
i od
glo be</w>
for table</w>
cri b</w>
convi ent</w>
c .
8 3</w>
vel ve
swit cher</w>
spr int</w>
spo tty</w>
servic e.</w>
recogni zing</w>
pu rely</w>
pro motion</w>
p H</w>
over come</w>
or a
night time</w>
mechan ic</w>
life -
kid dos</w>
k ono
it ley</w>
compli mentary</w>
co b
capacit or</w>
ca red</w>
blee ds</w>
ast oun
De fin
ussi an</w>
trend net</w>
ti en
sha tter</w>
par tly</w>
offic er</w>
investi g
insi sted</w>
ha n</w>
frien d.
cri ed</w>
contrap tion</w>
cheeseca ke</w>
ch i</w>
bu ckets</w>
bouti que</w>
bee fy</w>
ast oni
ac ti
........ ......</w>
wa it
w arri
time .It</w>
thin nest</w>
tem plate</w>
t ear
stop watch</w>
satis fec
roa sted</w>
pu tty</w>
le- free</w>
hor a</w>
evi dence</w>
envi o</w>
dri ve.
d b
crack ling</w>
conc eal</w>
col la
chee ks</w>
cape zio</w>
ati vity</w>
8. 0</w>
14 .
y ish</w>
whil e.</w>
un fold</w>
trans form
tr on</w>
por que</w>
pen nies</w>
pe sky</w>
no ses</w>
mi dr
mat t</w>
inter fe
hou se.
ham burgers</w>
eye sight</w>
disin fec
di mmer</w>
com mon
beli ve</w>
bak ery</w>
bag gie</w>
any more
amaz ing.
2 .00</w>
ver siti
stra iners</w>
spec ted</w>
soften ed</w>
sedi ment</w>
ro e</w>
out ages</w>
other s.</w>
liv ing
leg acy</w>
it ly</w>
ho bb
ha haha</w>
flow y</w>
esc ort</w>
di d.</w>
confor ms</w>
compar t
be ers</w>
R ussian</w>
I C
9 25</w>
5 3</w>
z ir
we ver</w>
un evenly</w>
sub- woofer</w>
stea mp
sho ve</w>
s lap</w>
ru pt</w>
ri der</w>
qui e
proble ma</w>
person alize</w>
kett les</w>
k s.</w>
j aw
fortun ate</w>
fac il</w>
f x
dep le
cr t</w>
bet a</w>
alien ware</w>
N ot</w>
A ST
1 .00</w>
- and-
un pack</w>
rhine stone</w>
raz er</w>
pra yer</w>
niac in</w>
la va</w>
kaya k</w>
jur y</w>
iod ine</w>
inter val</w>
hail and</w>
g ely</w>
e ffic
dri ve.</w>
def ense</w>
d link</w>
cough ing</w>
con sin</w>
com bs</w>
cara mel</w>
brilli antly</w>
bel eive</w>
alo gue</w>
al mo
T hailand</w>
L I
y ons</w>
xi e</w>
well -</w>
stu dies</w>
sm il
que sadi
pre sets</w>
practic ing</w>
po ached</w>
pand a</w>
oo p</w>
nord stro
muc has</w>
ment s.</w>
man ner
ja w</w>
it. Very</w>
face plate</w>
da c</w>
d B</w>
clin ic</w>
atri x</w>
Wis consin</w>
Se pt</w>
5 4
zi pping</w>
up wards</w>
sweeten ed</w>
simp son</w>
se ren
power book</w>
pisto l</w>
pil led</w>
ni er</w>
moistur iz
le en
h f
fresh ener</w>
fabul ously</w>
en d
ea ter</w>
deploy ment</w>
cover .</w>
carti lage</w>
V A</w>
No v</w>
MI L</w>
14 5</w>
120 hz</w>
. well</w>
well- packaged</w>
wal kie</w>
w tf</w>
tre k
tox ins</w>
survi vor</w>
suppor t.</w>
struc tured</w>
snu gger</w>
slim line</w>
periph eral</w>
one .It</w>
mo ve
miss ha
lat tes</w>
j ab
instruc tor</w>
homeopa thic</w>
home .</w>
fix ture</w>
fi ve-
favor ite
f uses</w>
exp edited</w>
employe e</w>
du mped</w>
distribu te</w>
bla de
-- just</w>
we rent</w>
vit al</w>
tutori al</w>
sy rin
swee ping</w>
sturdi est</w>
shar pie</w>
sacri fic
rot ated</w>
reque sting</w>
rep ellent</w>
re fer
quality. the</w>
pu sh
price -</w>
no stri
moistur ized</w>
ha ck
fo tos</w>
flat screen</w>
expla ins</w>
ed E
edE x</w>
depres sion</w>
charger .</w>
b ari
arsen al</w>
ar tis
a u</w>
X tra</w>
F edEx</w>
ten ess</w>
table t.
surpri se
super bly</w>
shre ds</w>
shor t.</w>
quil ts</w>
ill ness</w>
g st</w>
fore arm</w>
fle sh</w>
expectation s.
eco- drive</w>
e uc
dimini shed</w>
dele ted</w>
de mands</w>
carpe ting</w>
c ities</w>
additi ons</w>
acqu ire</w>
Un limited</w>
Min olta</w>
K leen
to wel
sharpen s</w>
rub bi
pre dec
make -up</w>
less en</w>
jo se
in- law</w>
even though</w>
er ies</w>
desper ately</w>
boke h</w>
at tered</w>
T EN
TEN S</w>
7 8
6x 9</w>
. otherwise</w>
wor ding</w>
water .</w>
thought ful</w>
stuff s</w>
son .</w>
ree k</w>
po vers</w>
pe de
mi sha
manu als</w>
happ iness</w>
fo ggy</w>
fo e</w>
có mo
chocol ates</w>
c p
ble ssed</w>
bi ker</w>
bar nes</w>
ba stan
avi ators</w>
arrange ment</w>
ar chos</w>
ado red</w>
Z ED</w>
War ing</w>
6 3</w>
- style</w>
yel lo
x 4</w>
ver si
ve re
ss a</w>
sket chy</w>
pic nics</w>
photograph ing</w>
pass enger</w>
out door
on- the-
mu ito</w>
he u
gir th</w>
esto s</w>
connec tor
clo cks</w>
c il
boar d
batteri es.</w>
ac orn</w>
a ide</w>
C ra
un do</w>
th t</w>
ta ps</w>
t shirts</w>
t b
sto ked</w>
se warming</w>
pro fit</w>
pocket book</w>
plea ther</w>
performan ce.
nee ds.
navig ating</w>
le verage</w>
gener ator</w>
flash lights</w>
complic ations</w>
bl er</w>
apar t.</w>
absor ben
ab or
Hou sewarming</w>
Hi ghly</w>
6 9
1. 5
- s</w>
- fitting</w>
zz les</w>
vacuu med</w>
v tech</w>
turtlen eck</w>
tu mble</w>
the ast</w>
table top</w>
sp ool</w>
smi dge</w>
smar tw
sky rim</w>
ri bbed</w>
pay ment</w>
pan ini</w>
oran ge
liter ature</w>
k y
job .
j ac
insom nia</w>
im pac
i x</w>
hor r
hand bags</w>
g les</w>
flo pping</w>
faith ful</w>
exp ire</w>
er man</w>
ed ging</w>
ed .it</w>
e ving</w>
distribu ted</w>
defec ted</w>
d andy</w>
complaint s.</w>
cap tured</w>
adap ted</w>
B ic</w>
A fr
versiti le</w>
val et</w>
speaker s.</w>
soa ks</w>
si ght
shipp ing
s. not</w>
s. a</w>
rout es</w>
month .</w>
man do
m eli
jun gle</w>
hour s.</w>
handle bar</w>
green ish</w>
gran de</w>
floss er</w>
eas el</w>
de o
cur led</w>
certific ate</w>
be for</w>
bal ms</w>
M um</w>
M ach</w>
G reek</w>
7- inch</w>
- not</w>
z el
u hf</w>
toler ance</w>
sto ped</w>
son ido</w>
sha mp
reti rement</w>
retain ing</w>
rese mble</w>
promin ent</w>
par ty
not ches</w>
n un
midr ange</w>
meat loaf</w>
me .The</w>
kono v</w>
im pulse</w>
f ts</w>
dr ys</w>
der by</w>
ce pti
car ab
bur n
bi al
back pack
aw g</w>
ar ies</w>
S UV</w>
L a
L -
4. 0</w>
ys is</w>
wonderful .</w>
sl its</w>
sing le-
silver ado</w>
scra ped</w>
ro bee
rest less</w>
religi ously</w>
proper ly.
poth ol
ph on
insec ts</w>
impec cable</w>
hoo ded</w>
gluco samine</w>
fa ve</w>
exi sts</w>
equip o</w>
en do
desig ners</w>
danc er</w>
d it</w>
cr ying</w>
counter fe
con tractor</w>
clip- on</w>
bor der
boo b</w>
UTH ORI
UTHORI ZED</w>
O ptic</w>
MP H</w>
ER G
Defin itley</w>
A UTHORIZED</w>
wron g.</w>
wat ered</w>
visi oned</w>
transc end</w>
tr ace</w>
tast eless</w>
t land</w>
speed lite</w>
specific ation</w>
so on
si pping</w>
rel ls</w>
real mente</w>
mush rooms</w>
i book</w>
ho e</w>
go b
gen der</w>
e reader</w>
di fic
conven tion</w>
confor t</w>
bu mping</w>
bo b</w>
aggrav ation</w>
Rose will</w>
Al so</w>
200 .00</w>
thera pe
ru de</w>
positi vely</w>
perfu mes</w>
oo oo</w>
oni st</w>
nut meg</w>
i dad</w>
fiesta ware</w>
d it
d 600</w>
cra yons</w>
coordin ates</w>
chew y</w>
ca usal</w>
bur r</w>
bu ll</w>
blur red</w>
before .</w>
be .
artis an</w>
anticip ating</w>
anti oxi
P ar
Kleen ex</w>
7 6</w>
wi erd</w>
ver sit
tri mmers</w>
transm itting</w>
thin ness</w>
t m</w>
su pre
ster .</w>
spac ers</w>
sho ppers</w>
sal ts</w>
s b-
r r</w>
pu ddle</w>
poun ding</w>
poin t-
ori gi
mid west</w>
m uck</w>
list ens</w>
lac ed</w>
l ty</w>
kompu ter
it.Than k</w>
interfe res</w>
in spir
ic e-
i` m</w>
i k</w>
hal ves</w>
finger nails</w>
diarr hea</w>
cre pe</w>
brief ly</w>
boo sted</w>
at us</w>
M ama</w>
v hf</w>
tea kettle</w>
syrin ge</w>
shamp oo
s. you</w>
restric ted</w>
refriger ated</w>
quality -</w>
predec ess
pre- workout</w>
po s</w>
off .I</w>
no ting</w>
mbo ssed</w>
kitchen .</w>
gro mme
gif t
fo ams</w>
d tv</w>
br icks</w>
ari ved</w>
ani me</w>
ac compan
G I</w>
E mbossed</w>
A xe</w>
5 80</w>
ze ster</w>
vo s</w>
un safe</w>
transm its</w>
t m
sur passes</w>
soft ware
progre ssive</w>
product -</w>
ox o</w>
out fit
jewel ers</w>
is y</w>
bu sh</w>
aware ness</w>
all-in- all</w>
a spar
a b</w>
S ol</w>
K rill</w>
8 x</w>
6- 9</w>
worke d.</w>
weak ness</w>
vo id</w>
therm als</w>
si ll</w>
roman tic</w>
remedi ed</w>
reflec tions</w>
portra yed</w>
p ag
ori ented</w>
machin e.
inter views</w>
for ty</w>
fir st-
expo se</w>
exc ur
ergonomic ally</w>
desig ning</w>
con sequently</w>
circu late</w>
an al
ac ur
J ones</w>
D i</w>
6 d</w>
-- a</w>
x 3</w>
wash cloths</w>
us sell</w>
toa sters</w>
to ena
simple human</w>
shre dding</w>
shi mmer</w>
respon ses</w>
rec t</w>
pre nat
p k
off- brand</w>
maxi mize</w>
mal functioned</w>
inst alle
identi fied</w>
hip ster</w>
han go
four -
de grade</w>
combin es</w>
cher ries</w>
ca su
au tu
any more.</w>
W ort</w>
M rs.</w>
C C</w>
Be tty</w>
' s
whi pping</w>
waterproo fing</w>
vap or</w>
t ines</w>
steamp unk</w>
s ly</w>
pea ce
oc cup
ob serv
o mi</w>
le ica</w>
go ld</w>
fil ing</w>
ear l</w>
di sm
di li
d 700</w>
custo mized</w>
cu teness</w>
broken .</w>
att ache
ad ul
REE P
REEP Y</w>
C REEPY</w>
t- up</w>
stea ms</w>
stat ic
robee z</w>
re charger</w>
practic es</w>
n p
mou ses</w>
mis lead</w>
mer rells</w>
l ite
irrit ates</w>
hard- to-
fine pix</w>
f 150</w>
et ched</w>
el se.</w>
d one.
d 5000</w>
constric ting</w>
conspic uous</w>
communic ations</w>
clo gging</w>
ag o.
ad dressed</w>
7 9
................ ................
tri angle</w>
td k</w>
str and</w>
spo on
sp ed</w>
soooooo o</w>
sequ ence</w>
scra p
rot ary</w>
packag e.</w>
offic ially</w>
mi dd
lo th</w>
komputer bay</w>
jour n
hi ssing</w>
gromme ts</w>
ea ger</w>
dro wn</w>
don ut</w>
do -
dispen ses</w>
d. they</w>
conce aled</w>
cassero les</w>
car d.</w>
c loves</w>
be st.
bat t</w>
appeti zers</w>
M ulti
wa coal</w>
sw ir
str ation</w>
stin al</w>
ric h
rese mbles</w>
read just</w>
re nov
pci e</w>
ony x</w>
mani pul
man ne
lec tures</w>
kin ks</w>
inter vals</w>
in sig
in oper
hor se
fro gs</w>
fit flop</w>
er .it</w>
ei ved</w>
dol by</w>
dise ño</w>
disc o</w>
day bed</w>
cou sins</w>
b ounces</w>
b low
aw fully</w>
an t.</w>
am ped</w>
D O</w>
1 70
vo y
ver .
us b-
ther mal
pres ario</w>
m its</w>
fou l</w>
desig ne
de sing</w>
bastan te</w>
awe so
autu mn</w>
an na</w>
acou stic</w>
4 ghz</w>
. I
warran ty
ty ped</w>
tw een</w>
tun a</w>
sty le.
scra ps</w>
s. thanks</w>
resi dent</w>
ren cy</w>
r á
progra m
mini um</w>
lo p
inter fer
gri ppers</w>
grab ber</w>
goo se</w>
gl ittery</w>
e va</w>
d ing
con ve
camera .i</w>
buen os</w>
blo g</w>
all y.</w>
all y
al pha
al ong
Val ley</w>
Multi -
AL LY</w>
512 mb</w>
yello wish</w>
wide ly</w>
vers a</w>
un packing</w>
ten ding</w>
t oner</w>
suppre ss</w>
spar ingly</w>
screa ms</w>
s. and</w>
re am</w>
noi se-
ne yland</w>
like .</w>
lac tose</w>
knock -
gr 8</w>
fla sks</w>
fin ity</w>
f u</w>
epil ator</w>
du g</w>
din ning</w>
dead line</w>
davi dson</w>
cook books</w>
bo ats</w>
blon de</w>
bi qu
batter y
bal ances</w>
ad ren
UT I</w>
Kore an</w>
In diana</w>
Dis neyland</w>
. So</w>
zir con
uti c</w>
under arm</w>
tra iners</w>
tn am</w>
thin .</w>
subjec ts</w>
spl itters</w>
sho veling</w>
ry ka</w>
r ag
quali fy</w>
pu mped</w>
pen is</w>
p our
p kg</w>
ob trusive</w>
n z
mis represented</w>
min ded</w>
me ter
ma ple</w>
ma gen
in form</w>
i- phone</w>
he eled</w>
go ja</w>
fresh en</w>
fe dora</w>
expectation s.</w>
excel entes</w>
dri ft</w>
cre vices</w>
cla ws</w>
cho ppy</w>
car .</w>
borro wing</w>
ad mini
B ar
5 80
19 20x
wh ir
top- notch</w>
te d.i</w>
symbo ls</w>
scrip tions</w>
replace ment.</w>
proper ly.</w>
man go</w>
leg end</w>
k land</w>
inte stinal</w>
impro ve
hu mm
es -</w>
en lar
deter gents</w>
comple mented</w>
characteri stics</w>
bial etti</w>
at tribu
R D</w>
P ho
Ja mes</w>
wh ine</w>
trust worthy</w>
streng then</w>
se en
qu in</w>
patchou li</w>
p ted</w>
oka y.</w>
myself .</w>
mention ing</w>
man ce</w>
k- you</w>
ing. this</w>
in sufficient</w>
i k
fu mes</w>
f in</w>
cra mp</w>
costu me.</w>
commu ter</w>
brist le</w>
bl ic
awesome ly</w>
audio books</w>
and i</w>
ad dresses</w>
ab out
W W</w>
MS M</w>
F red</w>
9 8
5- inch</w>
web er</w>
vp n</w>
vi era</w>
van ia</w>
ter n</w>
sho wn
sha p
sand paper</w>
rechargea bles</w>
on- off</w>
lo vel
int ments</w>
i shed</w>
eas ly</w>
dis charged</w>
de sks</w>
clothe sl
clear .</w>
bu dge</w>
avoca do</w>
M EC
MEC HAN
MECHAN IC
MECHANIC ALLY</w>
F I
v 2</w>
sub woofers</w>
sp ike</w>
so led</w>
small -
retain ed</w>
remo del</w>
recie ving</w>
re d-
pass ages</w>
oxi de</w>
mean time</w>
hor ns</w>
hands- free</w>
ge t.
entr ance</w>
die ting</w>
deb ated</w>
con fe
ceil ings</w>
care er</w>
car ni
air ing</w>
Than k-you</w>
FI T.I</w>
x si</w>
wil son</w>
u t
tt tt
su ms</w>
ru gge
rec tangle</w>
promp t
pothol ders</w>
person .</w>
pe l</w>
ordin arily</w>
ma st</w>
in her
il lu
for um</w>
en visioned</w>
chi a</w>
bul ges</w>
brow se</w>
boo ts.
6 60</w>
vie tnam</w>
ti go</w>
t ell
sur ges</w>
satur ated</w>
ren ted</w>
re- use</w>
r s
pro to
preven tion</w>
pedi at
out look</w>
mou fla
maz da</w>
max im
lef t-
k ool</w>
ju ven
gener ates</w>
explan atory</w>
episo de</w>
b c
aro ma
app ing</w>
a stron
a ju
Mon tana</w>
therape utic</w>
text books</w>
stu di
scan ning</w>
rubbi sh</w>
rev eal</w>
ren ders</w>
pron ounced</w>
pre ferences</w>
po etic</w>
packag e.
laun ders</w>
jose ph</w>
ipo d.</w>
hear tily</w>
glu ing</w>
ger ator</w>
euc alyp
dru ms</w>
clar i
ca moufla
ack now
W illi
L il
E S</w>
wat ers</w>
teas po
t z
son os</w>
silen ce</w>
shor ting</w>
separ ator</w>
sauc ers</w>
pas sports</w>
next book</w>
me tics</w>
m use
m 2</w>
j -
it in</w>
h en</w>
g f
fi io</w>
execu ted</w>
embel lish
ed gy</w>
dinosa urs</w>
diag ram</w>
co 2</w>
cho ker</w>
c ache</w>
bo a</w>
blu- rays</w>
am ar
a vi</w>
X -S
X-S mall</w>
wa d</w>
tru th
sum mary</w>
sof t-
sock s.</w>
reha b</w>
ou tw
mi sal
leas h</w>
heav y.</w>
gri pper</w>
expect ati
design ated</w>
depen d
convin ce</w>
O E</w>
L en
Cos metics</w>
zoo ming</w>
te sto
t are</w>
super glue</w>
ss ment</w>
shape .</w>
rubb ers</w>
pun ched</w>
ps i</w>
post al</w>
p inches</w>
one .The</w>
nu m
nea rest</w>
look ing
it an</w>
happ i
gla ze</w>
g als</w>
entertain ed</w>
eal and</w>
cru shes</w>
bo bs</w>
bi e
bag gies</w>
Z ealand</w>
S cott</w>
C har
3 ds</w>
18 00</w>
15 00
.S .
win ning</w>
wi el
water bed</w>
vi an</w>
suc ce
sp oo
sal u
relax ation</w>
recommen dable</w>
re heating</w>
pre forms</w>
mid- range</w>
medic ines</w>
isol ating</w>
help ful
hand sets</w>
gener ated</w>
do able</w>
dis covering</w>
dec ri
dan ner</w>
celebr ation</w>
ca sters</w>
bought .</w>
armp it</w>
a pe
Z est</w>
U .S.
R ussell</w>
Pho enix</w>
G ate</w>
9 m</w>
5 2mm</w>
120 mm</w>
1 d</w>
1 200
year -
win s</w>
whil e.
ur able</w>
up setting</w>
to pped</w>
syl vania</w>
su re.</w>
shoul d.</w>
satisfi ed.
resi li
pil l
pe anu
mer cur
ing s.</w>
hide ous</w>
hei ght
he mp</w>
fla mes</w>
fast ening</w>
engag ed</w>
ear pads</w>
dol ls</w>
diab e
de sp
cepti ble</w>
auto mo
ar on</w>
Mi ami</w>
Di ego</w>
-- very</w>
us ky</w>
s. thank</w>
rie del</w>
pare ce</w>
opto ma</w>
on ly
mul as</w>
len s.</w>
k ink</w>
k d
i si
hydr ated</w>
ho g</w>
gri a</w>
gra pes</w>
fix able</w>
fi ger</w>
easi ly
drain age</w>
de mo</w>
ch -
buck wheat</w>
a sk
THE F
THEF T</w>
Da isy</w>
5. 25</w>
to wn
telesco ping</w>
tax es</w>
su gars</w>
sp icy</w>
sh ea
sen sible</w>
ro bo
ou sl
nice .I</w>
li ve
k lu
ge or
ess ence</w>
eco- friendly</w>
d v</w>
able .i</w>
O mega
Kir kland</w>
3 50
3 10</w>
2 9.99</w>
-- this</w>
you ll</w>
w i</w>
spo tted</w>
sma shing</w>
sea food</w>
rein force</w>
ran ch</w>
radi ation</w>
owner ship</w>
orth od
om on</w>
mon roe</w>
mer maid</w>
lim iting</w>
inter ne
i ency</w>
i 3</w>
ho tt
high light</w>
ha d.
good. It</w>
ed -
e- to-
cu al
cr -
christ ian</w>
car to
b angles</w>
ation .i</w>
Pre mier</w>
L ou
G RA
' n</w>
watch ers</w>
ste al
st ac
smooth ness</w>
shoo ter</w>
scienti fic</w>
sc ru
sandal wood</w>
knuc kles</w>
inform ative</w>
gla morous</w>
equal s</w>
ear th
e w
dun no</w>
du per</w>
dilu ted</w>
cl ings</w>
bil led</w>
batter s</w>
ba it</w>
amin o</w>
adm ire</w>
a z
For mulas</w>
D ads</w>
AD E
6 mm</w>
16 th</w>
wie ght</w>
wi mpy</w>
wear .
w old</w>
snug gie</w>
sl ush</w>
shu toff</w>
sal omon</w>
s 4
rá pi
retur ne
recogni zable</w>
ra q</w>
po lit
pli ed</w>
perspir ation</w>
o D</w>
no vel</w>
nee ds.</w>
ment s.
man or</w>
ma ver
im plies</w>
gau ges</w>
fragran ces</w>
el lip
con soles</w>
class ics</w>
cd- r</w>
a sh</w>
Lil ac</w>
In c</w>
th read
st ings</w>
so t</w>
ru sts</w>
rever e</w>
restric tive</w>
re sources</w>
q a
pucha sed</w>
power line</w>
poo f</w>
pleas ed.
play er.</w>
pe que
misc ell
leg iti
laugh ing</w>
joh ns</w>
jo ined</w>
in formal</w>
hygi en
hy per</w>
her .</w>
gho sting</w>
eucalyp tus</w>
er ce</w>
ei ght
e- mails</w>
dro p
dra b</w>
d geable</w>
congr atul
cc tv</w>
P .S.</w>
7 60</w>
5 g</w>
xbox 360</w>
warran ties</w>
tu ff</w>
tick led</w>
t 1i</w>
smartw ool</w>
sk ating</w>
seas on
re position</w>
pre serv
o lives</w>
n ell</w>
mu shy</w>
mer ic</w>
living room</w>
la w
is ra
ic ons</w>
ho ses</w>
esper aba</w>
ch int
can ni
big -
bi d</w>
Trad ing</w>
Max x</w>
I raq</w>
-- --</w>
' s.
transform ers</w>
swi f
stric t</w>
st ati
speed light</w>
sh a</w>
rea sse
more .I</w>
m atter
kar ao
jo ck</w>
in expen
he he</w>
gra d</w>
gr ace
go als</w>
g 6</w>
es. the</w>
envi ro
emp tied</w>
em bedded</w>
e mul
disli kes</w>
daugh er</w>
d h
cow girl</w>
car at</w>
bubb a</w>
au di</w>
arti stic</w>
. excellent</w>
x on</w>
we tting</w>
stick iness</w>
so dium</w>
s cons</w>
s ---
plu mp</w>
pleas ed.</w>
ow n
oscill ating</w>
occa ssi
lin e
jo yed</w>
is le</w>
in fan
hus h</w>
head .</w>
hand .</w>
gir lie</w>
full- size</w>
for ds</w>
eyec up</w>
dvi -d</w>
deliver y.</w>
d ex
com position</w>
cen ters</w>
better .I</w>
b d-
at mo
assist ant</w>
are .</w>
Y Y
y. this</w>
wi dest</w>
whit en</w>
slo tted</w>
return able</w>
reli ever</w>
red dish</w>
pr int
offer ings</w>
ni gh
k nit
he ir
g il
fea ther
fe at</w>
ear muffs</w>
cubic le</w>
cor ner
clothesl ine</w>
bul ging</w>
ar ise</w>
appro val</w>
any thing.
ad er</w>
a il
MA S</w>
Co Q10</w>
B E</w>
ADE MAS</w>
. If</w>
twee zer</w>
tur al</w>
re ds</w>
over- sized</w>
out grew</w>
om ni
medium -
lar y</w>
lar ing</w>
k b</w>
glo ve
de tract</w>
counterfe it</w>
bu tto
bl inks</w>
Pu ffs</w>
Mo cha</w>
vei l</w>
ten don
str a</w>
sp ur</w>
slow ing</w>
slow ed</w>
sli ver</w>
skep tic</w>
sho t
shee p
s so</w>
pu blic
play er.
pe ices</w>
out stand
out line</w>
ou tta</w>
mosqu it
magen ta</w>
mac ular</w>
lat eral</w>
j an</w>
it. My</w>
instruc tional</w>
in- between</w>
h p
h mmm</w>
fac i
ex t</w>
econo mic</w>
dress .</w>
di mm</w>
coun ty</w>
comfo table</w>
clo th
au strali
al a</w>
acce ssed</w>
Q u
P O</w>
3 tb</w>
' am</w>
to my</w>
to das</w>
steri le</w>
ss on</w>
square trade</w>
so ap
sett ling</w>
pres ently</w>
pe bble</w>
off- white</w>
la gs</w>
jun k.</w>
inspec t</w>
ig i</w>
her oes</w>
fun nels</w>
frien ds.</w>
f en</w>
cont ours</w>
collec tors</w>
cog nac</w>
car toon</w>
car af
c ker</w>
c eased</w>
bl ingy</w>
bear ings</w>
S F</w>
work place</w>
wir l</w>
wh ich
w icker</w>
up to</w>
uni body</w>
un satisfactory</w>
tra il
time frame</w>
st are</w>
son y</w>
sna zzy</w>
sk ate
sen iors</w>
sa sh</w>
pp ie</w>
pe di</w>
pci -e</w>
par rot</w>
p p</w>
mudd ler</w>
mercur y</w>
je well
insig nia</w>
hu h</w>
head piece</w>
fu mbling</w>
explo de</w>
ex it</w>
corn bread</w>
condi ments</w>
carpen ter</w>
auth ori
amon gst</w>
80 -
.T hese</w>
volun te
sw abs</w>
stron g.</w>
shu tdown</w>
ra y-
pla sticky</w>
orna ment</w>
misl ab
mean ing
lin e-
la x
karao ke</w>
joh n
in vit
hal ter</w>
groo ming</w>
fle a</w>
fi li
distribu tes</w>
disinte grated</w>
detec ts</w>
dermat ologist</w>
de ter</w>
d anced</w>
cu al</w>
crisp er</w>
a ur
S wirl</w>
LO BE</w>
Char lie</w>
10 K</w>
- wise</w>
win- win</w>
ven e
v ouch</w>
thi eves</w>
testo sterone</w>
st ache</w>
slan ted</w>
sel ine</w>
rock ports</w>
raz r</w>
play list</w>
pat rick</w>
mo vable</w>
mat ic
le gged</w>
l c
j ay</w>
indic ators</w>
im provi
her o
happ y
cual qui
commu ting</w>
ci ous</w>
blue berry</w>
authentic ity</w>
ap ore</w>
aggrav ating</w>
W at
Len ox</w>
z ards</w>
work -
uu uu
thermal take</w>
ten tly</w>
ta per</w>
setu ps</w>
sa me
roo ster</w>
pun k</w>
pick les</w>
per f
n c
lu mp</w>
l pool</w>
it x</w>
ima gen</w>
hil figer</w>
h u</w>
h ind
ge at</w>
fin s</w>
er on</w>
du mping</w>
di f</w>
de served</w>
de g</w>
d 7100</w>
claim ing</w>
cal lus</w>
bar k</w>
L ane</w>
CL AM</w>
Ad vil</w>
20 s</w>
' t.
wr ite
win kle</w>
vig netting</w>
va stly</w>
tw o
technic a</w>
sweeten ers</w>
spac e-
sag gy</w>
pain fully</w>
out grow</w>
nause ous</w>
mo tif</w>
miscell aneous</w>
minute s.</w>
lin ess</w>
lin a</w>
inter medi
insec t</w>
i ously</w>
hygi ene</w>
hol mes</w>
ha sta</w>
gradu ate</w>
excell ence</w>
e speci
ddr 2</w>
d n
ba ys</w>
a part
7 4</w>
5 6
y way</w>
wea pon</w>
vie st</w>
uphol stery</w>
ul ity</w>
twee ter</w>
tarni shing</w>
t sp</w>
skin omi</w>
sear ches</w>
sc um</w>
ra ined</w>
quick .</w>
purchase .I</w>
moo z</w>
min ts</w>
lei sure</w>
lea der</w>
lab top</w>
is .
in pu
hav n</w>
gu sta</w>
gan g</w>
erc ise</w>
cr iti
cover let</w>
cel si
c el</w>
belie f</w>
bar bie</w>
al .i</w>
a 500</w>
UN D
P ECT
we t
ve sts</w>
v d</w>
tru sty</w>
thing s.</w>
ta cos</w>
su gar
snea ker
shi ping</w>
satisfi ed
san to
s cones</w>
room mates</w>
refun ding</w>
re v</w>
re booted</w>
popsic les</w>
no tification</w>
n ana</w>
lea ky</w>
kid do</w>
inten tionally</w>
infla m
in coming</w>
easy-to- use</w>
do meter</w>
da ve</w>
con tract</w>
com promised</w>
clean ings</w>
cheesec loth</w>
che er</w>
banda ids</w>
ba ths</w>
b our
and it</w>
UND ERG
UNDERG AR
UNDERGAR MEN
UNDERGARMEN TS</w>
5 n</w>
3- pack</w>
16 5</w>
1 300</w>
up ward</w>
ting ling</w>
th i</w>
te st
spac er</w>
satisfi ed.</w>
s r</w>
pre amp</w>
pi er</w>
per fe
ovul ation</w>
mo ck</w>
me d.</w>
kno tted</w>
k 2</w>
ju gs</w>
injec tor</w>
in no
he re.
goo ey</w>
gob lets</w>
fac tors</w>
f .
ey elets</w>
design .
depic ts</w>
con fined</w>
carr yon</w>
car boy</w>
bub bling</w>
bas in</w>
back grounds</w>
and ers</w>
aci ones</w>
ac tion
a sp
Z E</w>
U ZE</w>
Omega -3</w>
O CD</w>
J .</w>
F UZE</w>
5 100</w>
2 ,
z an
vi al</w>
un aware</w>
tic ks</w>
tee thing</w>
suspec ted</w>
sauc er</w>
s sm
re public</w>
pre fered</w>
pin kish</w>
out grown</w>
order .</w>
mo wer</w>
mi z</w>
ll ll
li eu</w>
le gos</w>
inside .</w>
ing apore</w>
ho w
hir lpool</w>
hand- held</w>
fea red</w>
eve y
en a</w>
compre ssor</w>
collec tions</w>
c f
bea ded</w>
alu minium</w>
aliz ation</w>
W hirlpool</w>
S ingapore</w>
M or
Jack son</w>
7 80</w>
3. 99</w>
zi p-
warri or</w>
un c
sub du
simple st</w>
si ding</w>
ru ption</w>
ru ler</w>
re hear
ori zer</w>
on time</w>
lan tern</w>
jaw bone</w>
integr ation</w>
im practical</w>
im po
g p
fir st
ee ee</w>
d 60</w>
bree zy</w>
bel ong
bad ass</w>
ati onally</w>
H usky</w>
Fran cisco</w>
8 .00</w>
34 b</w>
2 a</w>
19 .
x 64</w>
wrink ling</w>
ting le</w>
sp outs</w>
si r
sheep skin</w>
s --</w>
rj 45</w>
re plied</w>
re format</w>
qu its</w>
pon cho</w>
pl s</w>
os ch</w>
orna ments</w>
neu tr
n ly</w>
l ind
impres sions</w>
hea viest</w>
graph y</w>
geoc aching</w>
ga ining</w>
fashi on
en ces</w>
e po
christ ening</w>
bigger .</w>
avail able.
a int</w>
B osch</w>
4. 3</w>
. buy</w>
zz ling</w>
trad ed</w>
tour na
teaspo ons</w>
spi got</w>
sat een</w>
ru ff</w>
ri sers</w>
re sets</w>
re marks</w>
problem .I</w>
pix el
pe fect</w>
over load</w>
oh ms</w>
o ma</w>
nz xt</w>
mul es</w>
me ts</w>
m one</w>
li ss</w>
l ent</w>
knowle dgeable</w>
exel ent</w>
et ching</w>
defec ti
d 200</w>
comfor able</w>
bra in
bar tender</w>
Vi king</w>
Oc t</w>
Mex ican</w>
I TT
B AN
BAN S</w>
30 5</w>
year s.I</w>
un readable</w>
tane ous</w>
suspic ious</w>
squea ks</w>
[...]
