#version: 0.2
t h
a n
e r
i n
th e</w>
r e
an d</w>
o u
e n
i c
i s</w>
w a
o o
e r</w>
a l
in g</w>
e d</w>
s t
a t</w>
o n
l y</w>
t o</w>
i t
a r
o r
h a
a c
o m
v e</w>
t i
wa s</w>
oo d</w>
o r</w>
i t</w>
o n</w>
s t</w>
th e
e s</w>
p l
er e</w>
e l
i n</w>
r i
ic e</w>
v er
b e
f or</w>
e n</w>
b u
a n</w>
o f</w>
g re
l o
m y</w>
a t
th is</w>
gre at</w>
i l
n o
m e</w>
s er
c h
r o
c om
e s
the y</w>
w h
f ood</w>
pl ac
ver y</w>
ser v
l e</w>
m a
ar e</w>
d i
y o
s h
e x
plac e</w>
yo u</w>
t a
w it
g ood</w>
wit h</w>
e c
u r
e a
c a
s o</w>
en t</w>
serv ice</w>
l i
bu t</w>
st a
ha ve</w>
s i
h ere</w>
e t</w>
k e</w>
en d
e v
g h
w e</w>
f ri
s e</w>
s p
' t</w>
t o
s a
ha d</w>
no t</w>
ou t</w>
ou r</w>
a b
f a
on e</w>
al l</w>
s u
l d</w>
' s</w>
l a
th at</w>
u n
al ly</w>
p p
b e</w>
il l</w>
a s</w>
y s</w>
f u
l e
q u
t t
e ly</w>
f f</w>
c e</w>
. .
ti on</w>
fri end
i r</w>
e e
p r
w ere</w>
m o
re a
ac k</w>
c h</w>
t s</w>
m en
d e</w>
f in
t r
om e</w>
p er
i s
ti me</w>
a g
w or
d e
ou ld</w>
g o
f f
d a
b ack</w>
a l</w>
w ill</w>
u st</w>
h o
friend ly</w>
ev er</w>
c o
i r
g o</w>
c u
lo ve</w>
be st</w>
or e</w>
th ere</w>
sta ff</w>
ou s</w>
or d
gh t</w>
wa ys</w>
d o
th ing</w>
er s</w>
p a
g et</w>
al ways</w>
the ir</w>
re s
d el
b a
an t</w>
k s</w>
n e
re com
li ke</w>
n ice</w>
ta st
r a
f ro
j ust</w>
h i
p ro
i f</w>
fu l</w>
a ma
re ally</w>
ama z
th er</w>
ou n
ic k
da y</w>
fro m</w>
b le</w>
ic i
k ing</w>
amaz ing</w>
be en</w>
c an</w>
t h</w>
w ould</w>
p e
on s</w>
s e
g h</w>
j o
k ed</w>
an d
de fin
g e</w>
men d</w>
recom mend</w>
.. .</w>
p i
defin it
pr ic
definit ely</w>
t er</w>
el l</w>
m e
b o
it e</w>
m u
u p</w>
' ve</w>
in g
p o
e ver
pl e</w>
ever y
s al
del ici
t ed</w>
at e</w>
w n</w>
l oo
el l
c on
wh en</w>
h e</w>
delici ous</w>
es s</w>
y our</w>
wh at</w>
an y</w>
g u
ex c
ur e</w>
s ed</w>
to o</w>
ab le</w>
ou gh</w>
n o</w>
d s</w>
a w
i en
ic h</w>
g e
c le
o ther</w>
u t
a in</w>
v i
go t</w>
d r
com e</w>
p re
lo ca
m ore</w>
ha s</w>
on ly</w>
z z
u s</w>
h el
ch ick
b y</w>
al so</w>
it t
g i
chick en</w>
cu st
re sta
resta ur
it y</w>
fa st</w>
ar s</w>
l l</w>
the m</w>
d o</w>
t er
e m
sh o
u se</w>
ex per
bu r
ab out</w>
aw es
cust om
pi zz
w ell</w>
ti ons</w>
m i
awes ome</w>
sh e</w>
exper ien
s o
ag ain</w>
ec i
no w</w>
m in
tr y</w>
p er</w>
d on</w>
. .</w>
s ome</w>
oun d</w>
s el
n ever</w>
e g
a s
ou r
s m
wa y</w>
v er</w>
o p
er ed</w>
v or
ev en</w>
pizz a</w>
v ed</w>
exc ell
tt er</w>
t y</w>
ic k</w>
r u
p ar
y e
f or
ing s</w>
excell ent</w>
r e</w>
cle an</w>
f res
in e</w>
fres h</w>
experien ce</w>
n a
p or
ne w</w>
ch e
restaur ant</w>
hi gh
a d
d n</w>
ord er</w>
t e
n er</w>
di d</w>
a f
th an</w>
itt le</w>
m es</w>
dr in
n i
l ittle</w>
f ir
be tter</w>
om e
w ent</w>
c oo
ma de</w>
un ch</w>
b rea
' m</w>
loca tion</w>
d er
custom er</w>
on g</w>
t ly</w>
an y
su per</w>
s on
pp o
pr ice</w>
i m
hel p
es e</w>
w i
w e
fir st</w>
pe o
f i
pric es</w>
high ly</w>
si de</w>
en ti
peo ple</w>
go ing</w>
th an
s in
ca me</w>
u m
f e
every thing</w>
b i
wh ich</w>
d ed</w>
ppo in
a re
wa it
t re
ha pp
ord ered</w>
mu ch</w>
f la
wor k</w>
e y</w>
ca use</w>
t ri
ti mes</w>
en d</w>
ma ke</w>
l ed</w>
tt y</w>
s ure</w>
af ter</w>
re d</w>
s ome
com ing</w>
is h</w>
m an
wa it</w>
mo sp
at mosp
on al</w>
pre tty</w>
m ent</w>
be cause</w>
o ver</w>
re c
a u
ec tion</w>
atmosp here</w>
s y</w>
i c</w>
l unch</w>
d in
at t
a m</w>
v is
men u</w>
jo b</w>
al ity</w>
g er</w>
r oo
g a
u c
fa vor
e very</w>
en jo
st o
k es</w>
mo st</w>
s h</w>
t w
ex p
ec t</w>
m on
b r
ar d</w>
d y</w>
e at</w>
w ee
C h
ri ght</w>
f re
at ing</w>
d ec
t ur
per f
ba r</w>
e e</w>
ea l</w>
b l
r y</w>
p s</w>
h er</w>
oo k</w>
qu ality</w>
p u
s and
h u
il e</w>
a m
v ing</w>
o w
sp o
happ y</w>
o ver
favor ite</w>
ou t
ba d</w>
sand w
co ff
i d</w>
at ed</w>
es si
l s</w>
s on</w>
di sa
sp eci
wor th</w>
help ful</w>
wh ere</w>
are a</w>
qu ick</w>
coff ee</w>
ta ke</w>
c lo
a d</w>
disa ppoin
w on
pro f
c re
c ould</w>
sel ection</w>
f an
ho w</w>
y ing</w>
min ut
it s</w>
to wn</w>
ch o
' re</w>
prof essi
di dn</w>
t ook</w>
i l</w>
ni ght</w>
e st
ta ble</w>
w s</w>
l ea
w ant</w>
c al
p res
wa r
mi ly</w>
c ou
t ac
ar i
k no
n ee
fa mily</w>
pl ea
k i
h is</w>
l ut
p h
o ff
' ll</w>
sa u
wh o</w>
vi e
drin ks</w>
th ough</w>
a pp
tri ed</w>
lo w</w>
pl a
ye ars</w>
professi onal</w>
ar ound</w>
wa l
u e</w>
do wn</w>
s ou
st ill</w>
rea son
m any</w>
m s</w>
gi ve</w>
ri ble</w>
f e</w>
won der
e st</w>
ho t</w>
sm all</w>
spo t</w>
d ing</w>
f t</w>
d es
k now</w>
d one</w>
sa y</w>
loo king</w>
fin d</w>
brea k
o s</w>
c ar
fan tast
st ea
f ore</w>
tw o</w>
h ome</w>
ne ed</w>
d ri
ee l</w>
sal ad</w>
k in
st ore</w>
tast y</w>
s ee
o ff</w>
fantast ic</w>
minut es</w>
be fore</w>
wonder ful</w>
che ese</w>
e p
la st</w>
h e
t e</w>
s s</w>
co l
break fast</w>
fe w</w>
ch ec
wh ile</w>
ex t</w>
an ce</w>
l ong</w>
b it</w>
every one</w>
v e
bo th</w>
bur ger</w>
ea r</w>
fu n</w>
ab so
c rea
perf ect</w>
lo ved</w>
n ing</w>
than k</w>
y ed</w>
abso lut
lo t</w>
it i
f eel</w>
se e</w>
c ha
g r
c ra
sh i</w>
l u
be er</w>
pro b
n ext</w>
di ff
th r
ag e</w>
c are</w>
in t</w>
ca r</w>
sho p</w>
del i
su shi</w>
f ound</w>
p ri
t al
din ner</w>
fri es</w>
ou ght</w>
vis it</w>
l ess</w>
il s</w>
ar ge</w>
V eg
sau ce</w>
l es</w>
th in
.. ..</w>
fla v
re tur
tast e</w>
Veg as</w>
sandw ich</w>
the n</w>
t ing</w>
oo r</w>
tt ing</w>
p e</w>
al s</w>
o l
pric ed</w>
re vie
si ve</w>
man ag
m eal</w>
no thing</w>
b ro
diff er
friend s</w>
absolut ely</w>
fre e</w>
oo d
1 0</w>
roo m</w>
s ing</w>
bi g</w>
pp ed</w>
st ars</w>
plac es</w>
ic es</w>
b ar
m ely</w>
h our</w>
sin ce</w>
s we
kno w
t u
disappoin ted</w>
ab ly</w>
ch an
reason able</w>
end ed</w>
la r</w>
g ar
si c</w>
. T
thin k</w>
o k</w>
gu ys</w>
e t
swe et</w>
l dn</w>
a tion</w>
e i
bu sin
le d
r ice</w>
speci al</w>
h ou
a v
bu sy</w>
know led
to day</w>
w an
drin k</w>
differ ent</w>
d ic
the se</w>
recom m
g en
ac h</w>
pl o
s ha
s ur
g la
m ar
st and
wi th
l ine</w>
wa s
st u
dec ent</w>
el se</w>
il l
than ks</w>
loo k</w>
re s</w>
ow ner</w>
some thing</w>
ee p</w>
t end
ex tre
fa r</w>
u su
c or
em plo
u p
an other</w>
busin ess</w>
com p
pa ti
ha ir</w>
h or
extre mely</w>
o ld</w>
oo n</w>
d er</w>
e l</w>
w on</w>
be ing</w>
hou se</w>
f r
c our
on d</w>
re n
emplo ye
por tions</w>
com pl
enjo yed</w>
op tions</w>
f ac
ch ea
was n</w>
di s
to p</w>
fri end</w>
e f</w>
w ings</w>
su ch</w>
en ough</w>
s es</w>
kin d</w>
n ed</w>
crea m</w>
sou p</w>
b er</w>
v es</w>
me at</w>
g ra
m ust</w>
c ks</w>
ic y</w>
m ed</w>
u l
our s</w>
v en
con si
sh es</w>
on t</w>
fla vor
knowled g
c oun
be au
chec k</w>
sel f</w>
fri ed</w>
sh i
st y
cu t</w>
w r
m il
be ef</w>
ic an</w>
g s</w>
v en</w>
a way</w>
hu ge</w>
u sed</w>
beau ti
sa me</w>
b er
op en</w>
en sive</w>
h on
any one</w>
coo l</w>
c r
ti ve</w>
as k</w>
f ish</w>
sh ould</w>
sto p</w>
res s</w>
v al
com for
en ts</w>
l arge</w>
ge tting</w>
rea l</w>
dri ve</w>
lo ts</w>
wor st</w>
s low</w>
d uc
t ment</w>
ki ds</w>
do es</w>
enjo y</w>
es p
serv er</w>
w el
ga ve</w>
s k
over all</w>
st ar
mon ey</w>
coo ked</w>
att enti
v ari
at s</w>
esp eci
h and
y um
r an
i g
especi ally</w>
tac os</w>
sa ge</w>
da ys</w>
im pres
ea sy</w>
h ard</w>
an s</w>
en tly</w>
flav or</w>
d oor</w>
z e</w>
h al
na ils</w>
beauti ful</w>
wee k</w>
attenti ve</w>
sa id</w>
in ter
ch i
au th
brea d</w>
p an
retur n</w>
c la
it ed</w>
usu ally</w>
v eg
c lu
c ro
exp ensive</w>
Ch in
thr ough</w>
or t</w>
fu ll</w>
on i
g ers</w>
u m</w>
clo se</w>
a y</w>
employe es</w>
in side</w>
hor rible</w>
te a</w>
ru de</w>
hel p</w>
any thing</w>
th ings</w>
ar ly</w>
ma kes</w>
st er</w>
on ce</w>
o c
d a</w>
w ish</w>
ou s
co ld</w>
h ea
stea k</w>
' d</w>
ic h
s ec
in to</w>
d u
s ea
wan ted</w>
auth enti
g ir
M ex
mu sic</w>
b s</w>
c ur
authenti c</w>
j u
b and</w>
t ch</w>
ea ble</w>
ma s
nee ds</w>
k eep</w>
hi m</w>
m p</w>
pa st
w n
hi gh</w>
re gu
ho w
m m
c er
it em
m is
yum my</w>
p ic
recomm ended</w>
re la
di shes</w>
an ts</w>
nee ded</w>
h ours</w>
chea p</w>
i an</w>
how ever</w>
knowledg eable</w>
b ac
sp icy</w>
li ve</w>
comp any</w>
tast ed</w>
plea s
b el
cal led</w>
t y
i es</w>
item s</w>
x ed</w>
le ft</w>
cle an
exp ec
loca l</w>
qu e</w>
Mex ican</w>
comfor table</w>
T ha
me m
qu ite</w>
ter rible</w>
ar y</w>
ex tr
ver age</w>
manag er</w>
per son
ro l
ac tu
vari e
hu s
wee k
k e
u t</w>
Chin ese</w>
sal on</w>
me di
o le</w>
sh ri
Tha i</w>
pp ing</w>
ep t</w>
sta r</w>
0 0</w>
w ine</w>
lo w
prob ably</w>
ver s</w>
pl us</w>
2 0</w>
rea dy</w>
wor king</w>
t in
as ked</w>
al l
por k</w>
bo w
bur gers</w>
fr ont</w>
e ff
hus band</w>
3 0</w>
stand ing</w>
with out</w>
ch oo
y ear</w>
si m
l et</w>
t ure</w>
shri mp</w>
at er</w>
wh y</w>
bl es</w>
wr ong</w>
a ppoin
ur ing</w>
c all</w>
c i
sur pri
c k</w>
varie ty</w>
w in
prob le
m on</w>
gu y</w>
d d
bar tend
se ver
i gh
c ri
wi fe</w>
d uring</w>
cre di
c k
a verage</w>
g ri
hal f</w>
in credi
sandw ich
d es</w>
. I</w>
al most</w>
th y</w>
o k
ch il
sever al</w>
d eal</w>
impres sed</w>
st ed</w>
wait ing</w>
cou ple</w>
he al
des ser
wait ress</w>
extr a</w>
t en</w>
un der
ti s
f il
al e</w>
t ic
h an
loo ks</w>
e ach</w>
er ing</w>
wh ole</w>
l a</w>
pu t</w>
g ed</w>
p ur
qu est
to ld</w>
do wn
ag o</w>
consi st
deli very</w>
sandwich es</w>
n y</w>
custom ers</w>
en ed</w>
s a</w>
actu ally</w>
e ating</w>
sto pped</w>
ous ly</w>
t or
z ed</w>
it ing</w>
qu ick
ch ar
o w</w>
a p
z y</w>
ca ke</w>
sty le</w>
m an</w>
.T he</w>
at ely</w>
ta bles</w>
app e
wa ter</w>
n ood
o re
th re
wor k
l led</w>
revie ws</w>
d ate</w>
t un
a ff
p ick
1 5</w>
rec ei
ha ving</w>
b or
par king</w>
gen er
er y</w>
c an
gla d</w>
s oon</w>
po l
d eci
restaur ants</w>
cou ldn</w>
is su
M on
em ent</w>
o f
M a
d on
do es
bu ff
dec or</w>
pleas ant</w>
t ar
pro duc
out side</w>
si on</w>
ve ge
tr ying</w>
th er
per son</w>
l in
cho col
rol ls</w>
I tal
serv ed</w>
ma y
ta in
pr om
mas sage</w>
sho w</w>
sh ed</w>
pa red</w>
lea st</w>
pa y</w>
st re
at ur
el t</w>
ac h
m or
J o
cro w
ac com
regu lar</w>
sta y</w>
p ac
cu te</w>
sa tis
na il</w>
tw ice</w>
roo ms</w>
el s</w>
quick ly</w>
tt e</w>
f oo
bu cks</w>
n ers</w>
I n
does n</w>
appoin tment</w>
l ate</w>
gr ou
ph one</w>
revie w</w>
do g</w>
di sh</w>
ne igh
r .</w>
at es</w>
po t
t ea
do ing</w>
br ing</w>
off ice</w>
e d
pati o</w>
st r
an i
h ood</w>
out standing</w>
pla in
ou ldn</w>
flavor s</w>
par t</w>
po int</w>
le y</w>
sec ond</w>
an s
con ven
b ir
g ro
accom mo
qu i
loo ked</w>
eff ici
ar ri
wal k</w>
tr u
dr y</w>
of ten</w>
chocol ate</w>
te l</w>
help ed</w>
wait ed</w>
ri to</w>
o wn</w>
B B
ma king</w>
in st
ac e</w>
thre e</w>
ca kes</w>
bur rito</w>
u gh
po s
g ge
fu l
ti z
war d</w>
ok ay</w>
S un
pric ey</w>
wal ked</w>
th ought</w>
al i
bu y</w>
re pa
Ital ian</w>
stu ff</w>
tr a
appe tiz
se ating</w>
en ing</w>
men ts</w>
g y
BB Q</w>
ser ve</w>
chan ge</w>
re sp
n e</w>
li ght</w>
ho tel</w>
D r.</w>
fa ir</w>
pro vi
chi ps</w>
por tion</w>
stre et</w>
ir s</w>
k en</w>
is n</w>
proble m</w>
l ev
v ir
b an
p m</w>
t ell</w>
quest i
it u
war m</w>
si ze</w>
v ely</w>
hand s</w>
A n
f l
th o
ill ing</w>
ta l</w>
m er
f elt</w>
may be</w>
p ick</w>
b oo
s mo
bow l</w>
lea ve</w>
Y el
st ri
com es</w>
rec i
see ms</w>
x ing</w>
bu l
y et</w>
p oo
w ouldn</w>
in gre
s et</w>
w ow</w>
m at
ingre di
aff ord
Yel p</w>
sm oo
un i
u ts</w>
li st</w>
ro ll</w>
L as</w>
ph o</w>
st e
en i
mor ning</w>
effici ent</w>
en vir
perf ec
am bi
afford able</w>
n s</w>
st ra
uc k</w>
f an</w>
ab o
na me</w>
envir on
k y</w>
th s</w>
s l
veg gi
in clu
t ally</w>
ha ven</w>
pe dic
li c</w>
pur cha
m ing</w>
exp ect</w>
en ty</w>
g y</w>
st s</w>
a st</w>
f un
b ly</w>
av o
some one</w>
ver ed</w>
be y
n t</w>
b ag
neigh bor
di r
ti l</w>
e at
ambi ance</w>
S atur
off er</w>
fi ed</w>
environ ment</w>
ingredi ents</w>
a tions</w>
d ating</w>
speci als</w>
li ked</w>
li gh
o b
wel coming</w>
ge ts</w>
li fe</w>
n ess</w>
ow ners</w>
a r</w>
tho se</w>
ru n</w>
m en</w>
bel i
ex ac
si g
mo ved</w>
ou gh
ser i
i m</w>
br unch</w>
fa v
grou p</w>
any where</w>
an tly</w>
c ity</w>
ge m</w>
gre en</w>
on es</w>
heal thy</w>
par ty</w>
serv ices</w>
M ar
da ugh
cla s
din ing</w>
ta il</w>
Sun day</w>
fin ally</w>
lo c
tac o</w>
s it</w>
val ue</w>
to tally</w>
fre sh
l ing</w>
p t</w>
d iti
c y</w>
c en
d ro
F ri
com b
st er
h ome
p oor</w>
ei ther</w>
s ing
di e</w>
pl enty</w>
choo se</w>
incredi ble</w>
su gge
tea m</w>
sim ple</w>
pro c
f ol
br ought</w>
un til</w>
Satur day</w>
thr u</w>
hon est</w>
on to</w>
wa tch</w>
deci ded</w>
en s</w>
n a</w>
desser t</w>
ch arge</w>
th ers</w>
di an</w>
ac c
rea son</w>
eg g</w>
ta kes</w>
cho ices</w>
ti c</w>
sho w
la dy</w>
s oo
neighbor hood</w>
be ers</w>
recei ved</w>
g one</w>
k ey</w>
ans w
a il
T or
Ch ar
a k
am oun
tast es</w>
tri p</w>
or g
n ic
bartend er</w>
for ward</w>
app reci
uni que</w>
perfec tly</w>
bey ond</w>
ar t</w>
it ch
t on</w>
pi ec
ser vers</w>
co ck
s or
t or</w>
b ought</w>
bac on</w>
st ing</w>
S tar
buff et</w>
over priced</w>
li m
bir th
e .
ful ly</w>
5 0</w>
dir ty</w>
sp r
en ce</w>
see m</w>
h un
st and</w>
to pp
pe pp
G re
exac tly</w>
ta king</w>
P ho
g es</w>
se en</w>
sh ort</w>
stea d</w>
che es
cho ice</w>
ep ti
abo ve</w>
sal sa</w>
pol ite</w>
amoun t</w>
past a</w>
cur ry</w>
nood les</w>
some times</w>
f ru
fi xed</w>
2 0
i ent</w>
in stead</w>
e arly</w>
m es
o h</w>
F ren
Pho eni
be at</w>
experien c
accommo dating</w>
it es</w>
clo sed</w>
it er
cour se</w>
ord ering</w>
ga me</w>
e y
Star bucks</w>
birth day</w>
cour te
Tor onto</w>
ha ir
topp ings</w>
Phoeni x</w>
reason ably</w>
Fren ch</w>
cr ust</w>
ma y</w>
plea se</w>
bl and</w>
hea d</w>
b al
av ail
bo dy</w>
courte ous</w>
.. ...</w>
coo ki
see med</w>
vis iting</w>
un der</w>
go tt
al though</w>
n or
questi ons</w>
rec ently</w>
l ater</w>
i e</w>
J a
w ra
down town</w>
enti re</w>
with in</w>
it a</w>
satis fied</w>
In dian</w>
fi x</w>
mon ths</w>
vi be</w>
t ari
conven ient</w>
m y
cri sp
wait er</w>
m a</w>
daugh ter</w>
z en</w>
m in</w>
b re
con tin
plea sed</w>
retur ning</w>
gri lled</w>
tru ly</w>
a ds</w>
y um</w>
expec ted</w>
pa st</w>
sp ace</w>
fu ture</w>
fa bul
tre at</w>
s che
h it</w>
we st</w>
pl ate</w>
at o
s y
o il</w>
fin e</w>
manag ement</w>
n ear</w>
pedic ure</w>
pre pared</w>
a ir
fabul ous</w>
stri p</w>
week end</w>
ty pic
ber ry</w>
inter est
coun ter</w>
smoo th
g ing</w>
in for
avail able</w>
st e</w>
af ter
ac ro
b ri
Fri day</w>
th or
gar lic</w>
s .
mis s</w>
mem ber</w>
do gs</w>
ord ers</w>
vege tari
o thers</w>
eg gs</w>
li d</w>
l ou
pati ent</w>
crisp y</w>
R o
gir l</w>
shi p</w>
k ept</w>
acro ss</w>
poo l</w>
mon th</w>
S co
don uts</w>
p at
sal mon</w>
op ened</w>
produc ts</w>
no tch</w>
par k</w>
p ing</w>
t om
sa w</w>
val ley</w>
f loo
l on
star t</w>
eat en</w>
Char lo
pa s
an c
d ou
ien ce</w>
itt ing</w>
el ing</w>
e ar
A l
exc epti
p in
flavor ful</w>
rela xing</w>
su per
surpri sed</w>
r un
lo b
y our
pla y</w>
su l
e ve</w>
so lid</w>
wor ked</w>
d ly</w>
Charlo tte</w>
veg an</w>
b all</w>
g ood
work ers</w>
fi ve</w>
oc re</w>
pa id</w>
s at</w>
seri ously</w>
op tion</w>
t ou
h ur
compl e
aw ful</w>
n ac
medi ocre</w>
wee ks</w>
recomm end
t ch
ti on
mm er</w>
do c
di es</w>
mi ght</w>
dd en</w>
k itch
do l
che f</w>
et ely</w>
d ding</w>
em p
a to</w>
es s
wh ite</w>
sea food</w>
wa sh</w>
al ready</w>
win do
ato es</w>
sal ads</w>
b li
u sing</w>
ic ed</w>
ta ils</w>
wa ste</w>
ri es</w>
s cre
com m
te ch
for tun
sea son
arri ved</w>
de al
att itu
compl etely</w>
lo vely</w>
in t
por t</w>
kitch en</w>
n um
co st</w>
wor ld</w>
hi dden</w>
me als</w>
min s</w>
issu e</w>
t oni
pric ing</w>
ta ken</w>
be ans</w>
h er
bu il
ca fe</w>
in s</w>
su b
b ite</w>
y es</w>
ea k</w>
p es</w>
ad d</w>
r s</w>
ho pe</w>
vegetari an</w>
in d</w>
sho pping</w>
consist ent</w>
ma l</w>
si an</w>
c at
co zy</w>
crow ded</w>
fav our
f er</w>
M i
p on</w>
d res
on line</w>
my self</w>
- -
tast ing</w>
re ly</w>
gi ving</w>
C a
ta tion</w>
minut e</w>
pos si
ge l</w>
beli eve</w>
i or</w>
gra b</w>
gre as
d ale</w>
home made</w>
proc ess</w>
att en
coun t</w>
lo ves</w>
cor n</w>
toni ght</w>
your self</w>
c o</w>
su pp
gu ess</w>
it as</w>
cor rec
wor ks</w>
an t
pe t
an a</w>
ad diti
gir ls</w>
gre e
l iter
greas y</w>
ba k
n oon</w>
r it
mu sh
mil k</w>
f ore
il ity</w>
mar k
po ta
m p
li sh</w>
. W
pota to</w>
issu es</w>
1 0
s bur
prom pt</w>
on al
d ra
jo int</w>
atten tion</w>
ev ening</w>
ra men</w>
i ly</w>
ba th
col or</w>
lim ited</w>
liter ally</w>
repa ir</w>
A mer
ga mes</w>
li st
su mmer</w>
mu l
st i
star ted</w>
ra ther</w>
wa ff
lo l</w>
sm ile</w>
ta ke
min d</w>
hon est
es day</w>
pac ked</w>
m all</w>
m ac
resp on
so ft</w>
gener ous</w>
c ard</w>
iti ve</w>
ex plain
gi ven</w>
or s</w>
. S
lou d</w>
d ue</w>
excepti onal</w>
l ac
am b
re st</w>
f illing</w>
pres en
typic al</w>
itt sbur
si des</w>
loc ated</w>
g ry</w>
lon ger</w>
la m
tal k</w>
h ar
pl an
favour ite</w>
P ittsbur
sa m
attitu de</w>
sp or
s itting</w>
sa uc
v y</w>
r o</w>
e sta
d i</w>
e k</w>
kno ws</w>
p ly</w>
clu b</w>
h um
bu tter</w>
u lar</w>
deli vered</w>
ri bs</w>
com plain
off ered</w>
Ma c</w>
comm un
vie w</w>
al ong</w>
f er
cha in</w>
be h
y oun
cra b</w>
g oo
wal king</w>
w ing</w>
ni gh
il ed</w>
chan ged</w>
Sco tt
in v
disappoin ting</w>
qui et</w>
pl ain</w>
vis ited</w>
om en
beh ind</w>
loca tions</w>
d en
m et</w>
hair cut</w>
K ore
bo x</w>
fro zen</w>
h ey</w>
ta in</w>
c li
b on
Scott s
bartend ers</w>
Pittsbur gh</w>
un fortun
1 2</w>
b om
show ed</w>
sp end</w>
f ur
clean ing</w>
re plac
interest ing</w>
re sul
d um
wi se</w>
l ars</w>
bo tt
bl ack</w>
pa d</w>
Scotts dale</w>
esta bli
sche du
l att
appetiz er</w>
ca shi
sal ty</w>
o o</w>
cu p</w>
e .</w>
yo g
ri st
m ach
mo vi
des ig
or ig
el e
we en</w>
Mon t
ff ed</w>
com pet
s er</w>
contin ue</w>
C hi
h ic
end s</w>
f our</w>
pi e</w>
2 5</w>
b ab
org ani
l er</w>
infor ma
fac t</w>
ic ally</w>
consist ently</w>
h and</w>
are n</w>
re member</w>
d ar
mul ti
to ge
establi sh
ba ked</w>
orig in
man ic
can not</w>
gre at
appreci ate</w>
re serv
ea si
ph en
l y
ca sh</w>
P h
ir d</w>
mar gar
i er</w>
fe eling</w>
s ell</w>
t a</w>
su al</w>
ve hic
fi c</w>
mo m</w>
gott en</w>
th in</w>
M c
fa ir
honest ly</w>
d ont</w>
w er
be t
avo id</w>
. 9
p et</w>
incredi bly</w>
after noon</w>
s qu
st or
gla ss</w>
Kore an</w>
T u
toge ther</w>
D r</w>
phen omen
i a</w>
hun gry</w>
comb o</w>
s choo
wa tch
bo y
mo der
fre qu
b a</w>
ty pe</w>
me at
on a</w>
cock tails</w>
f ill</w>
Mont real</w>
veggi e</w>
sim ply</w>
tend er</w>
mo ve</w>
mark et</w>
ca sual</w>
to ast</w>
air port</w>
ti p</w>
d re
s cal
1 00</w>
ul t</w>
foo ds</w>
under stand</w>
w om
pl an</w>
en ter
ad v
lam b</w>
multi ple</w>
fore ver</w>
cla ss</w>
A sian</w>
et c</w>
pot atoes</w>
phenomen al</w>
a y
u n</w>
i st</w>
tr ue</w>
oni on</w>
char ged</w>
bro ws</w>
im pro
lev el
emp ty</w>
out door</w>
ga r</w>
coo k</w>
f low
lob ster</w>
bet ween</w>
4 5</w>
exc ited</w>
thor ough</w>
inclu ding</w>
Jo h
cra ving</w>
han g</w>
ter ri
person able</w>
C ar
d enti
rea d</w>
unfortun ately</w>
fru it</w>
oc ca
desser ts</w>
u e
tr ad
en tre
chil i</w>
t ful</w>
schoo l</w>
dic ul
t ons</w>
go es</w>
N or
sp a</w>
com pared</w>
C level
sel ec
o m</w>
t em
appetiz ers</w>
A ri
s c
b ill</w>
wa ter
cra zy</w>
c ked</w>
nood le</w>
amb ience</w>
ow ned</w>
con cer
ill a</w>
g el
ri dicul
end ing</w>
V i
veggi es</w>
cu p
D a
qu o
spr ing</w>
ti es</w>
Chi pot
serv ing</w>
el se
ju ice</w>
crow d</w>
establish ment</w>
tr ust</w>
sau sage</w>
ak i</w>
m ou
f y</w>
en ny</w>
Clevel and</w>
floo r</w>
dis gu
cooki es</w>
sto res</w>
tra in
e m</w>
des k</w>
boy friend</w>
ro w</w>
usu al</w>
pa r</w>
ma in</w>
b ers</w>
ell s</w>
fil led</w>
ba sed</w>
s ite</w>
sa ve</w>
tre ated</w>
bom b</w>
b ook</w>
su b</w>
sal es</w>
spor ts</w>
tur ned</w>
b at
k ee
el ess</w>
iti es</w>
ad ded</w>
a sa
mo ving</w>
s s
h i</w>
fin ish</w>
un ch
T V</w>
sp ent</w>
pizz as</w>
la dies</w>
trad iti
4 0</w>
sauc es</w>
youn g</w>
ac a
wa ll</w>
produc t</w>
n ec
s .</w>
sa d</w>
bak ery</w>
Chipot le</w>
he ard</w>
t ers</w>
wa re</w>
organi zed</w>
ch ance</w>
stand ard</w>
gree ted</w>
e ye
ta tions</w>
lev el</w>
de tail</w>
sp ec
c ars</w>
P ar
h oo
g lut
n er
bu n
s wee
en t
b ed</w>
st ers</w>
men tion</w>
i ght</w>
ru c
out ine</w>
for get</w>
ba s
i red</w>
par tic
we dding</w>
su cks</w>
sing le</w>
ch ill</w>
wel come</w>
ac i
bur rit
person al</w>
or an
cre w</w>
se ats</w>
s an
se ated</w>
gy m</w>
ye ster
doc tor</w>
Ja pan
con ver
- -</w>
k a</w>
in i
w ha
sor ry</w>
tr uck</w>
num ber</w>
O M
some where</w>
purcha se</w>
ic s</w>
f o
sho ps</w>
tor s</w>
consi der
Ari z
cashi er</w>
d en</w>
possi ble</w>
im por
it self</w>
ti re</w>
Japan ese</w>
sig n</w>
latt e</w>
fair ly</w>
C o
yester day</w>
k new</w>
k er</w>
v o
ru sh</w>
m el
b ra
provi ded</w>
go -
de ser
s our</w>
e ts</w>
sk et</w>
li ved</w>
inter ior</w>
1 1</w>
piec es</w>
c in
dd le</w>
Ariz ona</w>
o ther
ell ing</w>
ho sp
windo w</w>
o t</w>
asa da</w>
oran ge</w>
il ls</w>
er o</w>
. 00</w>
expec tations</w>
st ic</w>
burrit os</w>
a ir</w>
kin da</w>
G r
J u
wra p</w>
hosp it
st y</w>
in a</w>
i se</w>
piec e</w>
ro ck</w>
Gre ek</w>
man go</w>
re st
fun ny</w>
gro cer
on i</w>
b lo
wer en</w>
OM G</w>
moder n</w>
b le
ea st</w>
gen t
ur t</w>
s en
pu lled</w>
fin i
fan cy</w>
si ons</w>
com pla
stra w
compla int</w>
f i</w>
employe e</w>
else where</w>
take out</w>
un less</w>
i de
r y
serv ic
im medi
f it</w>
A Z</w>
origin al</w>
for got</w>
be an</w>
clean ed</w>
p as</w>
n on
d ated</w>
pick ed</w>
pro per
op ini
wor se</w>
pp y</w>
as si
pan cakes</w>
C ali
t ec
absolut e</w>
disappoin t</w>
ni a</w>
go- to</w>
clas sic</w>
car ne</w>
B o
min e</w>
st ly</w>
cen ter</w>
chec ked</w>
e -
tun a</w>
surpri se</w>
d eep</w>
sta yed</w>
Cali for
sa ys</w>
other wise</w>
a head</w>
2 4</w>
qu es
ey e</w>
re li
pa in
ar ti
u res</w>
s n
l o</w>
p ho
ti l
disgu sting</w>
fac ility</w>
perf ection</w>
E n
compl i
resul ts</w>
manic ure</w>
bu ying</w>
po t</w>
la w</w>
ide a</w>
dis count</w>
co vered</w>
traditi onal</w>
impor t
favor ites</w>
b is
tur key</w>
sugge st</w>
ma g
y aki</w>
Califor nia</w>
tre at
Ch rist
is s
mat ter</w>
bal ls</w>
cu is
run ning</w>
. I
dec or
g gy</w>
pl ates</w>
h y
enter tain
denti st</w>
yog urt</w>
par tment</w>
re min
t oo
de als</w>
v ac
mi x</w>
su n
d ent</w>
din er</w>
Nor th</w>
lin es</w>
le tt
complain ts</w>
nac ho
pl es</w>
l uc
additi on</w>
Y or
tal king</w>
wha t
purcha sed</w>
opini on</w>
wi de</w>
ti m
mi ddle</w>
ir e</w>
ic al</w>
avo ca
u r</w>
explain ed</w>
movi e</w>
cer tain
dou ble</w>
t ice</w>
nacho s</w>
p outine</w>
in i</w>
il ly</w>
del ish</w>
pr ac
um b
f al
glut en</w>
all er</w>
f ood
en e
m ic
Gr ou
pe di</w>
car ing</w>
pre fer</w>
M ic
chea per</w>
cre d
gener al</w>
d ers</w>
p our</w>
mou th</w>
experienc ed</w>
br and</w>
me an</w>
pu b</w>
as h</w>
Grou pon</w>
l ar
g roo
gy ro</w>
spo ts</w>
correc t</w>
conver sa
nigh ts</w>
me et</w>
deli ver</w>
d ge</w>
k in</w>
Ma di
to tal</w>
v in
ici an</w>
bag el</w>
w illing</w>
tou ch</w>
la s</w>
certain ly</w>
con c
wh en
dum pl
ran ge</w>
s li
H a
war ma</w>
see ing</w>
z es</w>
de f</w>
ad a</w>
proble ms</w>
cu ts</w>
ta p</w>
fac e</w>
pa ying</w>
con tac
comb in
when ever</w>
a h</w>
vehic le</w>
Mc D
S te
medi um</w>
immedi ately</w>
selec tions</w>
gro ss</w>
avoca do</w>
ing ly</w>
exc ept</w>
ex t
Madi son</w>
sty list</w>
serv es</w>
easi ly</w>
cuis ine</w>
pre t
k id</w>
ven ue</w>
dres sing</w>
lo st</w>
super b</w>
fe els</w>
cha irs</w>
buil ding</w>
bri sket</w>
im i</w>
help ing</w>
rela xed</w>
in es</w>
ev ent</w>
ne ga
pl at
fini shed</w>
chec king</w>
ic a</w>
cred it</w>
.9 9</w>
sl ice</w>
n on</w>
n it
t ick
u ce</w>
past ries</w>
answ er</w>
f u</w>
bo ba</w>
ba sic</w>
di p</w>
k i</w>
s ses</w>
ic ks</w>
enjo y
sou th</w>
ro s</w>
smooth ie</w>
bro th</w>
bag els</w>
war ds</w>
ha te</w>
tech n
ro ad</w>
pla ying</w>
sa s</w>
ne ar
bo ard</w>
pos itive</w>
s ent</w>
i z
at ure</w>
Tu esday</w>
ste m</w>
season ed</w>
terri fic</w>
m i</w>
lett uce</w>
rea ding</w>
ju icy</w>
.T hey</w>
sm ell</w>
gi ves</w>
dol lars</w>
mo le</w>
ho le</w>
gri ll</w>
any more</w>
da ily</w>
p ed</w>
cra ft</w>
re mo
it em</w>
Mi ke</w>
go l
up date</w>
supp ort</w>
ridicul ous</w>
tor til
tec h</w>
dar k</w>
ligh tly</w>
D e
a sted</w>
w er</w>
sy stem</w>
so ggy</w>
answ ered</w>
on y</w>
near by</w>
ligh ts</w>
provi de</w>
mo stly</w>
tin y</w>
re gi
t an
e qui
men t
ma in
presen tation</w>
3 0
commun ic
r is</w>
al ter
scre en</w>
bu n</w>
vi ous</w>
app ro
ti mely</w>
se at</w>
le ar
consider ing</w>
fol ks</w>
schedu le</w>
z ero</w>
grocer y</w>
nega tive</w>
bac k
mi xed</w>
McD onal
week ends</w>
inst al
j er
comple te</w>
re gre
replac ed</w>
C al
d nt</w>
sha ke</w>
ter i
informa tive</w>
E x
co con
aci ous</w>
tu res</w>
20 1
experienc es</w>
ag es</w>
na m
enjoy able</w>
sm aller</w>
st ick
ap ple</w>
vege tables</w>
a po
wi fi</w>
str ong</w>
wr ite</w>
il ing</w>
r ating</w>
mu s</w>
W al
t our</w>
su gar</w>
d ress</w>
m om
w ell
watch ing</w>
pac k
t at
so ci
re fresh
. 5</w>
de p
to fu</w>
le g
ch ed</w>
straw berry</w>
pa in</w>
me ats</w>
cocon ut</w>
Amer ican</w>
sho t</w>
j e
B ra
in expensive</w>
sal t</w>
in ts</w>
flav our</w>
is ed</w>
deser t</w>
ha m
s ca
m er</w>
fa mil
tom ato</w>
st ick</w>
sugge sti
tr ac
mis sing</w>
eye brows</w>
brea k</w>
al o</w>
the ater</w>
ar i</w>
te st</w>
le mon</w>
knowledg able</w>
R e
ti res</w>
t ro
bi g
waff le</w>
sp ice</w>
ri b</w>
con st
crea tive</w>
s ick</w>
ba rely</w>
.. ..
bath room</w>
and s</w>
s pl
i ve</w>
gir l
bab y</w>
pa ss</w>
su ppo
Ch ic
nic ely</w>
ell ed</w>
se tting</w>
or able</w>
happ ened</w>
t t</w>
an g
T hur
Mon day</w>
ch a</w>
pleas antly</w>
ou ts</w>
en g
d ea
be come</w>
spec tac
buff alo</w>
we ird</w>
sh are</w>
plea sure</w>
ma s</w>
p ec
n one</w>
r are</w>
ba g</w>
inst ruc
i al</w>
en er
cooki e</w>
b by</w>
ha m</w>
bun ch</w>
high er</w>
tur n</w>
d oo
bu b
den tal</w>
mon d</w>
cor ner</w>
smooth ies</w>
ren t</w>
gla sses</w>
knowled ge</w>
h a</w>
bu d
th ick</w>
re quest
nor m
sp in
sha warma</w>
cro iss
sk in</w>
s lightly</w>
bar ber</w>
gu aca
di o</w>
d ine</w>
li e</w>
ad as</w>
pepp er
bo y</w>
ca sin
w ood</w>
ar ing</w>
be g
mach ine</w>
reserv ation</w>
del i</w>
re qu
bow ls</w>
Thur s
T a
si zes</w>
hum mus</w>
h ill</w>
h ear</w>
Vi et
o y
diff ic
teri yaki</w>
stra ight</w>
l ack</w>
fin ding</w>
dumpl ings</w>
bur nt</w>
h eat</w>
wa i
guaca mole</w>
s es
up on</w>
vi ously</w>
y er</w>
nor mal</w>
conversa tion</w>
a gre
to s</w>
spectac ular</w>
ca re
. O
norm ally</w>
n d</w>
r ate</w>
rela x</w>
m ess</w>
cup cakes</w>
lea ving</w>
gel ato</w>
ell a</w>
po p</w>
e an</w>
m ee
Chic ago</w>
n u
clo sing</w>
and y</w>
a de</w>
as king</w>
c ant</w>
dre n</w>
pepp er</w>
chil dren</w>
what ever</w>
f ry</w>
en ted</w>
A r
sh imi</w>
l oun
big ger</w>
e ful</w>
sta ff
f ra
sho ws</w>
al ty</w>
R u
st ate</w>
sa ying</w>
apo lo
stu ffed</w>
pe an
il le</w>
sp eak</w>
deal er
hon ey</w>
duc k</w>
d é
ch i</w>
coo king</w>
b ru
me h</w>
deli gh
p ita</w>
low ed</w>
Joh n</w>
man i</w>
al right</w>
desig n</w>
equi p
au to</w>
tre ats</w>
r ings</w>
P e
r an</w>
happ ier</w>
m al
W ed
po lish</w>
wom an</w>
gen u
da m
s ection</w>
treat ment</w>
s ons</w>
. 50</w>
t ments</w>
refresh ing</w>
b ars</w>
sa shimi</w>
on ally</w>
mush room</w>
du ce</w>
res ses</w>
g or
bi ke</w>
sh ing</w>
margar itas</w>
so da</w>
e ma
B ri
clo ser</w>
pres s</w>
expec ting</w>
ea ther</w>
Yor k</w>
off ers</w>
nam ese</w>
b on</w>
bro wn</w>
. N
ste p</w>
heal th</w>
Wed n
Viet namese</w>
dro p</w>
sl ices</w>
g g
dri ver</w>
con diti
no v
t ex
conc ept</w>
st ance</w>
oni ons</w>
pi er
compl ain</w>
gr ound</w>
d ough</w>
su m</w>
pick y</w>
n ut</w>
beli ev
v an
sta ying</w>
sta tion</w>
bl ue</w>
un k</w>
gi ft</w>
de partment</w>
equip ment</w>
he art</w>
me l</w>
ho t
fl at</w>
op ening</w>
cock tail</w>
el d</w>
y a</w>
bro ken</w>
ho ld</w>
o d
re d
bott le</w>
ap p</w>
L a
regre t</w>
r ing</w>
am ari</w>
mi sta
spin ach</w>
sh y</w>
min i
in ed</w>
è s</w>
po p
don ut</w>
ca se</w>
c ru
no tic
en chil
thr ough
l and</w>
l an
Ha wai
inv iting</w>
ac k
bu tt
sa ges</w>
reli able</w>
su bs</w>
fu sed</w>
car ry</w>
b our
s lo
di m</w>
c lea
dri ving</w>
bas ically</w>
ri de</w>
smo ked</w>
Ch ris</w>
vis its</w>
cle arly</w>
v et</w>
an ic</w>
recommend ations</w>
f lu
gott a</w>
. B
il i
ch es</w>
cal amari</w>
L o
wh el
ar ds</w>
po ke</w>
diffic ult</w>
tat too</w>
b age</w>
si mil
un e</w>
wh e
acc ep
ex plain</w>
ex i
dol lar</w>
pat r
1 st</w>
appreci ated</w>
wor d</w>
gra vy</w>
ro cks</w>
mac ar
S t
N Y</w>
stor y</w>
sel ves</w>
or d</w>
s nac
pres sure</w>
every day</w>
plat ter</w>
T V
sta irs</w>
ran ch</w>
ro t
per for
cal ling</w>
a a
requ est</w>
mo ther</w>
sa fe</w>
waff les</w>
luc ky</w>
lac king</w>
dro ve</w>
casin o</w>
an no
qu a
sha kes</w>
mem bers</w>
repa irs</w>
j al
foo t</w>
frequ ent</w>
sp acious</w>
dam n</w>
ster n</w>
on g
v al</w>
un believ
pe ts</w>
fil ls</w>
c ele
b ou
Jo e</w>
sing ly</w>
h h
pepper oni</w>
loun ge</w>
jo ke</w>
nit ure</w>
tal ented</w>
. H
ta ge</w>
Thurs day</w>
fresh ly</w>
r ich</w>
low er</w>
every where</w>
ing ing</w>
d -
ques ad
smo ke</w>
s ki
ma j
sou ps</w>
soo oo
in sur
b last</w>
re pe
pre vious</w>
ho st
re fer
car pet</w>
y el
fur niture</w>
z a</w>
do s</w>
sn ack</w>
ti ll</w>
doo rs</w>
dealer ship</w>
. F
C an
gor ge
di ve</w>
min i</w>
TV s</w>
the s</w>
pl ant</w>
wait resses</w>
person ally</w>
an g</w>
ver s
cou pon</w>
girl friend</w>
pic tures</w>
cho se</w>
can c
ca res</w>
h es
simil ar</w>
er ry</w>
bath rooms</w>
a ut
partic ular</w>
des p
we b
smoo th</w>
pri me</w>
A u
es pres
b ari
si zed</w>
ad dic
er v
b la
i mag
com par
tr av
t ough</w>
ch ing</w>
n atur
e tt
gorge ous</w>
B r
w ed</w>
desp ite</w>
po st</w>
insur ance</w>
flav ours</w>
ti v
un professional</w>
ban ana</w>
tim ate</w>
En g
D i
tr ès</w>
na sty</w>
en tr
clo thes</w>
e di
se ar
s itu
di rec
tr ans
resp ec
inclu ded</w>
po pu
ber t</w>
hes it
wa x</w>
and a</w>
sha red</w>
a ke</w>
o per
la y
pro duce</w>
p um
gr and
c ed</w>
w y</w>
oun tain</w>
any time</w>
co ho
eg g
ni e</w>
man ner</w>
surpri singly</w>
through out</w>
on na</w>
f all</w>
M at
bo ther</w>
in sp
every time</w>
an o</w>
tast eless</w>
Gre at</w>
non -
espres so</w>
es ar</w>
al one</w>
st icks</w>
ru shed</w>
clas ses</w>
pic ture</w>
al coho
entre es</w>
impres sive</w>
org anic</w>
z ing</w>
oun ds</w>
re ali
f ar
coun try</w>
Ph illy</w>
techn ician</w>
f at</w>
fe et</w>
i o
ne at</w>
co ver</w>
soo o</w>
ca u
pop corn</w>
snac ks</w>
B ar
. P
ve l</w>
c l
recei ve</w>
chees ec
2 nd</w>
ne y</w>
bis cu
an i</w>
v ous</w>
fa shi
regu l
.. ....</w>
la id</w>
f light</w>
bel ow</w>
li ving</w>
T em
el ly</w>
ti onal</w>
sta ffed</w>
ment ary</w>
ff y</w>
A C</w>
van illa</w>
c c
train ing</w>
di dnt</w>
Wedn esday</w>
om ele
scal e</w>
bub ble</w>
lin ess</w>
windo ws</w>
over ly</w>
web site</w>
stea ks</w>
int en
g er
si ster</w>
bro w
B ell</w>
th um
le mon
notic ed</w>
g as</w>
vi a</w>
f ic
crea my</w>
sm ells</w>
jer k</w>
goo ds</w>
da y
the at
K ing</w>
thin king</w>
clea r</w>
so ld</w>
fal af
app are
ar a</w>
adv ice</w>
ra y</w>
war ran
st ale</w>
ad ver
regul arly</w>
he ar
gent le
li er</w>
mil es</w>
fir e</w>
dou b
5 -
fa v</w>
quo te</w>
na an</w>
d rea
Tem pe</w>
erv ice</w>
. M
margar ita</w>
a i</w>
comfor t</w>
Ex press</w>
bat ter
x es</w>
pean ut</w>
as s</w>
wan ts</w>
ou l
ea h</w>
m ood</w>
bon us</w>
work er</w>
sho es</w>
on ing</w>
ra w</w>
disappoin tment</w>
sal e</w>
adver ti
. A
ve -
p pl
a while</w>
tr o</w>
sen se</w>
la ke</w>
br inging</w>
go d</w>
gar age</w>
Eng lish</w>
.W e</w>
the m
pedic ures</w>
lo ad
gu est
cli ents</w>
re place</w>
des cri
s p</w>
appoin tments</w>
soo oo</w>
chec k
f are</w>
dro pped</w>
ough ly</w>
par ts</w>
chan ges</w>
re gar
ob viously</w>
T om</w>
cour t</w>
suggesti ons</w>
ener gy</w>
no tice</w>
mic ro
gar y</w>
flow ers</w>
hea vy</w>
flav our
gre ens</w>
entre e</w>
iti on</w>
s end</w>
cre pes</w>
lo cal
car ds</w>
ni vers
me chan
d ul
mu s
natur al</w>
cheesec ake</w>
kee ps</w>
mo ist</w>
Da vi
v a</w>
chi p</w>
import ant</w>
a in
mush rooms</w>
wel com
guest s</w>
s cen
d ough
b right</w>
instal led</w>
sp ea
r ac
low ing</w>
hospit al</w>
recommend ation</w>
kno wn</w>
qua int</w>
h om
sp a
com fy</w>
it h</w>
hea ven</w>
st om
ca ble</w>
host ess</w>
fol low</w>
u x</w>
ol der</w>
sh it</w>
thum bs</w>
respon se</w>
n uts</w>
me dic
d ance</w>
r ated</w>
pepp ers</w>
list en</w>
ea p
wait ers</w>
sto ck</w>
da ma
Christ mas</w>
prom p
is m</w>
H ar
flow er</w>
F ran
week ly</w>
qu ant
professi onal
fre e
up gra
na tive</w>
contin u
ho li
me ans</w>
re fun
bo ys</w>
sa ved</w>
b one</w>
happ en</w>
nic est</w>
fav or</w>
d anc
tt a</w>
differ ence</w>
w ear</w>
pa per</w>
cra p</w>
actu al</w>
suppo sed</w>
popu lar</w>
H end
S u
tra vel</w>
fac ial</w>
a mel</w>
gar den</w>
es a</w>
ho pe
mes sed</w>
hi o</w>
che wy</w>
falaf el</w>
er son</w>
en cy</w>
1 1
sha pe</w>
combin ation</w>
t an</w>
sh u
doc tors</w>
sta s</w>
remin ds</w>
c e
pe st</w>
ti vely</w>
car amel</w>
bro c
y eah</w>
st ood</w>
pric y</w>
st in
ren tal</w>
ac tion</w>
ill er</w>
gi c</w>
t -
col i</w>
are as</w>
gra m</w>
deligh tful</w>
be ware</w>
Mar k</w>
th ird</w>
ne arly</w>
regi ster</w>
6 0</w>
Q ue
wom en</w>
reserv ations</w>
mach ines</w>
th o</w>
pin eap
ha sh</w>
w eather</w>
n tly</w>
el ec
de ta
ch ur
1 8</w>
d ev
oy sters</w>
mom ent</w>
communic ation</w>
s u</w>
m ile</w>
im pec
f rea
McDonal d</w>
spl it</w>
ski p</w>
cr unch
all en
situ ation</w>
ing er</w>
kin s</w>
ro asted</w>
warran ty</w>
thor oughly</w>
ev ents</w>
y o</w>
mista ke</w>
w il
nec ess
gener ally</w>
speci alty</w>
cre pe</w>
sig n
commun ity</w>
sal a</w>
hu bby</w>
col l
E l
appare ntly</w>
y ard</w>
st one</w>
b en
accommo date</w>
s wit
ro ast</w>
M o
k ar
pri v
bel ly</w>
L e
broc coli</w>
ac ci
dic t</w>
3 5</w>
ri ed</w>
ther n</w>
sto pping</w>
sha me</w>
occa sions</w>
ach ed</w>
.T his</w>
ther a
plac ed</w>
e ed</w>
delici ous
pineap ple</w>
- out</w>
K a
g onna</w>
mu st
lo y
consi der</w>
fil et</w>
sh ir
.I t</w>
s le
maj or</w>
li qu
hope fully</w>
est im
ch allen
scal lo
meat balls</w>
work out</w>
kee ping</w>
care ful</w>
lar ger</w>
grou ps</w>
do zen</w>
il led</w>
c ent</w>
great est</w>
A m
s ound</w>
Wal mar
boo ked</w>
load ed</w>
S ha
e ats</w>
cri sp</w>
se a</w>
chees e
c es</w>
arri ve</w>
ho st</w>
st a</w>
mil k
ell o</w>
pp er</w>
fur ther</w>
at or</w>
hoo ked</w>
welcom ed</w>
tex ture</w>
or y</w>
gi es</w>
doub t</w>
un like</w>
Davi d</w>
mis sed</w>
si on
Hend erson</w>
regu lars</w>
cin na
er ous</w>
M ary</w>
h ell</w>
vac ation</w>
t en
cat ch</w>
a u</w>
f ying</w>
su n</w>
questi on</w>
ti ps</w>
to m</w>
C ol
y -
wor thy</w>
tor y</w>
li k
t es</w>
b an</w>
la shes</w>
cust om</w>
a f</w>
me in</w>
col ors</w>
v a
l uck</w>
. C
n ur
crunch y</w>
cele br
all er
Ca esar</w>
whe ther</w>
th ri
y s
egg plant</w>
person ality</w>
sh or
A Y
fa j
alcoho l</w>
r a</w>
dra ft</w>
schedu led</w>
no is
cinna mon</w>
ag ain
repe at</w>
c andy</w>
Cal gary</w>
up scale</w>
A S
sp ar
retur ned</w>
han g
b es</w>
am ple</w>
w w
Mic ha
foo t
down side</w>
compli mentary</w>
. G
es ses</w>
B ene
sam ple</w>
ord in
la tion</w>
edi ble</w>
agre e</w>
stu dio</w>
tortil las</w>
i Ph
l unch
informa tion</w>
o ke</w>
il es</w>
Bene dict</w>
sub way</w>
pla yed</w>
ty pes</w>
local s</w>
a tive</w>
y y
proper ty</w>
mem ber
k ick</w>
wan ting</w>
sk ills</w>
iPh one</w>
drin king</w>
some what</w>
ac t</w>
9 0</w>
exc ee
1 4</w>
gr at
M ari
ti me
bac hi</w>
Ch and
é e</w>
ren ts</w>
Walmar t</w>
thera pi
g a</w>
col le
ol i</w>
ir ing</w>
M ed
t ee
o red</w>
mee ting</w>
ho ping</w>
gu i
v el
oo oo
od d</w>
cor por
gr and</w>
in timate</w>
bo t
impec cable</w>
wn s</w>
1 6</w>
po w
won t</w>
m ous</w>
j a
decor ated</w>
T ex
par t
tion ed</w>
contac t</w>
to p
promp tly</w>
di se</w>
tr ou
enchil adas</w>
proper ly</w>
ea se</w>
than k
no te</w>
v eal</w>
p ons</w>
on ed</w>
bud get</w>
b loo
C E</w>
wra ps</w>
clo se
g inger</w>
ul arly</w>
mi d
croiss ant</w>
dri ve-
se par
sal es
m m</w>
frequ ently</w>
vie ws</w>
spr outs</w>
repa ired</w>
N o
Chand ler</w>
d less</w>
sto cked</w>
arti st</w>
pl umb
unbeliev able</w>
plumb ing</w>
m att
ho l
ti red</w>
a i
al mond</w>
d .</w>
bot tom</w>
ic he</w>
fi g
en s
st uck</w>
n et</w>
go at</w>
f ell</w>
str ic
re nov
re fills</w>
leg it</w>
colle ge</w>
J as
tre n
partic ularly</w>
bre w</w>
wa xing</w>
sh el
pa rents</w>
Hawai ian</w>
AY CE</w>
je wel
quant ity</w>
p al
neigh bour
ema il</w>
F i
respec tful</w>
bu ns</w>
priv ate</w>
tee th</w>
any way</w>
vege table</w>
dea d</w>
e qu
beauti fully</w>
J er
ru b
quesad illa</w>
mat ch</w>
good ness</w>
mas sages</w>
hi bachi</w>
no body</w>
additi onal</w>
tr ash</w>
enjo ying</w>
cu l
th ro
gent le</w>
s cr
ri c</w>
fe e</w>
ru b</w>
pret z
flavour ful</w>
be n</w>
ma inten
ju ices</w>
m ers</w>
la ugh
a me</w>
imag ine</w>
K im</w>
cal ls</w>
R i
sam ples</w>
ag ed</w>
accep table</w>
co sts</w>
. D
iter ran
as su
Micha el</w>
comp are</w>
sel s</w>
s il
di stance</w>
h ire</w>
every body</w>
se y</w>
r om
lik ely</w>
et ch
to pping</w>
interest ed</w>
Med iterran
J e
Amer ic
1 3</w>
p enny</w>
F ili
foot ball</w>
const antly</w>
na med</w>
fr an
spo ke</w>
conven ience</w>
S a
s coo
professional ism</w>
en o</w>
be sides</w>
won der</w>
amaz ingly</w>
Mediterran ean</w>
C u
sm elled</w>
d ents</w>
er a</w>
Jas on</w>
N Y
lob by</w>
tom atoes</w>
2 -
tick ets</w>
cen tr
over cooked</w>
win es</w>
clas sy</w>
wa sh
f it
sp ee
le f
ri p</w>
il ian</w>
wor ds</w>
si l</w>
li kes</w>
neighbour hood</w>
ac cur
T ar
M an
1 9
har dly</w>
scr at
lea ves</w>
l and
in o</w>
gy ros</w>
y ani</w>
lemon ade</w>
cer tain</w>
hur ry</w>
li ves</w>
nic er</w>
pi es</w>
dis covered</w>
stom ach</w>
sec ur
possi bly</w>
in -
d as</w>
cou pons</w>
.T han
j e</w>
v ille</w>
tal ked</w>
ap pl
al ot</w>
hand le</w>
sam pl
b ites</w>
r ound</w>
re l
mainten ance</w>
secur ity</w>
s ort</w>
ma is</w>
an im
J ack</w>
vari ous</w>
ear th</w>
bro w</w>
gentle man</w>
occa sion</w>
ma shed</w>
lear n</w>
squ are</w>
or iz
f s</w>
kar a
Y o
up dated</w>
P o
le ts</w>
e -</w>
ca b
Ste ve</w>
sec re
refun d</w>
b i</w>
u gh</w>
nigh t
list ened</w>
T he</w>
chan ging</w>
bro ke</w>
to -
seri ous</w>
an tic</w>
tea s</w>
satis fying</w>
rec ent</w>
stick y</w>
o ven</w>
as soci
A le
x i
entertain ing</w>
tem pur
ag no
n or</w>
ey es</w>
quo ted</w>
gi ant</w>
mm m</w>
deci de</w>
si x</w>
st in</w>
wh i
beg in
ear lier</w>
import antly</w>
g n
S e
pro te
J im
tick et</w>
f ts</w>
T o
P er
st o</w>
ses ame</w>
gol f</w>
rol led</w>
cust ard</w>
s essi
ba sil</w>
comple ted</w>
Que en</w>
M esa</w>
entertain ment</w>
clean liness</w>
a pe
z z</w>
s -</w>
pack age</w>
it ary</w>
corpor ate</w>
con tain
anno ying</w>
season ing</w>
or ies</w>
fo cu
typic ally</w>
fin gers</w>
cu e</w>
de st</w>
fa st
y e</w>
pla stic</w>
fa ster</w>
tempur a</w>
D ani
uc cin
patr ons</w>
u ps</w>
ev in</w>
well -
pri de</w>
ne w
fig ure</w>
w in</w>
k ers</w>
su ppl
con tro
T ony</w>
compet itive</w>
win ter</w>
thre w</w>
movi es</w>
mi so</w>
ici ans</w>
C ha
rot i</w>
main tain
compet ent</w>
S an</w>
cha ir</w>
tend ers</w>
ett i</w>
prom ised</w>
pat ty</w>
T i
them selves</w>
re si
request ed</w>
P an
M e
cu m
ad orable</w>
D an
w ers</w>
spa gh
s no
num erous</w>
ti e</w>
gen cy</w>
ter ed</w>
re fill</w>
ext ensive</w>
Tar get</w>
sa g
s -
pu tting</w>
o live</w>
r i</w>
b it
g our
cha i</w>
ape ñ
8 0</w>
refer red</w>
over whel
a c</w>
tre e</w>
omele tte</w>
jal apeñ
e w</w>
ban k</w>
C am
friend ly
ar ran
g l
f li
un comfortable</w>
mar in
L i
p kin</w>
ev en
es ca
p y</w>
d u</w>
prac tice</w>
in f
gu e</w>
sou thern</w>
pas sion
gr an
clean er</w>
floo rs</w>
sal ons</w>
in ted</w>
lef to
a se</w>
gi e</w>
gar bage</w>
L in
lay out</w>
infor med</w>
fil thy</w>
contro l</w>
may o</w>
P or
rela tively</w>
pati ents</w>
re fused</w>
oni st</w>
disappoin ts</w>
ig no
D J</w>
' est</w>
supp or
pre fer
impro ved</w>
spagh etti</w>
pho tos</w>
ma sala</w>
cli ent</w>
eff ort</w>
sea son</w>
member ship</w>
in k
pa int</w>
la zy</w>
kin ds</w>
micro wa
bloo dy</w>
b ing</w>
S am</w>
t on
bu s</w>
cho w</w>
Jim my</w>
tortil la</w>
th ats</w>
de fi
Par mes
da r</w>
umb led</w>
gour met</w>
co m</w>
ra in
po is
b ands</w>
1 5
jewel ry</w>
car ro
biscu its</w>
Parmes an</w>
close st</w>
l at
cu ps</w>
sm iling</w>
s in</w>
l i</w>
di agno
cup cake</w>
correc tly</w>
respon sive</w>
y .</w>
an ti
ta x</w>
hi p</w>
ha ss
de l</w>
su cc
st umbled</w>
st ry</w>
ic o</w>
. Great</w>
vehic les</w>
el lar</w>
di sp
ch e</w>
bi gge
anim als</w>
pin k</w>
cheese burger</w>
ber ries</w>
sp ending</w>
presen ted</w>
mar tin
B a
bl ue
bigge st</w>
r oun
pa ir</w>
f ly</w>
ea stern</w>
Mat t</w>
sugge sted</w>
per io
ag ing</w>
Bra z
in ely</w>
manag ed</w>
resp ect</w>
D un
chil d</w>
boo ks</w>
defi antly</w>
str ong
take -out</w>
sli ders</w>
batter y</w>
da d</w>
ach es</w>
ordin ary</w>
0 0
m elt</w>
genu ine</w>
flav ored</w>
e .I</w>
cr ac
E d
han ging</w>
up stairs</w>
st um
ne l</w>
po ints</w>
B u
Mic hel
y an</w>
stea k
P A</w>
tren dy</w>
ha ps</w>
par ties</w>
de serves</w>
c king</w>
a part</w>
s sed</w>
groo ming</w>
compli ments</w>
v ol
pick les</w>
ch oriz
tt le</w>
P au
fol lowed</w>
run s</w>
nois y</w>
ner vous</w>
at trac
alter native</w>
Bri an</w>
7 5</w>
v ement</w>
k abo
inst all</w>
busin esses</w>
bro wns</w>
S on
z one</w>
pri or</w>
fi eld</w>
conven ien
passion ate</w>
excee ded</w>
bor ing</w>
be t</w>
ani mal</w>
pro gram</w>
mem orable</w>
igno red</w>
g i</w>
ca f
ta d</w>
pa y
buil d</w>
K evin</w>
mon th
an nivers
Ale x</w>
vi de
spo t
ri sh</w>
an ies</w>
U ber</w>
do m</w>
c ev
N ick</w>
hoo k
choriz o</w>
chees est
wil d</w>
ti ght</w>
scallo ps</w>
mu se
sa dly</w>
re -
ex cu
concer ns</w>
strong ly</w>
l la</w>
meat ball</w>
replac ement</w>
ph ar
op s</w>
di vi
th ough
c at</w>
fa ve</w>
comp anies</w>
wal ls</w>
hand led</w>
r d</w>
poo r
C or
ep tion</w>
c le</w>
po sted</w>
1 2
z i
ing .</w>
inter net</w>
im ent</w>
ad ul
Da ve</w>
under cooked</w>
so y</w>
is a</w>
deta iled</w>
ch at</w>
sk im
r ic
famil ies</w>
th row</w>
phar mac
c ig
be ds</w>
t elling</w>
em er
li an</w>
acc ept</w>
Tex as</w>
un g</w>
pla y
per haps</w>
ca pp
tech s</w>
blo wn</w>
stea med</w>
s our
secre t</w>
pre -
the tic</w>
1 7</w>
sp ices</w>
v end
ham burger</w>
A sh
app s</w>
provi des</w>
pas sed</w>
o ily</w>
ir y</w>
in san
in iti
in door</w>
prote in</w>
lo gy</w>
men u
gu est</w>
t to</w>
pu shy</w>
lo vers</w>
k iller</w>
pain less</w>
Co st
la sag
holi day</w>
ra vi
annivers ary</w>
son t</w>
necess ary</w>
wra pped</w>
m med</w>
pick ing</w>
apolo gi
heal th
fit ness</w>
f ountain</w>
dis coun
adul ts</w>
V al
ti n</w>
genu inely</w>
é ta
sign ature</w>
ma gic</w>
ra rely</w>
lo ver</w>
li on</w>
il la
gra ss</w>
y ou
help s</w>
explain ing</w>
daugh ters</w>
theat re</w>
t wi
faj itas</w>
char ming</w>
vis it
un friendly</w>
de serve</w>
Q u
P anda</w>
smo king</w>
pre mi
ad m
L os</w>
ig n
deci sion</w>
bu ck</w>
s co
pro j
min t</w>
gol den</w>
3 rd</w>
J ac
G il
ta pas</w>
st ellar</w>
res ort</w>
ow ner
ha ha</w>
l in</w>
s law</w>
pas sion</w>
fu sion</w>
bre w
I sl
accur ate</w>
.M y</w>
v an</w>
poor ly</w>
cra ppy</w>
sho ts</w>
pl enti
ki e</w>
an k</w>
fru str
flu ffy</w>
f lo
loc ally</w>
V ery</w>
.S ervice</w>
past ry</w>
di a
con fi
ban g</w>
in du
soooo o</w>
s w
cu tting</w>
tr aff
hor ri
t .</w>
sm iles</w>
o z</w>
hi p
vac u
or ien
e er</w>
Chin a</w>
ol ved</w>
pr o</w>
3 -
plan ning</w>
al low</w>
st ac
ke ts</w>
P al
Isl and</w>
Cost co</w>
gr ab
col es
tr an
pho to</w>
s elling</w>
mo cha</w>
m ill</w>
watch ed</w>
pick up</w>
lo ving</w>
ha s
recommend ing</w>
u ses</w>
pier c
wan na</w>
kara oke</w>
c lin
as sor
rom antic</w>
impro ve</w>
dr unk</w>
men us</w>
el le</w>
el ed</w>
car pets</w>
vi bes</w>
separ ate</w>
per s</w>
McDonal ds</w>
L V</w>
y n
traff ic</w>
el i
pu dding</w>
pan cake</w>
maintain ed</w>
il ities</w>
e .The</w>
coles law</w>
hy pe</w>
fa ult</w>
ver sion</w>
bott les</w>
plenti ful</w>
NY C</w>
L T</w>
slo west</w>
acc ess</w>
so a
men tioned</w>
k at
e p</w>
pum pkin</w>
elec tr
R yan</w>
st on</w>
s k</w>
Ch e
consist ency</w>
al lowed</w>
under standing</w>
p en
must ard</w>
hang out</w>
wh o
liqu or</w>
bo w</w>
to asted</w>
sp eed</w>
mo sas</w>
k im
s ch
bir yani</w>
Sco tt</w>
pret enti
pan ini</w>
off er
Ja mes</w>
sh oo
G e
yog a</w>
win d
up set</w>
sub st
che d
capp uccin
c on</w>
lasag na</w>
S t</w>
spee dy</w>
ligh ting</w>
es days</w>
s i</w>
re moved</w>
uc ked</w>
pi c</w>
esca pe</w>
pois oning</w>
compar able</w>
An gel
ju n</w>
fan s</w>
sh out</w>
ord er
hesit ate</w>
hass le</w>
O hio</w>
star ting</w>
medic al</w>
di a</w>
ver se</w>
sm art</w>
so -
p an</w>
mel ted</w>
know ing</w>
gre ase</w>
k o
jo ints</w>
co ke</w>
- in</w>
sh ouldn</w>
ro se</w>
pla za</w>
u ro
l ls</w>
ab ility</w>
off ering</w>
ex ec
.I f</w>
instruc tors</w>
sha ved</w>
l es
dri ed</w>
da m</w>
bag s</w>
remo del
Fili pin
chees y</w>
bari stas</w>
mo zz
k u
estim ate</w>
com ment</w>
ravi oli</w>
d ered</w>
E ric</w>
Ca jun</w>
therapi st</w>
loc ked</w>
drive- thru</w>
bow ling</w>
inclu de</w>
du de</w>
N a
M el
won ton</w>
ma ke
ched dar</w>
blue berry</w>
Braz ilian</w>
pi d</w>
er r
enti al</w>
bar be
J en
H O
is s</w>
ad ju
perio d</w>
ridicul ously</w>
h ello</w>
drea m</w>
clo thing</w>
c a</w>
to pped</w>
so o</w>
co ast</w>
li est</w>
l en
coo ks</w>
bl on
sal ted</w>
kno ts</w>
emer gency</w>
begin ning</w>
x e</w>
hook ah</w>
ff le</w>
d ates</w>
month ly</w>
cu cum
ver ages</w>
ter ms</w>
re fer</w>
muse um</w>
int ro
sp ray</w>
m b
g ate</w>
char ges</w>
stand ards</w>
h r</w>
fa mous</w>
car n
are lla</w>
Gil bert</w>
a ve
show er</w>
hi story</w>
gre et</w>
sa vor
pe sto</w>
li me</w>
lac ked</w>
bro ther</w>
hospit ality</w>
easi er</w>
in divi
fashi on</w>
scrat ch</w>
O r
Joh n
speci fic</w>
le gs</w>
indivi du
rec epti
sta ple</w>
par m</w>
p ack</w>
bi e</w>
t int</w>
u si
da iry</w>
lefto vers</w>
yel low</w>
resul t</w>
p tion</w>
manag ers</w>
itt y</w>
de tails</w>
ac ry
un limited</w>
tic al</w>
scre ens</w>
pretenti ous</w>
oo ns</w>
fe ed</w>
f ill
dr ag
Michel le</w>
tem per
t ucked</w>
o pp
th ered</w>
sur roun
scen e</w>
san gri
centr al</w>
Ro ber
C on
tom or
to es</w>
h at</w>
M is
swee t
ra sp
impro vement</w>
di v
stand s</w>
satis fac
p are</w>
ba se
mil d</w>
bari sta</w>
Pau l</w>
fl at
croiss ants</w>
cra ve</w>
L u
B e
ru ined</w>
mus sels</w>
kat su</w>
Filipin o</w>
wind shi
un it</w>
ha dn</w>
fi anc
ques o</w>
or i
lo af</w>
contac ted</w>
cal m</w>
arran ge
S ar
mozz arella</w>
din ners</w>
be verages</w>
ac tiv
ti k
so l
brew ery</w>
T ra
s at
ma d</w>
cha ins</w>
cho p</w>
bo xes</w>
I rish</w>
trav eling</w>
loy al</w>
a st
nec k</w>
grat eful</w>
boo th</w>
b low</w>
cur ren
butt er
squ ee
mechan ic</w>
r at
hur t</w>
dep end
st range</w>
is on</w>
any body</w>
wait staff</w>
under staffed</w>
savor y</w>
dough nuts</w>
stu dents</w>
s cra
po wer</w>
B ur
tomor row</w>
pre pare</w>
i d
ch erry</w>
sh red
mes sy</w>
r ates</w>
di et</w>
tr e</w>
tain s</w>
char ging</w>
pharmac y</w>
g ent</w>
friend liest</w>
c one</w>
all ing</w>
to ts</w>
shred ded</w>
flavor less</w>
di sh
week day</w>
request s</w>
pu ppy</w>
U n
be at
3 .5</w>
trou ble</w>
th west</w>
su ck</w>
staff s</w>
sessi on</w>
in ess</w>
V I
serv ings</w>
lo ad</w>
ba se</w>
sche dul
g no
convenien tly</w>
w eak</w>
past or</w>
con fir
B el
to il
h rs</w>
ca mp
.9 5</w>
sh oul
owner ship</w>
h its</w>
pro s</w>
ge tic</w>
cheesest eak</w>
t rea
go ld</w>
equ ally</w>
ur s</w>
lo ws</w>
deli ght</w>
20 0
ve g</w>
thri lled</w>
hea d
at h</w>
m ea
ea red</w>
li l</w>
fru its</w>
com pu
el ev
che fs</w>
mes sage</w>
gu ar
pol lo</w>
mu m</w>
li king</w>
ch im
ave c</w>
con trac
brea ds</w>
a de
Par a
D enny</w>
v ings</w>
ri st</w>
mp ed</w>
l ess
el et</w>
P at
J ess
pu b
aut om
E uro
stric t</w>
l ici
f at
d y
bi en</w>
G er
mu ff
l ab
compu ter</w>
Sun days</w>
L isa</w>
L ee</w>
si s
m ir
di pping</w>
W il
su cked</w>
in si
es sed</w>
amaz ed</w>
D en
water y</w>
adv ance</w>
be ats</w>
ab le
hair cuts</w>
co stum
Para dise</w>
An th
speci f
S am
un c
en coun
defin ately</w>
ani e</w>
anc ed</w>
Jo sh</w>
j um
es .</w>
danc ing</w>
cre ate</w>
cappuccin o</w>
mi c</w>
k s
duc ed</w>
ti ous</w>
S um
re co
carn itas</w>
em pan
remin ded</w>
conditi on</w>
H ol
train ed</w>
servic e.
appro pri
C A</w>
wr iting</w>
cab bage</w>
windshi eld</w>
r ough</w>
ge st</w>
adv an
sear ch</w>
ch un
ar ca
ing y</w>
dres sed</w>
ch ile</w>
5 0
was nt</w>
or a</w>
. E
- up</w>
o a</w>
lo ck
Mon go
com e
an te
st at
reali ze</w>
fa ke</w>
ck et</w>
be verage</w>
K e
Anth ony</w>
cev iche</w>
K elly</w>
schedul ing</w>
sangri a</w>
or ity</w>
lear ned</w>
G u
D an</w>
4 -
le st</w>
vide o</w>
din ed</w>
ac ted</w>
water ing</w>
tik ka</w>
past ra
ec tic</w>
concer ned</w>
ben to</w>
app t</w>
om in
ick y</w>
he ated</w>
N i
str o</w>
t end</w>
pro per</w>
offer ings</w>
exec u
H ills</w>
sy r
stu dy</w>
R ob
Jess ica</w>
after wards</w>
t att
ext en
blon de</w>
en th
co -
chea pest</w>
wa shed</w>
Mongo lian</w>
tr ain</w>
to ys</w>
specif ically</w>
N ut
am ong</w>
Pan era</w>
lo in</w>
f em
Ital y</w>
jalapeñ o</w>
tatt oo
sur g
super ior</w>
ho ly</w>
Je ff</w>
rasp berry</w>
ni fic
mat cha</w>
entr ance</w>
cra f
col or
ca b</w>
w et</w>
pretz el</w>
pastra mi</w>
advan tage</w>
Ash ley</w>
li fe
shir ts</w>
end y</w>
assi st
T im</w>
techn icians</w>
pres cri
ol a</w>
g ien
custom i
pu ll</w>
e es</w>
ma ple</w>
be aut
con es</w>
K en
syr up</w>
a ware</w>
va pe</w>
thank ful</w>
recei pt</w>
no ise</w>
mon t</w>
bat ter</w>
sig ned</w>
ell i</w>
m ountain</w>
encoun tered</w>
cor ned</w>
acci dent</w>
matt ress</w>
has n</w>
fe es</w>
bre ws</w>
J an
ma sh</w>
th reading</w>
restaur ant
re qui
O re
hy gien
clin ic</w>
water ed</w>
t ext</w>
bar bers</w>
Mar k
tic ally</w>
st ro
hou se
inclu des</w>
Mis sis
ut e</w>
guar ante
z er</w>
so f
orien ted</w>
eye brow</w>
C in
. com</w>
swit ch</w>
a partment</w>
occa si
dre w</w>
curren tly</w>
S han
we ight</w>
r é
cr unch</w>
ku dos</w>
fac ilities</w>
enth usi
ec k</w>
dri vers</w>
Bo b</w>
na p
hi m
Ste ph
des ired</w>
7 0</w>
under whel
or tun
en se</w>
wal k
steak house</w>
season al</w>
la va</w>
Yo u</w>
mm mm</w>
me an
ig n</w>
gno c
cashi ers</w>
c ir
prom o
mas sive</w>
g f</w>
wa sted</w>
la ser</w>
h il
s .I</w>
om elet</w>
list ens</w>
li sts</w>
ch ill
pr in
good .</w>
VI P</w>
St .</w>
. L
we stern</w>
frea king</w>
fi xing</w>
b its</w>
instruc tor</w>
Ju stin</w>
o l</w>
camp us</w>
be e</w>
Br and
un t</w>
opp ortun
har d
ex pl
dep ending</w>
ad ding</w>
m ale</w>
cat ering</w>
mo b
j a</w>
pub lic</w>
Can ada</w>
ti ra
sales man</w>
fl exi
ca p
sear ching</w>
pe ac
instal lation</w>
ici er</w>
t our
st ress</w>
s lu
pre ci
f fin
addic ted</w>
s ounds</w>
po inted</w>
fi red</w>
deal ing</w>
s na
bas is</w>
a men
upgra de</w>
surg ery</w>
satis fy</w>
Nut ella</w>
éta it</w>
blo ck</w>
up town</w>
to wards</w>
s now</w>
recepti onist</w>
l ic
exc iting</w>
tre es</w>
stu dent</w>
sk illed</w>
sh a</w>
high lights</w>
fol lowing</w>
sau ga</w>
for m</w>
di strict</w>
ag e
ri so
kim chi</w>
gnoc chi</w>
b ene
att end
b ered</w>
.F ood</w>
ti le</w>
serv iced</w>
ac count</w>
down hill</w>
ch u
b oun
S pan
f its</w>
cre me</w>
concer t</w>
G T
ph ones</w>
bu ds</w>
beaut y</w>
qu al
v o</w>
s la
we l</w>
i P
amaz ing
ade qu
ad ult</w>
Re u
wh is
de gre
too th</w>
over -
di um</w>
appl i
k etch
eff ec
co workers</w>
Al fre
N e
to ps</w>
stu pid</w>
it ely</w>
jo bs</w>
il a</w>
definit e</w>
ta il
ru mp
latt es</w>
E r
qu ar
hon or</w>
N ic
s car
mis sion</w>
bl end</w>
ad dress</w>
ro it</w>
happ ens</w>
gu ac</w>
en sure</w>
deal t</w>
com bo
mis u</w>
mi x
deal er</w>
bi stro</w>
att ended</w>
V illa
V er
sh ut</w>
ma ster</w>
gui de</w>
Ro bert</w>
rest rooms</w>
en cour
T han
pr e</w>
pat ties</w>
or ge</w>
caf é</w>
ar m</w>
An d</w>
y uck</w>
sub par</w>
show ing</w>
re mem
le g</w>
br ings</w>
aw k
Alfre do</w>
sa ke</w>
re fu
p eak</w>
exac t</w>
B ay</w>
P i
riso tto</w>
f el
F C</w>
top us</w>
sp ir
purcha sing</w>
d ness</w>
cucum ber</w>
tri es</w>
m per
lo ck</w>
ick ed</w>
ch ow
B Y
bl ack
swee ts</w>
su ff
sec on
i als</w>
de bit</w>
bi kes</w>
u g
su it</w>
so- so</w>
na tional</w>
bar ber
wh eat</w>
re fl
pl ants</w>
pan eer</w>
brow nie</w>
Villa ge</w>
Span ish</w>
R oc
tira misu</w>
s .The</w>
oc topus</w>
hea ding</w>
fa ther</w>
pri x</w>
pati ence</w>
ma il</w>
gu n</w>
gre w</w>
ci gar</w>
b c</w>
te en
comple x</w>
acc es
ver ing</w>
se ts</w>
ri bey
excu se</w>
be ach</w>
ar tic
remem bered</w>
milk shake</w>
barbe cue</w>
assor tment</w>
ad vis
sh ell</w>
se t
fashi oned</w>
up beat</w>
bla h</w>
p ure</w>
excepti onally</w>
costum er</w>
ter min
st le</w>
ex o
di verse</w>
che er
com mon</w>
ch ini</w>
' ai</w>
l or</w>
e du
ca red</w>
a side</w>
U S
2 1</w>
ti ves</w>
J es
Cu ban</w>
twi st</w>
tt es</w>
tr ack</w>
sk e
f ee
temper ature</w>
d ans</w>
boo ths</w>
s ci
pol icy</w>
drag on</w>
ch er</w>
br an
bal ance</w>
tri m</w>
fa il</w>
cor n
I M
the me</w>
fe at
extr a
t out</w>
ketch up</w>
brea st</w>
Sar ah</w>
mini mal</w>
bur ned</w>
Reu ben</w>
z uc
suppl ies</w>
B LT</w>
ribey e</w>
re wards</w>
mid night</w>
fi gu
fac es</w>
e th
ad ven
ve ter
nee ding</w>
e duc
ic ated</w>
tru st
ste w</w>
rest o</w>
l it</w>
.. .....</w>
v is</w>
shu ttle</w>
sl iced</w>
pp ers</w>
ou red</w>
wor ry</w>
tru ffle</w>
st ates</w>
sou l</w>
plan et</w>
H ut</w>
pu ts</w>
ne i
im possible</w>
se l</w>
martin i</w>
j am
insp ection</w>
cur ds</w>
compet ition</w>
r on</w>
pot ential</w>
mush y</w>
tar o</w>
l en</w>
e tte</w>
cau li
vel vet</w>
varie ties</w>
suggesti on</w>
ra ve</w>
mal es</w>
jo y</w>
fianc é</w>
discoun ts</w>
al ing</w>
S ervice</w>
provi ding</w>
pas sing</w>
is sa</w>
g all
sta ge</w>
nap kins</w>
el eg
chur ch</w>
boo t</w>
N C</w>
zuc chini</w>
u u
pp l</w>
il las</w>
con ge
bon eless</w>
W endy</w>
W e</w>
Che ers</w>
regar ding</w>
ph ys
Amer ica</w>
spr ink
arti sts</w>
A T
4 th</w>
some how</w>
sh aring</w>
mob ile</w>
l ers</w>
app et
G M</w>
st ated</w>
na mes</w>
fem ale</w>
cu z</w>
combin ations</w>
char ac
. Al
speci ali
l ately</w>
hun g</w>
adverti sed</w>
w t
val u
pre par
cur rent</w>
B en</w>
ur a</w>
o x
ex am</w>
el e</w>
cauli flower</w>
adm it</w>
Missis sauga</w>
tt er
mil itary</w>
acc ord
ac he</w>
ran dom</w>
p ea
con di
fri lls</w>
sou thwest</w>
qu es</w>
mini mum</w>
lo se</w>
gi fts</w>
check out</w>
C ham
scre w</w>
pier o
m oun
la p
soci al</w>
respon ded</w>
qu i</w>
chim ich
ac knowledg
BY O
et c
chi se</w>
acces sor
Dani el</w>
vin tage</w>
fat ty</w>
A ve</w>
ses sed</w>
deli vers</w>
M oon</w>
rest room</w>
k ale</w>
descri be</w>
cou ples</w>
b b
I HO
trust worthy</w>
in consistent</w>
fran chise</w>
am a</w>
Dun kin</w>
spot less</w>
pe ach</w>
a do
hip ster</w>
high light</w>
deser ts</w>
sp oon</w>
peac eful</w>
mor n
ff s</w>
scoo p</w>
p hi
k ill</w>
in crea
M r.</w>
H un
B ru
sho e</w>
hear ty</w>
exper t</w>
dr oo
cra w
clean est</w>
wal nut</w>
sh ar
amen ities</w>
ss i</w>
mi d</w>
manic ures</w>
him self</w>
coll ection</w>
r ace</w>
her e.
coff ees</w>
c ents</w>
30 pm</w>
roo t</w>
ta males</w>
star ts</w>
premi um</w>
challen ging</w>
be came</w>
opportun ity</w>
ari ly</w>
H an
nei ther</w>
pay ment</w>
mel on</w>
me tic
chill i</w>
P H
2 2</w>
reali zed</w>
inf o</w>
goo dies</w>
div ine</w>
c y
- free</w>
rec com
ra id</w>
. Very</w>
wt f</w>
rain bow</w>
muff in</w>
del u
v ent</w>
la sh</w>
bon ne</w>
again st</w>
adequ ate</w>
J im</w>
treat ments</w>
set up</w>
combo s</w>
celebr ate</w>
ver y
origin ally</w>
S w
ta s</w>
dar n</w>
P S</w>
.Than k</w>
sta l</w>
mi e</w>
hil ari
ac tive</w>
proc ed
pa thetic</w>
il an
en ter</w>
desig ns</w>
proced ure</w>
Can a
B ob
so lu
f -
enchil ada</w>
const ruc
cho pped</w>
be st
brea d
Sum mer
v ra
sal sas</w>
fresh ness</w>
Hawai i</w>
tan ning</w>
stick ers</w>
st res
speci ally</w>
perfor man
flexi ble</w>
af raid</w>
ja zz</w>
con sul
bu gs</w>
W a
impres sion</w>
canc el</w>
B l
pow der</w>
pan ts</w>
health ier</w>
4 0
vo d
sty lists</w>
on -
m ble</w>
es the
anc es</w>
soo ner</w>
10 -
ex ample</w>
H u
.W ill</w>
.... ....
roo f</w>
min or</w>
li sted</w>
inter est</w>
cheer ful</w>
W est
plac e.
aca i</w>
ta r</w>
delu xe</w>
regar dless</w>
fla w
cr an
L ou
our selves</w>
d ying</w>
bab ies</w>
ar ance</w>
GT A</w>
vo lu
tur ns</w>
tar t</w>
PH X</w>
win ner</w>
pr int</w>
ni es</w>
ki d
empan adas</w>
dr un
sty les</w>
sp ort</w>
la sted</w>
a do</w>
in ch</w>
hea ven
con nec
boo king</w>
barber shop</w>
awk ward</w>
F re
tri ps</w>
nee dless</w>
kabo b</w>
g le</w>
fro sting</w>
desig ned</w>
IHO P</w>
ho ag
con fu
Jer sey</w>
ri d</w>
part ner</w>
make up</w>
ma x</w>
frustr ating</w>
arca de</w>
slo ppy</w>
r r
r in
vin eg
sca m</w>
resp ond</w>
rea sons</w>
cli ent
pac e</w>
ke ys</w>
H ak
ur y</w>
professi on
milk shakes</w>
i est</w>
fresh est</w>
en a</w>
effici ently</w>
answ ers</w>
ye ar
s have</w>
famil i
Summer lin</w>
S al
John ny</w>
youn ger</w>
stri ps</w>
pu sh</w>
prom ise</w>
ba p</w>
main ly</w>
groo mer</w>
carro t</w>
bou ti
ra s
ic ing</w>
fe sti
we ed</w>
toil et</w>
sho cked</w>
l ing
awes ome
si de
hilari ous</w>
ex hi
appropri ate</w>
K ung</w>
pi stac
R a
st ru
assi stance</w>
Tu esdays</w>
T so</w>
A P</w>
y ay</w>
mu y</w>
gr its</w>
Car ol
un happy</w>
tattoo s</w>
ou tr
dis sa
dia mond</w>
cra mped</w>
cla im
re n</w>
l li
tt i</w>
de stin
b f</w>
at own</w>
ar t
sp read</w>
p itch
dama ge</w>
sta ys</w>
indu stry</w>
de f
appet ite</w>
H on
vod ka</w>
s ex
all -
accessor ies</w>
fa iled</w>
b t
R ic
1 .
y rs</w>
su rely</w>
remo val</w>
pu pu
microwa ve</w>
m .</w>
n ous</w>
l er
ci al</w>
bre e
smo g</w>
pla ys</w>
cat fish</w>
vi sion</w>
pl e
Ch ick
O O
K rist
Brand on</w>
ec l
assist ant</w>
the less</w>
wonder fully</w>
macar oni</w>
pp ies</w>
hot els</w>
P ri
H al
un a</w>
to wn
swee test</w>
suppor ting</w>
chun ks</w>
tr uc
straw berries</w>
pl um
ilan tro</w>
i dea
dis play</w>
din ning</w>
u don</w>
do g
c ilantro</w>
Cal i</w>
C re
.T here</w>
remodel ed</w>
g al</w>
fin al</w>
dec ently</w>
S he
M er
A my</w>
un acceptable</w>
servic e
mo j
fun c
mil lion</w>
ecl ectic</w>
con fused</w>
b im
sle ep</w>
crac ked</w>
AS AP</w>
ver mic
sampl er</w>
exi st
e h</w>
B roo
some time</w>
ren ted</w>
pain ting</w>
ki ly</w>
clu bs</w>
chees es</w>
a -
ur ant</w>
the -
cha ta</w>
G l
g ain</w>
exten sions</w>
challen ge</w>
Ju ly</w>
C ra
tu ally</w>
suppo se</w>
focu s</w>
P a
qual it
associ ates</w>
Mex ico</w>
Ger man</w>
su red</w>
he ir</w>
h h</w>
figu red</w>
b or</w>
vegetari ans</w>
sta dium</w>
sk ep
outr age
jal ap
it os</w>
del ic
cre ated</w>
bt w</w>
answ ering</w>
A dam</w>
r ack</w>
om a</w>
g rub</w>
contain er</w>
compet it
ear l</w>
cig ars</w>
chimich ang
char m</w>
I t</w>
ro prac
hou ses</w>
he ater</w>
Hak ka</w>
Ge orge</w>
Dan ny</w>
z e
pres sed</w>
m ps</w>
individu al</w>
igh ly</w>
dis cu
bl ing</w>
M ac
y .
ob sessed</w>
mo sa</w>
j am</w>
end roit</w>
cra vings</w>
chow der</w>
T am
Steph anie</w>
M S
her e.</w>
fun ky</w>
st al
ri pped</w>
grab bed</w>
gh t
eleg ant</w>
cal zone</w>
b o</w>
T om
BYO B</w>
é s</w>
pres ent</w>
hal o</w>
foo l</w>
ex ter
cla m</w>
V in
grocer ies</w>
chi roprac
war ned</w>
satisfac tion</w>
sa ving</w>
la un
ban h</w>
agre ed</w>
shi ft</w>
loca tion
i deal</w>
ear ned</w>
c is
ac es</w>
tra il</w>
te qu
or i</w>
initi al</w>
g an</w>
bur n</w>
any ways</w>
th a</w>
metic ul
si ble</w>
quesad illas</w>
mo ves</w>
luc kily</w>
cour ses</w>
j elly</w>
j ac
e u
ch ops</w>
bl ood</w>
bis que</w>
artic ho
vermic elli</w>
tal ent</w>
speci al
sen s
ni c</w>
lo s</w>
in ven
d ings</w>
confi dent</w>
ca sh
C ob
5 pm</w>
pa o</w>
excell ent
da l</w>
cer ti
at a</w>
K y
D ec
th i
flat bread</w>
shir t</w>
sa v
ch al
can ned</w>
ki dding</w>
great ly</w>
ffin s</w>
anno yed</w>
Ta i
ta g</w>
profession als</w>
morn ings</w>
fin ger</w>
dir t</w>
th ing
p o</w>
lev els</w>
ba ss</w>
sig nific
re l</w>
intro duced</w>
complain ed</w>
ro tation</w>
re house</w>
ra is
pistac hio</w>
pic s</w>
con su
ap a</w>
Chin atown</w>
2- 3</w>
to- go</w>
sca red</w>
oper ated</w>
ey el
st eep</w>
ge t
famili ar</w>
d .
bit ter</w>
In n</w>
sig ns</w>
hel d</w>
co d</w>
W e
Ro y
Euro pe
- O
to wel
ni fer</w>
mar y</w>
d ence</w>
bir d</w>
a rea
B M
ver all</w>
t and
li vely</w>
Pat r
conditi oning</w>
ca fe
back ground</w>
De pot</w>
pl u
.N ot</w>
fa it</w>
cal ories</w>
bru sche
assi st</w>
Jen nifer</w>
wh im</w>
wal let</w>
stea m</w>
p it</w>
down stairs</w>
ch ic</w>
ber y</w>
ar ro
a is
H y
wi shed</w>
war ning</w>
tri c</w>
idea s</w>
de dic
tt ed</w>
hor chata</w>
f ed</w>
ci der</w>
bo ar
ay a</w>
J ay</w>
overwhel ming</w>
et to</w>
comp ani
arri val</w>
P en
sp ic
s low
professi onally</w>
de m
cla im</w>
rea m</w>
proj ect</w>
insp ired</w>
fe ta</w>
S o
G ab
A A
.G ood</w>
men ted</w>
destin ation</w>
S tr
N ev
p up</w>
on ge</w>
m per</w>
clean ers</w>
R ac
N S</w>
H o
vi se</w>
gree ting</w>
U nivers
1 6
tra de</w>
t i</w>
drin k
ce iling</w>
bal anced</w>
F ood</w>
th ir
oc a</w>
mi g
mem ories</w>
buil t</w>
V ic
2 00</w>
tech ni
secon ds</w>
ri ver</w>
m end
e go</w>
Fran k</w>
Americ ano</w>
ta ble
pierc ing</w>
home y</w>
An dy</w>
val et</w>
terri bly</w>
remo del</w>
ho p</w>
car t</w>
pu ppies</w>
p unch</w>
lea se</w>
heaven ly</w>
gra de</w>
the irs</w>
te ach
st un
skep tical</w>
lac ks</w>
exter ior</w>
c ater</w>
br ands</w>
as se
Ti ff
Europe an</w>
unbeliev ably</w>
to dd
qu ir
go gi</w>
fra me</w>
brusche tta</w>
Univers ity</w>
L ar
in edible</w>
concer n</w>
com ments</w>
Cre ek</w>
st ir</w>
fli es</w>
S m
succ ess</w>
min us</w>
in j
continu ed</w>
construc tion</w>
th us</w>
k o</w>
ba sk
appe ars</w>
acknowledg ed</w>
towel s</w>
re mark
mechan ics</w>
mat ched</w>
cau ght</w>
T ur
H eather</w>
on om
iP ad</w>
conge e</w>
confu sing</w>
cha mp
bouti que</w>
accommo dated</w>
.Than ks</w>
spea king</w>
hi red</w>
T ina</w>
e ux</w>
bak lava</w>
attitu des</w>
pr icier</w>
L au
um s</w>
mu ffins</w>
la ugh</w>
er ia</w>
Than ks
su r</w>
over rated</w>
o ppo
fu cking</w>
. A</w>
tre mend
th ering</w>
G ood
t es
ra ised</w>
fal ls</w>
can no
1 -
o lives</w>
mer chan
lo red</w>
fri dge</w>
Joh ns</w>
201 6</w>
pa mper
high est</w>
K ar
B S</w>
wor ried</w>
tri ple</w>
s oun
l l
dec ad
champ ag
Fri days</w>
De fin
tu al</w>
st -
pic al</w>
insan e</w>
T y
201 7</w>
sh ine</w>
pre viously</w>
gro wing</w>
food .</w>
D u
ter ia</w>
star ving</w>
lu x
itt en</w>
I PA</w>
E R</w>
B er
mb led</w>
lac k
adju st
M or
entr e</w>
Cana dian</w>
vra iment</w>
re members</w>
pe u</w>
p ound</w>
le tting</w>
g al
R ay</w>
Cham pa
sun da
prefer red</w>
ne ws</w>
far m</w>
att ached</w>
al ley</w>
O s
Mark ham</w>
t é</w>
su e</w>
re move</w>
dis organized</w>
bo ss</w>
Tiff any</w>
2 4
spo iled</w>
sing ton</w>
pat h</w>
pa stas</w>
p il
ob vious</w>
it .</w>
att emp
Ta ver
ur gent</w>
trea sure</w>
fi re
fac tory</w>
cha tting</w>
biscu it</w>
M il
Am anda</w>
s wi
ho les</w>
h eck</w>
eng aging</w>
a hi</w>
whis key</w>
vineg ar</w>
v s</w>
sha dy</w>
pick le</w>
fi x
alter ations</w>
Me x</w>
what so
tu b</w>
mo vers</w>
laugh ing</w>
customi ze</w>
T ay
sp iced</w>
gh ts</w>
ck ey</w>
bul gogi</w>
Thanks giving</w>
An drew</w>
su pre
ry stal</w>
po pped</w>
ha z
Nev ada</w>
Jo se</w>
p int</w>
land sca
hand ed</w>
ad ore</w>
C ari
B i
si r
pol it
plac e.</w>
man age</w>
hi ke</w>
f le
champag ne</w>
B loo
underwhel ming</w>
pho to
mat er
f on
en tic
bour bon</w>
.T heir</w>
y n</w>
compar ison</w>
ar gu
appe aling</w>
P ro
Nic ole</w>
L oc
in competent</w>
flaw less</w>
bott led</w>
beg in</w>
J ama
rec ord</w>
g ni
fac ials</w>
buff ets</w>
ble w</w>
sk etch
lea k</w>
c ore</w>
n i</w>
holi days</w>
truc ks</w>
tic s</w>
pi g</w>
p unc
condi ments</w>
ch er
ad ds</w>
Mi d
Ka tie</w>
ti t</w>
stor age</w>
pe d
in ing</w>
h ook</w>
grand ma</w>
complain ing</w>
client ele</w>
K o
e ater</w>
b ility</w>
arrange ment</w>
M al
An gel</w>
9 9</w>
7 pm</w>
pupu sas</w>
pain ful</w>
new ly</w>
g in
bo thered</w>
revie wers</w>
qu is
friend liness</w>
wa y
su mm
co le</w>
ro ck
fl ying</w>
ex plan
bran ch</w>
Mari a</w>
10 pm</w>
hea ds</w>
fl or
decor ations</w>
bu mmer</w>
bat h</w>
O ut
D el</w>
scre wed</w>
macar ons</w>
j unk</w>
re port</w>
meticul ous</w>
itt ers</w>
ho ckey</w>
for th</w>
an cy</w>
Gl end
re p</w>
oo ri</w>
man ger</w>
inv olved</w>
c ats</w>
3 .
1 9</w>
wh er
w oo
ad vise</w>
acc essi
servic e.</w>
h int</w>
ed ge</w>
y r</w>
t us</w>
ju dge</w>
S NS</w>
Rober to</w>
whatso ever</w>
sketch y</w>
shoul der</w>
oy ster</w>
list ening</w>
ici p
gr acious</w>
fo am</w>
clo ses</w>
bi bim
sk ill
p h</w>
op ens</w>
lap top</w>
em bar
apolo gy</w>
Taver n</w>
sun ny</w>
qu in
l um
continu es</w>
sa mosas</w>
performan ce</w>
er ies</w>
em pt</w>
sa l</w>
macar oons</w>
e ur</w>
bu tch
aller gies</w>
BM W</w>
spar k
s wa
prescri ption</w>
op en
it ter</w>
io pi
an e</w>
MS G</w>
sun set</w>
ri an</w>
p a</w>
o -
h all</w>
fi ght</w>
acry lic</w>
gla zed</w>
S i
E ve</w>
. Lo
z a
wash er</w>
tou rist</w>
squ id</w>
sel ect</w>
meat loaf</w>
gro wn</w>
ap y</w>
M and
z oo</w>
wa xed</w>
th iopi
tequ ila</w>
smooth ly</w>
renov ated</w>
pi ping</w>
na h</w>
Defin itely</w>
wh eel</w>
pa per
em ber</w>
b ye</w>
0 s</w>
lou sy</w>
inven tory</w>
i di
groo med</w>
ec ts</w>
car d
Ore o</w>
Mat the
yn n</w>
he aring</w>
hand ful</w>
hal i
dum p</w>
come dy</w>
charac ter</w>
theat ers</w>
tes y</w>
squee zed</w>
perfor med</w>
ma hi</w>
exc eption</w>
di ed</w>
brea ded</w>
Sw iss</w>
D o
7 th</w>
volu me</w>
ther e
rel ated</w>
nur ses</w>
he l</w>
g in</w>
ex quis
V an
T ro
9 pm</w>
un pleasant</w>
san itary</w>
nur se</w>
no pe</w>
mig non</w>
m are</w>
d omin
E thiopi
2 5
we aring</w>
vacu um</w>
per man
il le
i ds</w>
h tt
c it
and ed</w>
z o</w>
un organized</w>
etc .</w>
en te</w>
co s</w>
Mel issa</w>
I .</w>
20 15</w>
t ells</w>
s sy</w>
refu se</w>
merchan dise</w>
en e</w>
con n
c lim
Tay lor</w>
Am ber</w>
0 00</w>
to sta
s si
extra ordinary</w>
disp ens
cafe teria</w>
ba sket</w>
To yo
v la
reco gni
li f
bor n</w>
au di
y ers</w>
up dating</w>
tand oori</w>
ici al</w>
con fer
bree ze</w>
am i</w>
F Y
s eni
ren d
re ach</w>
prac tically</w>
p is
ea ger</w>
x im
r out
loo se</w>
fa ils</w>
cur ries</w>
bud dy</w>
S ic
wa shing</w>
su c
k al
enthusi a
does nt</w>
do sa</w>
T h
win d</w>
sh itty</w>
s wear</w>
pre gn
or ing</w>
le an</w>
go ver</w>
col lea
cele bra
ul timate</w>
rec eption</w>
l enti
k ee</w>
gh etto</w>
eat ery</w>
attrac tive</w>
assu ming</w>
ag us</w>
T er
A pri
water melon</w>
tis sue</w>
pec an</w>
occasi onally</w>
mm mm
mi ser
lunch es</w>
l eng
hum or</w>
help ful
ch ick</w>
and er</w>
ag u
D ar
2 .
1 8
tre s</w>
s crea
craf ted</w>
H oo
.B ut</w>
pa ired</w>
happ ily</w>
glut en
des per
com mer
carro ts</w>
M eg
sp ect</w>
requi red</w>
oper ation</w>
me tro</w>
marin ara</w>
al i</w>
ac knowledge</w>
la me</w>
S car
D M
un real</w>
ta tive</w>
ha n</w>
coo ler</w>
co worker</w>
be et</w>
G ri
F ord</w>
explain s</w>
bel le</w>
S h
Per sian</w>
Glend ale</w>
un usual</w>
t ell
ign ore</w>
c ell</w>
è re</w>
ww w
sa fe
rec lin
dres ses</w>
cl ue</w>
Di ego</w>
Apri l</w>
tro pical</w>
ser s</w>
be ard</w>
. You</w>
vi an</w>
s kin
ri ous</w>
di st
thro wing</w>
no where</w>
gr ace</w>
dama ged</w>
ca mer
an na</w>
Y onge</w>
6 pm</w>
scar y</w>
ro ach</w>
pr ou
pi a</w>
base ball</w>
Bo ston</w>
sy m
s even</w>
reci pe</w>
lea ther</w>
hospit able</w>
g loves</w>
f alling</w>
bre wed</w>
articho ke</w>
J enny</w>
supre me</w>
rest urant</w>
dis respectful</w>
canc elled</w>
bo at</w>
bl ended</w>
a th
to ler
st eal</w>
rat ings</w>
ra ti
hali but</w>
h en</w>
es sing</w>
bac hel
T hom
xi ous</w>
to x</w>
r and
pretz els</w>
ne wer</w>
end less</w>
ar ms</w>
Champa ign</w>
wi -
ther apy</w>
ske wers</w>
sa ble</w>
re pu
quin oa</w>
k ish</w>
honest y</w>
squ ash</w>
sp are</w>
ec e</w>
drun ken</w>
ch em
butt ery</w>
bun d
an as</w>
upgra ded</w>
effec tive</w>
di pped</w>
and o</w>
aff ord</w>
S her
P apa</w>
D ev
w ro
though tful</w>
sha de</w>
no se</w>
lan gu
cour tesy</w>
ch o</w>
be droo
Br itt
v in</w>
se tt
s mash</w>
s ells</w>
r outine</w>
nu tr
mo tiv
lat est</w>
i g</w>
gr ounds</w>
gge ts</w>
con t
bra kes</w>
Toyo ta</w>
C la
menu do</w>
enjo ys</w>
sc rump
person nel</w>
li es</w>
decor ation</w>
reccom end</w>
diagno sed</w>
choo sing</w>
att empt</w>
Patr ick</w>
F e
swit ched</w>
res olved</w>
e tly</w>
FY I</w>
Ethiopi an</w>
ta bl
ma ins</w>
elec tric</w>
crow ds</w>
bri lli
ar on</w>
T rac
C rystal</w>
un able</w>
punc tual</w>
pea s</w>
p .
o at
La ura</w>
tri via</w>
star ter</w>
sha m
pack ages</w>
on ic</w>
lan e</w>
d ut
be coming</w>
att le</w>
apologi zed</w>
S er
wait s</w>
tem por
outrage ous</w>
dumpl ing</w>
be l</w>
associ ate</w>
Roy al</w>
K FC</w>
pain ted</w>
in k</w>
focu sed</w>
confer ence</w>
com passionate</w>
Ro b</w>
R d</w>
ut ch</w>
to wel</w>
stun ning</w>
me al
marin ated</w>
ener getic</w>
educ ated</w>
Son ic</w>
Satur days</w>
J eep</w>
B re
u es</w>
sc ore</w>
s lower</w>
a spar
P u
Gre g</w>
Carol ina</w>
A ma
A M
ta ff</w>
rand om
poo ls</w>
p -
j ack
insan ely</w>
direc tly</w>
ba ke</w>
b bean</w>
Tra der</w>
chocol ates</w>
bro thers</w>
accessi ble</w>
V ene
3 00</w>
.Al so</w>
wi- fi</w>
tr a</w>
ri des</w>
out lets</w>
ee ee
bott om
5 5</w>
z ones</w>
sweet ness</w>
smo key</w>
re served</w>
back yard</w>
Pe ter</w>
re pl
pack aged</w>
ha d
gentle men</w>
cat ered</w>
activ ities</w>
Tur kish</w>
tan k</w>
stru gg
qu et</w>
oat meal</w>
del a
apologi ze</w>
Den n
.S .</w>
y l</w>
sou vla
remark able</w>
mel ts</w>
gluten -free</w>
di g</w>
corn bread</w>
aw some</w>
t le</w>
ra ise</w>
r ab
boo ze</w>
W is
wro te</w>
under stood</w>
in spec
hus bands</w>
hear t
exquis ite</w>
cou l
cl er
Cob b</w>
A ppl
un beat
surpri sing</w>
out let</w>
out dated</w>
hygien ist</w>
fr ites</w>
dr yer</w>
T re
M u
whi pped</w>
ste pped</w>
or ia</w>
mo re
fra mes</w>
ec ted</w>
cro ss</w>
blo cks</w>
Cari bbean</w>
2 .5</w>
tr ay</w>
swee the
scrump tious</w>
rub bery</w>
overwhel med</w>
kno ck</w>
it ute</w>
f lights</w>
chil d
nu ggets</w>
mi mosas</w>
kin dness</w>
ho pes</w>
fu ck</w>
dut y</w>
w oul
pe tit</w>
lin ed</w>
int eg
dé c
cru m
cr ack</w>
bu si
Hon da</w>
v it
un expected</w>
t all</w>
mee t
le -
aspar agus</w>
app eared</w>
Sm ith</w>
J ord
who ever</w>
train ers</w>
sil ver
pl ans</w>
high -
for ced</w>
att end</w>
an gry</w>
Rac hel</w>
C oun
wr itten</w>
sex y</w>
re fri
pur po
po o</w>
organi z
ing ton</w>
in dul
in correct</w>
impres s</w>
d al
cig are
Lin da</w>
D ou
shel f</w>
cu t
cou ch</w>
accord ing</w>
accom o
a mon
Jer e
out come</w>
night mare</w>
gro w</w>
g un
ed .</w>
bu g</w>
br ick</w>
tw enty</w>
too ls</w>
soooo oo</w>
s is</w>
res ear
mu sc
in de
gener ic</w>
exist ent</w>
execu ted</w>
degre es</w>
cur ly</w>
consider ate</w>
bra ised</w>
an te</w>
ac e
201 4</w>
souvla ki</w>
s ev
me ant</w>
lici ous</w>
U ni
L on
top -
seri e</w>
m o</w>
le e</w>
audi ence</w>
assi sted</w>
a unt</w>
D el
ti mes
ti er</w>
sto re
rec ord
rati o</w>
happ ening</w>
Jere my</w>
unfortun ate</w>
stra igh
skim py</w>
i x</w>
fir m</w>
e pic</w>
ba b</w>
tu red</w>
th ick
tar t
su ck
pi ano</w>
p om
non e
ly n</w>
fe tt
f ty</w>
con vin
bread sticks</w>
b lowing</w>
G ar
Appl e
' y</w>
y u
no m</w>
hu b</w>
foo die</w>
cor d</w>
car te</w>
ba o</w>
sw im
pum p</w>
ju d
hum an</w>
g ear</w>
es .
unbeat able</w>
quar ter</w>
ham burgers</w>
Mar t</w>
to w</w>
st ones</w>
sm al
mo del</w>
jer ky</w>
chur ros</w>
R ick</w>
AS U</w>
1 5-
sat ay</w>
random ly</w>
photo gra
o x</w>
lu ster</w>
lo ss</w>
a ster</w>
P et
O c
Ky le</w>
s ans</w>
ant a</w>
P in
3- 4</w>
war m
ti se</w>
re mind</w>
po li
p age</w>
h our
en ces</w>
z el</w>
pick led</w>
it ch</w>
girl friends</w>
ali zed</w>
D utch</w>
8 pm</w>
trans action</w>
tr é
the med</w>
break fa
Loc o</w>
supp er</w>
pean uts</w>
n ly</w>
brilli ant</w>
M y</w>
thro wn</w>
sh e
microwa ved</w>
langu age</w>
kabo bs</w>
jalap eno</w>
for gotten</w>
cash ew</w>
Wis con
S ou
ut ens
u pper</w>
pr a
gu il
exper tise</w>
conc essi
Mon days</w>
ste ps</w>
silver ware</w>
refri ger
on able</w>
ma ki</w>
et ball</w>
be tter
aa aa
a qu
so das</w>
skim p</w>
res ol
plan e</w>
lunch time</w>
li p</w>
hesit ant</w>
fel low</w>
connec ted</w>
6 5</w>
1 .5</w>
vari ed</w>
spea ks</w>
sp i
paper work</w>
lic ense</w>
compl iment</w>
chimichang a</w>
bar gain</w>
ba dly</w>
S ean</w>
2 3</w>
sea weed</w>
ling u
lan es</w>
hand ling</w>
free zer</w>
ar ray</w>
Po pe
Ken sington</w>
Bra vo</w>
2 8</w>
sta ins</w>
red ee
lo cks</w>
friend lier</w>
bru s
utens ils</w>
t um
son gs</w>
k ni
gla dly</w>
co de</w>
ach o</w>
Le ban
Lar ry</w>
Ed die</w>
A t
sm ith</w>
is nt</w>
coo lest</w>
bor ough</w>
Tai wan
Ric hard</w>
Fran cis
Al ber
therapi sts</w>
prou d</w>
p ee
even ings</w>
déc or</w>
cr it
chec ks</w>
K en</w>
ru stic</w>
mista kes</w>
ari an</w>
F la
DM V</w>
v ou
surroun ding</w>
lu ke</w>
expec tation</w>
clas s
bibim bap</w>
S ky</w>
J ap
B ro
replac ing</w>
reci pes</w>
none theless</w>
guarante e</w>
auth entic
supp ly</w>
l ics</w>
contrac t</w>
B enny</w>
inde ed</w>
c el
Ri o</w>
201 8</w>
1 50</w>
won tons</w>
tin ted</w>
tend er
s om
re filled</w>
life time</w>
les son</w>
.H ighly</w>
st ops</w>
roo f
pu ffs</w>
pl ats</w>
is es</w>
direc tion</w>
c ac
Wiscon sin</w>
K ong</w>
w back</w>
sim pl
shi pping</w>
pa ys</w>
R ang
st ingy</w>
si ght</w>
ph y</w>
enthusia stic</w>
delicious ness</w>
cal zones</w>
breakfa sts</w>
appetiz ing</w>
F l
E li
teen ag
super market</w>
or mous</w>
lin e
i da</w>
hea ded</w>
ex change</w>
card board</w>
b all
adverti se</w>
Taiwan ese</w>
J erry</w>
Cin dy</w>
we igh
vo ice</w>
visit ors</w>
shoo t</w>
re serve</w>
fla ky</w>
cou ches</w>
an -
am s</w>
Yor k
Rang oon</w>
sha ped</w>
purcha ses</w>
neighbor s</w>
it ation</w>
hh h</w>
groo mers</w>
fa de</w>
ev ille</w>
comfor ting</w>
co at</w>
appro ach</w>
tast eful</w>
sweethe art</w>
m un
ke bab</w>
bo o</w>
R oo
N at
Mon tré
J une</w>
ver de</w>
of -
la sts</w>
ha u
gra pe</w>
fl our</w>
fin est</w>
bo iled</w>
bask etball</w>
al lows</w>
miser able</w>
great .</w>
for mer</w>
b ic
t ater</w>
po ps</w>
ema ils</w>
dr u
bul l
Jo ey</w>
Jap an</w>
H ong</w>
Cam el
wor th
week days</w>
te d
ta x
sing ing</w>
sin k</w>
s light</w>
mac ul
k ick
fu r</w>
ex pi
e way</w>
dedic ated</w>
d son</w>
b day</w>
Scar borough</w>
IM O</w>
An n</w>
30 -
pu l
pri ority</w>
on er</w>
la y</w>
hi stor
dr e</w>
cu tic
al u
Francis co</w>
An na</w>
A k
2 6</w>
tor ta</w>
op ted</w>
loy alty</w>
laugh ed</w>
in nov
hal al</w>
gre s
expl ore</w>
brow nies</w>
Par is</w>
5 th</w>
, 000</w>
ur ban</w>
ra z
i ffy</w>
gra du
f low</w>
ani zed</w>
stra tion</w>
recei ving</w>
integ r
im macul
goo gle</w>
d ee
d back</w>
b ones</w>
appe arance</w>
shi ps</w>
ju sti
j i</w>
favour ites</w>
dec k</w>
c ea
apolo getic</w>
D er
Coun ty</w>
si a</w>
pe di
i to</w>
do pe</w>
co lored</w>
c ell
ac ting</w>
W in
ti an</w>
res cue</w>
pizz a
n ick
e ty</w>
dro pping</w>
bedroo m</w>
wa sting</w>
lo gi
li br
g an
famil y-
4 .5</w>
tro p</w>
su ite</w>
laun dry</w>
in attentive</w>
end er</w>
conversa tions</w>
amb a</w>
acry lics</w>
Meg an</w>
5 .00</w>
re tail</w>
fin ance</w>
explan ation</w>
celebra tion</w>
L ex
pur ple</w>
pin ch</w>
p ear</w>
o tta</w>
in y</w>
ga m
competit ors</w>
bu tt</w>
aller gy</w>
u se
sm h</w>
sir loin</w>
sens itive</w>
j as
fro yo</w>
ban anas</w>
att ending</w>
must -
den tally</w>
cul ture</w>
canno li</w>
bl in
Ju lie</w>
Broo k
Angel es</w>
wal ks</w>
s ong</w>
pic o</w>
ligh t
g ged</w>
for k</w>
cla ms</w>
brus sel</w>
Jac kie</w>
Fri end
.W ould</w>
te en</w>
succ ess
sta tions</w>
solu tion</w>
s cones</w>
roo m
j un
hand made</w>
gu es</w>
go s</w>
g ur
dispens ary</w>
ca ff
B on
ther es</w>
safe ty</w>
renov ation</w>
prac t
pamper ed</w>
martin is</w>
integr ity</w>
her e
A la
tech no
r or</w>
q u</w>
plan ned</w>
la b</w>
in dic
exo tic</w>
cu test</w>
Por tu
Bl v
Al ex
vend ors</w>
t z
scen ery</w>
po ker</w>
oo n
o u</w>
fe ature</w>
dra w</w>
coff ee
2 7</w>
s ending</w>
quick er</w>
festi val</w>
disa ster</w>
y elling</w>
wa sa
lab or</w>
gre y</w>
const ant</w>
1 3
v enti
si zz
qu iche</w>
ow ns</w>
mir ac
dé lici
b u</w>
E mily</w>
E d</w>
5 00</w>
ti dy</w>
por tion
plum ber</w>
lenti l</w>
gu s</w>
chan ces</w>
boo k
S af
Montré al</w>
Ja mie</w>
J ust</w>
t it
t ant</w>
pic nic</w>
in depend
down fall</w>
che e</w>
J en</w>
termin al</w>
sunda e</w>
selec tion
ru dest</w>
re tro</w>
la c</w>
hor rend
feat ures</w>
an nu
Thom as</w>
Out back</w>
Americ anized</w>
A aron</w>
.O verall</w>
yel pers</w>
re ached</w>
pe ace</w>
jo in</w>
O ak
H ei
wa shes</w>
summ er
sp in</w>
plan tains</w>
no -
k ki</w>
f our
ex er
Jord an</w>
Jama ican</w>
v ap
tur n
tim er</w>
sal ad
s sing</w>
s and</w>
re presen
lu ke
hesit ation</w>
haz el
c ons</w>
bottom less</w>
be side</w>
ar ch
Rob in</w>
F u
roof top</w>
lock smith</w>
lear ning</w>
jas mine</w>
it -
ir rit
di m
co- workers</w>
chick en
a esthe
F ace
Camel back</w>
Bel gi
wor n</w>
un necessary</w>
pa res</w>
establish ments</w>
din ers</w>
an ne</w>
M in
La ke
mo l
bu d</w>
bri dal</w>
AT M</w>
whi p</w>
st ics</w>
s ville</w>
mo s</w>
k or
jum p</w>
free way</w>
co stu
Ju li
mas se
fr ys</w>
ca pre
at ors</w>
Hol ly</w>
C esar</w>
shor t
proc edu
perfec ti
pen ne</w>
patr on</w>
k a
gr as</w>
er ita</w>
ent ine</w>
ban a</w>
at ory</w>
addic tive</w>
L uc
Cra ig</w>
A lo
A h
zz y</w>
horri bly</w>
g ust</w>
e z</w>
bre ath</w>
be d
as is</w>
W h
I f</w>
up front</w>
u ght</w>
ta pi
even tually</w>
coll ec
b illing</w>
attend ant</w>
Bri e</w>
ti ming</w>
teach ers</w>
me ille
mar ks</w>
far mers</w>
faj ita</w>
e ars</w>
com ida</w>
b low
In dia</w>
G ood</w>
y -</w>
ve ts</w>
tra ils</w>
sau sages</w>
s en</w>
s cor
mean ing</w>
mar ried</w>
inv est
fu dge</w>
2 .50</w>
wasa bi</w>
ru les</w>
es ome</w>
Britt any</w>
20 -
1 4
todd ler</w>
su its</w>
stu ff
rela x
fil -
bag ue
au ssi</w>
acci dentally</w>
C any
C P
w ow
shel lac</w>
eat ers</w>
compl icated</w>
c and
boun c
pri se</w>
peo pl
mou th
communic ate</w>
bul k</w>
S ch
Lake wood</w>
K ri
Han nah</w>
G ary</w>
Ca ve</w>
nee d
jo b
initi ally</w>
floo ring</w>
disa pp
direc t</w>
cran berry</w>
certi fic
ber g</w>
Dani elle</w>
pa pa
out ing</w>
meet ings</w>
l -
gres sive</w>
f oun
capre se</w>
Friend ly</w>
www .
u red</w>
tremend ous</w>
soun ded</w>
proc essed</w>
inst e
depend able</w>
B ry
tart are</w>
su res</w>
ho ped</w>
butch er</w>
a tic</w>
6 -
zi ki</w>
un even</w>
t .
stres s
seni or</w>
quo tes</w>
pric es
n our
n es</w>
h ence</w>
fi ance</w>
di g
batter ed</w>
al ign
R ich
Ke g</w>
Face book</w>
30 am</w>
sampl ed</w>
s ely</w>
g st</w>
S tac
H K</w>
G i
- fil-
o asis</w>
ir on</w>
h o</w>
cou sin</w>
ca tion</w>
ac ts</w>
Cany on</w>
very thing</w>
swim ming</w>
procedu res</w>
n ea
gi o</w>
blo ws</w>
bene fit</w>
arrange ments</w>
ak a</w>
H il
Car mel</w>
C as
v ast</w>
sour dough</w>
qu it</w>
brea ding</w>
amon gst</w>
addic ting</w>
-- --
stress ful</w>
sk ill</w>
fac tor</w>
N iss
rea r</w>
m ous
less ly</w>
grat u
del ec
arri ving</w>
Mar ch</w>
L aw
E inste
9 .99</w>
thank fully</w>
ped is</w>
par ti
organiz ation</w>
man ship</w>
ma id</w>
la vend
hazel nut</w>
gr in
ext ended</w>
uc c
thin ks</w>
tempor ary</w>
tapi oca</w>
subst itute</w>
sm elling</w>
ri sk</w>
mm mmm</w>
ev ed</w>
e x</w>
d ges</w>
be ar</w>
Tom my</w>
S y
Ru s
tt on</w>
tt ered</w>
sco tch</w>
rol ling</w>
ou se</w>
home town</w>
fi shy</w>
fast est</w>
Val entine</w>
ut to</w>
sy mp
sa ut
plac e
luke warm</w>
inst antly</w>
han gover</w>
f ab
dis satisfied</w>
di str
bal loo
al a</w>
Christ ian</w>
A v
veg ans</w>
u gu
top- notch</w>
sch nit
lo west</w>
li ed</w>
fin ds</w>
cu s</w>
conven tion</w>
bl an
Ty ler</w>
M ama</w>
Car los</w>
.N o</w>
ur ge</w>
tri o</w>
sho pped</w>
pe a</w>
na iled</w>
lea ding</w>
indu stri
htt p</w>
hot dog</w>
gh erita</w>
gen i
fee dback</w>
e dama
cu lin
L y
sand which</w>
prepar ation</w>
libr ary</w>
horrend ous</w>
di me</w>
boar ding</w>
at ed
a .
Uni on</w>
R andy</w>
Portu gu
L es
z u
skill et</w>
rit ure</w>
ri sts</w>
re al
pizz eria</w>
pis sed</w>
gu it
cu ter
bu cket</w>
bo red</w>
be ha
ag ent</w>
Per u
3 pm</w>
soa p</w>
s sels</w>
pre p</w>
ob no
hoag ie</w>
do c</w>
d ust</w>
black ened</w>
be er
ac tions</w>
Trac y</w>
Hal lo
re sto
ra in</w>
par tments</w>
me tal</w>
lea f</w>
lar gest</w>
h iring</w>
en try</w>
annu al</w>
R on</w>
Niss an</w>
oo o</w>
ici ous</w>
hot dogs</w>
her self</w>
ha ted</w>
gre ater</w>
contain ers</w>
bac ked</w>
y uc
techno logy</w>
sub -
g yo
combin ed</w>
Portugu ese</w>
Mar gherita</w>
B o</w>
1 .50</w>
- N
tt en</w>
liqu id</w>
it al</w>
ingredi ent</w>
in convenience</w>
gran de</w>
fe st</w>
es i
dissa pointed</w>
coul dnt</w>
Blv d</w>
tend s</w>
sil ver</w>
o d</w>
nour riture</w>
lon g
dum b</w>
chi pped</w>
car ts</w>
brea ks</w>
St even</w>
Bru ssels</w>
Au di</w>
sor bet</w>
ry e</w>
papa ya</w>
dough nut</w>
des c
S U
Mar sala</w>
10- 15</w>
ex plo
cuter ie</w>
bu mmed</w>
beat en</w>
F r
wi pe</w>
th rea
so cc
ess enti
e ments</w>
defin etly</w>
cho ix</w>
car bon
as ks</w>
suc cul
pu ps</w>
mm ing</w>
ic ec
electr ical</w>
e- in</w>
dres ser</w>
R V</w>
Jes us</w>
Ch uck</w>
socc er</w>
scra mbled</w>
ri se</w>
re heated</w>
ra pi
jalapeñ os</w>
delici ously</w>
ci se</w>
S im
R eg
p tions</w>
innov ative</w>
h n</w>
fr om
edama me</w>
C ap
5 .
to wer</w>
sno b</w>
shel ves</w>
pro ps</w>
pier ced</w>
li ft</w>
ga ming</w>
culin ary</w>
be ar
b ills</w>
Peru vian</w>
M ur
J amba</w>
Hallo ween</w>
sp y</w>
schnit zel</w>
scallo p</w>
ru m</w>
purpo se</w>
pregn ant</w>
na vi
lavend er</w>
instruc tions</w>
go û
for get
entertain ed</w>
dri p</w>
dep ends</w>
deligh ted</w>
custom er
cou p</w>
a tion
P ep
wonder ing</w>
tast y
t z</w>
smo ky</w>
immacul ate</w>
flow ing</w>
deta iling</w>
b il
Pal ace</w>
Au gust</w>
4 pm</w>
spor ting</w>
so le</w>
sham poo</w>
r ag
pro sci
meat y</w>
mas sa
j our
it ted</w>
danc ers</w>
correc ted</w>
chi es</w>
bo ards</w>
ren ting</w>
ig nor
hum ble</w>
guarante ed</w>
gra in</w>
co s
bra ke</w>
Lin d
El vis</w>
A venue</w>
w ood
ug ly</w>
surpri ses</w>
straigh t
st ran
ric otta</w>
ri e</w>
off ici
lux ury</w>
hun dre
frustr ated</w>
ea ks</w>
din ner
com pares</w>
c roo
assu me</w>
S ze
C ul
B en
train er</w>
pr é
ox tail</w>
oc cu
mes sages</w>
char cuterie</w>
a h
S hel
é es</w>
ta bly</w>
sea red</w>
no t
inter active</w>
di spo
denti sts</w>
consi dered</w>
M ag
Chick -fil-
C om
walk -in</w>
t ician</w>
preci se</w>
n n
it i</w>
foo led</w>
ant icip
a k</w>
z on</w>
po cket</w>
lo v
li ver</w>
inst ant</w>
i ma
ga z
f itting</w>
co co</w>
che w</w>
alcoho lic</w>
activ ity</w>
Roc ky</w>
Jes se</w>
D enti
Car l</w>
work manship</w>
th at
skin ny</w>
industri al</w>
expi red</w>
cal ming</w>
bab a</w>
Ru bi
R en
Ph il
N ancy</w>
Fre mont</w>
sh all</w>
prosci utto</w>
pitch er</w>
perfecti onist</w>
oni a</w>
hundre ds</w>
g en</w>
fini shing</w>
align ment</w>
In sta
Chick-fil- A</w>
4 .
. And</w>
so cks</w>
sea m
resol ve</w>
grab bing</w>
care fully</w>
av a</w>
Ru ben</w>
Char les</w>
ter race</w>
l b</w>
enter ed</w>
delec table</w>
arro g
ag ement</w>
adverti sing</w>
ad dressed</w>
ach a</w>
W ok</w>
M en
K i
C our
201 3</w>
past e</w>
no ti
mon ster</w>
gree ts</w>
extre me</w>
dra in</w>
avo i
H i
Char lie</w>
Ch an
C ant
stu dying</w>
resear ch</w>
prefer ence</w>
plea sing</w>
play ers</w>
j ar</w>
ici a</w>
ha ble</w>
clo ck</w>
bu yer</w>
Sha ck</w>
R E
J on
Denti stry</w>
tu kee</w>
sty lish</w>
nor thern</w>
maj ority</w>
S ing
tal s</w>
su s</w>
si p</w>
over charged</w>
k icked</w>
ic e
fi f
fa b</w>
e o</w>
descri bed</w>
dar ts</w>
d ang
base ment</w>
al way</w>
Wedn esdays</w>
F red
whe els</w>
wa n</w>
te dly</w>
re por
pa ella</w>
p eel</w>
hun t</w>
con desc
We i</w>
Bob by</w>
tax i</w>
t land</w>
spr ings</w>
screa ming</w>
scoo ps</w>
record s</w>
ra ys</w>
prin ting</w>
j ours</w>
icec ream</w>
el o
d ang</w>
cro wn</w>
check -in</w>
brea king</w>
br û
Sou th
Pe i</w>
Oc to
A -
tast e
ta qu
super vis
qualit é</w>
pric ed
no w
extr as</w>
d il
bu ll</w>
Tam my</w>
R om
K ay
Bo tox</w>
7 -
11 am</w>
under stand
tiv ity</w>
stor ies</w>
st em
mee ts</w>
go sh</w>
fu ss</w>
f icial</w>
es -</w>
ep y</w>
cre ating</w>
com ics</w>
b in
ar r
Dou g</w>
C i
Bar rel</w>
B ella</w>
win ning</w>
traditi on</w>
sm is
ru shing</w>
ro aches</w>
rac ist</w>
lo ads</w>
la yer</w>
caff e
brû l
Shan e</w>
C entre</w>
in sul
ich es</w>
enter ing</w>
ca p</w>
ar ugu
T hey</w>
Leban ese</w>
Insta gram</w>
El ite</w>
2 9</w>
.N ice</w>
tou ched</w>
st ery</w>
shor tly</w>
sh er</w>
reli ef</w>
rec all</w>
no stal
man de</w>
lea d</w>
forget table</w>
child hood</w>
boo ts</w>
H en
C C</w>
u ti
tur ning</w>
tur f</w>
to e</w>
slu sh</w>
fr itters</w>
fo is</w>
encour age</w>
d eni
confi dence</w>
C hel
sur ing</w>
run ny</w>
nor m</w>
jo ined</w>
estim ated</w>
cha r</w>
cac tus</w>
bis on</w>
Un cle</w>
P hi
Bloo r</w>
B ren
Ah wa
15- 20</w>
wor l
wa ke</w>
s wing</w>
pierc ings</w>
pan ang</w>
on ese</w>
no s</w>
mag ical</w>
hom eless</w>
fi replace</w>
fav s</w>
dough y</w>
bir ds</w>
arugu la</w>
K ent</w>
n acho</w>
li ps</w>
en ormous</w>
commer cial</w>
ci ous</w>
cal i
and -
Alo ha</w>
z ens</w>
up sell</w>
to y</w>
there fore</w>
tar ts</w>
squee ze</w>
r al</w>
mar ked</w>
k ra
independ ent</w>
Cant onese</w>
B ros</w>
yy yy
tri mmed</w>
lo an</w>
gyo za</w>
clu eless</w>
ca st</w>
ber tos</w>
Wil li
Pe te</w>
H e
C oo
- to-
il er</w>
gun s</w>
camer a</w>
bo lo
adven tur
ab s</w>
R am
G o
Ak ron</w>
un pretentious</w>
t elev
leg al</w>
ing .
es ars</w>
eng ine</w>
accomo dating</w>
US A</w>
Ni kki</w>
Con cord</w>
Ama zon</w>
un helpful</w>
to ssed</w>
ren ce</w>
oun ce</w>
or an</w>
ho sts</w>
enti rely</w>
color ful</w>
Vic tor
Ahwa tukee</w>
A J</w>
war mer</w>
stre ets</w>
st rea
omele ttes</w>
dy nam
ca mp</w>
b are</w>
Fla min
En ter
.A ll</w>
t less</w>
some body</w>
ser ies</w>
sa mosa</w>
pro gre
est a</w>
desper ate</w>
cy cle</w>
confir m</w>
cler k</w>
ar ts</w>
app ear</w>
Wal greens</w>
M M
.... ....</w>
up dates</w>
sur vi
ra ved</w>
necess arily</w>
matt ers</w>
k ab
gro w
fal se</w>
di et
com ic</w>
accep ted</w>
Ba ja</w>
3 2</w>
po ached</w>
p ou
oo f</w>
lu be</w>
dri ven</w>
bur ger
bel t</w>
bal sa
ba d
ac coun
Christ ina</w>
tion ing</w>
sp aces</w>
sessi ons</w>
rub ber</w>
p .</w>
m ê
lack luster</w>
la ws</w>
ha i</w>
dra wback</w>
condesc ending</w>
brûl ée</w>
adven ture</w>
M r</w>
Flamin go</w>
Ch ev
B rit
4 5
smal lest</w>
patr oni
off ices</w>
ne ph
main tain</w>
ligh ter</w>
imag in
i .
her bs</w>
fil ter</w>
av a
ac cu
Bra d</w>
A ce</w>
11 pm</w>
tre ating</w>
ta xes</w>
shri mps</w>
ro tten</w>
re r</w>
pos iti
play ground</w>
obno xious</w>
mi d-
id k</w>
ici ent</w>
ev os</w>
X -
tru sted</w>
te e</w>
sub- par</w>
signific antly</w>
perman ent</w>
k illed</w>
enti ve</w>
de ath</w>
car b</w>
car am
be es</w>
be e
balsa mic</w>
art work</w>
appli ance</w>
H er
H el
zz le</w>
techni que</w>
tar tar</w>
slow ly</w>
ro cked</w>
head ache</w>
geni us</w>
co sy</w>
bl er</w>
air line</w>
La tin</w>
C al</w>
success ful</w>
sour ce</w>
s an</w>
r ices</w>
pol ice</w>
deli vering</w>
be fore
att ers</w>
Ca esars</w>
tur no
stre tch
sh ells</w>
res che
proc ee
pro tec
pric e.
on z
o s
desig ner</w>
cri min
consul tation</w>
ach ing</w>
L ori</w>
C A
w and
t emp
scor pi
ra di
op tion
offici ally</w>
leng th</w>
exc lu
dynam ite</w>
crac ker</w>
butt on</w>
bu zz</w>
Brook lyn</w>
vi br
tis serie</w>
p oured</w>
mom s</w>
ly -
exp res
celebr ated</w>
Har kins</w>
un assuming</w>
rout e</w>
ri ding</w>
renov ations</w>
occasi onal</w>
mem ory</w>
loo oo
kal bi</w>
har a</w>
fresh er</w>
disgu sted</w>
dis cover</w>
degre e</w>
bar bac
arri ves</w>
Shan non</w>
B la
sc rub</w>
home -
h itting</w>
an go</w>
Cha se</w>
-- -
' all</w>
tou rists</w>
proj ects</w>
por tioned</w>
phys ical</w>
in ti
g ou
co w</w>
adventur ous</w>
S an
M ir
Lau ren</w>
Hil ton</w>
F L</w>
tum my</w>
tou jours</w>
tin ting</w>
sin c
rot ating</w>
refriger ator</w>
refer ring</w>
oppo site</w>
low -
domin os</w>
di al</w>
at i</w>
a da
Sic ilian</w>
Fi rehouse</w>
.S taff</w>
ç a
y i
t ney</w>
stat us</w>
sor ts</w>
ge ms</w>
drea ms</w>
advis ed</w>
Thurs days</w>
Su per
F er
tor tas</w>
th ier</w>
telev i
ma sh
lo l
in is</w>
blin ds</w>
O n
K im
woul dnt</w>
ter ras
ni ece</w>
inst alling</w>
i ed</w>
fortun ately</w>
chu an</w>
Val en
Octo ber</w>
tran spor
mê me</w>
immedi ate</w>
exp and</w>
com pe
a ver
W ill</w>
Pe oria</w>
Kri spy</w>
4 9</w>
t one</w>
refl exo
es sa
ea u</w>
. R
wash room</w>
terras se</w>
tan gy</w>
t ine</w>
it er</w>
del ay</w>
are na</w>
To go</w>
No v
Fl ori
D C</w>
ru d
par fait</w>
lo x</w>
l ands</w>
hu evos</w>
din a</w>
bas ics</w>
Ne w
Ka thy</w>
H am
umb o</w>
th x</w>
si vely</w>
se at
re main
r ant</w>
ood le</w>
o tt</w>
gu ard</w>
el a</w>
bou quet</w>
al es</w>
air y</w>
ad mission</w>
ac y</w>
Rober tos</w>
Man chu
8 5</w>
2 pm</w>
- of-
sol ved</w>
shar p</w>
ru in</w>
re ne
pl atters</w>
ly wood</w>
fill ings</w>
collea gues</w>
bom b
barbac oa</w>
bachel ore
S and
M arri
Ja ke</w>
10 00</w>
1 7
.D on</w>
y ak
re tour
par ked</w>
om bi
na tives</w>
l ace</w>
hol ding</w>
en ne</w>
el ers</w>
drive- through</w>
arrog ant</w>
advis or</w>
Se attle</w>
Enter prise</w>
D y
Apple bee</w>
9 5</w>
reflexo logy</w>
rain y</w>
over pow
o tive</w>
mar sh
logi st</w>
la w
hh hh
ha vent</w>
bla me</w>
at least</w>
Mari o</w>
D r
Co x</w>
sol ve</w>
oo l</w>
mirac le</w>
la tions</w>
hor se</w>
for ce</w>
exp en
de pt</w>
crea tions</w>
ali ke</w>
Pope yes</w>
é té</w>
y y</w>
tour na
teenag ers</w>
su bur
sizz ling</w>
rel l
regi sters</w>
inter national</w>
des ire</w>
b ons</w>
a b</w>
Phi l</w>
M GM</w>
C ons</w>
. Re
v ey</w>
raz or</w>
pi ed</w>
ma tion</w>
le ep</w>
inter action</w>
f ing</w>
d an
cutic les</w>
confir med</w>
bu ck
arch it
C L
we dge</w>
w ea
ta b</w>
su re
lim o</w>
hair stylist</w>
ha ha
fantast ic
ema iled</w>
dr y
car ry
ca m
anc ing</w>
a spect</w>
a si
E le
A B
work outs</w>
stick ing</w>
ro se
respon sible</w>
p our
ou sh</w>
n ature</w>
masse use</w>
i si
heart beat</w>
guil ty</w>
f oo</w>
ex ist</w>
er i
ei ght</w>
ch ee
bli zz
bachelore tte</w>
autom otive</w>
alter ed</w>
Tro y</w>
Li z</w>
J on</w>
B ec
y land</w>
veter in
ucc ine</w>
te ach</w>
ste er</w>
si ve
recom end</w>
pa iring</w>
o ts</w>
mo tor
lu v</w>
j o</w>
high way</w>
ha tt
f ile</w>
es sa</w>
ec onom
ca used</w>
a vi
a shes</w>
Vene tian</w>
Ma i</w>
Bo y
Au stin</w>
tun es</w>
sho wn</w>
sci ous</w>
landsca ping</w>
l bs</w>
fortun e</w>
fi es</w>
ea d</w>
discoun ted</w>
al ed</w>
Hoo ters</w>
sel f-
repu tation</w>
rell eno</w>
re fried</w>
medic ine</w>
kno cked</w>
je ans</w>
fett uccine</w>
e urs</w>
brow se</w>
ap ore</w>
wi ped</w>
ta ps</w>
selec ted</w>
ok ra</w>
moj ito</w>
in c
hoag ies</w>
doo r
deli ver
d at
ca s
as set</w>
T ri
Ke ith</w>
Bur gh</w>
tr out</w>
swe at</w>
st ruc
spark ling</w>
questi onable</w>
perfec t
over s</w>
n an</w>
k ne
ju ke
ici o</w>
hal f-
gran ted</w>
ga thering</w>
g als</w>
easi est</w>
chil ly</w>
can e</w>
avail ability</w>
ag ré
Veg as
Sze chuan</w>
wash rooms</w>
tr icks</w>
pp e</w>
on n
lo sing</w>
jo kes</w>
i i
er ie</w>
ear n</w>
definit i
co w
au x</w>
ac compani
M imi</w>
D ur
C D</w>
10 am</w>
.S o</w>
ye a</w>
turn around</w>
ti la
remodel ing</w>
pet ite</w>
pal m</w>
o tic</w>
ne t
ha sh
flor ist</w>
ett es</w>
decad ent</w>
custom iz
crea tivity</w>
as leep</w>
Valen tin
Einste in</w>
B oul
trav eled</w>
subst itu
sp ra
repa iring</w>
ra dio</w>
me ds</w>
lay ers</w>
j umbo</w>
increa se</w>
har der</w>
ha ts</w>
ff e</w>
f east</w>
exc essi
en ni
ap ples</w>
a x
Sing apore</w>
Jac o
watch es</w>
wa ters</w>
tr icky</w>
piero gies</w>
mo thers</w>
impro ve
h em
gran ola</w>
fo ie</w>
war med</w>
wa ve</w>
te ac
sty led</w>
spo tty</w>
spl ash</w>
ru bs</w>
hu sh</w>
fi gh
eng aged</w>
beha vi
at on</w>
adjust ment</w>
T J</w>
Lu is</w>
Ju an</w>
Ch il
.H e</w>
stat ement</w>
soci ali
si sters</w>
provi der</w>
m my</w>
lan da
kni fe</w>
free zing</w>
fil m</w>
exhi bits</w>
e u</w>
T odd</w>
Lex us</w>
K ia</w>
tender loin</w>
sym pa
spir its</w>
satisfac tory</w>
re stric
o tti</w>
ne west</w>
it able</w>
hard ware</w>
fa ves</w>
ed ges</w>
bu mper</w>
bo l
S .</w>
Flori da</w>
2 am</w>
un sure</w>
tr ick</w>
ti est</w>
tem p</w>
or n</w>
non sense</w>
mous se</w>
moun t</w>
lon gest</w>
in qu
i -
el op
d ren
carbon ara</w>
S hang
.Lo ve</w>
.H ad</w>
sur f</w>
st ack</w>
ni gir
mo d</w>
good .The</w>
fe el
co ach</w>
S hi
N ot</w>
L ynn</w>
K aren</w>
AA A</w>
4- 5</w>
w inter
star ters</w>
r ying</w>
moder ate</w>
mb o</w>
mar k</w>
le ans</w>
g han</w>
délici eux</w>
dis like</w>
ali ve</w>
ac ou
ac hi
Saf eway</w>
Fred dy</w>
D D</w>
A li
wa rehouse</w>
s lam
resche du
plac ing</w>
fla g</w>
fin an
exp an
est ate</w>
diet ary</w>
deci ding</w>
cher os</w>
Man hatt
K enny</w>
Cour tney</w>
-O ut</w>
tun e</w>
smo thered</w>
sinc ere</w>
sh warma</w>
revie w
over- priced</w>
mo chi</w>
m ingly</w>
lock er</w>
lim it</w>
la wn</w>
ju st
hi king</w>
exhi bit</w>
dela yed</w>
con do</w>
10 1</w>
v am
ton gue</w>
ro tisserie</w>
pre n
po pping</w>
n ar
frea kin</w>
four th</w>
ci a</w>
can al</w>
c ities</w>
P earl</w>
In -N
Angel a</w>
- ins</w>
wh ol
ta ught</w>
rol l
re e</w>
pres sured</w>
pa irs</w>
ol d-
mo di
flo at</w>
drin ker</w>
dog gie</w>
den se</w>
cru sted</w>
cigare tte</w>
ca v
c ans</w>
b bie</w>
and ing</w>
ab les</w>
Victor ia</w>
Manchu rian</w>
soa ked</w>
s cri
person alized</w>
perfor m</w>
par mi
par ks</w>
over done</w>
o st</w>
neigh bor</w>
l le</w>
k ly</w>
g rump
deal ers</w>
de pos
d dy</w>
authentic ity</w>
au dio</w>
V W</w>
U N
Sa hara</w>
H or
G ina</w>
F ort</w>
Chel sea</w>
w is
spir it</w>
ri er</w>
r us</w>
polit an</w>
pas ses</w>
p ile</w>
nigir i</w>
k er
in e
ep ing</w>
da i</w>
claim ed</w>
ar gue</w>
Gre en
D onna</w>
. Definitely</w>
y .The</w>
shoo ting</w>
s ore</w>
ro b
pract ices</w>
pr inted</w>
men tal</w>
lim it
car dio</w>
att a</w>
ar in</w>
Alber t
vacu um
promo tion</w>
per cent</w>
man ners</w>
ma zing</w>
kid dos</w>
amoun ts</w>
In-N -Out</w>
8 -
un wind</w>
th ous
re ply</w>
pro gra
ma ker</w>
in fused</w>
hand y</w>
grump y</w>
g age</w>
es p</w>
dra fts</w>
dr ank</w>
class ics</w>
K re
F or
.O nly</w>
vin dal
thous and</w>
thick er</w>
so phi
sh ank</w>
rud ely</w>
re ment</w>
mo tor</w>
m g
gam bling</w>
fast -
exer cise</w>
bague tte</w>
app eal</w>
SU V</w>
Ro sat
Matthe ws</w>
Good year</w>
Dan forth</w>
Au to
ye p</w>
understand able</w>
tosta da</w>
succul ent</w>
respon si
ra ving</w>
parmi gi
mar kets</w>
juke box</w>
in er</w>
ge on</w>
er on</w>
cr ack
bac ks</w>
archit ec
Su san</w>
M o</w>
J r</w>
7 0
00 pm</w>
tri bu
trans for
ti pped</w>
su ites</w>
sou ven
sig ning</w>
sh ee
sales person</w>
rol ler</w>
pla yer</w>
p m
out doors</w>
off -
marsh mal
mac chi
fi l</w>
eyel ashes</w>
el li
din e-in</w>
co vering</w>
chiroprac tor</w>
be th</w>
b rush</w>
Na than</w>
20 12</w>
vindal oo</w>
ul tra</w>
u d</w>
super -
re ux</w>
ow ever</w>
over night</w>
navi gate</w>
lemon grass</w>
ir l</w>
inten se</w>
g é
ev i
en os</w>
delic ate</w>
at ro
arti ficial</w>
Wal -
O l
Nat ali
Marri ott</w>
Mari e</w>
Hol lywood</w>
D on
Belgi an</w>
tt ers</w>
out going</w>
ch r
casin os</w>
beau coup</w>
a o</w>
Tha il
S we
Os car</w>
Br on
tz at
threa ded</w>
slam med</w>
signific ant</w>
gu mbo</w>
dish on
customi zed</w>
conditi oner</w>
c ing</w>
ag gressive</w>
Un ited</w>
S ab
I N
Char le
Ar ro
AM C</w>
v om
sav our
rose mary</w>
pot stickers</w>
man u
landa ise</w>
ha ban
gall ery</w>
excu ses</w>
comp ut
alter natives</w>
Lou is</w>
Jan u
E aster</w>
sin cer
ran cheros</w>
omele ts</w>
o logy</w>
mu le</w>
moder ately</w>
is ing</w>
err or</w>
disp en
d are</w>
comple mentary</w>
co vers</w>
are nt</w>
adjust ments</w>
Wh it
T ru
suppor tive</w>
ri ght
pu shed</w>
mi mosa</w>
k ing
increa sed</w>
hal l
haban ero</w>
ha w
fortun ate</w>
co la
co c
bu eno</w>
be aring</w>
at ly</w>
J iffy</w>
Gu in
Denn ys</w>
C ro
Bra mp
A f
vol un
some place</w>
pin ts</w>
me .</w>
fu el</w>
exp anded</w>
de served</w>
cat ching</w>
bub bles</w>
anti past
Thail and</w>
E E
6 .
ç a</w>
vibr ant</w>
tho don
sophi st
re g
ne ver
mon ds</w>
ly chee</w>
fin ger
eng agement</w>
da sh</w>
beg an</w>
assu red</w>
ar oma</w>
aller gic</w>
B all
sy stem
regar ds</w>
o lu
lu gar</w>
la ssi</w>
histor ic</w>
descri ption</w>
cu rious</w>
celebr ating</w>
S har
P F</w>
Ca pri
ru p
resi dent</w>
goo ey</w>
gn ese</w>
do cu
d red</w>
conn ection</w>
caffe ine</w>
bat ch</w>
P .S.</w>
Or leans</w>
J ack
D s</w>
An gie</w>
-- -</w>
wh it
vin yl</w>
vi sible</w>
tim ers</w>
s cu
rela tion
pro xim
l ord</w>
inti mi
in ci
hol landaise</w>
guit ar</w>
grand mother</w>
fon due</w>
er -
equ al</w>
ell er</w>
do zens</w>
compar ing</w>
appli ances</w>
accommo da
York ville</w>
Mand arin</w>
Janu ary</w>
tzat ziki</w>
tra ys</w>
si e</w>
s ings</w>
s illy</w>
nick el</w>
n ite</w>
ke d
ic e-
he ating</w>
gy ms</w>
direc tions</w>
cont ent</w>
clea red</w>
can o</w>
bre wing</w>
Wa sh
Son oran</w>
Sha wn</w>
Pe king</w>
y elled</w>
techni ques</w>
p itas</w>
on ics</w>
musc les</w>
le tte</w>
ic ation</w>
gar d
far mer</w>
dang erous</w>
com me</w>
bak eries</w>
an os</w>
adju sted</w>
Dec ember</w>
C V
time .</w>
sec ure</w>
sc one</w>
reason able
lea king</w>
justi fy</w>
hea vi
g ee
cre epy</w>
busi er</w>
bou ffe</w>
birth days</w>
J J</w>
Col li
th ali</w>
sp illed</w>
sa r</w>
represen tative</w>
po int
oun d
jack et</w>
ge ment</w>
en na</w>
des cent</w>
d ingy</w>
crea ms</w>
con temporary</w>
certific ate</w>
L C</w>
D is
B ul
ul ty</w>
to wing</w>
ter m</w>
teac her</w>
tal ks</w>
tail or</w>
sel ess</w>
se mi</w>
re ward</w>
proper ties</w>
ex it</w>
es .I</w>
dri pping</w>
ba hn</w>
Ma y
Guin ness</w>
Christ ine</w>
Bramp ton</w>
visit or</w>
v als</w>
turno ver</w>
savour y</w>
re stra
pick -up</w>
p ounds</w>
on e-
l is</w>
gi a</w>
fi sh
f ond</w>
el ds</w>
di ps</w>
clim bing</w>
ci o</w>
bre wer
as sho
V AC</w>
O S</w>
swi m</w>
sty ling</w>
sa una</w>
or ie</w>
he a</w>
gi g
f ect</w>
canc eled</w>
ad just</w>
Ro ss</w>
Nov ember</w>
Jaco b</w>
uti li
un its</w>
sti ff</w>
shoul ders</w>
shor ter</w>
p in</w>
mix ture</w>
mi es</w>
less ons</w>
ir a
ho o</w>
eyel ash</w>
exper tly</w>
ev es</w>
br unch
W ar
Sam my</w>
P B</w>
Manhatt an</w>
Jo es</w>
t fully</w>
surroun dings</w>
ren tals</w>
nutr iti
nic e.
line up</w>
food -</w>
embar ras
dra g</w>
color ing</w>
cle arance</w>
bur ro</w>
bo thering</w>
a im
Z ach</w>
Ta o</w>
T erry</w>
E ag
B al
za beth</w>
y .I</w>
supervis or</w>
straight forward</w>
s can</w>
pi lot</w>
ma gaz
m ates</w>
g at
d ear</w>
co- worker</w>
bal con
Mer ce
Man ny</w>
G ol
Colli sion</w>
Charle ston</w>
.T ry</w>
t s.
revie wed</w>
re visit</w>
qu ali
pu shing</w>
pri mary</w>
om bo
ok ay
mi ths</w>
kin ks</w>
dis played</w>
convin ced</w>
car ries</w>
bed side</w>
a partments</w>
S anta</w>
P il
Mid west</w>
M ol
Jo se
Ch er
z i</w>
the y
te pp
sto le</w>
quir ky</w>
on e
occu pied</w>
i. e.</w>
her b</w>
f ear</w>
dru g</w>
dren ched</w>
contac ts</w>
as ha
are d</w>
anti que</w>
An dre
volun te
sweet ened</w>
so le
ol o</w>
ke bab
k en
imag ined</w>
g on</w>
ett a</w>
comp any
an xi
T ok
G al
thri ft</w>
roo my</w>
reclin ing</w>
proxim ity</w>
pro t
num bers</w>
hun dred</w>
essenti ally</w>
comput ers</w>
Kre me</w>
Eli zabeth</w>
E R
B uc
A dri
.F or</w>
ça í</w>
wha ts</w>
underwhel med</w>
ther e.
tast ier</w>
so lo</w>
sm elly</w>
sli de</w>
serv icio</w>
re duced</w>
prin c
poli shed</w>
po sting</w>
pa int
o ils</w>
m oo
i v</w>
fr on
bu sy
bolo gnese</w>
b al</w>
a çaí</w>
Tra vis</w>
Shang hai</w>
Rich mond</w>
Boul der</w>
up -
u seless</w>
tru th</w>
stin ks</w>
st out</w>
solu tions</w>
retur ns</w>
inv ited</w>
ing .The</w>
her o</w>
dis plays</w>
delicious .</w>
al o
Natali e</w>
M .</w>
Er in</w>
6 0
w ill
stres sed</w>
spl urge</w>
oooo oooo
mu ch
mi -
macchi ato</w>
m it</w>
kin dly</w>
ff les</w>
es .The</w>
be c</w>
an n
Wal- Mart</w>
F lo
.E verything</w>
w ich</w>
ur gency</w>
surroun ded</w>
re mains</w>
pe l</w>
p on
ma r</w>
inst itu
idi ot</w>
ha tes</w>
el der
dec ei
de stro
atro cious</w>
ad dy</w>
Ta i</w>
S ep
N ord
Matthe w</w>
3 .50</w>
z u</w>
stin c
sta mp</w>
servic ing</w>
ser y</w>
s --
ro y
p ong</w>
kebab s</w>
hu e</w>
heal ing</w>
fru ity</w>
for d</w>
enni al</w>
embar ra
cat eg
Z en</w>
S ara</w>
In di
E m
B .</w>
1 pm</w>
your e</w>
you -
s ic
ra pp
pur se</w>
prepar ing</w>
on e.
mun chies</w>
execu tion</w>
dec lined</w>
car ried</w>
bur ning</w>
be it</w>
attemp ted</w>
ais les</w>
M T
Ch ang</w>
B om
tem ber</w>
su is</w>
sof a</w>
sc ience</w>
sauc y</w>
recom mande</w>
ra d</w>
po in
person al
par a</w>
mo ld</w>
mel low</w>
jour ney</w>
ing .I</w>
ic als</w>
good .I</w>
expl oring</w>
co al</w>
co aches</w>
cit rus</w>
che at</w>
M t</w>
B an
é ri
su gary</w>
sle eping</w>
see k</w>
se d
s kins</w>
pil lows</w>
li ons</w>
hom es</w>
di stinc
dev elop
ca ses</w>
av ons</w>
accompani ed</w>
Van essa</w>
Str ombo
Rus sian</w>
CV S</w>
C had</w>
9 am</w>
5 .99</w>
yum my
str on
soo thing</w>
resi st</w>
p ir
mir ror</w>
k n
insi sted</w>
hy ped</w>
gradu ation</w>
go to</w>
gig antic</w>
du des</w>
cow boy</w>
al beit</w>
Wash ington</w>
U r
Sep tember</w>
S mash
S k
Mar tin</w>
F a
D ol
C LT</w>
B ut</w>
vol cano</w>
un impressed</w>
ti ger</w>
symp a</w>
speciali st</w>
si que</w>
see king</w>
rapi de</w>
pot ato
pac ks</w>
just ice</w>
improve ments</w>
h ella</w>
fle w</w>
entr ée</w>
do ck</w>
caf es</w>
agré able</w>
Dev il</w>
Chick en</w>
C .</w>
Bry an</w>
B illy</w>
w ner</w>
veter ans</w>
tre k</w>
st ered</w>
se ed</w>
pitch ers</w>
neph ew</w>
mon ey
mag nific
kra ut</w>
ev alu
es thetic</w>
effici ency</w>
dec ade</w>
coo l
cir cle</w>
chi pping</w>
c kets</w>
amaz ing.</w>
Strombo li</w>
P T</w>
Dun das</w>
ven ture</w>
un cooked</w>
sp am</w>
progre ss</w>
le y
l ying</w>
inter act</w>
decad es</w>
bri dge</w>
blow out</w>
b led</w>
accord ingly</w>
T uc
J ones</w>
we dges</w>
vacu ums</w>
ra il</w>
p it
mater ial</w>
hol ds</w>
feat ured</w>
comp ed</w>
clu b
cli ps</w>
c i</w>
c er</w>
brewer ies</w>
att or
Er ica</w>
CL E</w>
6 .99</w>
y ours</w>
w ing
sympa thi
revie wer</w>
requ ire</w>
relax ation</w>
princ ess</w>
p en</w>
kee per</w>
k it
k .</w>
je wel</w>
inv entive</w>
fran kly</w>
flor al</w>
assor ted</w>
a id</w>
Yo gur
Tok yo</w>
Merce des</w>
Ex cell
De bbie</w>
é ed</w>
stre tch</w>
star s
sophist icated</w>
pra ise</w>
or ado</w>
mis leading</w>
k -
ick ey</w>
ho sted</w>
gri pe</w>
frequ ented</w>
elev ator</w>
dep th</w>
co py</w>
chil led</w>
ch ut
boo m</w>
bl ess</w>
b y
anticip ated</w>
al er
Vi et</w>
Pep si</w>
Pal ms</w>
Gri lle</w>
D V
zz a</w>
weigh ts</w>
w rec
t ely</w>
recogni ze</w>
perfor mers</w>
pa ir
oppo sed</w>
gu essing</w>
fan ci
eff or
dri ve
behavi or</w>
at t</w>
arti stic</w>
Z o
M ills</w>
Kay la</w>
v ary</w>
subst anti
ran g</w>
over looking</w>
hon ored</w>
go als</w>
fin ancing</w>
exper ts</w>
depos it</w>
concessi on</w>
concer ts</w>
bud dies</w>
Z i
Sal v
M iller</w>
7 .
3 x</w>
sy n
sear ched</w>
seam less</w>
ph er
pati ently</w>
lefto ver</w>
dishon est</w>
dec ent
char red</w>
butter milk</w>
bo ld</w>
ac hable</w>
aa a
Ca sey</w>
B O
5- star</w>
4 00</w>
we b</w>
v au
sour ced</w>
s its</w>
ma de
excell ence</w>
electr onics</w>
e ys</w>
du ll</w>
chiroprac tic</w>
ch on</w>
bene fits</w>
U FC</w>
Lon don</w>
7 .99</w>
w icked</w>
vo ic
ven ess</w>
thir sty</w>
tast iest</w>
sto len</w>
spea ker</w>
preci sion</w>
pan inis</w>
nur sery</w>
finan cial</w>
es car
dealer ships</w>
com passion</w>
br a</w>
Por ter</w>
M y
F ox</w>
E ri
1 20</w>
the ast</w>
shi pped</w>
sha bby</w>
pe p</w>
ne ts</w>
n -
mic ro</w>
ma sters</w>
hu stle</w>
g ging</w>
fl an</w>
claim s</w>
ad or
Oak land</w>
Co dy</w>
.O ne</w>
wh om</w>
to ward</w>
tech nic
shee ts</w>
sa vings</w>
ri b
qu e
pu zz
me d
le ur</w>
hal f
ex ag
contac ting</w>
compli mented</w>
car ni
can dies</w>
bri gh
architec ture</w>
R ita</w>
Pet smart</w>
Le o</w>
2 .00</w>
1 10</w>
tit le</w>
ta i
parmigi ana</w>
pal ate</w>
me tho
ha irs</w>
f o</w>
coun ter
com p</w>
be au</w>
b re</w>
C U</w>
10 0
. -</w>
zz i</w>
st ren
sincer ely</w>
sha ttered</w>
see ds</w>
s. S
resi dents</w>
nutr ition</w>
mem or
laugh s</w>
inj ury</w>
ga y</w>
fran ch
fill et</w>
fa ith</w>
balcon y</w>
appoin ted</w>
S il
N V</w>
Euro pe</w>
Arro wh
An gus</w>
tal k
str ing</w>
s ri
out -of-
o logist</w>
n ine</w>
lin k</w>
friendly .</w>
fr yer</w>
eg ran
dem and</w>
coun tless</w>
cock roach</w>
asse z</w>
L eg
Hy un
C E
A -O
2 x</w>
. Just</w>
v ic
sta ples</w>
s lot</w>
re fre
pr oof</w>
per o
n is</w>
mic hel
mat ching</w>
indul ge</w>
idi ots</w>
he els</w>
f in</w>
el ty</w>
conditi ons</w>
c ry</w>
ba king</w>
b ello</w>
antipast o</w>
P re
D om
Col ombi
Arrowh ead</w>
1 .00</w>
th ou
suppl ements</w>
s .They</w>
ri a</w>
procee ded</w>
m ur
costu mes</w>
caram eli
cal orie</w>
Mo e</w>
Li ber
J s</w>
A fr
- in-
under stands</w>
sever ely</w>
servic e-</w>
se u
l us</w>
func tion</w>
fa uc
encour aging</w>
cor dial</w>
con scious</w>
b in</w>
ay ne</w>
as m</w>
ar tis
am at
Mi kes</w>
Jose ph</w>
En vy</w>
.T h
n ab
embarra ssed</w>
d ome
carameli zed</w>
bri o
batter ies</w>
ai oli</w>
Hyun dai</w>
Hen ry</w>
3 6</w>
' ambiance</w>
we ir
ver sus</w>
valu ed</w>
tran qu
sett led</w>
s mashed</w>
piero gi</w>
l ite</w>
ko sher</w>
deni ed</w>
de mean
craw fish</w>
co b
clo set</w>
asha med</w>
am d</w>
T his</w>
S ol
D onal
8 0
wit n
vide os</w>
un d</w>
tila pia</w>
se ment</w>
pro b</w>
poo p</w>
pom egran
pa yed</w>
ow es</w>
no tes</w>
k itty</w>
j us</w>
it t</w>
fair e</w>
fab ric</w>
experienc e.
exc el
con fit</w>
ba it</w>
appro xim
Sa man
S pa
P at</w>
I s
F le
Andre a</w>
8 am</w>
3 am</w>
.O ur</w>
ó n</w>
ty ard</w>
t ours</w>
stu ffy</w>
sno w
sm ent</w>
si z
se ttle</w>
pres ence</w>
oo oo</w>
mu g</w>
medi a</w>
l un
insp iring</w>
ha bit</w>
gratu ity</w>
elder ly</w>
di arr
cour tyard</w>
char ts</w>
br aces</w>
a than</w>
a g</w>
W ed</w>
Swe dish</w>
Saman tha</w>
I P
G rub
20 11</w>
y a
under rated</w>
tou ches</w>
thir ty</w>
th is
refre shed</w>
rab bit</w>
r ina</w>
r din
pu ff</w>
n é
la mp</w>
ing -</w>
hun ger</w>
h ensive</w>
duc tion</w>
dres sings</w>
disapp eared</w>
dev ice</w>
conn ect</w>
comfor tably</w>
bu st</w>
bru lee</w>
bi es</w>
b ins</w>
assi sting</w>
W ol
Ri dge</w>
N ina</w>
N ice</w>
L ily</w>
H igh
Gab ri
C ho
wil ted</w>
val ent</w>
the e</w>
stra w</w>
re ality</w>
j uni
im patient</w>
har as
g is</w>
chem ical</w>
cen tur
bit ch</w>
a esthetic</w>
U ber
Smash burger</w>
Excell ent</w>
B W
under ground</w>
tourna ment</w>
su ally</w>
soooo ooo</w>
show room</w>
pro pri
pack aging</w>
ma tic</w>
loc ate</w>
iz on</w>
hi de</w>
fr ag
at ically</w>
A 1</w>
9 -
yi kes</w>
wonder ful
walk -ins</w>
ty ne</w>
spea kers</w>
sh iny</w>
se mi-
scra mble</w>
ou l</w>
na ked</w>
kab ab</w>
in ches</w>
il ia</w>
for ms</w>
ec tor</w>
crea m
con ci
cha m
cc a</w>
ca s</w>
ble u</w>
apolo gies</w>
a sed</w>
' était</w>
v acc
up side</w>
system s</w>
sun glasses</w>
scal p</w>
ru le</w>
pa k
on to
o dd
n es
mater ials</w>
inf ection</w>
h ectic</w>
gard ens</w>
g ates</w>
excell ente</w>
exag ger
cru shed</w>
coo rdin
bi z</w>
additi onally</w>
R an
N ate</w>
Hel en</w>
C are
Bob bie</w>
wor ries</w>
ve .</w>
t sm
st roll</w>
so m</w>
ri po
r acha</w>
na ise</w>
mar gin
lea gue</w>
j i
gra pe
f all
cha pel</w>
bu zz
al lowing</w>
K ate</w>
F ar
E ats</w>
A-O K</w>
.S he</w>
wood en</w>
ob li
lu gg
li ke
itu al</w>
her e-</w>
disappoin t
con coc
cha tted</w>
ch y</w>
arran ged</w>
Y u
S al</w>
K in
D al
C ent
well ness</w>
wa x
up coming</w>
tur al</w>
t ans</w>
sole ly</w>
sof t
saut éed</w>
pres sing</w>
pi pe</w>
mea d</w>
la k
i denti
el er</w>
do ll</w>
con den
centur y</w>
appro achable</w>
T her
H H</w>
A s</w>
zz o</w>
worth while</w>
vin ai
ta do</w>
st ling</w>
pro vol
pic ks</w>
pee ps</w>
pedi at
over looked</w>
mor t
l ly</w>
hy dr
ho tter</w>
diarr hea</w>
craw l</w>
con cre
certi fied</w>
ben ches</w>
S in
Lo ve</w>
Grub hub</w>
Do dge</w>
4 .99</w>
- old</w>
well .</w>
stro m</w>
st oo
sp as</w>
ser a
refer ral</w>
re done</w>
pa ins</w>
magnific ent</w>
le en</w>
it z</w>
institu tion</w>
hair dresser</w>
gui ded</w>
gla ze</w>
can -
bic y
autom atically</w>
arti er</w>
anxi ety</w>
T an
K at
A sia</w>
3 1</w>
.W hat</w>
- style</w>
y ell</w>
vinai gre
vi o
trans fer
sm il
re moving</w>
po ts</w>
pas sable</w>
p ours</w>
mal t</w>
in- house</w>
chur ro</w>
ble .</w>
adv anced</w>
W .</w>
Vin cent</w>
Ver izon</w>
Uber Eats</w>
U p
U l
Jon athan</w>
Hu dson</w>
C ab
6 th</w>
wher ever</w>
ta sk</w>
sprink les</w>
speci ality</w>
rea s
pul ling</w>
pre- made</w>
p her</w>
o .
mar ke
le- in-
ga mble</w>
ex a
deci sions</w>
bi d</w>
bal aya</w>
anc a</w>
S miths</w>
Mon te</w>
Jan e</w>
Den ver</w>
Da wn</w>
Cent ennial</w>
ven ues</w>
too .</w>
sri racha</w>
spec ts</w>
so lar</w>
sli my</w>
sev ere</w>
relation ship</w>
nar row</w>
mal ls</w>
ma ster
lugg age</w>
le ment</w>
ic ate</w>
grape fruit</w>
div ey</w>
day care</w>
ab lo</w>
Hei ghts</w>
F air
B il
Al i</w>
A ir
yum m</w>
w oke</w>
thou sand
teen age</w>
ta male</w>
suck er</w>
sign age</w>
sampl ing</w>
over bearing</w>
out .</w>
mu sh</w>
leg it
hh hh</w>
excessi ve</w>
compe te</w>
ar o</w>
Valentin es</w>
Liber ty</w>
E ar
D av
8 .
upgra des</w>
sympathi que</w>
stren g
ski pped</w>
provol one</w>
pomegran ate</w>
po ppers</w>
plan es</w>
overpow ering</w>
im men
gl ori
ess ential</w>
de d
ca pac
a ward</w>
Fili bertos</w>
.H owever</w>
tosta das</w>
th ia</w>
tem ps</w>
talk ative</w>
swee ter</w>
s lots</w>
s ac
restric tions</w>
produc tion</w>
ou tta</w>
mar vel
is er</w>
g ely</w>
conci er
che z</w>
bru ary</w>
ari es</w>
P C</w>
Hun ter
Fr ance</w>
An nie</w>
9 th</w>
7 am</w>
week night</w>
sec tions</w>
parti al</w>
natur ally</w>
l om
eth ical</w>
concessi ons</w>
con se
communic ated</w>
cheese burgers</w>
ce il
can es</w>
brio che</w>
OO OO
Mo sco
M c</w>
Fe bruary</w>
x ie</w>
whol esome</w>
valu able</w>
thousand s</w>
stuff ing</w>
stick er</w>
ss ss
sa ver</w>
ri m</w>
par lor</w>
over charge</w>
o is</w>
m at</w>
lingu ine</w>
la p</w>
l an</w>
e a</w>
comp ens
cheesest eaks</w>
bo il</w>
air e</w>
Tuc son</w>
Col orado</w>
C lar
Bo sa</w>
z ar
uni qu
ten er</w>
te ars</w>
sk y</w>
se dly</w>
po sed</w>
marshmal low</w>
load ing</w>
flo ating</w>
ff ee</w>
expen sive
di os</w>
ca dia</w>
ber to</w>
b order</w>
aqu ari
an tyne</w>
an n</w>
all- you-
V A</w>
Se ph
Mal ay
Cas a</w>
C ad
.O r
vou cher</w>
stor m</w>
sp icier</w>
pri m
prescri ptions</w>
kor ma</w>
ki o
k illing</w>
ho le-in-
hand some</w>
goo ns</w>
en counter</w>
appl ication</w>
al le
ag ue</w>
W ood
Van cou
P G
Law rence</w>
Hunter sville</w>
G M
D or
4 8</w>
. Y
ys sa</w>
vie wing</w>
venti lation</w>
tari o</w>
staff ing</w>
sk y
ripo ff</w>
request ing</w>
re main</w>
mi en</w>
m ons</w>
k it</w>
jam balaya</w>
good -</w>
for mal</w>
demean or</w>
coun ting</w>
come back</w>
cho sen</w>
cea sar</w>
car pac
attemp ts</w>
aca do</w>
V au
Nord strom</w>
Mosco w</w>
Ball antyne</w>
A Z
3 3</w>
y up</w>
to wed</w>
ta ko
su gar
spi der</w>
sk ir
sh u</w>
sea sons</w>
pri vac
pair ings</w>
p ond</w>
lux u
kio sk</w>
jun gle</w>
ho pping</w>
g ang</w>
for getting</w>
f ec
em pl
differ ently</w>
diagno sis</w>
day .</w>
co verage</w>
ated ly</w>
approxim ately</w>
all .</w>
M ad
Ly ft</w>
warm ly</w>
w a</w>
veter an</w>
su shi
spea k
sp on
sc ien
reschedu le</w>
qu el
juni or</w>
ing -
heavi ly</w>
gu y
ge ta
discu ss</w>
cur a</w>
car rying</w>
bra g</w>
bin go</w>
bi ri
appro ved</w>
Vic tor</w>
Vi va</w>
L iz
D Q</w>
Cam eron</w>
ê tre</w>
ton katsu</w>
su sh
sp it</w>
sli m</w>
s care</w>
ro foam</w>
refun ded</w>
or ial</w>
men to</w>
ma son</w>
li mp</w>
horri d</w>
hash browns</w>
competit or</w>
cap able</w>
bull shit</w>
ath le
W ynn</w>
Rubi o</w>
Par k
Mi a</w>
E S
Cla u
An a</w>
5- 10</w>
.B est</w>
witn essed</w>
wa ge</w>
tra p</w>
tr y
te sts</w>
swit ching</w>
sub tle</w>
stron ger</w>
st led</w>
spar se</w>
sho ck</w>
qu artier</w>
per ch</w>
mort gage</w>
len ses</w>
go ti
essa yer</w>
do se</w>
de ff</w>
chick ens</w>
cap ital</w>
bak er</w>
appreci ation</w>
a bu
Vancou ver</w>
T at
S ue</w>
Mon ro
L owes</w>
J o</w>
B as
2 15</w>
. K
woo ds</w>
sty rofoam</w>
puzz les</w>
privac y</w>
pre dic
plu gs</w>
ma dness</w>
itu de</w>
hau l</w>
experienc ing</w>
cr ab
ba y</w>
attor ney</w>
at os</w>
ar d
appro ached</w>
any aki</w>
ant i</w>
acc ent</w>
ab i
T im
Seph ora</w>
S W</w>
Rosat i</w>
Po st
Ko be</w>
H ay
G ast
10 .00</w>
transpor tation</w>
tac ky</w>
t s
su itable</w>
sh out
ser ene</w>
res em
remin is
pan c
pak ora</w>
p es
open er</w>
oc ean</w>
mon it
mes sing</w>
mat ches</w>
ma k
l ick
hear ts</w>
ha ust</w>
g .</w>
f ers</w>
et t</w>
cru sty</w>
concier ge</w>
c ure</w>
bounc ers</w>
appreci ative</w>
app ly</w>
ach i</w>
Ru dy</w>
P aci
Mor oc
L or
Hi sp
H D</w>
F ore
Denn is</w>
D omin
C B
30 min</w>
.B e
vinaigre tte</w>
ur st</w>
to x
suppo sedly</w>
sp ac
sk i</w>
roy alty</w>
ran goons</w>
r ounds</w>
prof it</w>
pr ints</w>
my stery</w>
mus ical</w>
moun tains</w>
mo tel</w>
mm ate</w>
loo p</w>
lingu ini</w>
lif ting</w>
individu als</w>
in um</w>
gr aci
fol low
ex haust</w>
em a</w>
duc t</w>
delici o
cor ners</w>
collea gue</w>
cat ers</w>
c les</w>
break fast
bal ay
awes omen
after n
addic tion</w>
Z e
O J</w>
Luc y</w>
Kore a</w>
I an</w>
Fer n
Av on
A cura</w>
.N o
........ ........
whe el
v ans</w>
sa y
sa ag</w>
revie wing</w>
quir rel</w>
qu and</w>
pr is</w>
pas sport</w>
oni sts</w>
nu ff</w>
ne st</w>
n ou
int ended</w>
end o</w>
dou bles</w>
cre ates</w>
ab sur
a bund
Yor ker</w>
P am</w>
N FL</w>
Mex ic
Mark et
Har ris</w>
Bel la
AB C</w>
w th</w>
v ien
sou p
repe atedly</w>
plat inum</w>
musc le</w>
marvel ous</w>
manic u
l itt
k oo
high- end</w>
d ful</w>
concre te</w>
com edi
col our</w>
chocol at
busi est</w>
blizz ard</w>
aver ag
a. m.</w>
V ol
S quirrel</w>
I -
Ar cadia</w>
Albert sons</w>
A c
yy y</w>
wh ites</w>
vend or</w>
sur passed</w>
sin s</w>
pat ch</w>
in doors</w>
ice berg</w>
ga tion</w>
g els</w>
fic ation</w>
est e</w>
dim sum</w>
craf tsm
cer em
ceil ings</w>
bur g</w>
awesome .</w>
acou stics</w>
accommoda tions</w>
Pil ates</w>
O T
M oo
Lo we</w>
Hun an</w>
H ou
Dur ango</w>
CP R</w>
B run
Avon dale</w>
20 10</w>
ti les</w>
the- wall</w>
tako yaki</w>
suff icient</w>
spic iness</w>
sca mp
roo ts</w>
on- time</w>
len e</w>
insi de
hon ey
gall on</w>
gall o</w>
gal ore</w>
g room</w>
ex empl
electr onic</w>
eat eries</w>
con centr
chun ky</w>
car wash</w>
canc er</w>
cab in
bri des
bl ind</w>
bl essed</w>
balay age</w>
appli ed</w>
ag o
R ue
Mon ica</w>
Eag le</w>
tor n</w>
ter m
sun rise</w>
st ating</w>
sp here</w>
sha bu</w>
repl ied</w>
rais ing</w>
ki es</w>
it é</w>
it y
in convenient</w>
har sh</w>
gh ost</w>
g ru
fla ir</w>
fac ing</w>
e use</w>
compani on</w>
cola da</w>
ca mper</w>
appropri ately</w>
UN LV</w>
T LC</w>
Mic hi
I K
G O</w>
Fi esta</w>
Bro ad
w o
ver i
ten nis</w>
te sting</w>
sn oo
show ers</w>
season ings</w>
s. O
rac ks</w>
photogra pher</w>
olu tion</w>
motor cycle</w>
m ari
legit im
gra y</w>
fri es
exi sting</w>
er ra</w>
diagno se</w>
cr ying</w>
carpac cio</w>
can- eat</w>
buil dings</w>
biri yani</w>
awesomen ess</w>
attend ants</w>
R on
N o</w>
Ele ments</w>
An them</w>
20- 30</w>
.... .....</w>
x x
wh il
v as</w>
tra iler</w>
stoo ls</w>
st ine</w>
soa k</w>
scamp i</w>
perman ently</w>
patroni ze</w>
p. m.</w>
nor thwest</w>
le an
je un
in different</w>
ic ity</w>
hu mid
g low</w>
fla sh</w>
ea sy
de b
co tton</w>
chem icals</w>
ch in
ch ich
bi kin
a sts</w>
T -
Re be
N J</w>
9 0
- Mex</w>
y man</w>
wa r</w>
sush is</w>
s ick
prefer ences</w>
pos ition</w>
org onz
ol ds</w>
never theless</w>
n om
me -
irrit ated</w>
half way</w>
grand son</w>
gi f
fa m</w>
escar got</w>
eni se</w>
del e
cucum bers</w>
cr on
char coal</w>
amaz e</w>
On tario</w>
H ighly</w>
Gast onia</w>
D addy</w>
Bren da</w>
1 2-
war n</w>
sprink ler</w>
sor s</w>
sh ish</w>
s. We</w>
re ps</w>
over crowded</w>
medic ation</w>
me ga</w>
inst all
ha un
fil ing</w>
fic ations</w>
exi sted</w>
d ge
con tre</w>
ch unk</w>
W at
Stac y</w>
Mar yland</w>
Di ana</w>
Bru ce</w>
voic email</w>
un satisfied</w>
trans fer</w>
tim ately</w>
ther ine</w>
sou th
pu bs</w>
n ish</w>
mm mmmm</w>
mat ure</w>
inter i
hip sters</w>
eth nic</w>
con nois
brow sing</w>
bl ues</w>
bachel or</w>
attrac tion</w>
Sam s</w>
De an</w>
y am</w>
war k</w>
v s.</w>
t is</w>
ske wer</w>
sa ves</w>
p ale</w>
o we</w>
no tre</w>
j ang
ic i</w>
hor sera
edu ca
dis crimin
da tion</w>
bub bly</w>
bar ley</w>
T y</w>
O no</w>
O G</w>
John son</w>
G ord
F in
D os</w>
B ell
3 8</w>
.T hat</w>
winter licious</w>
valu es</w>
un sanitary</w>
sta ined</w>
regi stration</w>
per o</w>
or o</w>
op t</w>
op t
macar on</w>
ma ss</w>
loo oooo
inter acted</w>
g lo
fi elds</w>
esthe tician</w>
dev oured</w>
dd le
connois se
com pre
cho ic
cha otic</w>
cerem ony</w>
bri de</w>
balloo n</w>
avoi ding</w>
P B
J et</w>
G orgonz
D enise</w>
Cap tain</w>
Bar ros</w>
Al so</w>
Al len</w>
un i</w>
tru ffles</w>
tou ching</w>
ti p
speak easy</w>
re pas</w>
quar ters</w>
p â
man g
impor ted</w>
ice- cream</w>
flavor ing</w>
fi g</w>
deliver ies</w>
bis co
back .</w>
a is</w>
Willi am</w>
Pu er
J an</w>
Bar ro</w>
A .</w>
tri mming</w>
ta bou
summer licious</w>
star ing</w>
repe ated</w>
p or</w>
ne goti
marke ting</w>
ir ation</w>
int elli
hot pot</w>
geta way</w>
g g</w>
frequ en
far ther</w>
du sty</w>
ail ey</w>
Tro pic
She a</w>
Rue ben</w>
P ok
D T</w>
Al li
Al an</w>
.N ever</w>
- S
war ming</w>
vap ing</w>
ther e.</w>
tell er</w>
st op
resto red</w>
qui red</w>
quant ities</w>
p iss</w>
net work</w>
k of
k iss</w>
in experienced</w>
fast- food</w>
discu ssed</w>
de ter
b order
air lines</w>
Hisp anic</w>
Gorgonz ola</w>
D I
Ala sk
.P rices</w>
è me</w>
who se</w>
tr am
televi sions</w>
sho p
servic e.I</w>
sau er
sa tion</w>
sa f
responsi bility</w>
re opened</w>
qu est</w>
pric e
pas sen
no ted</w>
n y
n els</w>
ma p</w>
infor m</w>
horsera dish</w>
fall en</w>
di ly</w>
cr ê
cour ts</w>
bra in</w>
bl and
bel ong
bear able</w>
b ha
b ell
assist ants</w>
a pr
Tex -Mex</w>
Ph ili
Lind say</w>
Der ek</w>
v est</w>
tu m</w>
tremend ously</w>
te ens</w>
stre et
smo kers</w>
see mingly</w>
rea ds</w>
pre ven
por to
personal ities</w>
pac king</w>
p iled</w>
on naise</w>
na pkin</w>
min ation</w>
memor ab
luxu rious</w>
inv est</w>
hole-in- the-wall</w>
figh ting</w>
fif teen</w>
excee ds</w>
do o</w>
disappoin ted
de pressing</w>
com mented</w>
cob bler</w>
chimichang as</w>
ap t</w>
an k
O li
K ir
2 50</w>
wal le
vir tually</w>
use ful</w>
te sted</w>
t su</w>
so s</w>
reci eved</w>
pas s
nov elty</w>
mon key</w>
mea sure</w>
hard working</w>
gu mmy</w>
g li
fr itter</w>
dome stic</w>
dish washer</w>
cel ery</w>
carry out</w>
c eli
at ers</w>
a wa
Ur bana</w>
Ul ta</w>
Ro ad
D a</w>
B lu
.W hen</w>
win s</w>
todd lers</w>
tend ing</w>
t el
smo ke
she et</w>
rec ti
r ou
ner ve</w>
ma ids</w>
l ling</w>
ju ic
it .The</w>
i gh</w>
hu an</w>
gi mm
frequen ting</w>
favor it
f iller</w>
expec tedly</w>
embarras sing</w>
craw ling</w>
co in</w>
boun ce</w>
agu a</w>
W I</w>
Rebe cca</w>
Michi gan</w>
C yn
B ea
9 .00</w>
9 .
4 2</w>
' endroit</w>
wow ed</w>
tur tle</w>
teach ing</w>
su spect</w>
side walk</w>
san iti
s ites</w>
ro ad
reco very</w>
phys ician</w>
p out
nostal gic</w>
m and
lin ing</w>
in toler
ima ge</w>
exc eed</w>
educa tional</w>
c s</w>
bo x
ag i</w>
a spects</w>
a p</w>
Tropic ana</w>
Hy att</w>
Bom bay</w>
0 .
.S u
' mon</w>
wa ist</w>
ul timately</w>
ti ki</w>
su ms</w>
san g</w>
re stor
ow n
opt ome
o ved</w>
mechan ical</w>
la yo
in correctly</w>
h ers</w>
gra v
go al</w>
ga e</w>
fli p</w>
fil ed</w>
exi sts</w>
cr y
cha at</w>
are pas</w>
ar om
after ward</w>
abund ant</w>
a ve</w>
No Da</w>
Ja i
J ill</w>
Bella gio</w>
8 .99</w>
7 .50</w>
3 9</w>
- like</w>
yu k</w>
substanti al</w>
spo ken</w>
sli des</w>
s ever</w>
mi xing</w>
mar is
illa c</w>
host esses</w>
f oc
dro w
di smis
d ur
d or
all-you- can-eat</w>
Market place</w>
Chev y</w>
A b
to ffee</w>
sun shine</w>
ster eo</w>
st ure</w>
shu tters</w>
ran ging</w>
promo tions</w>
piero gis</w>
le tter</w>
ki st
impro ving</w>
gu m</w>
gr out</w>
good bye</w>
fav our</w>
fa i
equi valent</w>
en core</w>
do sas</w>
chan nel</w>
butter nut</w>
be comes</w>
al ay</w>
ag ency</w>
Steph en</w>
Cul ver</w>
Colombi an</w>
Cad illac</w>
Al yssa</w>
thre at
tast ings</w>
san itation</w>
s. W
reg ard</w>
re less</w>
pric e.</w>
potato e</w>
op her</w>
nit ro</w>
margin al</w>
lo g</w>
k et</w>
jum ped</w>
jalap enos</w>
horri fic</w>
fil ms</w>
extra ordin
do ba</w>
confir mation</w>
chal eu
ca using</w>
border line</w>
bi ased</w>
balloo ns</w>
aquari um</w>
Su bar
Ro ger</w>
Pen n</w>
Ma z
Gabri el</w>
8 0s</w>
3 D</w>
tre nd</w>
sw irl</w>
stric tly</w>
staff .</w>
sauer kraut</w>
re all
p ted</w>
ore y</w>
o ve</w>
ne gl
mu gs</w>
motiv ated</w>
men s</w>
le chon</w>
happ iness</w>
hand ic
gy u</w>
fur ni
free ze</w>
flav oured</w>
fauc et</w>
fa il
en er</w>
empan ada</w>
dra ma</w>
down right</w>
dec rea
con fusion</w>
boy friends</w>
bo xing</w>
T ed</w>
S andy</w>
Ru by</w>
Post mates</w>
Moroc can</w>
Mar co</w>
F ri</w>
A d
un expectedly</w>
stea dy</w>
spra yed</w>
sn ea
s it
s ar
pe eling</w>
la i
haw k</w>
ec h</w>
di re</w>
definiti on</w>
consi sted</w>
clean ings</w>
cigare ttes</w>
ci ders</w>
categ ory</w>
be ets</w>
ba m
b ble</w>
av acado</w>
ais le</w>
achi eve</w>
a del
Sil ver
Sic huan</w>
S au
PG H</w>
Mag gie</w>
MT L</w>
L at
K ra
H ad</w>
D et
Bul wark</w>
wand ering</w>
th ful</w>
tan g</w>
ro w
remo te</w>
plu g</w>
memorab ilia</w>
jac u
hand s-
good .
g lowing</w>
dr a</w>
do ggy</w>
Ther esa</w>
Mi ami</w>
M org
L illy</w>
Jack son</w>
Dal las</w>
An toni
.G o</w>
yy yy</w>
yum mm</w>
your -
year -old</w>
won ders</w>
we e</w>
un healthy</w>
they re</w>
tepp anyaki</w>
taqu itos</w>
survi ve</w>
ri gh
qui e
pro m</w>
porto bello</w>
over look</w>
la sting</w>
it .I</w>
f en
con ta
che tta</w>
char ger</w>
cau tion</w>
belong ings</w>
barbe que</w>
as signed</w>
Subar u</w>
S op
P ra
M em
24 hrs</w>
19 9
.W a
- 1</w>
vacuum ed</w>
tun ed</w>
ton ko
ta pe</w>
st eel</w>
regi on</w>
re located</w>
promp t
pa ds</w>
odd ly</w>
lic en
la sses</w>
k u</w>
jo king</w>
item ent</w>
is y</w>
fla kes</w>
f att
equi pped</w>
dan ish</w>
crum bs</w>
bl ends</w>
b ing
ar do</w>
al oo</w>
a il</w>
W ha
T r
T .</w>
Pa kist
K at</w>
G ra
Donal d</w>
Afr ican</w>
6 .50</w>
' on</w>
tac o
sing er</w>
se wer</w>
rot ate</w>
refl ect</w>
pro portions</w>
laun dr
l or
k om
inst aller</w>
house keeping</w>
family- owned</w>
edu cation</w>
coun ters</w>
c ling</w>
ado bo</w>
Yogur tland</w>
X L</w>
Sha dy
Gab e</w>
D .</w>
C rist
C orey</w>
Bla ze</w>
BO GO</w>
1- 2</w>
wis dom</w>
ru de
pp in</w>
pay ments</w>
part icip
p ton</w>
p p</w>
mosp here</w>
manu fac
m ing
lo tion</w>
ju ven
it .
hor ses</w>
fun nel</w>
fan ta
fac ed</w>
dé cou
duc ks</w>
denti al</w>
cou sins</w>
commer ci
comedi ans</w>
chut ney</w>
chil aqu
al y</w>
air por
T ara</w>
S F</w>
Fern ando</w>
Brit ish</w>
Bil t
2 .99</w>
unc tion</w>
trea sures</w>
tou rist
su sp
sta in</w>
sp oons</w>
sno bby</w>
separ ately</w>
re vam
rac ing</w>
provi ders</w>
prim arily</w>
premi er</w>
ho tt
fru stration</w>
fo ster</w>
f ence</w>
er al</w>
cu bes</w>
cl um
ch ira
b ent</w>
b -
Ste elers</w>
Sop hi
Shady side</w>
Puer to</w>
Har ry</w>
F e</w>
Bilt more</w>
1 am</w>
transfor med</w>
transfer red</w>
sal ami</w>
requi res</w>
repor ted</w>
pin ball</w>
om br
mo o</w>
mac ha
m ex
lin ks</w>
le urs</w>
le che</w>
l ery</w>
kof ta</w>
hur ts</w>
gl itter</w>
gh ty</w>
fr o</w>
fir st-
es h</w>
dul ce</w>
d ye</w>
costu me</w>
conden sed</w>
canc el
Mem orial</w>
Mand alay</w>
Kim ber
Fran kie</w>
Car ol</w>
.A s</w>
ye arly</w>
tre al
t ous</w>
sto ked</w>
ste pping</w>
sm iled</w>
si r</w>
si gh</w>
ro ses</w>
ri ms</w>
re stu
re do</w>
pol itely</w>
pl ed</w>
pero gies</w>
o ta</w>
matt resses</w>
ma il
lo g
laundr om
in die</w>
i ous</w>
fit ted</w>
fee ding</w>
falaf els</w>
expan sive</w>
es -
ec la
di vers
dev iled</w>
dec af</w>
cos me
chira shi</w>
cham pi
cas ser
busin ess
bun dance</w>
bro iled</w>
an xious</w>
accu e
a ine</w>
Sand ra</w>
J ess</w>
I sa
Har ley</w>
Fi rest
8 .00</w>
- made</w>
è res</w>
vari es</w>
u tter
ta tion
strugg ling</w>
streng th</w>
sel f
ru pt</w>
ri gat
redee ming</w>
od or</w>
mel ting</w>
ma xi
la d
house hold</w>
gu a</w>
great -</w>
fun di
fac ts</w>
direc ted</w>
di sin
conver ted</w>
co stly</w>
ch imi</w>
app ed</w>
al y
ad jac
Paci fic</w>
Mol ly</w>
Me dina</w>
Mar cus</w>
Mac y</w>
M itch
D ana</w>
Alex is</w>
8 8</w>
8 00</w>
' un</w>
z er
v or</w>
tin a</w>
taste buds</w>
stu dios</w>
stin ky</w>
st ically</w>
rel len
recogni zed</w>
pe ar
pac he</w>
over flowing</w>
o es</w>
mini -
lab eled</w>
ju ste</w>
intro duce</w>
in tri
har dest</w>
fr action</w>
estim ates</w>
dr ying</w>
coll ard</w>
bu s
atmosp here.
al arm</w>
T C</w>
Q doba</w>
Ja de</w>
I vy</w>
Da isy</w>
Cha time</w>
2 1st</w>
yum mmm</w>
walle ye</w>
ten sion</w>
su me</w>
respec ted</w>
pl ating</w>
ombr é</w>
mo st
ignor ing</w>
ic op
gro ss
g au
ec tive</w>
do -
di c</w>
crack ers</w>
continu ing</w>
ch ers</w>
brea th
bl essing</w>
bi ère</w>
ban o</w>
asse m
a bundance</w>
Krist en</w>
Ju dy</w>
Davi dson</w>
C av
5 .50</w>
3 .00</w>
tonko tsu</w>
so ba</w>
scorpi on</w>
saf ely</w>
rigat oni</w>
re star
pl ated</w>
pe e</w>
out fit</w>
mi xes</w>
li ars</w>
inj ec
in ner</w>
in flu
hu mus</w>
h mmm</w>
fire arms</w>
dri ves</w>
consider ation</w>
color ist</w>
char ity</w>
bri ef</w>
bli ss</w>
before hand</w>
alter n
accep ting</w>
a mu
P itt</w>
Nor th
La kes</w>
K an
B ou
Ar m
tru sive</w>
tran smis
to se</w>
shout out</w>
sa ki</w>
reminis cent</w>
pa rent</w>
ni p</w>
n g</w>
mo del
manag ing</w>
ly .</w>
li p
l ent</w>
jum ping</w>
immen sely</w>
frea k</w>
eth ic</w>
divers ity</w>
crit ic
cl ever</w>
ca stle</w>
ca mar
c iti
autom atic</w>
adjac ent</w>
West in</w>
Morg an</w>
Mir age</w>
M au
Firest one</w>
20 00</w>
.O n</w>
zz led</w>
wrec k</w>
w en</w>
utter ly</w>
su bli
s. It</w>
ru e</w>
ri f
res our
ra spa
ob a</w>
mus ic
mo res</w>
in fl
home work</w>
fre in
food -
foo dies</w>
en c
dist ur
decor ating</w>
de -
coo k
cha os</w>
casser ole</w>
bikin i</w>
at en
Tre mont</w>
R ico</w>
O mar</w>
Malay sian</w>
M s.</w>
K ings</w>
J unction</w>
Chil is</w>
A A</w>
wi reless</w>
val ve</w>
ur ine</w>
un matched</w>
un forgettable</w>
ti ed</w>
tan ks</w>
strugg le</w>
stra ws</w>
south western</w>
soo n
poin ting</w>
per k</w>
no t-
medi o
may onnaise</w>
layo ver</w>
ing u
gener ously</w>
favor s</w>
emplo y
condi ment</w>
co z</w>
co ated</w>
cir cum
chilaqu iles</w>
chea p
cand le</w>
b as</w>
attenti ve
W ord</w>
Road house</w>
Phil adel
M ickey</w>
I l
G en
Ari a</w>
A pache</w>
.C an</w>
ww w</w>
v v
up hol
to do</w>
tex tures</w>
st are</w>
sha do
sha des</w>
s it-
ri pe</w>
restu ar
pres ents</w>
ou ch</w>
oper ate</w>
o p</w>
mu sique</w>
mi ghty</w>
lin ton</w>
k icks</w>
iz ak
hu bs</w>
ho sting</w>
had dock</w>
goû t</w>
fi xes</w>
diffic ulty</w>
dela ys</w>
de termin
day -
comfor table
com mend</w>
chocol at</w>
chi e</w>
b out</w>
aler t</w>
Z ack</w>
Vau ghan</w>
Ro sa</w>
R ed
Philadel phi
Nor theast</w>
K else
Har bor</w>
Ha ve</w>
Co pper</w>
5- 6</w>
15 min</w>
-in- law</w>
wi shing</w>
un agi</w>
tra shy</w>
ti mel
stand out</w>
sho pper</w>
s ley</w>
pret end</w>
mo dest</w>
hott est</w>
her e.The</w>
gui des</w>
gre en
go ssi
fu ck
exp ense</w>
ex ams</w>
egg rolls</w>
disp at
comb ine</w>
b ell</w>
at ur</w>
asi ago</w>
artis an</w>
are s</w>
ab or
P rice</w>
Maz da</w>
L L
K el
J am
H VAC</w>
Cu bano</w>
Chan gs</w>
Capri otti</w>
Bar ry</w>
z iti</w>
sunda es</w>
speciali ze</w>
respec table</w>
rea m
pi mento</w>
pa kor
optome tri
off ic
non- existent</w>
macha ca</w>
l anta</w>
is lands</w>
install ers</w>
h enna</w>
gro ssed</w>
gr un
good -
fix ings</w>
f old</w>
d ill</w>
cur d</w>
con scien
clu es</w>
b itch
b at</w>
ad es</w>
Sk y
P ai
O verall</w>
L enny</w>
Di ane</w>
Dec atur</w>
. Friendly</w>
éta ient</w>
tribu te</w>
t -</w>
sur able</w>
si pping</w>
sa ka</w>
produc ed</w>
pre made</w>
pou let</w>
pop sic
po st-
perfor ming</w>
no wa
na tion</w>
limit Word</w>
landsca pe</w>
lam ps</w>
lak sa</w>
im pac
i sts</w>
hor ror</w>
fur ry</w>
enthusi asm</w>
br o</w>
al so
X- rays</w>
Ri ver
M V
Dom ino</w>
Col um
C ory</w>
Bu dd
3 4</w>
.Al ways</w>
vau t</w>
under -
th ing.</w>
ta mar
ta k
t ear</w>
steak houses</w>
s som</w>
re make</w>
re juven
quie ter</w>
ne ys</w>
maris cos</w>
loy d</w>
lai d-
la h</w>
her bal</w>
gui dance</w>
en ta</w>
e ws</w>
destro yed</w>
dd en
d un
cin ema</w>
ch op
camer as</w>
bam boo</w>
b att
att ack</w>
arro z</w>
ai me</w>
S S
Philadelphi a</w>
Ore gon</w>
N u
Lind sey</w>
K u
I mper
Christ opher</w>
30 mins</w>
20 min</w>
zi p</w>
trav els</w>
til lo</w>
tex ting</w>
tast ey</w>
t .I</w>
sur geon</w>
sna pper</w>
sha war
repa ir
regre ts</w>
redee m</w>
rais onn
po ckets</w>
oun der</w>
on ica</w>
om bie</w>
n in
mom ents</w>
mo i
ma ison</w>
land ed</w>
k ills</w>
ju ke</w>
instruc tion</w>
in ju
fr itt
f ter</w>
essi e</w>
er .</w>
don ate</w>
distr acted</w>
disgu st
dd in</w>
cat a</w>
care less</w>
cab in</w>
blo ssom</w>
ble e
b ells</w>
appare nt</w>
W illy</w>
Qu in
Pakist ani</w>
O p
N apo
Mi gu
Mel anie</w>
Les lie</w>
G ro
G at
Cyn thia</w>
Be tty</w>
B ang
B ad
y u</w>
vo id</w>
un inspired</w>
thin ner</w>
ten ants</w>
spec tive</w>
sli der</w>
sbur g</w>
s arca
ri en</w>
re filling</w>
r oughly</w>
r itual</w>
r inging</w>
pre mis
paint ings</w>
p ut
oun ding</w>
no te
min im
man s</w>
m ats</w>
kne e</w>
in convenien
il t</w>
i zed</w>
ha w</w>
h in
en tal</w>
def .</w>
cul tural</w>
compet iti
clas si
boo st</w>
ali st</w>
a un
Lo tus</w>
Kimber ly</w>
J .</w>
IK E
F err
Bre tt</w>
Al icia</w>
6 00</w>
3 .99</w>
' mores</w>
wr ong
wor e</w>
v é
sp ouse</w>
so ber</w>
sna p</w>
sn ick
sk ate</w>
pin a</w>
on e.</w>
nowa days</w>
na p</w>
lum pia</w>
len gua</w>
laundrom at</w>
i o</w>
hur ting</w>
ei ther
desper ately</w>
de tox</w>
d ney</w>
cur b</w>
croo ked</w>
ben ch</w>
b and
a way
T on
Mitch ell</w>
Migu el</w>
E .</w>
Det roit</w>
Clar k</w>
Bu ff
B oo
A si
A ll</w>
8 th</w>
.Or dered</w>
uu uu
sub i</w>
spic ey</w>
ru g</w>
po le</w>
ok onom
k k
jacu zzi</w>
intri gu
i den
hand yman</w>
ha haha</w>
gen tly</w>
dispo sal</w>
dedic ation</w>
decei ving</w>
croo ks</w>
cr out
continu ously</w>
conditi oned</w>
assu med</w>
argu ed</w>
any a</w>
again .</w>
R ol
Lou isi
Jo el</w>
Imper ial</w>
Care free</w>
- y</w>
z ie</w>
yel low
vol ley
volley ball</w>
transmis sion</w>
ta h
struc ture</w>
sit- down</w>
se es</w>
scorpi ons</w>
s m</w>
s cul
ro bo
res olution</w>
protec tor</w>
po wer
pl ague</w>
pamper ing</w>
pac ed</w>
nic e.</w>
nec k
make over</w>
kara age</w>
ho se</w>
elo te</w>
der ma
den te</w>
de par
d om
d in</w>
cra z
ca ke
W ing
T S
Ru th</w>
R icky</w>
N W</w>
Kelse y</w>
J ared</w>
I van</w>
C and
3 7</w>
.I n</w>
-- I</w>
wra pping</w>
vi ol
un -
remain ed</w>
prom ises</w>
p ine</w>
noti fied</w>
no tch
mo i</w>
jam s</w>
hygien e</w>
gen ce</w>
flavour less</w>
fill ers</w>
cre ma</w>
conscien tious</w>
connoisse ur</w>
comp on
black berry</w>
acci a</w>
a ti
V ir
S en
Mur phy</w>
Cor a</w>
B L
B K</w>
Antoni o</w>
3 5
w i</w>
tou ch
tor tell
tea m
ta b
sy ru
satis fies</w>
retur n
po z
po sts</w>
pakor as</w>
n oo
mo ds</w>
ke y
j ack</w>
gu ava</w>
go d
foun tains</w>
for ks</w>
f ir</w>
exper i
exempl ary</w>
enter tain</w>
do le</w>
capac ity</w>
break er</w>
avoi ded</w>
are pa</w>
ar ity</w>
al d</w>
additi ons</w>
W ayne</w>
Rom an</w>
Pai ge</w>
Louisi ana</w>
Ja y
Is ra
H O</w>
Fi re
E to
Broo ke</w>
Bec ky</w>
yak is
ve tte</w>
u ser</w>
u re
te d.</w>
t ing
subli me</w>
stea ming</w>
sla m</w>
shi p
sales men</w>
reali stic</w>
pp s</w>
po st
plat eau</w>
pic cata</w>
phi c</w>
pati os</w>
na u
grand daughter</w>
ful filling</w>
excel ente</w>
desig n
customiz able</w>
critic ism</w>
comm itted</w>
coff in</w>
bicy cle</w>
as ses
arri e</w>
V al</w>
T ex</w>
Il lin
Flo ren
D ee</w>
B ee
4 4</w>
yakis oba</w>
tai lored</w>
stac ked</w>
some day</w>
rin ks</w>
pa pri
out stand
n ut
mus icians</w>
muff ler</w>
motiv ating</w>
k ay
in appropriate</w>
htt ps</w>
her e.I</w>
he fty</w>
ga i</w>
food .I</w>
contrac tor</w>
consu mer</w>
che ery</w>
centr ally</w>
ar ound
am mo</w>
R al
Par king</w>
Juli a</w>
B um
B ir
Adri an</w>
5 9</w>
4 am</w>
wit ch</w>
very one</w>
tamar ind</w>
ta burger</w>
t- up</w>
substitu tions</w>
special ties</w>
sho ppers</w>
sa ssy</w>
s wan
rr rr
ri vals</w>
re fin
premis es</w>
plac e-</w>
performan ces</w>
per sons</w>
pain fully</w>
ok .</w>
o tt
ne ath</w>
meille ur</w>
laid- back</w>
intimi dating</w>
fra is</w>
fore ign</w>
fif th</w>
exc itement</w>
end a</w>
dé jeun
crit ical</w>
comm it
com mu
co b</w>
celi ac</w>
ce tte</w>
bisco tti</w>
bel oved</w>
be g</w>
ban ner</w>
anc ini</w>
V en
Th ri
S av
Lon gh
Cro ss
C ur
C en
sil k</w>
sa d
s ni
rela tive</w>
plea surable</w>
p its</w>
on gs</w>
nu g
mex ic
k ok</w>
inv ol
humid or</w>
gu t</w>
great .The</w>
gg ling</w>
ga ined</w>
frea ky</w>
en ess</w>
dis co
dig ital</w>
delic ous</w>
cu tter</w>
car bs</w>
br ac
bomb .com</w>
bom bs</w>
blee ding</w>
am is</w>
ali a</w>
al monds</w>
accur ately</w>
W oo
Vi sta</w>
Sch war
Pri est</w>
Mon treal
Fore st</w>
E N
Cha p
Ca thy</w>
An ne
' clock</w>
wor d
trea d
tran sp
too l</w>
theat res</w>
rea d
pum ps</w>
pow dered</w>
po sters</w>
pl i
peopl e.
nostal gia</w>
lar ity</w>
la bel</w>
inci dent</w>
ignor ant</w>
hot el
hands- down</w>
educ ate</w>
dist ill
co co
cir cu
charac ters</w>
ca m</w>
bl u
anc o</w>
Vin ce</w>
Ver onica</w>
Tor onto
S print</w>
R .</w>
Pin ot</w>
Par ma</w>
Men tor</w>
M s</w>
K ai</w>
IKE A</w>
Eng land</w>
Ala ddin</w>
wheel chair</w>
w esome</w>
vo te</w>
val i
va is</w>
upgra ding</w>
under neath</w>
ti st</w>
thor a</w>
tea ms</w>
sur ly</w>
sugge sting</w>
st ir
sal ade</w>
ru ins</w>
rec y
re vi
r s.</w>
pregn ancy</w>
meille urs</w>
insi ght</w>
in efficient</w>
i endo</w>
foc accia</w>
fla me</w>
fl ank</w>
exten sion</w>
exp anding</w>
el i</w>
du rian</w>
dro ps</w>
din o
cu red</w>
cer eal</w>
cal l
bu m
am -
ag ents</w>
ac compli
Rubi os</w>
Rob in
P ol
L ance</w>
K ha
IM A
G I</w>
Ba ha
Au str
z ombie</w>
vap or</w>
u s
tu bs</w>
tast ic</w>
selec ting</w>
se x</w>
ro a
restra unt</w>
recepti onists</w>
quali fied</w>
prot ection</w>
propri et
prom ising</w>
professi on</w>
pre vent</w>
pe ut</w>
off icial</w>
moj o</w>
macar oon</w>
ici es</w>
high- quality</w>
hem med</w>
ga me
festi ve</w>
ever .</w>
d d</w>
cut let</w>
cra mmed</w>
contin ental</w>
col d
T ac
S pen
D es
Boy z</w>
BB B</w>
A R
9 0s</w>
6 .00</w>
1 .99</w>
yel ped</w>
veg as
tor o</w>
tell ers</w>
tail oring</w>
swe at
sev ice</w>
scrat ches</w>
s or</w>
ru gs</w>
repu table</w>
r on
r at</w>
ple thora</w>
phys ically</w>
on .</w>
m é
lac tose</w>
ir o</w>
infl ated</w>
in deci
har d-
hand les</w>
h l</w>
func tional</w>
fra ud</w>
en ough
don air</w>
dig ging</w>
dec o</w>
bro ad</w>
book store</w>
ab ord
ab a</w>
Tat um</w>
T e
Se ars</w>
S how
Pope ye</w>
Ni ke</w>
J essie</w>
Floren tine</w>
F F</w>
C S
.W h
worl ds</w>
wa xes</w>
vi e</w>
town ers</w>
t .The</w>
sta ble</w>
sociali ze</w>
sm o</w>
se aled</w>
rin k</w>
recommend s</w>
re y</w>
re p
prof ile</w>
per ks</w>
pear ls</w>
par a
pac kets</w>
nug get</w>
loc king</w>
leg end</w>
ki wi</w>
il legal</w>
ig i</w>
gar l
ful fill</w>
food .The</w>
ed -
distinc t</w>
de mon
communic ative</w>
che wing</w>
blue berries</w>
at ures</w>
assho le</w>
an er</w>
Sh ore</w>
S app
N ep
IMA X</w>
D ill
Ar ab
Apple bees</w>
tortell ini</w>
su dden
sp an
smo ker</w>
sli ding</w>
situ ated</w>
sel ine</w>
sc rubs</w>
re e
poz ole</w>
mu cho</w>
min ded</w>
inter rup
hun ting</w>
hall way</w>
gg in</w>
em an</w>
dr .
de duc
continu ally</w>
clim b</w>
c rush</w>
begin ners</w>
begin ner</w>
au l</w>
accep ts</w>
Wha taburger</w>
T s</w>
St ella</w>
R C</w>
Que ens</w>
Napo le
Gal ax
Ca therine</w>
Alli son</w>
10 th</w>
10 .
0 5</w>
.O h</w>
wa l</w>
v ore</w>
uc k
th ur</w>
ta h</w>
syn thetic</w>
sun g</w>
sp elling</w>
sha re
sa bor</w>
run ner</w>
reli gi
pher d</w>
pal ette</w>
or thodon
oper ating</w>
op e</w>
must- try</w>
mu tton</w>
mg r</w>
lea sing</w>
lay ered</w>
fli r
entr ées</w>
dr yers</w>
cler ks</w>
bo ar</w>
bb t</w>
bar rier</w>
bal d</w>
ba sa</w>
au c
ad d-
absur d</w>
X mas</w>
Vene zu
Thri fty</w>
T ee
So Cal</w>
She pherd</w>
R ican</w>
Or ch
L yn
L ev
Du stin</w>
BW W</w>
B oca</w>
A ve
A bby</w>
wa gyu</w>
sho ck
sha ping</w>
remo tely</w>
remin der</w>
re sume</w>
r ics</w>
prote ins</w>
low- key</w>
lou dly</w>
le ches</w>
intelli gent</w>
ingredi ent
gg gg
fro sted</w>
fa des</w>
every thing
environ ment
effor ts</w>
dri zzle</w>
dev ices</w>
cro qu
consul tant</w>
com a</w>
be ig
ban quet</w>
b ound</w>
app y</w>
P om
L ul
L V
Jai me</w>
J orge</w>
IM HO</w>
Hei di</w>
Ch ri
ue ts</w>
toil ets</w>
stum ble</w>
snoo ty</w>
shar k</w>
roun ded</w>
ro ws</w>
recom iendo</w>
re new</w>
re luc
qua il</w>
progra ms</w>
pol icies</w>
pol enta</w>
outrage ously</w>
ma ge</w>
life style</w>
la stly</w>
hoo t</w>
gé né
frein dly</w>
flu id</w>
fi ghts</w>
fair ways</w>
execu tive</w>
dry wall</w>
convin ce</w>
con serv
chan deli
ca l</w>
bu stling</w>
bounc er</w>
bask ets</w>
argu ing</w>
ac tors</w>
Ren ee</w>
M R
Ital i
Har vest</w>
E va</w>
D oo
Bang kok</w>
Al l
x -
worth less</w>
water front</w>
w ound</w>
ver sions</w>
uni form</w>
uc ky</w>
t ele
swa p</w>
sudden ly</w>
su pri
stran gers</w>
sp ends</w>
sch warma</w>
s .T
rellen os</w>
pur i</w>
pr aw
pp er
ow l</w>
moj itos</w>
min uets</w>
magaz ines</w>
l é</w>
k es
invest ment</w>
in .</w>
il lian</w>
i yaki</w>
hun gover</w>
fol k</w>
fi res</w>
ex hau
effici ent
distill ery</w>
de er</w>
d oodle</w>
cuis ines</w>
coun ts</w>
coo ling</w>
ball park</w>
back wards</w>
ad ed</w>
Viet na
Sol on</w>
Shar on</w>
P lay
N .</w>
Galax y</w>
E g
7 .00</w>
xi ao</w>
wand ered</w>
ven tured</w>
to en
store front</w>
stom er</w>
s cream</w>
ro cking</w>
resi dential</w>
recom end
proble m
pea meal</w>
m c
lun che
lo lli
it to</w>
im a</w>
gr in</w>
go ver
even ly</w>
est y</w>
ep tive</w>
cut lery</w>
cheesec a
chan a</w>
bund t</w>
buff et
bu mp</w>
bi c</w>
be ast</w>
b é
attrac tions</w>
assem bly</w>
adverti sement</w>
Lo gan</w>
K al
J eff
Co smo</w>
Bar bar
7 9</w>
.W or
un reasonable</w>
tw in</w>
tranqu il</w>
tr as
ti pping</w>
sla b</w>
sav ou
sa ff
roo mmate</w>
retour ner
ran ges</w>
rais in</w>
oc cur
mal ai</w>
loo k
lo go</w>
lick ing</w>
izak aya</w>
h mm</w>
g ing
g ated</w>
ed it</w>
econom ical</w>
dis cour
de mo
con duc
cali ber</w>
bu r</w>
ba st
art sy</w>
an ship</w>
ado pted</w>
V ic</w>
Oli via</w>
M as
Lou ie</w>
L eah</w>
Krist y</w>
Ken ne
K ris</w>
HO A</w>
H ector</w>
Fran c
Eto bic
D on</w>
C y
8 .50</w>
-- the</w>
wal l
ur o</w>
un remarkable</w>
un reliable</w>
um bre
trans ition</w>
tourist y</w>
taqu eria</w>
souven irs</w>
si g</w>
rock star</w>
rapp ort</w>
ol dest</w>
ne stled</w>
minut es
mar row</w>
jo ining</w>
j ava</w>
h es</w>
fundi do</w>
fel las</w>
f ting</w>
est ed</w>
err ands</w>
ed ly</w>
ed .
dra wn</w>
cru sts</w>
cr ème</w>
cock roaches</w>
bur sting</w>
amb ien
al ittle</w>
Ne k
M ea
K ha</w>
J ean</w>
Good will</w>
E co</w>
E ast
Di ablo</w>
At lanta</w>
Angel o</w>
' adore</w>
x x</w>
wi fe
warm th</w>
w it</w>
tren ds</w>
tex ted</w>
stri ke</w>
sprink led</w>
slu shi
skir t</w>
short cake</w>
saff ron</w>
s qui
re member
re im
reim bur
plac ement</w>
per spective</w>
over head</w>
oo ps</w>
nic e
mar ble</w>
man i-
maintain ing</w>
m is</w>
kne es</w>
inspec ted</w>
ig ent</w>
goo oo
g lu
explo sion</w>
exclu sively</w>
en suring</w>
definit ly</w>
com .</w>
clo gged</w>
cha tty</w>
cha n</w>
bru tal</w>
b ill
aesthe tician</w>
a dos</w>
West side</w>
W ong</w>
Th under
Sab rina</w>
Illin ois</w>
Hou ston</w>
Ham pton</w>
H S</w>
F red</w>
E x</w>
50 s</w>
. and</w>
yellow tail</w>
ver sed</w>
under statement</w>
un welcoming</w>
thi eves</w>
term ite</w>
tattoo ed</w>
sprink le</w>
so li
smo kes</w>
shor ts</w>
schedu les</w>
sa mm
radi us</w>
por ch</w>
pl um</w>
optometri st</w>
nea rest</w>
manicu rist</w>
ke ttle</w>
j u</w>
gra phic</w>
fro g</w>
fi st</w>
en han
crea tion</w>
con clu
canno lis</w>
breath taking</w>
aw ful
Si erra</w>
Ro x
Que bec</w>
P D</w>
M D</w>
K ee</w>
F B</w>
C C
Ar no
A z
A N
2 .</w>
.P rice</w>
' n</w>
vari ations</w>
ul tras
u h</w>
to ss</w>
terri ble
temp ted</w>
summer time</w>
strugg led</w>
secre ts</w>
restuar ant</w>
res h</w>
re me
pl at</w>
pa ws</w>
opini ons</w>
not ary</w>
nin ja</w>
men tioning</w>
ma ps</w>
lea sed</w>
inst ru
ha d.</w>
h ood
gu ards</w>
gri stle</w>
gra ph
gl ory</w>
ga ther
fr ick
effec ts</w>
cen ters</w>
c loud</w>
bu stle</w>
bl ond</w>
be ars</w>
ambi ent</w>
T anya</w>
K a</w>
Hoo ver</w>
Cob ble
Car son</w>
C el
Bu sters</w>
Ba seline</w>
4 .50</w>
12 .99</w>
wa aa
vo ir</w>
ut most</w>
un known</w>
toler able</w>
tabl et</w>
sp elled</w>
sp ell</w>
sk ating</w>
sho yu</w>
s serie</w>
ro cket</w>
regi onal</w>
real tor</w>
pren dre</w>
pract iti
p ts</w>
mul ti</w>
mi sters</w>
mi a</w>
local e</w>
lim ea
leg end
l t</w>
health care</w>
hand -
go bi</w>
fanci er</w>
ee e</w>
do t</w>
dil igent</w>
danc es</w>
d is</w>
cir cus</w>
cand les</w>
bee f
aesthe tically</w>
W y
N an
Mi ddle
Je wish</w>
I I</w>
E vans</w>
E V
Cobble stone</w>
30- 40</w>
1 7th</w>
. Ch
vi be
to day
su ited</w>
st als</w>
squ ea
sno tty</w>
smoke house</w>
si sig</w>
scrat ched</w>
sauc ed</w>
sand wh
sa ve
re verse</w>
ran ks</w>
quick ly
preci ous</w>
praw ns</w>
pr on
pp ie</w>
poli shes</w>
nac le</w>
n ered</w>
michel adas</w>
ho bby</w>
h ound</w>
gree dy</w>
fres ca</w>
f a</w>
dé ç
dru gs</w>
disa gre
dea d
da i
d ick</w>
con tra
communic ating</w>
co ins</w>
as sure</w>
ar my</w>
Wil d
South side</w>
S T
Robin son</w>
R O
Or thodon
Mc D</w>
M erry</w>
G ou
E at
Del ta</w>
C e
Broad way</w>
A ut
5- 7</w>
4 .00</w>
- the</w>
week end
vo tre</w>
ve en</w>
tac tics</w>
t- shirts</w>
stu ffs</w>
st ream</w>
souven ir</w>
sm all
sle ek</w>
sha ded</w>
sc in
ru den
p unk</w>
new spa
metho d</w>
m unch</w>
int end</w>
inspec tor</w>
hear ted</w>
gran ite</w>
fla ming</w>
f oul</w>
es a
cu shi
crout ons</w>
cla y</w>
chaleu reux</w>
ch in</w>
cancel lation</w>
bu yers</w>
bu en</w>
bi ker</w>
ani a</w>
ambi anc
aftern oons</w>
T ia</w>
P ac
Hun ter</w>
G PS</w>
Ch ey
CP K</w>
An ne</w>
8 9</w>
4 5pm</w>
3 50</w>
200 8</w>
- friendly</w>
we al
veterin arian</w>
tw o-
trav elers</w>
through ly</w>
ten ant</w>
technic al</w>
shu ff
shawar mas</w>
servic e-
rub bed</w>
re tri
quick est</w>
pa wn</w>
pa pers</w>
p un
ne on</w>
min ced</w>
ma ze</w>
legend ary</w>
kni ves</w>
impec ca
grow ler</w>
follow -up</w>
dis covering</w>
craftsm anship</w>
compens ate</w>
commit ment</w>
col a</w>
cabin ets</w>
ca bana</w>
bo xed</w>
avi d</w>
au to
atmosp here.</w>
associ ated</w>
Wa x
T X</w>
S C</w>
Pal a
P ric
Longh orn</w>
H aw
F at
Etobic oke</w>
E aton</w>
Chap man</w>
Car lo</w>
Car din
Arno ld</w>
Ar by</w>
yuc ca</w>
volunte ers</w>
v ing
u be</w>
tw ins</w>
trav eler</w>
tr um</w>
than ked</w>
televi sion</w>
swi ft</w>
sta red</w>
so dium</w>
s ent
ruden ess</w>
rock in</w>
reclin ers</w>
re duce</w>
r ors</w>
questi oned</w>
prom o</w>
par fa
par all
o y</w>
me h
m t</w>
il lu
home- made</w>
histor ical</w>
he m</w>
gre et
evi dent</w>
en sured</w>
el ement</w>
duc ing</w>
drea ming</w>
deligh ts</w>
cry stals</w>
cru ise</w>
cr abs</w>
compet ence</w>
bur ns</w>
bi o
alter ation</w>
al as</w>
ab out
Wing stop</w>
Son ny</w>
S L
Pin nacle</w>
P .</w>
N AS
G .</w>
F il
Dol ce</w>
Dan e</w>
6 am</w>
6 9</w>
.T o
-- and</w>
yog ur
w ander</w>
too th
tah ini</w>
sur tout</w>
so ir
sc ent</w>
sauc e.
reli eved</w>
re made</w>
re aching</w>
ra p</w>
questi on
pour ing</w>
plac e.The</w>
plac e.I</w>
pediat ric</w>
ous ness</w>
om ak
na il
mou se</w>
men ting</w>
licen sed</w>
ke yed</w>
k are</w>
jam med</w>
ir able</w>
inv o
gri lls</w>
feel ings</w>
es s.
electr ician</w>
docu ments</w>
cra fts</w>
con tain</w>
co t
cle ans</w>
butt ered</w>
aw eful</w>
area .</w>
ac ks</w>
ac knowled
Sw en
Spen cer</w>
Spa dina</w>
Schwar tz</w>
Re ese</w>
N et
M -
Clau dia</w>
C arrie</w>
.C lean</w>
- and-
un clean</w>
un appetizing</w>
tend on</w>
squ ad</w>
sk et
s can
re use</w>
re open</w>
moun ted</w>
mol dy</w>
mi gra
law yer</w>
jang les</w>
gar ni
fresh .</w>
fla u
fl u</w>
fi ve-
diagno stic</w>
cou pled</w>
challen ges</w>
butter cream</w>
bu ys</w>
avo ir</w>
attrac t</w>
attenti veness</w>
ath on</w>
as co</w>
appro x</w>
appro ve</w>
an cho
am er
al together</w>
Whit ney</w>
West gate</w>
Thunder bird</w>
IN G</w>
H ill
Gar cia</w>
E verything</w>
Baha ma</w>
w ire</w>
um n</w>
to tal
tat aki</w>
sub stance</w>
ster ile</w>
sta tion
sociali zing</w>
servic e.The</w>
sc ous</w>
saut eed</w>
ro wn</w>
re ll</w>
re hear
ra ves</w>
pré f
por chetta</w>
pl ess</w>
pe u
ori zed</w>
nutriti onal</w>
nur sing</w>
me x</w>
lo t
la z
inspec tions</w>
go o</w>
ge e</w>
g eared</w>
fi shing</w>
e mo
discu ssing</w>
disco very</w>
d .I</w>
cur ried</w>
cosme tic</w>
ci ab
c ough</w>
bo ats</w>
bi zar
Z um
Vietna m</w>
Tai wan</w>
Ro d</w>
M andy</w>
Lo u</w>
E van</w>
C ir
Buff ett</w>
Americ ans</w>
' a</w>
tu be</w>
ton ic</w>
t out
suff er</w>
subur ban</w>
st all</w>
s wal
row dy</w>
rom aine</w>
rock er</w>
respon ses</w>
re ti
re tail
re lish</w>
pol is</w>
pec ans</w>
pati o
parti ally</w>
p sy
p oodle</w>
orien tal</w>
na y</w>
n ment</w>
mas k</w>
manag es</w>
line ups</w>
legitim ate</w>
laugh ter</w>
go dd
glori ous</w>
fro -
flau tas</w>
fi rec
fa scin
expres so</w>
enthusi ast</w>
dic ed</w>
dd ings</w>
d read</w>
d .The</w>
cou scous</w>
co ating</w>
bu ena</w>
Wal ker</w>
W ill
Tee ter</w>
T en
Shel by</w>
Sa int</w>
S pec
Roc kets</w>
P ir
O P
Law ren
Ja ys</w>
I n</w>
Han na</w>
Ge or
F ed
D il
Budd ha</w>
Bo jangles</w>
20 .00</w>
00 am</w>
. the</w>
wi e</w>
vom it</w>
trac ks</w>
ti gh
tho u</w>
teenag er</w>
sub j
spl en
s ch</w>
s ate</w>
refu ses</w>
pro ved</w>
photogra phy</w>
p ate</w>
on site</w>
notic eable</w>
n hard
mu subi</w>
mi est</w>
le t
ko i</w>
k on</w>
hol ders</w>
h -
gg le</w>
gather ings</w>
fres cas</w>
flu ke</w>
exp éri
eli min
cutic le</w>
cev ille</w>
ca ge</w>
bu sted</w>
br ats</w>
ble h</w>
bla med</w>
app re
ang els</w>
all a</w>
Willi ams</w>
W ould</w>
W W
U .S.</w>
Stac ey</w>
S tre
Roo fing</w>
Re public</w>
R itz</w>
La veen</w>
Gou da</w>
D ino</w>
Brand i</w>
Ave da</w>
7 00</w>
5 am</w>
é r
will ing
vi sually</w>
un parall
tu re
speciali zes</w>
restaurant .</w>
resi dence</w>
re vol
rat a</w>
pa tion</w>
over due</w>
okonom iyaki</w>
o well</w>
min .</w>
lo aner</w>
light ning</w>
land mark</w>
knowledg ea
haun ted</w>
gin ia</w>
ful l
fo g</w>
fe wer</w>
encour aged</w>
dep end</w>
chi ef</w>
cam ping</w>
brides maid</w>
autom ated</w>
ar ancini</w>
ang le</w>
al led</w>
W ars</w>
W O
Vir ginia</w>
Up date</w>
Ru ss</w>
Q T</w>
N el
Mu st
Mi sty</w>
Lo dge</w>
Leg acy</w>
L ana</w>
Juli o</w>
Jac ks</w>
J ar
Fili berto</w>
E OS</w>
Co smo
Chey enne</w>
Cap it
Barbar a</w>
A ur
A D
you th</w>
x ox
willing ness</w>
thro at</w>
s. Great</w>
rot ated</w>
rela tives</w>
regre tted</w>
pu n</w>
omak ase</w>
nhard t</w>
na tion
mo p</w>
mis ses</w>
men tation</w>
mat in
m ate</w>
lin ers</w>
li ar</w>
la ying</w>
jewel er</w>
inqu ire</w>
gra ham</w>
godd ess</w>
g ender</w>
fl ats</w>
fa ut</w>
elev ators</w>
ec es</w>
drive way</w>
dispen ser</w>
dir ty
dev o
determin ed</w>
cot tage</w>
compre hensive</w>
commerci als</w>
coll ect</w>
ciab atta</w>
bur rata</w>
bul b</w>
bi ères</w>
bi a</w>
a pric
a mic</w>
Wax haw</w>
W right</w>
S taff</w>
R ay
P res
Nor man</w>
Mar c</w>
Jama ica</w>
Ho ward</w>
He in
H .</w>
G od
DV D</w>
DI Y</w>
Be th</w>
A C
11 -
v ana</w>
up setting</w>
ti ble</w>
sur face</w>
suppor ts</w>
simpl icity</w>
sign al</w>
s eal</w>
re ha
poo l
pi pes</w>
per i</w>
p itch</w>
ou ter</w>
night club</w>
mil dly</w>
l ick</w>
kick ing</w>
j ama
indeci sive</w>
in hal
im itation</w>
gif ted</w>
fres co</w>
food .
flu sh</w>
fl are</w>
fil ters</w>
experienc e.</w>
err ors</w>
ee ee</w>
ea s</w>
du pl
dis cre
des i
dd les</w>
circum st
chr ome</w>
bur st</w>
after taste</w>
W ells</w>
Str ong
Ro y</w>
Mid wood</w>
Kha o</w>
G us</w>
Fed Ex</w>
Dav is</w>
Cor n
Chipot les</w>
Ch al
C assi
B lake</w>
B est</w>
Aur ora</w>
A mi
A ca
7 7</w>
1. 25</w>
vi es</w>
ultras ound</w>
twi sts</w>
tom a
str onom
sky line</w>
sho ppe</w>
scen ic</w>
s .This</w>
ro le</w>
re lease</w>
pp i</w>
panc it</w>
p ens</w>
mouth watering</w>
mir rors</w>
mes sa
lu sh</w>
lo ve
kin dest</w>
it an</w>
ir ri
in tu
in quired</w>
in ity</w>
han a</w>
grou per</w>
esi onal</w>
el icious</w>
eat h</w>
e w
di es
deligh tfully</w>
dec line</w>
coco a</w>
clean .</w>
bel ong</w>
ba m</w>
avoca dos</w>
anno y
Pala zzo</w>
Mc C
Liz ard</w>
Indi ans</w>
IP As</w>
Eri k</w>
Cha grin</w>
Bo th</w>
An dre</w>
z ers</w>
tt ery</w>
tex ts</w>
stretch ing</w>
soooo oooo
so pes</w>
sex u
ser t</w>
rub bing</w>
respon ding</w>
re tired</w>
ra pid</w>
ra dish</w>
priv il
pri zes</w>
plan tain</w>
pic tured</w>
off ee</w>
nigh tly</w>
ne atly</w>
n al</w>
magaz ine</w>
lunche on</w>
le h</w>
interi ors</w>
ink le</w>
impac t</w>
hass les</w>
great .I</w>
ge .</w>
f oil</w>
exclu sive</w>
esi de</w>
eff ect</w>
ea way</w>
e- up</w>
dum ped</w>
costum ers</w>
com o</w>
car ri
cappuccin os</w>
ca ps</w>
ca ges</w>
bow l
acknowled gement</w>
Wol f</w>
V illa</w>
Quin n</w>
Por tland</w>
Orthodon tics</w>
Ore os</w>
Lawren ceville</w>
L and
H ome
G o</w>
Ear nhardt</w>
Co sta</w>
C J</w>
Al bert</w>
Af ghan</w>
200 6</w>
16 th</w>
w urst</w>
vit a
unparall eled</w>
tw ood</w>
ti ma</w>
stri kes</w>
sta in
squ ares</w>
spo tted</w>
seni ors</w>
sen sa
sal ty
s. If</w>
rest ur
r ich
pout ines</w>
por k
per m
per fu
p- off</w>
p son</w>
mo ther
mo co</w>
lat e-
jac ked</w>
irrit ating</w>
in fin
fra ppe</w>
et a</w>
ed .The</w>
du o</w>
drin ks
down load</w>
dir tiest</w>
develop ed</w>
der mat
con for
bu ms</w>
bb q</w>
bar re</w>
awes om
auth en
au d
at able</w>
as s
ac company
Yor kie</w>
T rish</w>
Re ally</w>
NAS CA
N ation</w>
L ola</w>
Ca me</w>
B or
5 1</w>
1 hr</w>
.D ec
veterin ary</w>
ven ti</w>
un safe</w>
un ic
un ethical</w>
th u</w>
ta gs</w>
sing ers</w>
shu a</w>
shi sha</w>
ser ver
rehear sal</w>
pro du
pric eless</w>
predic table</w>
par king
p ha
out fits</w>
o ù</w>
mo de</w>
m ere</w>
leng thy</w>
ke bo
j our</w>
in di
gr ind</w>
garl icky</w>
fun dra
flat breads</w>
el o</w>
dia monds</w>
de partments</w>
d or</w>
cur ls</w>
coo per
consi gn
con ve
circumst ances</w>
chick pea</w>
ch é</w>
ch it</w>
bu sh</w>
bu cha</w>
bon nes</w>
biscu s</w>
appreci ates</w>
accoun ts</w>
accompany ing</w>
W i
V ino</w>
U tah</w>
S p
Reg al</w>
Fe der
D ale</w>
Cul vers</w>
Buc ke
B rent</w>
Auto Nation</w>
4 7</w>
.D o</w>
.A .</w>
-- it</w>
wea k
wax er</w>
wal nuts</w>
topp ing
though ts</w>
tabou li</w>
t- shirt</w>
sub scri
sto cking</w>
sou ff
soooo oooo</w>
sn d</w>
sil ky</w>
res et</w>
rene wal</w>
re action</w>
ph ony</w>
par k
off ensive</w>
nutriti ous</w>
n ity</w>
mon o
model s</w>
jud gement</w>
ju ana</w>
insp ect</w>
inqu iry</w>
goo od</w>
func tioning</w>
ful l-
fro- yo</w>
friendly .I</w>
fol lows</w>
expéri ence</w>
ener gi
e. g.</w>
du per</w>
de w</w>
d art</w>
col der</w>
coff e</w>
co tt</w>
co ats</w>
clu ttered</w>
c lou
bum ping</w>
bu mped</w>
b ba</w>
asses sment</w>
al lot</w>
ac comp
Tu scan</w>
T ran</w>
S ea
Qu iz
Phili pp
P rices</w>
NASCA R</w>
McD owell</w>
MR I</w>
Jen na</w>
Ed gar</w>
Car men</w>
C O
10 x</w>
well .I</w>
v on
up unc
un impressive</w>
them .</w>
tar gets</w>
stretch ed</w>
st roller</w>
soa king</w>
sm elt</w>
sh it
se t-up</w>
scoo ter</w>
sa go</w>
ru ining</w>
re fresh</w>
ran k</w>
pp a</w>
p u</w>
old- school</w>
ob serv
mm a</w>
lo ft</w>
ligh ted</w>
j or</w>
irri gation</w>
ir st</w>
insul t</w>
hygien ists</w>
g as
fri ggin</w>
flu ff</w>
flexi bility</w>
fix tures</w>
elev ated</w>
el an</w>
ed .I</w>
e ge</w>
dis ease</w>
delicio so</w>
de h</w>
cr ick
chi p
bra iner</w>
bla ding</w>
bar ga
atmosp here
at om
argu ably</w>
ac upunc
Zo e</w>
St -
Sher aton</w>
Shel ly</w>
S ak
Os sington</w>
O ly
Mau i</w>
L ea
L an
G ill</w>
G a</w>
El i</w>
E y
Dy lan</w>
Dev ine</w>
Capit ol</w>
B y
B ailey</w>
Al ice</w>
9 9
40 th</w>
20 mins</w>
15 pm</w>
won dered</w>
win dy</w>
tr unk</w>
tr am</w>
to bac
temp ting</w>
swe ating</w>
soci ety</w>
scul p
s. Service</w>
s q</w>
redee med</w>
rac ker</w>
pric es.</w>
pri or
po ki</w>
mini ature</w>
mid town</w>
loc ating</w>
lin er</w>
l ens</w>
jud ging</w>
ici pation</w>
home style</w>
fre n
ell is</w>
effec tively</w>
e cho</w>
dis connected</w>
dis comfort</w>
de ux</w>
de fault</w>
d ank</w>
crow ed</w>
complain s</w>
chr onic</w>
che er</w>
char is
best .</w>
beg ging</w>
articho kes</w>
any place</w>
W C</w>
V ons</w>
Pu bli
Pro gressive</w>
Pri man
P rin
K end
Eg linton</w>
Ed ward</w>
Belgi um</w>
B arri
10 min</w>
1 30</w>
un apologetic</w>
uccin i</w>
transp arent</w>
suff ered</w>
stal ls</w>
separ ated</w>
s cat
restor ation</w>
respon ds</w>
qualit y
po sh</w>
plan ted</w>
pe eled</w>
oper ator</w>
off ended</w>
l v
jal ep
in trusive</w>
hi biscus</w>
hand ing</w>
h are</w>
goo se</w>
fun eral</w>
fla key</w>
firec racker</w>
ex posed</w>
e hh</w>
dish es
dis grace</w>
conc ep
comple ting</w>
co pi
cl ari
chan nels</w>
bi m</w>
bi king</w>
an ity</w>
after -
accompli shed</w>
a j
a er
X- ray</w>
Win co</w>
Spec trum</w>
Sim on</w>
Sam sung</w>
S o</w>
Ru sty</w>
R ou
Monro e</w>
Lul u</w>
Gord on</w>
Gat eway</w>
F un
E mer
B lack
200 7</w>
15 mins</w>
.G et</w>
.... ......</w>
' aime</w>
vic inity</w>
vi er</w>
val id</w>
tur bo</w>
str ingy</w>
splen did</w>
sp endy</w>
sou pe</w>
scar ce</w>
rac es</w>
pro ve</w>
pri stine</w>
pharmac ist</w>
part ying</w>
mo lasses</w>
m l</w>
li a</w>
land o</w>
ki el
injec tions</w>
impres sions</w>
ici on
hook ah
har i</w>
han ger</w>
ha in
go wn</w>
fur n
fra u
econom y</w>
déjeun er</w>
du h</w>
drin kers</w>
disagre e</w>
differ ences</w>
descri ptions</w>
de br
day time</w>
contain ed</w>
consul t</w>
che ated</w>
cau tious</w>
can died</w>
brea the</w>
bl es
bizar re</w>
ban chan</w>
assho les</w>
an de</w>
a z
Y Y
S el
PB R</w>
P ear
Or lando</w>
Ma ya</w>
Les li
K nea
Coo per</w>
Chan el</w>
Bri anna</w>
Arab ic</w>
30 th</w>
3 .</w>
. -
y ards</w>
wi shes</w>
we igh</w>
wa yyyy
time .I</w>
thro wback</w>
t at</w>
si u</w>
shor tage</w>
sha pes</w>
scal lion</w>
s é</w>
remain ing</w>
reli ably</w>
re presentation</w>
ran c
r r</w>
pre fect</w>
pe de
pat ched</w>
p and
ore g
oo long</w>
nu tty</w>
non existent</w>
mand atory</w>
man is</w>
i rie</w>
ho g</w>
health iest</w>
gr ats</w>
g arian</w>
fro sty</w>
fl yer</w>
fan atic</w>
ey eg
ev id
da ss</w>
contrac tors</w>
consign ment</w>
chop sticks</w>
butt s</w>
bague ttes</w>
apric ot</w>
an ese</w>
amat eur</w>
a we</w>
Tre vor</w>
Ter ri</w>
Pet co</w>
Pen gu
Must ang</w>
Jo shua</w>
J ol
Ch u
B ev
0 9</w>
.W ent</w>
.Re ally</w>
.Lo ts</w>
yel per</w>
whis ky</w>
wa d</w>
v ada</w>
un interested</w>
tri pe</w>
t s.</w>
sti on</w>
ste aling</w>
sta mps</w>
spl itting</w>
sp é
sof tener</w>
situ ations</w>
rot is</w>
resto s</w>
remin ders</w>
prof icient</w>
prin ci
ple in</w>
ood les</w>
mm ers</w>
mil ky</w>
men te</w>
mag ician</w>
l ec
k ering</w>
k an
it -</w>
intoler ant</w>
ing rown</w>
hydr ated</w>
gree ter</w>
fli x</w>
flaw lessly</w>
est ones</w>
dog gies</w>
de ter</w>
co ver
ch illing</w>
bur i</w>
bo ws</w>
ble ach</w>
bir th</w>
ban king</w>
ali ze</w>
ad mini
Venezu elan</w>
R ea
P la
P interest</w>
P ick
P am
P V</w>
O liver</w>
F or</w>
Braz il</w>
Bra d
Br andy</w>
Bi anca</w>
200 9</w>
ô t</w>
wi ping</w>
vi c</w>
utili ze</w>
tele phone</w>
te z</w>
sta ir
st .</w>
spr out</w>
res or
prot ect</w>
pri ze</w>
pleas ant
perfec tion
peo ples</w>
over heard</w>
oreg ano</w>
ne u
na da</w>
mp tion</w>
mon de</w>
mail box</w>
m ly</w>
land ing</w>
kom bucha</w>
k bbq</w>
go in</w>
fail ure</w>
fa ded</w>
ess ence</w>
dou che
debr is</w>
competiti vely</w>
clo th</w>
cheeseca kes</w>
c lut
c has</w>
be aches</w>
attemp ting</w>
anti ques</w>
aim é</w>
ag grav
a .</w>
W ell
T W</w>
Por s
No va</w>
M el</w>
Arm ando</w>
.No thing</w>
' une</w>
ñ a</w>
ys mal</w>
whit ening</w>
wel comes</w>
v ice</w>
un bearable</w>
tak eaway</w>
sweat y</w>
subur bs</w>
sp e
souff lé</w>
sno bs</w>
sha ving</w>
sandwh iches</w>
reclin er</w>
reali zing</w>
que ue</w>
pric ey
por ter
pm -
pa d
on ly
ol is</w>
ob ile</w>
o ven
mea sured</w>
mani- pedi</w>
lif ted</w>
lea ks</w>
la d</w>
ke en</w>
is les</w>
hom ely</w>
fra pp
fi xe</w>
es se</w>
el ish</w>
dispo sable</w>
deta il
de e</w>
con fron
c ement</w>
blan ket</w>
ba d.</w>
avail able
as i</w>
W es</w>
Roc k
R y
Publi x</w>
Par ker</w>
P Ts</w>
Net flix</w>
Ne il</w>
Mar issa</w>
H oriz
H e</w>
Eri ka</w>
El li
Cross fit</w>
Cin co</w>
Cav s</w>
C li
Bum ble</w>
Al ma</w>
7 0s</w>
. Excellent</w>
v oo
um m</w>
uccin o</w>
tr i</w>
thera peu
therapeu tic</w>
th read</w>
th r</w>
tch ed</w>
su dden</w>
sto ve</w>
sp ite</w>
sc is
run down</w>
rea dily</w>
pu is</w>
plac es
pl usi
pizza .</w>
pass word</w>
pal ak</w>
over priced
oun ded</w>
mea sure
me ter</w>
maxi mum</w>
mac ada
m -
low ered</w>
loun ges</w>
k ong</w>
ig on</w>
hi ding</w>
ha v
ha ired</w>
guil t</w>
gener ation</w>
foun dation</w>
dra stically</w>
don c</w>
disin ter
cour to
con venti
con grats</w>
commun al</w>
co ps</w>
cha u
c e.
bo p</w>
bar -
b illed</w>
app t.</w>
ac ked</w>
ab ysmal</w>
W or
S ta
R P</w>
Pra irie</w>
May be</w>
Lo ts</w>
Lesli eville</w>
K ing
Jo y
Horiz on</w>
Chal et</w>
C T</w>
50 .00</w>
2 5-
1 80</w>
.E veryone</w>
. U
- n-
who a</w>
wee ds</w>
w o</w>
vom iting</w>
ver te</w>
ut es</w>
uni on</w>
tur ing</w>
teri or
symp tom
soir ée</w>
sl er</w>
sh ines</w>
sa vers</w>
s ant</w>
ro gen</w>
repe ating</w>
rene wed</w>
reme dy</w>
refin ed</w>
re present</w>
re g</w>
ranc id</w>
plusi eurs</w>
pl ug
pede stri
org an
ner ves</w>
neighbor ing</w>
nac ks</w>
mas a</w>
m unch
lo e</w>
jer ks</w>
inv it
hy bri
ho e</w>
haras sed</w>
gra pes</w>
gla ss
fra p</w>
fol ded</w>
figu res</w>
fac il
ep it
drink able</w>
dr o</w>
custom ed</w>
cro que</w>
cr iti
correc tion</w>
cor tado</w>
come dian</w>
buzz ing</w>
be ts</w>
amer ic
al ous</w>
ag a</w>
ac customed</w>
ac company</w>
a sty</w>
US PS</w>
N ellis</w>
J C</w>
Cir que</w>
Aut umn</w>
zz zz
vir gin</w>
v ine</w>
tor te</w>
symptom s</w>
st an
sor ta</w>
som mel
sle pt</w>
shu ffle</w>
sens iti
s sion</w>
reccom mend</w>
re war
plum bers</w>
passen ger</w>
ow ed</w>
nega tives</w>
mom os</w>
min ess</w>
lin s</w>
lea der
le board</w>
k as</w>
it is</w>
hum ans</w>
grin der</w>
ge sture</w>
g ord
g atory</w>
flu ids</w>
fl ounder</w>
fil tered</w>
fa s</w>
fa me</w>
expan sion</w>
eth ics</w>
es ian</w>
d -</w>
concoc tion</w>
clo sely</w>
care er</w>
burrit o
bull dog</w>
br at</w>
bol t</w>
bla sting</w>
ba re
ac king</w>
a ils</w>
Y ou
Vi vian</w>
T al
Sa igon</w>
R ev
R ee
No ble</w>
Nek ter</w>
L ob
A st
4 3</w>
3- 5</w>
.W ell</w>
yuc a</w>
youn gest</w>
wi z
wer ent</w>
weal th</w>
war t</w>
vita mins</w>
v ar
um mm</w>
tobac co</w>
thum b</w>
t u</w>
swan ky</w>
sw ick</w>
spo il</w>
spin ning</w>
sn eak</w>
sle eve</w>
scis sors</w>
satis fi
res cu
reluc tant</w>
re tt</w>
re heat</w>
pla yo
pa mper</w>
or al</w>
o il
nov ice</w>
negl ected</w>
n at
me jor</w>
master piece</w>
lap tops</w>
kiel basa</w>
j ing</w>
inter view</w>
hoo ks</w>
hel icop
han kering</w>
h ill
g lac
for ge
explan ations</w>
dr um
dispens aries</w>
de ffin
d ata</w>
coun tries</w>
bo k</w>
beig nets</w>
ban gs</w>
b end</w>
av ant</w>
ato sphere</w>
al ong
ab ilities</w>
Y um
Vin ny</w>
V el
Tu es</w>
Ter esa</w>
St ev
R O</w>
Qu i
Pir ates</w>
M J</w>
L .</w>
Her tz</w>
F inch</w>
Dis ney</w>
D est
D Js</w>
Cher yl</w>
C -
Bri d
.O ther</w>
v es
trou ve</w>
thi gh</w>
terri fied</w>
stra y</w>
sta y
sla p</w>
sh ings</w>
sco pe</w>
sauc e
s ity</w>
ru m
pur ses</w>
play list</w>
pil low</w>
ph ant</w>
p al</w>
macada mia</w>
li g
leader ship</w>
jo int
in fe
i v
ful filled</w>
fee ds</w>
extraordin arily</w>
doc s</w>
disinter ested</w>
des irable</w>
delicious -</w>
crea med</w>
compl ement</w>
chi a</w>
chan ge
c ellar</w>
bu m</w>
bou l
al ian</w>
Tan ner</w>
K ay</w>
K .</w>
Jo di</w>
J D</w>
Corn eli
Brun swick</w>
10 mins</w>
. com.</w>
we ddings</w>
voo doo</w>
vacc in
uphol stery</w>
uniqu ely</w>
un usually</w>
take -
sugar ing</w>
suff ering</w>
stom ach
shock ingly</w>
sha me
requi re
re medi
rain ing</w>
r ats</w>
quo i</w>
ott is</w>
nit rogen</w>
mi er</w>
men tally</w>
limea de</w>
li sting</w>
le mons</w>
kid do</w>
k af
is se</w>
individu ally</w>
ick i</w>
hol der</w>
grand kids</w>
gl ue</w>
g enti
func tions</w>
fig uring</w>
exer cis
e fish</w>
depar ture</w>
dar ker</w>
comple tion</w>
comple ments</w>
co z
clo sure</w>
bur ros</w>
brea thing</w>
bil li
ar se</w>
ag er</w>
a hu
Tru mp</w>
Strong sville</w>
Str atosphere</w>
NY E</w>
L VAC</w>
K urt</w>
Fin d
Col leen</w>
Ch en</w>
B rea
30- 45</w>
.I ts</w>
---- ----
- ish</w>
y ah</w>
water fall</w>
wash ers</w>
war rant</w>
waaa ay</w>
vi ande</w>
ver t</w>
vacuum ing</w>
un willing</w>
un sweetened</w>
ti ght
t b
smil ey</w>
shoo ts</w>
scre ws</w>
ro les</w>
ro de</w>
restaurant .com</w>
require ments</w>
refl ects</w>
recti fy</w>
ran ch
promo te</w>
positi ves</w>
over sized</w>
orthodon tist</w>
organi ze</w>
oper ations</w>
nood les
newspa per</w>
new bie</w>
mo ins</w>
ment .</w>
lom o</w>
location .</w>
lif esa
l é
kit sch
inter actions</w>
horri ble
helpful .</w>
h ints</w>
gro s
gover nment</w>
for med</w>
famil y
experienc e
es cal
eat able</w>
e ta
e hhh</w>
drea dful</w>
de tour</w>
cro wns</w>
cri ed</w>
con tr
clut ch</w>
clean se</w>
claim ing</w>
chiroprac tors</w>
car tri
bir ria</w>
bi deh</w>
b ind</w>
aut res</w>
at e
appro val</w>
appre hensive</w>
ant es</w>
al ine</w>
aesthe tics</w>
T oni</w>
Sophi a</w>
Salv ad
RE I</w>
Pi er
P ay
Os so</w>
O nly</w>
M ich
H ick
Gab by</w>
G I
D ra
Corneli us</w>
C Ds</w>
B at
A da
6 4</w>
wa a
vio lations</w>
u s.
u plo
tur nip</w>
ti sh</w>
su m
ssi e</w>
so ir</w>
se wage</w>
res cent</w>
refer ence</w>
re fill
re duction</w>
r arity</w>
prac tic
pr i</w>
poo ch</w>
pepper corn</w>
patr on
part ners</w>
oun ced</w>
om bre</w>
mi dd
mat ology</w>
k ash</w>
jac kets</w>
j ars</w>
intu itive</w>
hu m</w>
gri lling</w>
gra ve
gee k</w>
ga ther</w>
ga p</w>
fu ssy</w>
family- run</w>
essenti als</w>
es e-
en ch</w>
el k</w>
dri zzled</w>
don er</w>
decrea sed</w>
de serving</w>
danc ed</w>
cy cling</w>
cur t</w>
cro ssed</w>
collec tions</w>
co sting</w>
club house</w>
bu rea
blizz ards</w>
b locked</w>
b bles</w>
awk war
agre ement</w>
adm itted</w>
V .</w>
T ab
Pors che</w>
O k
Ma ke</w>
F ran</w>
C ream
Bucke ye</w>
Av on</w>
An y
Al ly</w>
6 .95</w>
15 .00</w>
.9 9
- T
' s
vou ch</w>
v eau</w>
u ted</w>
ther most
sou py</w>
sn ar
sarca stic</w>
sal oon</w>
s eller</w>
restar aunt</w>
ra do</w>
pri son</w>
porter house</w>
pir i</w>
pat ter
oo m</w>
no sh</w>
menu .</w>
lenti ls</w>
kitsch y</w>
ke f
hum or
grou pons</w>
franch ises</w>
f ea
ext end</w>
es que</w>
eng a</w>
distr acting</w>
der ing</w>
dee p-
d able</w>
cron uts</w>
conversa tion
cho s</w>
ch ic
bri ght
av g</w>
authen tically</w>
apr ès</w>
Y U
W ag
W A</w>
S ul
Middle ton</w>
K nights</w>
Hick ory</w>
G a
Find lay</w>
Der matology</w>
Bel mont</w>
B B</w>
00 .00</w>
0 .00</w>
. Un
yak it
thin ly</w>
tast e.
t ough
t ement</w>
syru ps</w>
st les</w>
sha king</w>
seu l</w>
sec tional</w>
sal tado</w>
s ends</w>
s atur
recei pts</w>
rec line</w>
re m
qu el</w>
presen table</w>
pre paid</w>
pi geon</w>
photogra ph
p end
p cs</w>
out side
op ti
multi -
man nered</w>
mag ni
itt er
iP ads</w>
hybri d</w>
hospit als</w>
ho ps</w>
hall ways</w>
gr ate</w>
gin ormous</w>
friendly .The</w>
excellent .</w>
doub led</w>
defin etely</w>
contain s</w>
comm end
com mission</w>
cli p</w>
celebr ity</w>
brigh ter</w>
bo dies</w>
bag ged</w>
and é</w>
am in</w>
af icion
Zum ba</w>
York dale</w>
V icky</w>
Ser gio</w>
Ser en
S I
Pro vi
Prin ce</w>
Leban on</w>
K ent
Hun garian</w>
G alley</w>
Ele phant</w>
Di va</w>
Ch loe</w>
Bon nie</w>
Ba th
Ada ms</w>
6- 7</w>
1 .</w>
.P lus</w>
.N ow</w>
- I</w>
z -
woo hoo</w>
wife y</w>
wi gs</w>
veri fy</w>
v aca
unic orn</w>
transpor ted</w>
trans actions</w>
tom ato
t ore</w>
substitu ted</w>
star s.
sta tic</w>
sou per</w>
shuff leboard</w>
shri mp
sensiti v
retour ner</w>
pre packaged</w>
practiti oner</w>
po w</w>
po ppy</w>
pierc er</w>
opportun ities</w>
of ten
new born</w>
mac ker
ma inst
m ec
lea ds</w>
lea der</w>
kaf ta</w>
j ets</w>
intrigu ing</w>
in os</w>
imagin ation</w>
hookah s</w>
haz ard</w>
hand crafted</w>
grave yard</w>
graci as</w>
gr itty</w>
g ad
fanci est</w>
fa ux</w>
excell ently</w>
ex ped
evalu ate</w>
ep ic
ea bly</w>
design ated</w>
demon str
def ense</w>
de terior
cho y</w>
chi hu
cen ter
cea ser</w>
bu mp
ban ks</w>
ba dass</w>
b ilities</w>
S tan
S ol</w>
P S
N O
Mur ray</w>
Lu x
Knea ders</w>
Er nie</w>
D ak
Bloo m
5 2</w>
' s.
' il</w>
well- priced</w>
vit amin</w>
too .I</w>
t- on</w>
swe ater</w>
sommel ier</w>
so les</w>
ski pping</w>
share able</w>
serv eur</w>
sa me-
remember ing</w>
reha b</w>
reco gn
past y</w>
order .</w>
o z
man or</w>
mainst ream</w>
inter acting</w>
in considerate</w>
in ce</w>
impecca bly</w>
imagin ative</w>
i ah</w>
hair style</w>
ha y</w>
gur u</w>
gratu lations</w>
go .</w>
g love</w>
fritt ata</w>
frag rant</w>
for mat</w>
flo ats</w>
fire arm</w>
fianc ée</w>
exp iration</w>
ev il</w>
e o
cri me</w>
che st</w>
chan ger</w>
ch icks</w>
ch eep</w>
bu x</w>
bl ank</w>
as well</w>
ar ises</w>
accommo dat
T he
T A</w>
R h
R aul</w>
Quiz nos</w>
Pan thers</w>
P ur
P ic
O ak</w>
N ea
L CD</w>
Kar ma</w>
K alu
Je wel
J enga</w>
G len
Ey ec
E s
E la
Dar ren</w>
B A</w>
yuc ky</w>
your selves</w>
vi si
ven ts</w>
uni forms</w>
twi sted</w>
ti ve
taste fully</w>
succ eed</w>
st itch
spr ite</w>
sof ter</w>
so i</w>
smo res</w>
sett ings</w>
remark ably</w>
pepper mint</w>
over load</w>
op ita</w>
mes quite</w>
li mes</w>
knowledgea ble
jama is</w>
ir a</w>
i que</w>
hy dra
her it
ha unt</w>
guy en</w>
gen re</w>
g led</w>
g ger</w>
feat uring</w>
es h
eg a</w>
dum p
droo l</w>
disa bled</w>
decor ate</w>
danc er</w>
cou gh
consist ant</w>
chihu ahu
chal lah</w>
carry -out</w>
c ord
brunch es</w>
be tting</w>
b ys</w>
ava il</w>
at ra</w>
ar range</w>
appetiz er
al ors</w>
addic t</w>
ad dressing</w>
Sy dney</w>
S hu
R over</w>
Pin eville</w>
Pi zz
Pe dro</w>
O m
Nel son</w>
L av
In depend
Dil worth</w>
D ay
Cosmo politan</w>
C S</w>
B ab
10 .99</w>
.W as</w>
.C on
' s.</w>
á s</w>
v ending</w>
uu u
up .</w>
trav elling</w>
time .The</w>
ta s
stri bu
soun ding</w>
so fas</w>
sand ra</w>
s. My</w>
rob bed</w>
ro bust</w>
refresh ments</w>
recogn ition</w>
p unch
ous .</w>
on going</w>
om i</w>
no- frills</w>
mu sty</w>
mu d</w>
michel ada</w>
mi st</w>
medio cre
macker el</w>
jud g
infor mal</w>
indic ated</w>
handic ap</w>
grand parents</w>
grand mas</w>
fa x</w>
extr av
enti ally</w>
ed -</w>
dre y</w>
drag ged</w>
delicious .I</w>
coo ked
comp elled</w>
col lar
clean up</w>
cer amic</w>
cau ses</w>
camar ones</w>
cal end
bu ff</w>
Wil son</w>
T ea
T I
Silver ado</w>
Sapp oro</w>
Ral ph</w>
R R
Pau la</w>
Mar ina</w>
Kent ucky</w>
Je an
E mma</w>
Cu bs</w>
Chil ean</w>
Car ne
C ri
C le
Alask a</w>
4- 6</w>
20- 25</w>
.G ot</w>
.C ons</w>
yakit ori</w>
vari et
ur ice</w>
un welcome</w>
trou bles</w>
tan e
sun der
sugge sts</w>
stin k</w>
sta ke</w>
spark le</w>
so rely</w>
sha res</w>
sensa tional</w>
refer r
re j
produ its</w>
peopl e.</w>
papri kash</w>
pa pu
o. k.</w>
neck lace</w>
mo ck</w>
min dful</w>
mar athon</w>
lom i</w>
lo ses</w>
l ated</w>
ki os
k ool</w>
inv ite</w>
int enti
in da</w>
ick ly</w>
hu h</w>
for .</w>
fett uccini</w>
equ als</w>
eff ic
defin atly</w>
de z</w>
coun ted</w>
com pres
can vas</w>
bul bs</w>
ank le</w>
accur acy</w>
ac ne</w>
S ant
Ric ardo</w>
P eaks</w>
P R</w>
Napole on</w>
N ever</w>
Mi key</w>
Gre ece</w>
G ene</w>
Cla ir</w>
B ever
B ei
í a</w>
y ams</w>
x e
wa yyy</w>
town .</w>
to wner</w>
sty le
sou ri
smoo ther</w>
slu shy</w>
sli p</w>
se qu
scat tered</w>
s ly</w>
ri sing</w>
reas suring</w>
raspa dos</w>
peo ple
omin al</w>
n ys</w>
mouth -
mol ca
mo tion</w>
mi sunder
me .I</w>
matin ee</w>
mat ically</w>
mang é</w>
man i
mach i</w>
loooo ve</w>
kios ks</w>
k is
ja x</w>
invo ice</w>
inter section</w>
insul ting</w>
in competence</w>
in as</w>
imagin able</w>
iden tical</w>
hear tedly</w>
go ds</w>
fanta sy</w>
fa thers</w>
er i</w>
eng age</w>
dra ws</w>
di stribu
deli sh
de o</w>
cro ssing</w>
courto is</w>
con vi
compani ons</w>
comm ended</w>
cen tric</w>
ble -
ba da</w>
appoin t
af e</w>
acupunc ture</w>
accomo date</w>
Vi to</w>
Val erie</w>
V on</w>
P erry</w>
Nea politan</w>
N guyen</w>
M C</w>
L i</w>
Jewel ers</w>
Fr on
D evin</w>
Car rab
B ook</w>
B J</w>
Au drey</w>
2 4-
. In
yum mmmm</w>
wr iter</w>
wi der</w>
wh oo
wa yyyy</w>
v i</w>
tu x</w>
thick ness</w>
ten tative</w>
st en</w>
so ju</w>
si zing</w>
si st
sho cking</w>
sens or</w>
schoo ls</w>
s word
represen ta
re ds</w>
prin ter</w>
prac tical</w>
po se</w>
ple x</w>
perfec ted</w>
per i
pack et</w>
n it</w>
mo y
ma kers</w>
li ds</w>
le i
ke d.</w>
k age</w>
jo y
insi st</w>
in complete</w>
ien na</w>
ici de</w>
i dé
hur ric
hu mid</w>
happ y
gan oush</w>
frau dul
extrav ag
exagger ation</w>
eg gy</w>
drow ned</w>
dra matically</w>
dou che</w>
direc tor</w>
dim ly</w>
delicious .The</w>
del le</w>
d ing
crê pes</w>
cre ole</w>
comp en
cli ppers</w>
cle aring</w>
check ers</w>
cali bur</w>
ba sm
al ter</w>
airpor ts</w>
Tor i</w>
Ste wart</w>
Se th</w>
Pittsbur gh
Par amount</w>
Oak ville</w>
N av
Mi das</w>
Mac Book</w>
L una</w>
L en
Kalu a</w>
K night</w>
Ja vier</w>
Isra eli</w>
Independ ence</w>
Hor tons</w>
H om
F .</w>
Colum bus</w>
Christ ie</w>
Carne gie</w>
CA D</w>
C at
Bron ze</w>
9 .95</w>
5 s</w>
.P lease</w>
vo res</w>
vis a</w>
tri p
th y
summ ers</w>
squea ky</w>
som mes</w>
skin care</w>
say in</w>
road side</w>
qual ities</w>
pu rely</w>
propriet or</w>
pre pped</w>
perfor mer</w>
pa ths</w>
om lette</w>
ob j
notic eably</w>
moo se</w>
mid st</w>
long -
is o
impor ts</w>
hygien ic</w>
he aters</w>
ha ve
grow th</w>
furni shings</w>
five- star</w>
far ms</w>
evalu ation</w>
end ers</w>
down s</w>
disapp ear</w>
disa pointed</w>
derma bra
d ome</w>
d ili
cron ut</w>
criti que</w>
consu med</w>
con gratulations</w>
col lar</w>
canc eling</w>
bi ance</w>
averag e.
aun ts</w>
amazing -</w>
along side</w>
Y an
X O</w>
Vol vo</w>
U -
Tam ara</w>
Rou ge</w>
Po t
Philipp ines</w>
Pep e</w>
P H</w>
Oly m
OP I</w>
O ne</w>
L ena</w>
L am
L ak
Kin ton</w>
K ara</w>
Jen n</w>
Car l
C rocker</w>
C an</w>
Brit ney</w>
.S till</w>
.B e</w>
www w</w>
whi z</w>
vio lation</w>
ve z</w>
v able</w>
un o</w>
un caring</w>
tu rer</w>
tour ing</w>
tast y.</w>
squ ir
sm an</w>
sli pped</w>
sle e
shoo ters</w>
shel ter</w>
sh eer</w>
se hr</w>
se .</w>
scra m
ru shes</w>
rol lers</w>
rob bery</w>
ro m</w>
referr als</w>
raisonn able</w>
power ful</w>
pan el</w>
oun ces</w>
order ly</w>
old- fashioned</w>
mom my</w>
mean while</w>
me y</w>
mar ys</w>
lim its</w>
lev ard</w>
late- night</w>
la it</w>
j ar
itch field</w>
in te</w>
in te
in put</w>
ill o</w>
house -made</w>
happ en
grin go</w>
gl ance</w>
fa iling</w>
exa min
epit ome</w>
el abor
edi bles</w>
don a</w>
dissa ppoin
dermat ologist</w>
da ds</w>
cro ss
crea mer</w>
consist s</w>
con vien
con sole</w>
com er</w>
chi x</w>
butter scotch</w>
buck wheat</w>
bu c
bo tan
beli ef</w>
bas sy</w>
barga ins</w>
assi ettes</w>
assi ette</w>
ari o</w>
app ts</w>
able .</w>
a wards</w>
Leg ends</w>
L I
Jo jo</w>
I r
H wy</w>
GM O</w>
G igi</w>
G aller
Dis ne
Co ven
Chi pol
Capri ottis</w>
Bro s.</w>
25 th</w>
19 th</w>
0 8</w>
. En
y an
worl d
work place</w>
well- stocked</w>
w is</w>
to .</w>
ti qu
thank you</w>
stri ve</w>
strea k</w>
sp oon
sol ic
si ghts</w>
self- serve</w>
screa ms</w>
save urs</w>
sav or</w>
s ss</w>
ri val</w>
representa tives</w>
qu ets</w>
pum p
pediat r
pa w</w>
p ages</w>
or che
note worthy</w>
night .</w>
n n</w>
monit or</w>
modi fications</w>
min u
mar gs</w>
lo tions</w>
lifesa ver</w>
ja w</w>
hu g</w>
ha machi</w>
goo ood</w>
gh an
fantast ically</w>
crum b</w>
crimin al</w>
cr inkle</w>
consu ming</w>
con test</w>
communic ations</w>
collar ds</w>
chec kin</w>
bu ses</w>
basm ati</w>
b attle</w>
attitu de
atten te</w>
ack ers</w>
a sha</w>
W ig
V R</w>
T sa
Sum mit</w>
Stre et
Rob bins</w>
Qu ick</w>
N am</w>
Mari ah</w>
Jan et</w>
In don
F el
Eyec are</w>
Ex calibur</w>
Em bassy</w>
Don nie</w>
D o</w>
Coo rs</w>
Ci vic</w>
Bou levard</w>
Bei jing</w>
Be th
Bad ger</w>
Asi ans</w>
Anne x</w>
Alask an</w>
1 ,
' é
zi o</w>
wit ty</w>
wi g</w>
wait res
wa res</w>
vi sual</w>
un locked</w>
tri al</w>
tram po
trampo line</w>
te ous</w>
sword fish</w>
su ki
str anded</w>
sir acha</w>
simpl ement</w>
sim o</w>
shor ted</w>
sha ker</w>
sales people</w>
s ell
re z</w>
r ica</w>
presen tations</w>
pp ard</w>
popu larity</w>
pol i</w>
perio ds</w>
night life</w>
ni eces</w>
min ds</w>
member ships</w>
lou der</w>
la ger</w>
job .</w>
j em</w>
impres sed
im port</w>
han i</w>
grand pa</w>
fresh -
for sure</w>
f ever</w>
exist ence</w>
exhau sted</w>
ene my</w>
el bow</w>
dupl icate</w>
drink s.
dis respect</w>
dis continued</w>
croqu ettes</w>
crac king</w>
cra sh</w>
coo ls</w>
conventi onal</w>
connec ting</w>
con tribu
commu te</w>
co sted</w>
cit y
char ge
chal k</w>
cha mango</w>
ca k
butter fly</w>
bo iling</w>
apologi zing</w>
air brush</w>
agu as</w>
aff ili
abord able</w>
W end
Vi da</w>
TS A</w>
South park</w>
Ro gers</w>
Ren a
Pen n
Park way</w>
P ink
New market</w>
Min dy</w>
Mar c
M ore
Lux or</w>
L .A.</w>
Gro ve</w>
Gr ant</w>
Emer ald</w>
Eat 24</w>
Co yo
Ce dar</w>
Cassi e</w>
Cam p
B av
A vis</w>
A mex</w>
A i
6 s</w>
4 5-
200 5</w>
. i</w>
y p
y or
wher e.
w ick
vi al</w>
um a</w>
u tter</w>
tor ched</w>
times hare</w>
thermost at</w>
technic ally</w>
t ent</w>
sym phony</w>
spo t-on</w>
sk il
sel dom</w>
s mu
ro ads</w>
ri p-off</w>
r one</w>
pr ickly</w>
positi vely</w>
pe aches</w>
p ity</w>
ox y
mom ma</w>
mer ing
medi um
man eu
list ic</w>
kno ck
ki d-
iss ance</w>
impro v</w>
il yn</w>
identi fy</w>
head aches</w>
gro ws</w>
gra ded</w>
ge m
forge tful</w>
for mu
for mer
es ha</w>
end or
emplo yed</w>
drun ks</w>
do w
distur bing</w>
dia be
dee ply</w>
day -</w>
d ice</w>
conserv ative</w>
compon ents</w>
cock tail
ck y</w>
cho c</w>
ch ant</w>
cau sal</w>
c ies</w>
bri e
ast oni
amaz e
ag ave</w>
West lake</w>
S B</w>
Re bel</w>
R ome</w>
R oma</w>
R eno</w>
Monro eville</w>
Mir anda</w>
M I
L itchfield</w>
Jam es
Coven try</w>
Bloom field</w>
Bever ly</w>
Beth any</w>
B un
B ol
B ac
Ali ante</w>
7 .95</w>
.P or
.E ven</w>
toen ails</w>
th a
ta m</w>
sur vey</w>
subst it
stran gely</w>
ster o
ste in</w>
slo p</w>
se p
sco red</w>
sa ti
s I</w>
re presented</w>
re b
por c</w>
pan els</w>
new bies</w>
min d-
metho ds</w>
massa ged</w>
ma iling</w>
luc ked</w>
la x</w>
la v
l ard</w>
is le</w>
insp iration</w>
in visible</w>
hon da</w>
grou p
gra ve</w>
for ty</w>
fl our
far m
fai thful</w>
el y
dy na
dra ught</w>
domin oes</w>
do wner</w>
diff é
definiti vely</w>
d ity</w>
d ently</w>
cur tains</w>
cu min</w>
concoc tions</w>
co a
burea u</w>
bo tched</w>
batt ing</w>
bar n</w>
bar k</w>
au tre</w>
at tire</w>
asse mbled</w>
ari ans</w>
ari a</w>
all- time</w>
al ign</w>
adm itt
ab and
X avi
Will ough
W hat</w>
Sher ry</w>
R ap
R ain
Priman ti</w>
P olo</w>
Mar cos</w>
M rs.</w>
Lin col
K ona</w>
In fin
H arri
H H
F rapp
F an
Ela ine</w>
D illy</w>
Cur tis</w>
Cream ery</w>
Chipol te</w>
B ow
Al le
A qu
5 4</w>
45 min</w>
.T oo</w>
wa king</w>
vo ted</w>
v os</w>
un heard</w>
tip sy</w>
t itude</w>
supri sed</w>
stri p
sh ining</w>
s é
re fur
pur pos
pro ff
pre serv
po ster</w>
pan e</w>
p ony</w>
p all
n ook</w>
n ess
mi di</w>
me ts</w>
manag eable</w>
m ars</w>
ll ll
lip stick</w>
lad der</w>
l enty</w>
it ly</w>
intimi dated</w>
inju ries</w>
herit age</w>
ha r</w>
gou ge</w>
fu zzy</w>
fon go</w>
est er</w>
es ley</w>
enjoy ment</w>
en sion</w>
emp ha
e b</w>
dé gu
dismis sive</w>
descri pt</w>
cur b
cru iser</w>
consu me</w>
clo ths</w>
ban gers</w>
ag ged</w>
aff in</w>
af fair</w>
Willough by</w>
Si am</w>
Shi eld</w>
Sha un</w>
Sh ir
Se dona</w>
Sa sha</w>
Ram on</w>
P ari
Missis si
Michel e</w>
Man u
K -
Joy ce</w>
I K</w>
H abi
G len</w>
F ood
E uro</w>
E ly
Dr .
Char don
Bre e</w>
Bar b</w>
An der
5 Service</w>
12 pm</w>
1 15</w>
0 6</w>
.P ros</w>
.A fter</w>
- you</w>
' en</w>
z esty</w>
yum mm
who le
w oo</w>
w im
von ne</w>
vie w
tu xe
trav elled</w>
trac king</w>
toler ate</w>
to t</w>
ter ra</w>
tan ger
swee tener</w>
stu pi
str ings</w>
ste wed</w>
spee ding</w>
snar ky</w>
skill ful</w>
serv eurs</w>
sal le</w>
s sa
resol ving</w>
re lev
r ite</w>
r ick</w>
pupu sa</w>
pow ering</w>
pedestri an</w>
pe sts</w>
particip ate</w>
not- so-
na sti
na ans</w>
muse ums</w>
mu n</w>
mo vement</w>
micro dermabra
mg mt</w>
measure ments</w>
me tro
l k</w>
kno cking</w>
kara hi</w>
intro duction</w>
in ept</w>
in e.
im pl
hoo ds</w>
help full</w>
helicop ter</w>
ha tch</w>
gross ly</w>
former ly</w>
for te</w>
expec tation
exagger ating</w>
ex am
establi shed</w>
er land</w>
employ ment</w>
ea ge</w>
dun no</w>
don e.
di d
de m</w>
dar ling</w>
concentr ate</w>
compen sation</w>
ch less</w>
celebra tions</w>
calend ar</w>
ca y
butch ered</w>
boun cy</w>
ban ter</w>
b ond</w>
awesom ely</w>
athle tic</w>
a im</w>
Ran cho</w>
R un
N ow</w>
N E
H ig
H E
Gu ad
Galler ia</w>
For um</w>
De c</w>
DV Ds</w>
Chardon nay</w>
Can tina</w>
B ak
Austr alian</w>
70 2</w>
25 .00</w>
. Ex
- M
y or</w>
y ea
we ary</w>
w or</w>
vo ices</w>
tu bes</w>
thor ough
tb h</w>
ta g
sub standard</w>
speciali zed</w>
si gh
sho est
satur ated</w>
same- day</w>
sa me
s co</w>
rout inely</w>
revam ped</w>
resul ted</w>
re union</w>
proc eed</w>
part icipation</w>
par affin</w>
p into</w>
overpow ered</w>
ol dies</w>
micro blading</w>
mering ue</w>
mat h</w>
ma ble</w>
liqu ors</w>
li sh
l int</w>
k ai
jack pot</w>
iP hon
humor ous</w>
heal ed</w>
head phones</w>
great ness</w>
graci ously</w>
gra d</w>
gh i</w>
gel ati</w>
ge t-
fi que</w>
expec ted
especi al</w>
en sures</w>
el yn</w>
dist ingu
der y</w>
d yed</w>
craz iness</w>
contrac ts</w>
consist antly</w>
co tta</w>
cla u
cher ries</w>
check up</w>
c ô
c et</w>
butt ons</w>
bri yani</w>
bri m</w>
br at
boar d
billi ards</w>
beli ever</w>
an o
americ anos</w>
am ma</w>
am ing</w>
al kal
Than k</w>
T hor
Sha y</w>
Ser ran
S to
Rus sell</w>
Rena issance</w>
Pick ering</w>
N ana</w>
Mississi ppi</w>
G io
Fran co</w>
Einste ins</w>
Disne yland</w>
Di amon
Cor on
Cli ff</w>
4 1</w>
12 am</w>
.P lace</w>
é gal
y le</w>
wra pper</w>
vari ation</w>
v é</w>
u s.</w>
ty ping</w>
toge ther
thro ws</w>
the ory</w>
th igh
ter ing</w>
su icide</w>
ssi vely</w>
sp onge</w>
sp er
sol ving</w>
sna g</w>
smal lish</w>
se per
savou reux</w>
saniti zed</w>
righ t.</w>
ri pping</w>
rejuven ated</w>
r age</w>
pro portion</w>
pret tiest</w>
patroni zing</w>
par ty
over haul</w>
os ity</w>
orche str
oran ges</w>
mu les</w>
mmmm mmm</w>
mis communication</w>
metic s</w>
m oon
m ings</w>
li eu</w>
lemon ades</w>
leg ged</w>
la s
ke to</w>
je alous</w>
iz ing</w>
in take</w>
in ated</w>
impro ves</w>
im personal</w>
ic onic</w>
hh hhh</w>
happ iest</w>
h eel</w>
gen s</w>
g na</w>
flo wn</w>
favor able</w>
expl ic
exhi b
excell ant</w>
exc ep
ex changed</w>
et es</w>
essi onal</w>
el es</w>
ec k
e k
dis liked</w>
din es</w>
deter mine</w>
del l</w>
de puis</w>
d um</w>
curb side</w>
cur ry
conver se</w>
contra st</w>
col our
citi zen</w>
char t</w>
cav at
carni vore</w>
buc co</w>
bon e-in</w>
ban ging</w>
as sessed</w>
as a</w>
arch ery</w>
ac tively</w>
a int</w>
Xavi er</w>
W al</w>
T es
Sun s</w>
Phil lip</w>
P as
N apa</w>
M itch</w>
Infin iti</w>
High lands</w>
High land</w>
H av
Gol d
E gy
D rs</w>
Crist o</w>
Cra f
C lean</w>
Bav arian</w>
Bas kin</w>
Bar nes</w>
Aca de
A mel
5 .95</w>
3 2
1 40</w>
0 1</w>
.Th ese</w>
.P i
.C .</w>
.Be en</w>
- 5</w>
è rement</w>
we ars</w>
wal i</w>
w iring</w>
to pless</w>
th ru
suki yaki</w>
speci fied</w>
soun d
sou vent</w>
sm ack</w>
sl ur
sl ick</w>
sket ch</w>
sau r</w>
ra g</w>
pum ped</w>
proc essing</w>
pra wn</w>
po bl
pi gs</w>
pepp ered</w>
peopl e-
par d</w>
ox tails</w>
overwhel mingly</w>
on der
off s</w>
neighbor hood
min d
mes ses</w>
massa ging</w>
manufac turer</w>
man sion</w>
loo kin</w>
lock ers</w>
lar b</w>
jo yed</w>
interrup ted</w>
in tox
il les</w>
gra ff
gol d
fo b</w>
family- friendly</w>
el ine</w>
eeee e</w>
drow ning</w>
def ective</w>
crê pe</w>
cran ky</w>
co pies</w>
boar ded</w>
bi as</w>
be y</w>
b roo
b locking</w>
at e.
alkal ine</w>
ah -
admitt edly</w>
Thom pson</w>
She ppard</w>
S ho
S ally</w>
R x</w>
Pear son</w>
Pam ela</w>
No el</w>
N ir
Micha els</w>
M ul
M ali
L AS
Hal ey</w>
F ab
Cana di
Bl anca</w>
Ami gos</w>
Alex ander</w>
6- 8</w>
5 5
13 th</w>
1. 75</w>
yogur ts</w>
war ri
wa aaaa
val ue
utili zed</w>
tru sting</w>
tr apped</w>
tin i</w>
that .</w>
ta m
swee tie</w>
success fully</w>
stomach s</w>
ste ering</w>
st itute</w>
spee chless</w>
speciali sts</w>
slushi es</w>
si mul
s. com</w>
s loooo
ro tors</w>
retourner ai</w>
refriger ated</w>
re tar
purpos ely</w>
po tions</w>
p iti
o hh</w>
nu ong</w>
no table</w>
neph ews</w>
mat zo</w>
lum py</w>
ligh test</w>
lea sh</w>
la min
l à</w>
kim chee</w>
k nacks</w>
isi r</w>
inten tion</w>
insul ted</w>
instru ments</w>
indic ation</w>
hope ful</w>
gy m
gra iny</w>
gra ins</w>
gla mor
gar nish</w>
g are
from age</w>
fle et</w>
fascin ating</w>
es ca</w>
emer gen
ei gh</w>
ecla irs</w>
ecla ir</w>
ec static</w>
dyna mic</w>
dr um</w>
dis c</w>
deb ating</w>
cur ated</w>
cos metics</w>
consider ably</w>
chandeli er</w>
chal k
car pe
ca bs</w>
bran ches</w>
bloo ming</w>
ble ed</w>
bl at
bing su</w>
better .</w>
app or
any thing
al ig
accue ill
She pard</w>
S S</w>
S D</w>
Ro se
R honda</w>
R es
Pi e
M oun
Lin k</w>
Lau rie</w>
Lat ino</w>
La o</w>
K er
James on</w>
Fri es</w>
F au
Da me</w>
Co .</w>
C ow
C M
Bloo m</w>
Bal d
B -
Auto zone</w>
Ari el</w>
Albert son</w>
Acade my</w>
A th
15 00</w>
.Wor th</w>
.L e</w>
' ava
y na</w>
wiz ard</w>
ve ge</w>
val e</w>
up- sell</w>
u sable</w>
u no
tri -
tread mill</w>
to asts</w>
swa mped</w>
sub m
speci fy</w>
sli pp
si x
shoest ring</w>
shado w</w>
sca mmers</w>
sandwich s</w>
ric e
res onable</w>
refresh er</w>
pri mo</w>
pleas ent</w>
pir ate</w>
pall et</w>
pal eo</w>
pa p
ok ee</w>
od ds</w>
ob sc
o t
nic he</w>
ne tte</w>
modi fy</w>
mil eage</w>
micro brews</w>
m oon</w>
m ill
li qui
land lord</w>
l ma
koo bideh</w>
k ul
j ap
inst ance</w>
in clin
ic ations</w>
hurric ane</w>
hel met</w>
he ir
har mon
fresh ener</w>
floo r
fatt oush</w>
f y
ep iso
ent .</w>
den y</w>
dem anded</w>
cru mble</w>
crac ks</w>
conclu sion</w>
cla w</w>
cat er
buil der</w>
bra ve</w>
bra ss</w>
bo dy
black jack</w>
ban k
au g
arom atic</w>
appare l</w>
any how</w>
ancho vies</w>
an ci
Woo dy</w>
Ver ona</w>
Sco t
R av
R A</w>
Pi per</w>
Park dale</w>
P OS</w>
N ando</w>
N ad
Lincol n</w>
LAS IK</w>
K C</w>
Ger many</w>
F oo
F it
F al
E gg
Dak ota</w>
D ani</w>
Car ter</w>
CB D</w>
Ben z</w>
At mosphere</w>
A na
A jax</w>
A L
7 2</w>
3 60</w>
12 .
.C u
.C om
y Link</w>
wil d
wi red</w>
wan nab
volu mes</w>
v ri
up charge</w>
un wanted</w>
u kee</w>
tur yLink</w>
tun nel</w>
tru ely</w>
trou bles
tourna ments</w>
tanger ine</w>
ta p
t sos</w>
stro pho
stand by</w>
sk ates</w>
see dy</w>
s ous</w>
re did</w>
pow ered</w>
popsic les</w>
po ly</w>
pediatr ician</w>
pa pp
over worked</w>
on ers</w>
obsc ure</w>
need le</w>
nasti est</w>
mo ly</w>
midd le-
microdermabra sion</w>
mi eux</w>
ma ine</w>
m u</w>
la ug
l it
l inger</w>
k not</w>
invest ig
ho listic</w>
ho g
hel per</w>
grow lers</w>
glori fied</w>
glamor ous</w>
gee z</w>
ga stronom
fun ni
ff er
er s.
dé tour</w>
dé cor
don ation</w>
dismis sed</w>
cos mic</w>
correc ting</w>
coo led</w>
compl ex
charis matic</w>
bo a</w>
at -
a pathetic</w>
Wild flower</w>
T ango</w>
T T
Su z
Star buck</w>
S erv
R N</w>
Pok é</w>
Or dered</w>
Ol ga</w>
Mar ilyn</w>
M L
L ac
K ee
Gio van
F loyd</w>
Ed win</w>
E rie</w>
Christ y</w>
Cen turyLink</w>
Ar thur</w>
9 00</w>
8 .95</w>
3. 75</w>
12 .00</w>
.T ried</w>
.S ome</w>
zi pper</w>
z oo
you .</w>
year s.
woul d
win ners</w>
well- prepared</w>
wa ck</w>
ver sa</w>
ur ai</w>
un inspiring</w>
trans plant</w>
tra ins</w>
toma tillo</w>
thigh s</w>
th u
te es</w>
tat or</w>
stra ins</w>
stand outs</w>
spé ci
sp an</w>
some things</w>
shame ful</w>
sha k
sca mmed</w>
s sa</w>
reti rement</w>
repor ting</w>
refun ds</w>
re cover</w>
procee ds</w>
po ppin</w>
plan ting</w>
pl s</w>
pi ña</w>
pat ches</w>
option s.
more .</w>
mo fongo</w>
k fast</w>
k ens</w>
justi fied</w>
ja zzy</w>
in- store</w>
in tro</w>
hal o-
gr 8</w>
enthusia sts</w>
emp ty
du g</w>
disgust ingly</w>
dis respected</w>
descri bing</w>
crisp ier</w>
conge sted</w>
clau stropho
chihuahu a</w>
car ou
bu mps</w>
bo l</w>
blan kets</w>
bl ers</w>
bl aring</w>
bene dic
at al</w>
ast ounding</w>
ar m
an ch
an a
amaze balls</w>
altern ate</w>
all- around</w>
ac compl
aaa ay</w>
a tional</w>
T S</w>
Rosat is</w>
Rh ino</w>
N elly</w>
Mo xie</w>
Me kong</w>
Ma halo</w>
M ars</w>
Lin q</w>
Le wis</w>
Indon esian</w>
H eath</w>
Green way</w>
Gl oria</w>
Geor gia</w>
Fe b</w>
E mp
Dani els</w>
Cla ire</w>
Bec ca</w>
B eat
Ander son</w>
AT L</w>
A val
1 60</w>
.Su per</w>
.P re
.N ext</w>
égal ement</w>
y out
y ar
work .</w>
wh om
weir dly</w>
vegas .</w>
vacc ines</w>
v oli</w>
ucc i</w>
tra shed</w>
too .The</w>
tabl es
ta ker</w>
suppor ted</w>
sh ell
resor ts</w>
reschedu led</w>
ren e</w>
rec rea
re presents</w>
r aci
pro active</w>
po ttery</w>
po stal</w>
pl ant
ph y
patron age</w>
pa v</w>
oper a</w>
oo king</w>
om ni
o ise</w>
mix ologist</w>
minim alist</w>
mid day</w>
ma u
loun ging</w>
lo vel
lo s
lin ens</w>
lea ky</w>
lab els</w>
la ss</w>
kin d
jer a</w>
in corpor
heir loo
head lights</w>
halo- halo</w>
greet ings</w>
fu cked</w>
fl ys</w>
expres sed</w>
ent it
em is
el ite</w>
ee m</w>
eat -in</w>
duc ts</w>
dino saur</w>
dic ally</w>
custom s</w>
cro y
cont rolled</w>
co st
ci ón</w>
chick peas</w>
bu ckets</w>
botan ical</w>
bartend ing</w>
back up</w>
ay o</w>
auc tion</w>
atmosp her
at mo
al ls</w>
ador é</w>
ab sent</w>
Ver rado</w>
S ept</w>
Ro sie</w>
R am</w>
Pittsbur g</w>
NY PD</w>
Mo tors</w>
Mil wa
Ma o</w>
Lau rent</w>
Kenne dy</w>
K ilt</w>
H ok
H ob
Fron tier</w>
Frapp uccino</w>
Fat burger</w>
El len</w>
Doo r
De anna</w>
Col lins</w>
Cardin als</w>
Ca pri</w>
Bo ars</w>
Barri o</w>
An d
Af gh
5 7</w>
1 25</w>
で す</w>
é res
yum miest</w>
yout u
xox o</w>
ur ri</w>
up dat
un necessarily</w>
un likely</w>
uc ks</w>
tw el
to stones</w>
th ouse</w>
ten se</w>
temper ed</w>
su it
stru ck</w>
stri ppers</w>
ster eo
staff -</w>
sta di
sna ke</w>
sle epy</w>
situ é</w>
si log</w>
shu tt
scre ening</w>
sauc e.</w>
sa um
rin se</w>
ran g
rag u</w>
quel ques</w>
privil ege</w>
pot entially</w>
passen gers</w>
pa ddle</w>
p tive</w>
ordin aire</w>
on ically</w>
no ir</w>
n é</w>
n an
mom o</w>
messa ged</w>
mer ci</w>
mater nity</w>
make -up</w>
lum p</w>
le x</w>
lat er
l ors</w>
kick er</w>
jun kie</w>
j on</w>
is in</w>
i do</w>
ha el</w>
h itch</w>
glo be</w>
ge -
g -
for give</w>
fire works</w>
fen nel</w>
ev ing</w>
eri as</w>
elabor ate</w>
ed dy</w>
di gg
desser t
des i</w>
defin tely</w>
cu n</w>
conta mination</w>
chim ney</w>
chalk board</w>
car da
c attle</w>
bun ny</w>
bu is
bak ers</w>
as sed</w>
anti -
aci dic</w>
accompl ish</w>
a sh
a it</w>
a hold</w>
Z u
W el
Thur s</w>
T GI</w>
Su sie</w>
Stan ley</w>
Seren ity</w>
Roc co</w>
Pri us</w>
P r
P ap
P ablo</w>
Nat asha</w>
Milwa ukee</w>
Mand i</w>
Ma i
M et
L O
J un</w>
Haw thor
Glen n</w>
G ino</w>
Domin ican</w>
De w</w>
Ch en
Califor ni
Bu ster</w>
Brun o</w>
Bi anco</w>
B ay
B ally</w>
8 5
11 .
.W ish</w>
.P er
.K eep</w>
-- they</w>
your- own</w>
windo w
well .The</w>
volunte er</w>
v re</w>
ut ler</w>
un seasoned</w>
un d
uc kers</w>
u ma
tri ms</w>
tran sport</w>
ti en
tel lement</w>
tab bou
stro gan
spot .</w>
slipp ery</w>
serv euse</w>
secon dly</w>
ru ly</w>
renov ating</w>
reli eve</w>
ranch ero</w>
prof esional</w>
popsic le</w>
pobl ano</w>
pan ko</w>
o ple</w>
o .</w>
nois es</w>
mor ons</w>
me zz
mar t</w>
mar ri
magni fique</w>
lu ded</w>
lma o</w>
li ba
inconvenien cing</w>
in- laws</w>
im polite</w>
home fries</w>
han gs</w>
gro s</w>
grand father</w>
go ers</w>
gli at
ge ons</w>
g on
free dom</w>
fraudul ent</w>
fo li
flavor ful
ele mentary</w>
e g</w>
délici euse</w>
do w</w>
disappoin tments</w>
dis pleased</w>
dis co</w>
dec ore</w>
d ingly</w>
crum bly</w>
crit ic</w>
concer ning</w>
car rier</w>
ca pers</w>
ca dre</w>
buil ds</w>
bo thers</w>
bo re
bag gage</w>
ba os</w>
b itter
av es</w>
at test</w>
ar o
app alling</w>
and ra</w>
ad d
accue il</w>
a mi
Well ington</w>
R M
Qu ality</w>
P s</w>
P ro</w>
Orch id</w>
Moo re</w>
L loyd</w>
L in</w>
I ran
GM C</w>
Ex pe
Dar lene</w>
Cor ona</w>
C B</w>
Aqu a</w>
Al ways</w>
A sp
7 4</w>
50 th</w>
14 .99</w>
1 ,000</w>
year s.</w>
whil st</w>
w ob
vis ite</w>
ven ir</w>
v u</w>
ut ing</w>
up as</w>
tu ous</w>
trans it</w>
swal low</w>
stay cation</w>
sp ur</w>
sp reads</w>
skil lets</w>
sing les</w>
she pher
sham poo
sh in
saum on</w>
sal t
rib bon</w>
resour ce</w>
ren ters</w>
remin ding</w>
re ster
ra h</w>
qu er
pric ed.</w>
pren atal</w>
por tra
play ful</w>
phi lo
perfu me</w>
pal atable</w>
pa sta
org as
om s</w>
ob stac
ni p
necess ities</w>
more over</w>
mer ely</w>
ma iled</w>
know leg
je te</w>
int éres
infor ming</w>
inf ant</w>
in croy
identi fied</w>
i on</w>
has is</w>
hal ls</w>
h l
gui ding</w>
graff iti</w>
g ong</w>
g ating</w>
friend s.
fri es.</w>
fr ying</w>
formu la</w>
for -
focu ses</w>
f ont</w>
f es</w>
exercis es</w>
el and</w>
e in</w>
der m</w>
deep- fried</w>
cur l</w>
cre ws</w>
cor kage</w>
con ey</w>
con cise</w>
co arse</w>
cl ick</w>
chee k</w>
che st
che ating</w>
carou sel</w>
bu t
boo ty</w>
bo s</w>
bab e</w>
b .</w>
attrac ts</w>
ar oun
an al</w>
am p</w>
aff ect</w>
ab rupt</w>
Wy lie</w>
Sam urai</w>
Pot belly</w>
P un
Ol m
Na poli</w>
Min nes
Mar ty</w>
Mar shall</w>
Krist a</w>
Jo anna</w>
In stitute</w>
Hay den</w>
Fle tch
F A</w>
Door D
DoorD ash</w>
Charlo tt
Cas sandra</w>
A pp
5 6</w>
200 4</w>
.S er
.A mazing</w>
weigh ed</w>
we y</w>
vra i</w>
v ul
ur i</w>
un appealing</w>
umbre l
tt tt
toil e
times .</w>
ti med</w>
the mes</w>
suppl ied</w>
super markets</w>
suff ice</w>
su stain
stir -
sou theast</w>
si ps</w>
shepher ds</w>
sh ville</w>
sea s</w>
samm ich</w>
sac rif
sa fer</w>
s --</w>
ri g</w>
ri dge</w>
repor ts</w>
re ste</w>
rasp berries</w>
r ally</w>
put t</w>
pu ke</w>
pric e.I</w>
plu sh</w>
phys icians</w>
pe tting</w>
par take</w>
pa thy</w>
on es
ome times</w>
occur red</w>
o iled</w>
non- smoking</w>
need les</w>
my ster
meat less</w>
mari juana</w>
ly -</w>
kai do</w>
jo s</w>
indul gence</w>
il lion</w>
i p</w>
handic apped</w>
grun gy</w>
gri ll
gir ly</w>
ga stro
ga g</w>
g ars</w>
fuck in</w>
flir ting</w>
fa ulty</w>
excell ents</w>
exc ess</w>
exa mination</w>
eu f</w>
emp hasis</w>
ee z</w>
e. We</w>
décou verte</w>
drink s.</w>
develop ment</w>
decor ative</w>
corpor ation</w>
contr ary</w>
con vo</w>
con tem
chil ies</w>
cha in
canc elling</w>
c .</w>
bru shes</w>
bru shed</w>
boo t
be half</w>
b our</w>
b b</w>
ari se</w>
an- style</w>
an aki</w>
ama r</w>
ado pt</w>
aband oned</w>
a ways</w>
a tives</w>
a tin</w>
a e</w>
Zi pps</w>
Z ia</w>
Y en</w>
So le
Sin atra</w>
Sav an
Sak ura</w>
Saf elite</w>
P G</w>
Op tic</w>
O B
Na shville</w>
Mil estones</w>
Mar gare
M ill
Lu xe</w>
Le on</w>
J etta</w>
J T</w>
Ha in
E u
Ch ry
C N</w>
Bu bba</w>
30 .00</w>
20 th</w>
19 .99</w>
.... .......</w>
' attente</w>
z ation</w>
yu zu</w>
yel p
wr ink
warran ties</w>
waa ay</w>
wa gon</w>
wa gen</w>
up selling</w>
un fair</w>
trad ed</w>
too -</w>
time .
tempor arily</w>
t ta
t ful
sur round</w>
super- friendly</w>
strea ks</w>
staff .I</w>
st rolling</w>
st re</w>
sna ppy</w>
sl ic
show case</w>
sec luded</w>
se d.</w>
scal lions</w>
sam bar</w>
run ners</w>
rol et</w>
roa sters</w>
regi stered</w>
refl ected</w>
ra il
qu is</w>
pi ani
on- site</w>
on- line</w>
o der</w>
now .</w>
non- chain</w>
motiv ation</w>
mo chas</w>
mirac les</w>
mi ze</w>
meille ure</w>
mak hani</w>
ma m
la den</w>
l via</w>
l iter</w>
kid- friendly</w>
k ais
ir i</w>
in con
in al</w>
hot spot</w>
ho ga</w>
head light</w>
hain an</w>
gri l
great .
gossi ping</w>
gimm ick</w>
g ang
fur ther
fro st</w>
fil ets</w>
eta it</w>
err ick</w>
emergen cies</w>
em ont</w>
dispen sers</w>
dies el</w>
diabe tic</w>
di ves</w>
dai quir
cough ing</w>
con course</w>
com promise</w>
check -out</w>
challen ged</w>
ch ess</w>
caf és</w>
bund le</w>
brac elet</w>
bou che</w>
bo u</w>
bla de</w>
as ses</w>
as sau
appl ying</w>
al -
adverti ses</w>
acou stic</w>
accu sed</w>
W hen</w>
W ally</w>
Tes la</w>
T un
She ila</w>
Sen or</w>
Pen ang</w>
Pat el</w>
P NC</w>
Mid way</w>
Michel in</w>
M- F</w>
Jac quel
J i
Fu ji</w>
Fran ks</w>
E M
D D
Bre t</w>
Ale j
A tom
9 30</w>
5 -</w>
11 .99</w>
.M ost</w>
ya hoga</w>
week .</w>
ver re</w>
uni verse</w>
un common</w>
u pped</w>
u pli
twel ve</w>
tu ary</w>
tr in
to asty</w>
t rol
sur ger
sun flower</w>
strogan off</w>
sto red</w>
st ur
snac king</w>
sm ar
slo pp
shi fts</w>
s. P
s well</w>
s The</w>
revam p</w>
resul ting</w>
res se</w>
refur bi
re an</w>
radi ator</w>
prescri bed</w>
pre pa
or tho</w>
op tional</w>
non- dairy</w>
no vel</w>
mus sel</w>
mous saka</w>
mil ls</w>
meticul ously</w>
mel ty</w>
m ás</w>
logi sts</w>
lin e-up</w>
lei surely</w>
lat ter</w>
l one</w>
l ich</w>
jalep eno</w>
jack fruit</w>
j ello</w>
iti ons</w>
in fer
il ey</w>
host ile</w>
hoo king</w>
gossi p</w>
gliat elle</w>
f ender</w>
excee dingly</w>
e yed</w>
e h
droo ling</w>
di er</w>
di e
dec eptive</w>
da al</w>
clas sique</w>
chicken .</w>
brides maids</w>
bre ed</w>
bl ender</w>
beha ved</w>
beauti ful
be hold</w>
bath room
b ong</w>
b c
aw fully</w>
alo g</w>
al .</w>
ado bada</w>
add- ons</w>
acknowledg ing</w>
ac id</w>
X X</w>
Ter i</w>
T et
T eddy</w>
St an</w>
Se oul</w>
R I
Patr icia</w>
No ah</w>
Mor ton</w>
Ma r</w>
MV P</w>
Lex i</w>
Hok kaido</w>
Hein z</w>
H I
Giovan ni</w>
East side</w>
Cu yahoga</w>
Chry sler</w>
Chev rolet</w>
Bev Mo</w>
Bald win</w>
BB Q
Atom ic</w>
Americ ana</w>
Alber ta</w>
A W
8 7</w>
6 6</w>
4 6</w>
11 .00</w>
.S p
.O .</w>
.A wesome</w>
wi z</w>
wh im
ven ison</w>
up keep</w>
umbrel las</w>
uma mi</w>
to aster</w>
time -</w>
tec a</w>
te d.
t ended</w>
swe pt</w>
stran ger</w>
st ering</w>
sno wy</w>
sin ks</w>
sho pp
sho ddy</w>
sh ook</w>
seat ing
se vers</w>
se mble</w>
sco res</w>
sal mon
r ing
r hy
pin i</w>
pe ine</w>
para tha</w>
pal e
p uck</w>
op tical</w>
na use
mari achi</w>
maneu ver</w>
light ening</w>
l ice</w>
ke d-
kab abs</w>
invest ed</w>
influ ence</w>
inclin ed</w>
ima ges</w>
ici est</w>
hi d</w>
gri ddle</w>
gradu ate</w>
goooo od</w>
ga mes
fundra iser</w>
fun gus</w>
fla ke</w>
fl yers</w>
exper iment</w>
ess or</w>
entic ing</w>
ell ent</w>
digg ity</w>
di ff</w>
deli very
dd led</w>
cu ri
cra ps</w>
conve yor</w>
comple mented</w>
cay enne</w>
car bon</w>
ca be
arti stry</w>
am o</w>
ador ian</w>
adju sting</w>
acci dents</w>
ac ies</w>
Y vonne</w>
Wat er
Wal ter</w>
Serran o</w>
S pl
Ro deo</w>
Oc t</w>
Mor ris</w>
Ma ine</w>
M or</w>
Lo ren
Krist in</w>
K ari</w>
J al
Hain anese</w>
Gar rett</w>
Fu d
Fre emont</w>
Ferr ari</w>
Dan te</w>
B C</w>
Ar men
9 8</w>
5 stars</w>
.Pi zza</w>
yum miness</w>
y all</w>
wher eas</w>
vri r</w>
un load</w>
un familiar</w>
un available</w>
trou ver</w>
ton ite</w>
ting a</w>
tem pe
teen y</w>
table ts</w>
store .</w>
stero ids</w>
st ep
soft ball</w>
soci able</w>
sl ack</w>
sh o</w>
sh ment</w>
sh er
scri pt</w>
sag anaki</w>
s loooooo
ry -
ro aming</w>
resear ched</w>
repl eni
po sole</w>
ph ra
p one</w>
p el
oven s</w>
offic er</w>
nee ded
molca jete</w>
modi fied</w>
min est
minest rone</w>
medic ations</w>
mark et
manic otti</w>
man ner
man gos</w>
log ical</w>
le .</w>
la st
ks wagen</w>
kebo b</w>
infe sted</w>
ien s</w>
hur ried</w>
ho vering</w>
ho l</w>
he he</w>
h mmmm</w>
h eal</w>
gu lab</w>
great -
gg g</w>
fla w</w>
fe ars</w>
fac eli
ex pedi
en vi
ed ition</w>
dra wing</w>
don ated</w>
dil uted</w>
di men
dev elo
cushi ons</w>
cur tious</w>
crick ets</w>
cre e
compres sor</w>
col ours</w>
co inci
co aching</w>
ci v
char broiled</w>
cal lus</w>
ca vi
bur les
br un
bolo gna</w>
blo g</w>
bedroo ms</w>
be dding</w>
at ore</w>
are n
afford able
a waiting</w>
Walmar ts</w>
Vol kswagen</w>
T rin
T here</w>
T TC</w>
Pink berry</w>
Pe ople</w>
P resident</w>
Om ni</w>
N ak
N BA</w>
Mon -
Me i</w>
Mc Car
M edi
M amma</w>
Li ke</w>
L ore
Krist ina</w>
Ko hl</w>
G en</w>
De me
Co hen</w>
C ity
C ici</w>
Bell ini</w>
A bra
8- 10</w>
50 -
45 am</w>
2- 4</w>
18 th</w>
0 7</w>
-- not</w>
ñ os</w>
win ery</w>
we ster
wa ry</w>
vou chers</w>
vic ti
v .</w>
ur al</w>
un aware</w>
terri er</w>
subj ect</w>
spra ying</w>
sna pped</w>
sh -
sen ses</w>
scoo ters</w>
s anc
ri ghts</w>
reas sured</w>
re consider</w>
ra dar</w>
pric e-
pre cooked</w>
po lar</w>
piti ful</w>
pi sto
per mission</w>
ou ille</w>
ob tain</w>
o dy</w>
mix ers</w>
mix er</w>
mis ha
me .
lut ely</w>
li ber
lett ers</w>
lea ses</w>
le ek</w>
lasag ne</w>
k eno</w>
jo lly</w>
jam in</w>
ja il</w>
it lin</w>
interest s</w>
in adequate</w>
heirloo m</w>
har ass</w>
ha ves</w>
gro ll</w>
gou ging</w>
ging er
gi ous</w>
gh tful</w>
floo ded</w>
ff a</w>
faceli ft</w>
extr action</w>
excessi vely</w>
es hop</w>
enc ies</w>
en .</w>
eg groll</w>
ea sed</w>
dr ug
dis regard</w>
[...]
