<PAD> 0
<UNK> 0
<S> 0
<E> 0
. 2771316
the 1804658
and 1575037
I 1050654
! 1039381
, 1018470
a 923570
to 807030
is 674082
was 648110
for 502845
it 488529
of 433492
in 415759
my 394920
this 388545
great 384560
they 349148
food 327038
you 297434
place 295188
good 293661
with 292296
very 274762
are 273777
service 267159
but 260695
have 250070
on 231709
we 231534
't 223681
had 220528
not 214550
's 206686
here 201414
that 197529
so 193061
be 173149
were 164143
at 162589
time 145420
back 142744
will 141470
friendly 137659
all 134930
love 130853
best 130680
as 130379
there 129946
staff 128401
go 127318
out 122779
always 122747
their 122228
me 121898
get 116456
nice 112669
like 111965
just 109428
if 107457
really 106615
from 103203
amazing 101718
been 101150
can 99629
one 98261
would 98256
an 95016
our 94527
recommend 93810
definitely 91095
) 87378
... 86553
've 85340
when 80254
delicious 79841
up 79298
your 79247
what 77002
or 75807
no 73704
too 73179
only 69682
has 69609
also 68912
chicken 68114
got 67863
( 67176
more 66476
them 66351
about 65101
he 64348
well 64025
awesome 63914
come 63753
she 63528
again 63206
never 60986
don 60912
some 60651
by 60335
try 59545
pizza 59492
even 58134
do 58052
excellent 57670
clean 56960
" 56544
fresh 56476
experience 56361
ever 55242
restaurant 55239
$ 54665
order 54183
did 53925
other 53802
little 53527
than 53214
better 52852
went 52342
new 51786
: 51615
'm 51275
location 51102
customer 51034
super 50565
price 50245
first 49432
prices 48828
highly 48779
- 48469
people 48315
going 47792
everything 47315
came 46876
& 46832
which 46666
us 46218
ordered 46070
much 46016
/ 45464
made 44805
make 44255
work 44030
? 43926
after 43322
wait 42778
pretty 42454
because 42406
atmosphere 41844
over 41810
lunch 41662
menu 41496
job 41355
every 40517
fast 40161
bar 38380
times 37710
.. 37544
quality 37386
her 36825
way 36658
favorite 36515
sure 36316
bad 36175
happy 35875
eat 35626
worth 35166
helpful 34764
day 34485
area 34404
quick 34402
any 34370
coffee 34368
coming 34209
right 34157
take 34133
could 33720
selection 33617
now 33500
am 33068
're 32794
didn 32721
took 32493
how 32355
want 31621
family 30915
2 30849
night 30656
'll 30309
who 30274
drinks 30251
tried 29899
years 29418
5 29371
still 29032
around 28891
many 28855
give 28818
hot 28770
small 28763
spot 28604
down 28468
his 28432
know 28413
find 28194
say 28091
looking 27940
two 27763
most 27753
home 27730
need 27725
done 27694
salad 27670
tasty 27497
fantastic 27408
before 27385
wonderful 27316
minutes 27301
store 27272
cheese 27237
professional 27198
off 27139
breakfast 26910
few 26906
everyone 26697
both 26594
long 26585
fun 26430
perfect 26350
loved 26332
thank 26309
feel 26093
see 26000
next 25730
beer 25705
lot 25522
found 25147
sushi 25145
bit 25100
last 25066
car 24922
dinner 24896
fries 24747
care 24623
while 24524
shop 24481
town 24481
visit 24426
sauce 24344
Vegas 23907
sandwich 23898
taste 23889
then 23861
3 23729
burger 23527
though 23237
nothing 22902
its 22695
absolutely 22680
big 22346
meal 22229
places 22147
friends 22092
since 22058
stars 22043
hour 21999
disappointed 21837
.... 21751
free 21616
10 21586
reasonable 21386
think 21259
guys 21141
sweet 21043
special 20744
busy 20654
ok 20619
today 20552
drink 20475
rice 20453
these 20358
different 20202
decent 19884
else 19822
thanks 19757
something 19680
owner 19615
use 19603
far 19550
look 19511
another 19387
business 19382
hair 19161
extremely 19072
won 19039
being 18938
ice 18840
enjoyed 18813
options 18809
wasn 18709
portions 18667
old 18615
such 18459
enough 18445
wings 18370
kind 18364
soup 18336
meat 18237
must 18204
side 18076
cream 17858
4 17760
check 17650
beef 17488
top 17464
huge 17417
away 17401
same 17342
thing 17286
anyone 17178
fried 17177
cool 17168
open 17065
ask 16986
used 16974
should 16944
where 16764
large 16722
drive 16683
worst 16652
slow 16641
stop 16593
does 16530
enjoy 16510
getting 16486
server 16437
lots 16436
kids 16425
gave 16404
house 16353
overall 16291
money 16231
especially 15977
tacos 15955
flavor 15807
beautiful 15702
fish 15696
week 15655
said 15650
room 15644
easy 15624
priced 15620
nails 15593
return 15449
hard 15405
usually 15282
close 15221
employees 15213
horrible 15163
attentive 15148
full 15148
rude 15143
help 15138
1 15122
anything 15122
inside 15119
tea 15119
makes 15077
things 15036
through 15007
once 15002
cold 14881
steak 14828
'd 14801
wish 14770
music 14681
into 14653
wanted 14635
authentic 14620
needs 14571
him 14499
keep 14417
high 14378
yummy 14231
recommended 14176
bread 14169
dishes 14118
cheap 14118
needed 14114
hours 14098
however 14071
knowledgeable 14059
spicy 14034
tasted 13929
company 13852
; 13849
items 13846
left 13833
table 13797
called 13795
local 13727
Mexican 13704
terrible 13577
manager 13529
quite 13478
salon 13353
Chinese 13285
Thai 13249
line 13109
probably 13096
wine 13096
plus 13057
asked 12961
cooked 12960
pork 12923
husband 12851
without 12809
shrimp 12740
why 12709
cut 12692
wrong 12658
working 12656
live 12638
call 12638
less 12619
able 12581
variety 12581
expensive 12573
year 12478
guy 12445
comfortable 12370
star 12366
wife 12338
during 12330
friend 12304
20 12304
average 12280
half 12202
burgers 12153
almost 12137
several 12083
front 12054
couple 12003
waitress 11964
extra 11945
waiting 11929
30 11894
each 11839
whole 11819
looks 11787
impressed 11772
real 11752
told 11744
put 11712
delivery 11697
sandwiches 11686
customers 11653
actually 11600
eating 11599
stopped 11597
deal 11396
' 11331
reviews 11302
water 11251
having 11223
parking 11188
let 11151
glad 11106
soon 11042
restaurants 11035
couldn 11018
decor 10939
outside 10816
trying 10769
massage 10630
show 10613
style 10600
rolls 10503
pay 10495
regular 10485
cute 10453
twice 10436
stay 10426
quickly 10417
person 10408
nail 10368
doesn 10349
pleasant 10329
appointment 10323
days 10301
door 10285
least 10272
review 10223
late 10168
doing 10118
bring 10104
office 10096
patio 10071
phone 10032
outstanding 10002
flavors 9966
15 9931
second 9905
point 9769
often 9766
chocolate 9740
helped 9725
waited 9721
dog 9696
served 9690
making 9673
dish 9637
three 9622
burrito 9611
looked 9577
walk 9559
okay 9548
pricey 9533
walked 9525
buy 9512
thought 9492
Italian 9490
stuff 9488
+ 9431
seating 9423
BBQ 9374
dry 9313
hotel 9268
Dr. 9223
chips 9194
street 9190
isn 9162
problem 9152
tell 9129
ate 9111
portion 9103
6 9101
fair 9080
hands 9051
felt 9040
maybe 9037
pick 9005
size 9000
ago 8956
leave 8946
bowl 8925
own 8880
seems 8877
cake 8874
yet 8851
wouldn 8835
change 8832
wow 8829
Yelp 8811
de 8759
Las 8707
pho 8700
warm 8677
end 8665
part 8648
morning 8644
comes 8599
affordable 8586
fan 8557
tables 8542
name 8503
efficient 8484
haven 8470
roll 8446
expect 8373
someone 8322
offer 8271
environment 8248
ingredients 8236
-@@ 8211
specials 8207
those 8088
liked 8079
owners 8057
ambiance 8025
welcoming 8011
brunch 8008
anywhere 7999
group 7999
city 7998
gem 7975
life 7944
party 7934
services 7925
green 7923
dining 7921
run 7907
Sunday 7898
red 7894
finally 7886
sit 7867
value 7859
gets 7857
totally 7847
taco 7843
la 7821
poor 7770
either 7767
healthy 7751
plenty 7749
choose 7740
incredible 7733
team 7711
simple 7709
brought 7696
until 7685
Saturday 7677
honest 7645
n 7629
watch 7611
dessert 7589
reason 7569
decided 7566
egg 7551
takes 7547
choices 7545
lady 7536
neighborhood 7520
beers 7520
received 7511
serve 7510
gone 7492
tastes 7455
trip 7451
bartender 7447
unique 7432
perfectly 7424
beyond 7420
man 7391
servers 7371
bought 7354
bacon 7342
buffet 7321
overpriced 7320
dirty 7255
son 7240
ready 7229
seem 7221
exactly 7183
forward 7164
seen 7152
u 7146
short 7142
choice 7137
above 7134
salsa 7128
charge 7121
curry 7089
noodles 7083
pasta 7068
sometimes 7067
fixed 7055
polite 7046
instead 7034
early 7034
taking 7033
7 7007
amount 7003
oh 6997
Starbucks 6971
birthday 6961
Toronto 6959
accommodating 6954
toppings 6952
moved 6946
Phoenix 6939
French 6916
closed 6909
ordering 6906
reasonably 6885
may 6874
please 6867
bland 6867
crust 6865
course 6852
game 6838
courteous 6837
seemed 6800
although 6796
under 6796
questions 6792
recently 6790
later 6787
downtown 6765
entire 6760
visiting 6752
within 6749
Indian 6713
fix 6712
months 6705
vibe 6703
waiter 6687
% 6679
8 6645
returning 6629
truly 6621
yum 6611
grilled 6594
past 6568
future 6559
* 6558
pleased 6553
space 6534
thru 6529
daughter 6517
set 6515
hit 6513
plate 6499
convenient 6480
fine 6462
management 6455
treat 6454
near 6441
pedicure 6432
fabulous 6420
strip 6398
weekend 6394
oil 6360
garlic 6333
Friday 6301
available 6290
others 6282
miss 6276
eggs 6274
prepared 6268
die 6265
orders 6250
date 6245
et 6224
crispy 6218
girl 6206
across 6196
month 6181
donuts 6170
pool 6156
counter 6152
salmon 6150
products 6148
satisfied 6108
expected 6075
kept 6074
saw 6066
valley 6058
start 6042
eaten 6006
flavorful 5999
relaxing 5996
le 5995
surprised 5986
patient 5964
solid 5940
Charlotte 5934
five 5922
low 5909
seriously 5900
option 5898
opened 5895
vegan 5888
awful 5883
mediocre 5880
weeks 5878
sat 5874
dogs 5870
might 5858
beat 5855
worked 5850
chef 5835
paid 5805
white 5794
park 5787
seafood 5785
already 5779
salads 5772
..... 5762
waste 5756
light 5751
arrived 5705
completely 5687
lovely 5686
kitchen 5662
notch 5657
cost 5648
world 5646
hidden 5645
meals 5642
issue 5617
pricing 5598
taken 5590
beans 5583
using 5574
min 5573
cafe 5571
wash 5567
bite 5564
add 5543
hope 5523
shopping 5514
cozy 5483
vegetarian 5474
online 5460
myself 5459
.@@ 5427
.I 5420
list 5418
tasting 5412
believe 5391
grab 5387
homemade 5378
process 5375
minute 5362
tonight 5328
yourself 5318
guess 5311
girls 5261
play 5254
crowded 5243
greasy 5224
works 5219
yes 5198
potato 5194
issues 5193
prompt 5172
joint 5159
attention 5159
evening 5156
ramen 5152
color 5141
literally 5136
repair 5129
games 5125
summer 5118
started 5111
rather 5105
rooms 5104
.The 5101
lol 5092
smile 5087
packed 5056
soft 5046
generous 5043
card 5040
exceptional 5007
given 4990
milk 4983
longer 4964
talk 4961
typical 4952
favourite 4946
mall 4945
attitude 4939
ones 4937
sitting 4932
knows 4892
butter 4881
delivered 4871
loud 4869
ribs 4866
s 4863
y 4860
offered 4854
Mac 4854
along 4849
ended 4842
crab 4831
walking 4816
mins 4811
disappointing 4803
quiet 4801
gel 4797
behind 4792
loves 4791
located 4791
locations 4790
re@@ 4787
haircut 4786
rest 4781
frozen 4772
giving 4768
Pittsburgh 4757
bartenders 4757
club 4754
o 4753
visited 4744
showed 4731
spend 4730
cleaning 4730
consistent 4728
changed 4722
black 4711
Scottsdale 4704
chain 4700
appetizer 4694
interesting 4691
salty 4684
pad 4683
filling 4665
continue 4629
four 4616
workers 4616
cup 4615
pie 4611
# 4589
mind 4587
fact 4586
consistently 4583
9 4583
remember 4579
baked 4554
due 4537
cannot 4523
appreciate 4520
cash 4512
view 4508
w 4495
feeling 4488
S@@ 4464
honestly 4447
dont 4446
un@@ 4445
avoid 4430
incredibly 4424
glass 4411
Korean 4408
Dr 4404
hand 4404
hungry 4393
combo 4392
thin 4391
mom 4390
afternoon 4385
cocktails 4354
Montreal 4350
veggie 4348
simply 4347
toast 4335
airport 4334
type 4333
understand 4320
plan 4319
lamb 4306
multiple 4304
casual 4304
forever 4301
Asian 4297
etc 4294
potatoes 4293
foods 4290
100 4289
phenomenal 4289
true 4282
onion 4280
tip 4280
class 4271
together 4269
tender 4268
aren 4268
empty 4257
outdoor 4254
12 4247
box 4240
between 4235
lobster 4235
excited 4234
including 4231
thorough 4231
craving 4228
hang 4227
personable 4222
unfortunately 4196
s@@ 4190
desserts 4188
cook 4175
chili 4173
compared 4157
appetizers 4141
goes 4141
bill 4136
crazy 4133
noodle 4132
ambience 4132
45 4124
spa 4109
limited 4095
veggies 4085
c 4084
spring 4078
crowd 4062
establishment 4059
trust 4057
sausage 4056
school 4046
juice 4037
Cleveland 4034
floor 4031
cookies 4026
desk 4017
boyfriend 4014
d 3999
save 3998
treated 3997
bomb 3995
stores 3995
sub 3985
sales 3976
sports 3973
turned 3970
gotten 3968
serving 3963
added 3962
finish 3954
spent 3939
pizzas 3939
based 3930
ladies 3930
sauces 3923
young 3919
product 3910
owned 3906
sad 3902
bakery 3902
Chipotle 3897
chance 3891
greeted 3889
25 3888
detail 3885
level 3885
cars 3879
charged 3868
sell 3867
l 3849
fruit 3844
mention 3839
TV 3834
forget 3828
wedding 3820
sucks 3817
single 3817
crew 3805
seats 3804
seated 3799
standard 3799
gym 3799
doctor 3794
main 3787
chill 3786
sorry 3780
truck 3777
number 3773
somewhere 3772
purchase 3767
un 3767
cashier 3749
itself 3742
market 3734
Japanese 3731
50 3730
sign 3729
latte 3729
fairly 3728
moving 3726
move 3725
personal 3715
yesterday 3714
welcome 3711
knew 3708
provided 3694
les 3693
sour 3688
heard 3685
interior 3682
lived 3682
-- 3680
Arizona 3674
window 3665
shops 3663
asada 3661
orange 3660
expectations 3653
40 3653
burritos 3650
pieces 3649
kinda 3648
wrap 3638
Greek 3634
funny 3623
tire 3599
weren 3591
i 3590
OMG 3586
modern 3585
pulled 3572
fancy 3570
rock 3565
complaint 3560
tons 3558
employee 3555
wall 3550
elsewhere 3545
takeout 3541
unless 3539
mango 3532
in@@ 3531
cakes 3530
AZ 3522
piece 3522
original 3521
forgot 3518
cleaned 3517
picked 3513
worse 3505
book 3505
pancakes 3502
absolute 3493
disappoint 3490
go-to 3485
classic 3481
carne 3479
center 3473
checked 3472
surprise 3468
tuna 3468
deep 3466
stayed 3465
says 3463
otherwise 3463
ahead 3462
iced 3461
usual 3457
air 3454
disgusting 3433
facility 3432
perfection 3429
sides 3423
results 3416
manicure 3416
buying 3411
bucks 3409
idea 3403
met 3402
discount 3402
favorites 3394
eye 3385
filled 3384
turkey 3383
suggest 3382
California 3379
west 3378
matter 3371
24 3366
traditional 3361
running 3361
plates 3347
t 3344
dentist 3338
im 3336
yogurt 3336
deals 3329
mix 3326
North 3322
diner 3322
en 3315
complaints 3313
e@@ 3305
addition 3299
talking 3295
purchased 3289
opinion 3289
middle 3283
per 3278
explained 3277
movie 3276
double 3274
est 3272
nachos 3270
poutine 3268
delish 3265
gluten 3261
11 3257
rush 3247
prefer 3234
cheaper 3230
general 3224
pour 3223
brand 3213
head 3209
wide 3209
mean 3209
Groupon 3204
gyro 3199
spots 3197
meet 3193
east 3193
deliver 3192
total 3184
read 3184
bagel 3180
touch 3175
certainly 3173
corn 3166
mouth 3162
def 3152
problems 3148
tap 3147
paying 3145
ton 3144
caring 3142
whenever 3142
vehicle 3139
medium 3132
immediately 3131
selections 3130
pedi 3123
gross 3121
avocado 3120
t@@ 3120
k@@ 3120
lines 3119
except 3117
Madison 3114
seeing 3113
pub 3106
easily 3104
cuisine 3103
kid 3102
lost 3099
superb 3097
feels 3095
chairs 3094
building 3091
brisket 3090
art 3089
helping 3088
relaxed 3085
event 3082
checking 3077
credit 3075
slice 3072
answer 3066
pastries 3066
willing 3065
boba 3055
basic 3054
dip 3050
finished 3045
nights 3042
south 3041
smoothie 3040
broth 3039
bagels 3032
hate 3031
positive 3022
face 3017
experienced 3015
Tuesday 3014
terrific 3008
lettuce 3006
playing 3003
juicy 3001
dressing 2996
smell 2996
gives 2994
dollars 2993
grill 2991
anymore 2991
daily 2987
craft 2976
item 2973
Mike 2972
support 2969
update 2969
ridiculous 2966
tech 2956
A@@ 2953
dark 2950
road 2945
soggy 2941
system 2941
nearby 2939
possible 2935
mostly 2931
provide 2931
tiny 2930
bean 2927
a@@ 2912
answered 2911
bun 2908
timely 2904
seat 2902
hole 2901
considering 2899
'@@ 2899
folks 2897
schedule 2895
zero 2894
grocery 2893
negative 2892
mixed 2890
sent 2890
weekends 2888
stand 2886
mine 2880
replaced 2880
informative 2870
screen 2864
experiences 2854
fill 2853
enjoyable 2850
smaller 2848
apple 2846
d@@ 2845
vegetables 2844
wifi 2839
write 2838
rating 2836
sugar 2834
tofu 2816
seasoned 2816
i@@ 2814
strong 2812
strawberry 2811
coconut 2807
meats 2807
par 2806
presentation 2802
inexpensive 2802
salt 2798
flavour 2794
desert 2789
watching 2784
tomato 2783
complete 2782
stylist 2782
missing 2779
eyebrows 2779
break 2778
y@@ 2778
shot 2776
American 2774
theater 2771
knowledgable 2767
tires 2765
waffle 2760
spice 2759
rib 2754
creative 2751
sick 2750
barely 2749
bathroom 2747
pain 2738
lemon 2738
baby 2736
es 2731
nicely 2728
happened 2714
Monday 2704
pleasantly 2694
cause 2690
become 2690
buffalo 2688
weird 2685
share 2685
correct 2683
none 2676
venue 2673
cookie 2666
T@@ 2665
organized 2665
bunch 2661
stick 2661
higher 2660
turn 2657
dental 2655
corner 2651
smoothies 2649
rare 2646
o@@ 2641
pass 2639
tour 2638
thick 2633
pleasure 2632
shawarma 2627
skin 2618
slightly 2617
barber 2617
dine 2613
K@@ 2609
bag 2605
P@@ 2598
machine 2598
reservation 2597
deli 2596
bowls 2594
sizes 2590
hummus 2590
setting 2587
lack 2585
teriyaki 2585
straight 2585
finding 2582
burnt 2581
dumplings 2581
guacamole 2578
upon 2570
normal 2567
fit 2566
conversation 2563
spectacular 2562
hear 2562
e 2561
normally 2560
rate 2558
relax 2556
mess 2555
cupcakes 2555
ive 2553
leaving 2553
gelato 2552
al 2547
Chicago 2547
closing 2544
asking 2542
cant 2539
pepper 2532
whatever 2524
bigger 2521
shows 2517
plain 2512
saying 2511
it@@ 2509
speak 2507
honey 2505
cooking 2500
meh 2494
à 2493
pita 2491
John 2490
alright 2489
mani 2489
auto 2486
treats 2484
happier 2482
fry 2479
duck 2477
polish 2476
body 2473
woman 2470
stuffed 2468
heat 2467
children 2466
treatment 2465
refreshing 2458
bars 2457
sashimi 2456
mushroom 2455
design 2455
pot 2452
bike 2449
margaritas 2448
soda 2447
closer 2446
expecting 2440
York 2439
el 2438
offers 2438
state 2438
pop 2437
health 2434
Vietnamese 2433
slices 2429
driver 2426
concept 2423
onions 2421
complain 2420
= 2419
rings 2415
picky 2413
step 2404
glasses 2403
staying 2402
pm 2400
drop 2400
blue 2399
department 2398
gift 2398
al@@ 2397
equipment 2396
heart 2394
er 2394
flat 2392
cocktail 2389
broken 2387
brown 2386
bottle 2383
app 2382
regret 2380
spinach 2375
donut 2369
que 2367
section 2366
C@@ 2360
j 2345
subs 2337
carry 2335
station 2334
B@@ 2334
dim 2333
driving 2330
basically 2330
ride 2328
g@@ 2328
smoked 2327
Chris 2327
visits 2325
opening 2325
clearly 2324
recommendations 2319
gotta 2317
calamari 2314
poke 2300
difficult 2299
tattoo 2297
inviting 2295
explain 2287
dollar 2286
L@@ 2282
ing 2281
appreciated 2278
n@@ 2277
gravy 2275
rocks 2271
D@@ 2267
bed 2266
p@@ 2260
everyday 2258
pressure 2258
ranch 2254
calling 2252
request 2251
lacking 2249
waffles 2249
drove 2249
casino 2249
repairs 2245
frequent 2241
spacious 2239
key 2236
Joe 2231
board 2230
platter 2228
NY 2227
joke 2226
pepperoni 2226
lounge 2226
talented 2222
Thursday 2221
freshly 2220
everywhere 2219
rich 2219
pet 2219
B 2215
lucky 2212
smoke 2211
soups 2209
blast 2209
previous 2208
carpet 2205
furniture 2203
sum 2201
snack 2200
.They 2198
dealership 2198
damn 2196
E@@ 2195
en@@ 2193
reliable 2193
dive 2193
TVs 2191
mini 2191
personally 2189
waitresses 2189
foot 2187
coupon 2182
girlfriend 2181
cares 2180
chose 2180
pictures 2180
k 2178
similar 2178
bathrooms 2176
case 2175
particular 2174
ran 2170
smooth 2169
r 2168
prime 2167
word 2159
tough 2156
er@@ 2154
gorgeous 2154
s.@@ 2152
despite 2150
post 2149
insurance 2149
flavours 2149
banana 2147
unprofessional 2147
très 2145
b@@ 2143
clothes 2143
included 2134
u@@ 2132
wax 2130
shared 2128
G@@ 2125
safe 2124
produce 2122
boy 2120
anytime 2114
manner 2110
nasty 2109
surprisingly 2108
throughout 2107
M@@ 2106
bother 2099
R@@ 2095
everytime 2093
tasteless 2092
alone 2084
knowledge 2083
rushed 2083
classes 2083
picture 2082
entrees 2081
non 2081
men 2081
organic 2078
F@@ 2076
country 2073
Philly 2073
technician 2071
fat 2070
feet 2069
1st 2069
neat 2066
sooo 2065
cuts 2064
popcorn 2063
till 2061
snacks 2061
receive 2056
laid 2049
espresso 2048
flight 2047
s. 2046
below 2045
es@@ 2045
range 2044
living 2044
hold 2044
m@@ 2041
vanilla 2037
didnt 2034
training 2034
Wednesday 2033
bubble 2028
windows 2026
overly 2025
website 2024
N@@ 2023
steaks 2020
ed 2019
sister 2015
Bell 2014
gas 2011
shake 2011
creamy 2010
smells 2009
jerk 2009
goods 2007
King 2003
thinking 2001
dough 1999
advice 1994
stale 1989
regularly 1987
miles 1984
2nd 1983
noticed 1983
fav 1981
quote 1979
Tempe 1979
naan 1979
margarita 1976
dress 1975
reading 1971
O@@ 1971
sold 1969
Express 1968
H@@ 1967
peanut 1966
wants 1963
mother 1961
mood 1959
clear 1959
bonus 1959
shoes 1957
impressive 1956
des 1956
disappointment 1953
raw 1953
self 1949
awhile 1949
bringing 1939
god 1938
garage 1936
English 1933
pedicures 1932
clients 1931
fire 1931
appointments 1926
soooo 1925
dropped 1922
obviously 1915
Tom 1915
suggestions 1912
energy 1911
notice 1908
flowers 1907
heavy 1906
sale 1906
entree 1902
crepes 1900
cards 1898
cheesecake 1894
natural 1894
keeps 1893
moist 1891
parts 1887
chip 1887
...... 1887
important 1886
fare 1885
court 1884
mushrooms 1883
ers 1882
covered 1879
z@@ 1877
changes 1875
guests 1872
bright 1870
installed 1868
l@@ 1867
sized 1865
de@@ 1865
pas 1864
hospital 1861
recommendation 1860
quaint 1859
comfy 1856
heaven 1855
hostess 1852
follow 1851
ar@@ 1850
older 1848
comfort 1845
thumbs 1845
an@@ 1843
response 1843
peppers 1841
listen 1841
waiters 1838
Christmas 1837
send 1836
c@@ 1834
wing 1833
ten 1822
means 1821
saved 1817
serves 1816
ass 1814
happen 1812
favor 1811
nicest 1811
difference 1805
on@@ 1803
actual 1803
weekly 1802
supposed 1801
popular 1800
stock 1800
travel 1798
garden 1797
messed 1795
chewy 1794
falafel 1793
2@@ 1792
shape 1792
combination 1790
band 1789
doctors 1788
reminds 1783
caramel 1780
yeah 1778
pricy 1776
rental 1775
boys 1770
--@@ 1770
areas 1769
delightful 1768
facial 1768
Mark 1767
beware 1767
third 1766
nearly 1765
register 1764
crap 1762
reservations 1760
machines 1760
women 1760
hash 1756
paper 1755
weather 1755
AC 1755
18 1752
oysters 1748
moment 1747
I@@ 1746
mile 1746
McDonald 1745
split 1743
skip 1742
bone 1742
situation 1740
roasted 1738
events 1737
thoroughly 1737
warranty 1737
mistake 1735
generally 1733
specialty 1732
crepe 1731
community 1730
member 1729
hubby 1729
apparently 1726
v@@ 1726
W@@ 1723
ham 1723
accommodate 1722
f@@ 1721
roast 1721
tan 1717
broccoli 1715
35 1714
h@@ 1712
stopping 1710
shame 1710
occasions 1710
pineapple 1708
f 1707
gonna 1705
filet 1702
major 1700
hopefully 1696
.We 1696
meatballs 1693
di@@ 1692
workout 1692
careful 1689
se 1688
larger 1688
known 1688
groups 1686
dozen 1686
doors 1684
greatest 1683
sound 1682
eats 1679
crisp 1679
arrive 1677
host 1676
placed 1674
further 1674
hooked 1673
texture 1672
welcomed 1672
bon 1670
doubt 1670
unlike 1669
David 1669
me@@ 1669
missed 1667
3@@ 1667
Henderson 1666
regulars 1664
Mary 1662
good@@ 1662
hell 1660
vacation 1659
be@@ 1658
communication 1657
catch 1657
lake 1656
hill 1656
question 1655
sun 1655
tips 1654
ri@@ 1653
tho 1653
lower 1645
une 1644
standing 1642
custom 1642
lashes 1642
colors 1641
luck 1640
crunchy 1638
belly 1636
Caesar 1635
@ 1635
cover 1634
whether 1634
eggplant 1632
sense 1632
mi 1630
personality 1629
consider 1628
members 1627
shit 1627
alcohol 1626
ti@@ 1626
draft 1623
cinnamon 1622
scheduled 1622
booked 1621
repeat 1621
Calgary 1621
candy 1621
li@@ 1620
upscale 1619
returned 1616
j@@ 1615
ball 1614
complimentary 1612
downside 1612
sample 1609
agree 1608
studio 1607
tortillas 1606
information 1604
ya 1600
Benedict 1600
subway 1599
types 1598
locals 1598
property 1597
kick 1596
wanting 1594
drinking 1593
skills 1593
iPhone 1593
somewhat 1592
14 1591
balls 1588
Walmart 1585
hoping 1580
meeting 1580
.It 1578
grand 1578
intimate 1576
impeccable 1575
16 1572
wont 1569
decorated 1569
contact 1567
90 1563
promptly 1563
replace 1563
enchiladas 1562
properly 1561
5@@ 1560
sa@@ 1557
note 1557
budget 1554
wraps 1552
ginger 1551
r@@ 1551
croissant 1550
fall 1549
frequently 1547
sprouts 1546
Chandler 1546
repaired 1546
greens 1544
artist 1544
unbelievable 1541
plumbing 1540
almond 1538
bottom 1537
J@@ 1536
stuck 1535
goat 1532
fell 1532
legit 1531
refills 1531
college 1528
mein 1526
particularly 1524
Hawaiian 1522
AYCE 1522
waxing 1522
quantity 1520
loaded 1518
buns 1517
private 1516
anyway 1515
teeth 1515
60 1515
vet 1515
dead 1514
vegetable 1514
at@@ 1513
beautifully 1513
shakes 1513
quesadilla 1510
goodness 1508
match 1508
massages 1507
hibachi 1507
additional 1506
nobody 1506
trash 1505
fully 1504
keeping 1504
os 1504
enjoying 1503
gentle 1502
ma@@ 1502
fee 1501
flavourful 1499
juices 1498
veal 1496
imagine 1495
ta@@ 1495
Kim 1495
calls 1494
brew 1494
brows 1494
samples 1492
costs 1491
Michael 1490
compare 1489
distance 1487
0 1486
everybody 1486
topping 1484
views 1483
13 1482
penny 1479
football 1478
constantly 1477
la@@ 1476
lo 1475
spoke 1475
M 1474
professionalism 1473
besides 1473
Mediterranean 1472
amazingly 1472
wonder 1472
smelled 1471
Jason 1470
wood 1468
lobby 1468
tomatoes 1466
w@@ 1465
tickets 1464
overcooked 1463
wines 1462
classy 1461
.This 1458
rip 1456
words 1455
st@@ 1454
neighbourhood 1454
dance 1454
hardly 1453
leaves 1452
lights 1452
gyros 1452
lemonade 1451
certain 1451
hurry 1450
le@@ 1448
nicer 1448
ch@@ 1447
discovered 1447
stocked 1447
stomach 1446
~ 1445
possibly 1444
coupons 1443
je 1442
alot 1441
talked 1441
p 1441
sh@@ 1440
handle 1440
id 1440
hire 1439
bites 1439
stone 1438
maintenance 1433
security 1432
sort 1432
named 1432
mais 1431
Jack 1430
various 1429
gentleman 1427
occasion 1426
z 1426
co@@ 1426
learn 1425
square 1424
updated 1421
ing@@ 1421
parents 1419
site 1419
Steve 1418
likes 1417
refund 1416
to@@ 1415
listened 1414
broke 1413
sticks 1413
serious 1412
tired 1411
teas 1410
recent 1409
sticky 1408
oven 1408
entertaining 1407
likely 1402
eyes 1402
quoted 1401
decide 1400
six 1399
hey 1397
ease 1396
earlier 1395
importantly 1394
ticket 1392
ra@@ 1391
sesame 1389
food@@ 1389
golf 1389
custard 1387
basil 1385
4@@ 1385
completed 1384
changing 1383
Queen 1382
Mesa 1382
cleanliness 1381
entertainment 1381
package 1378
annoying 1377
seasoning 1376
typically 1375
fingers 1375
au 1374
plastic 1371
faster 1371
tempura 1370
ring 1369
patrons 1368
figure 1366
pride 1366
interested 1365
earth 1364
giant 1363
Tony 1363
competitive 1362
threw 1361
winter 1361
ce 1361
movies 1361
miso 1360
round 1358
ne 1358
age 1358
San 1358
pies 1358
roti 1358
satisfying 1357
patty 1354
themselves 1352
requested 1350
adorable 1349
numerous 1348
ted 1347
Target 1344
refill 1344
extensive 1344
nor 1343
olive 1342
se@@ 1341
x 1340
da 1340
corporate 1340
chai 1339
el@@ 1338
referred 1338
omelette 1337
bank 1336
rent 1335
over@@ 1332
Y@@ 1332
uncomfortable 1330
practice 1327
ha@@ 1327
sea 1325
southern 1325
cleaner 1323
floors 1322
ly 1320
is@@ 1320
played 1320
salons 1320
garbage 1318
control 1317
filthy 1317
layout 1317
mayo 1315
patients 1314
relatively 1314
email 1313
disappoints 1313
refused 1313
m 1312
DJ 1312
'est 1312
promised 1311
improved 1311
client 1310
spaghetti 1310
photos 1310
masala 1310
effort 1309
season 1308
membership 1308
lazy 1307
kinds 1307
paint 1307
Sam 1306
bloody 1306
Jimmy 1304
chow 1304
thats 1303
tortilla 1303
ill 1301
ur 1300
gourmet 1299
du 1299
Parmesan 1297
ro@@ 1297
biscuits 1297
jewelry 1297
closest 1296
tenders 1294
putting 1294
smiling 1294
cupcake 1294
g 1293
V@@ 1290
tax 1289
hip 1289
informed 1289
stumbled 1288
.Great 1287
vehicles 1286
animals 1286
pink 1285
cheeseburger 1285
The 1284
spending 1284
biggest 1283
row 1283
Matt 1282
pair 1282
suggested 1281
si@@ 1278
child 1275
books 1275
defiantly 1274
sliders 1272
take-out 1272
battery 1271
melt 1267
genuine 1265
flavored 1265
hanging 1264
upstairs 1263
rolled 1263
odd 1262
points 1262
trendy 1259
parties 1258
stood 1258
deserves 1258
apart 1258
grooming 1257
compliments 1257
pickles 1256
followed 1254
nervous 1253
noisy 1253
alternative 1253
runs 1253
Brian 1253
install 1252
businesses 1252
via 1251
prior 1248
exceeded 1247
con@@ 1247
animal 1247
boring 1247
test 1246
memorable 1246
ignored 1246
tree 1246
program 1246
tad 1245
Kevin 1245
Alex 1244
eastern 1242
Uber 1241
Nick 1240
chorizo 1239
wild 1237
ant 1237
scallops 1236
sadly 1235
concerns 1234
responsive 1234
strongly 1233
meatball 1232
replacement 1231
lo@@ 1230
managed 1228
cat 1228
fave 1227
companies 1226
handled 1225
cups 1225
walls 1225
posted 1222
internet 1219
Dave 1218
te 1218
chat 1217
undercooked 1217
detailed 1217
soy 1217
families 1216
out@@ 1215
beds 1215
throw 1215
telling 1214
Texas 1212
accept 1212
perhaps 1211
story 1209
techs 1209
blown 1209
steamed 1207
secret 1206
su@@ 1206
bus 1205
spices 1203
hamburger 1201
chair 1200
dad 1200
apps 1200
oily 1199
indoor 1199
provides 1199
protein 1198
ca@@ 1197
guest 1196
lovers 1195
killer 1195
pushy 1195
painless 1194
holiday 1193
anniversary 1191
sont 1190
build 1190
mo@@ 1189
wrapped 1188
picking 1187
non-@@ 1184
fountain 1183
tight 1183
fitness 1183
adults 1182
genuinely 1181
respect 1181
signature 1180
magic 1180
mashed 1180
rarely 1179
helps 1178
explaining 1178
charming 1176
fajitas 1176
theatre 1176
unfriendly 1175
deserve 1175
Panda 1175
Los 1174
17 1174
e-@@ 1173
decision 1173
ts 1172
00 1172
golden 1172
stellar 1170
resort 1170
tapas 1170
ated 1168
slaw 1167
po@@ 1166
presented 1164
crappy 1164
poorly 1164
shots 1163
act 1162
fluffy 1161
locally 1160
ground 1160
bang 1159
pastry 1159
sooooo 1157
cutting 1157
il 1155
smiles 1153
pe@@ 1153
China 1152
pro 1150
planning 1147
Costco 1145
Island 1145
photo 1143
win 1142
mocha 1142
loving 1141
watched 1141
pickup 1141
recommending 1140
karaoke 1138
wanna 1138
daughters 1138
romantic 1136
co 1136
drunk 1135
improve 1135
menus 1134
carpets 1133
vibes 1132
separate 1132
McDonalds 1132
traffic 1131
pre@@ 1130
pudding 1130
pancake 1130
coleslaw 1130
hype 1129
version 1128
bottles 1128
plentiful 1127
80 1126
NYC 1125
access 1124
slowest 1124
pumpkin 1122
Ryan 1122
worker 1121
allowed 1120
understanding 1119
hangout 1119
mustard 1119
liquor 1118
toasted 1117
speed 1117
Scott 1115
biryani 1115
panini 1113
James 1113
allow 1112
wear 1111
.S@@ 1110
so@@ 1110
yoga 1110
upset 1109
lover 1109
con 1107
do@@ 1107
lie 1106
lasagna 1106
St 1106
speedy 1105
removed 1104
wise 1104
go@@ 1104
escape 1103
poisoning 1102
fans 1100
ma 1100
na@@ 1100
shout 1099
hesitate 1099
pets 1099
hassle 1098
correctly 1098
Ohio 1096
medical 1095
starting 1095
.My 1095
mentioned 1094
smoking 1094
yard 1094
grease 1093
pan 1093
knowing 1093
accurate 1092
coke 1092
joints 1092
ups 1091
shouldn 1089
plaza 1089
buck 1087
offering 1087
instructors 1085
ed@@ 1084
shaved 1084
6@@ 1084
cheesy 1082
baristas 1082
comment 1081
estimate 1081
ravioli 1080
Eric 1080
Cajun 1080
therapist 1079
b 1078
drive-thru 1078
bowling 1078
dude 1077
include 1077
cheddar 1076
ab@@ 1076
wonton 1076
blueberry 1076
Brazilian 1076
bu@@ 1074
convenience 1073
period 1073
ys 1071
ridiculously 1071
dream 1071
hello 1071
th@@ 1071
clothing 1071
maintained 1070
topped 1070
cooks 1069
mint 1068
emergency 1067
3rd 1067
beginning 1067
cu@@ 1067
knots 1067
melted 1066
hookah 1066
monthly 1065
refer 1064
terms 1064
museum 1064
spray 1063
charges 1063
count 1063
standards 1061
.Service 1061
.If 1060
pa@@ 1060
Gilbert 1060
lighting 1059
shower 1058
fly 1058
greet 1058
history 1058
s- 1057
brother 1056
lacked 1056
lime 1056
pesto 1056
U@@ 1055
easier 1055
hospitality 1055
fashion 1054
scratch 1053
legs 1052
specific 1052
consistency 1051
ac@@ 1050
comparable 1050
staple 1050
parm 1050
é 1050
par@@ 1049
tint 1049
rose 1048
leftovers 1047
managers 1046
yellow 1046
result 1046
ic@@ 1045
details 1045
unlimited 1044
feed 1044
Michelle 1044
dried 1043
bo@@ 1043
tucked 1042
e.@@ 1040
wa@@ 1040
central 1040
toes 1039
improvement 1038
selling 1037
mild 1036
ways 1036
Paul 1036
barista 1036
crave 1035
croissants 1035
ruined 1034
mussels 1034
Filipino 1034
da@@ 1033
unit 1032
hadn 1031
browns 1031
ba@@ 1030
contacted 1030
calm 1030
queso 1030
coast 1029
mozzarella 1028
dinners 1028
beverages 1028
brewery 1027
ting 1026
chains 1026
mad 1026
boxes 1025
Irish 1025
qu@@ 1024
loyal 1024
traveling 1024
staffed 1024
grateful 1023
blow 1022
booth 1022
h 1022
mechanic 1020
hurt 1019
anybody 1018
strange 1018
understaffed 1017
savory 1017
waitstaff 1017
doughnuts 1017
am@@ 1016
students 1016
cherry 1015
mu@@ 1015
famous 1015
tomorrow 1015
prepare 1015
messy 1014
rates 1013
diet 1013
salted 1012
ag@@ 1012
ho@@ 1011
cone 1010
friendliest 1010
bar@@ 1010
pharmacy 1010
flavorless 1009
scene 1009
shredded 1009
tots 1009
requests 1008
weekday 1008
led 1008
puppy 1008
s-@@ 1007
3.5 1007
screens 1006
fault 1006
suck 1005
trouble 1005
staffs 1005
haha 1004
pack 1003
base 1003
servings 1003
conveniently 1002
ages 1002
weak 1001
pastor 1001
soo 1000
ownership 999
hits 999
for@@ 999
cheesesteak 998
pros 998
gold 997
chop 997
equally 997
delight 996
thrilled 995
car@@ 995
lil 992
fruits 992
chefs 991
re 991
message 990
bags 990
liking 989
ish 989
sons 989
avec 989
power 988
Denny 987
passed 986
gu@@ 986
bien 984
Sundays 983
or@@ 983
re-@@ 983
computer 983
Lee 983
dipping 982
sucked 981
amazed 981
neck 980
advance 979
watery 979
beats 978
com@@ 977
ds 977
Paradise 977
haircuts 977
Josh 975
definately 975
cappuccino 974
create 974
dancing 974
respectful 971
carnitas 971
dairy 970
condition 969
reminded 969
mill 969
10@@ 968
writing 967
cabbage 967
charging 967
windshield 966
rough 966
search 965
chile 963
wasnt 962
fake 959
beverage 959
realize 959
Anthony 959
ceviche 958
Kelly 957
ons 957
Dan 956
sangria 956
scheduling 956
learned 956
sp@@ 956
P 954
video 954
dined 954
Ma@@ 954
concerned 953
bento 953
tikka 953
appt 953
Hills 950
offerings 950
tend 950
proper 950
ve 949
study 949
Jessica 949
Lisa 948
afterwards 948
blonde 947
cheapest 946
washed 945
Mongolian 945
ins 943
specifically 943
7@@ 943
toys 943
é@@ 942
fusion 940
Panera 940
among 940
8@@ 939
pi@@ 939
Italy 939
G 938
jalapeño 938
Jeff 937
superior 937
holy 937
raspberry 936
per@@ 936
entrance 936
matcha 936
ter 936
cab 936
advantage 935
pretzel 935
Ashley 935
wet 935
session 934
edible 934
rated 933
Tim 933
technicians 932
veg 932
hi 930
pull 930
pollo 930
maple 929
e. 928
back@@ 927
syrup 927
thankful 926
service.@@ 926
vape 926
bi@@ 925
batter 925
noise 925
receipt 925
ine 924
as@@ 924
mountain 923
accident 923
encountered 923
corned 923
hasn 922
x@@ 922
fees 922
mattress 922
ale 921
LV 921
threading 920
ation 918
clinic 918
watered 917
ked 917
barbers 917
fa@@ 915
includes 915
9@@ 913
eyebrow 913
apartment 912
switch 912
currently 911
dis@@ 910
crunch 910
passion 910
kudos 909
facilities 909
Bob 909
drivers 909
desired 907
K 905
seasonal 905
steakhouse 905
train 904
cashiers 904
massive 903
gf 903
wasted 902
laser 902
listens 901
omelet 901
VIP 899
St. 899
good. 899
freaking 898
fixing 898
Justin 897
instructor 897
campus 896
great@@ 895
adding 895
depending 895
catering 894
uses 893
Canada 892
salesman 890
searching 889
med 889
installation 889
CA 888
addicted 888
dealing 887
sounds 887
man@@ 887
king 886
field 886
cha@@ 886
basis 886
surgery 885
upgrade 885
satisfy 885
Nutella 885
block 884
uptown 883
exciting 883
towards 883
snow 883
receptionist 883
text 882
ge@@ 881
trees 881
student 881
skilled 881
highlights 880
following 880
district 879
ous 878
gnocchi 878
kimchi 878
.Food 877
up@@ 876
em 876
account 876
weight 876
serviced 876
downhill 875
pro@@ 875
creme 874
concert 874
y-@@ 873
beauty 873
locked 873
flower 872
no@@ 870
th 870
adult 870
law 868
tooth 868
ana 868
il@@ 867
oriented 867
coworkers 867
ample 866
berry 865
stupid 864
jobs 863
Z@@ 862
pastrami 862
definite 862
breads 861
ec@@ 861
om@@ 861
lattes 861
honor 860
ent 860
address 858
blend 858
ensure 857
yo 857
happens 857
dealt 857
guac 857
bistro 856
dealer 856
Robert 855
shut 855
guide 855
master 855
restrooms 854
patties 853
café 853
Alfredo 852
aware 852
showing 852
leg 852
brings 852
yuck 852
subpar 852
fired 851
exact 851
sake 851
risotto 849
ating 848
cucumber 848
purchasing 848
land 846
Mar@@ 844
grass 844
debit 844
sweets 844
bikes 844
so-so 843
brownie 842
paneer 842
Spanish 842
Village 842
tiramisu 841
heading 841
octopus 841
ks 841
smart 840
bc 840
grew 840
prix 840
patience 840
cigar 840
im@@ 839
complex 838
excuse 837
beach 837
remembered 836
barbecue 836
milkshake 836
assortment 836
pest 836
brews 835
upbeat 834
blah 834
costumer 833
pure 833
exceptionally 833
y. 832
diverse 832
'ai 831
noon 831
cared 830
21 830
ness 830
aside 830
Cuban 829
ne@@ 828
twist 828
temperature 827
dans 827
booths 827
dragon 826
balance 826
policy 826
fail 825
trim 825
trained 825
theme 823
Sarah 822
ketchup 822
breast 822
peak 822
minimal 821
Reuben 821
lives 821
burned 821
BLT 820
supplies 820
sing 820
midnight 819
rewards 819
ribeye 819
needing 818
70 817
stew 816
shuttle 815
ver@@ 814
sliced 814
katsu 814
truffle 813
worry 813
soul 813
states 813
planet 813
Hut 813
ans 812
impossible 812
puts 812
competition 811
martini 811
inspection 811
attended 811
curds 811
bet 810
potential 810
mushy 810
taro 809
sets 809
varieties 808
discounts 808
suggestion 808
fiancé 808
rave 808
velvet 808
providing 807
shell 807
passing 807
napkins 806
boot 806
church 806
ps 806
zucchini 805
ppl 805
Cheers 804
Wendy 804
boneless 804
der 803
regarding 803
America 803
s.I 802
artists 802
somehow 801
sharing 801
mobile 801
female 800
names 800
combinations 800
lately 799
hung 799
advertised 799
staff@@ 799
Ben 798
current 798
exam 797
admit 797
cauliflower 797
si 797
Mississauga 797
military 796
all@@ 796
random 795
southwest 793
lose 793
gifts 793
dated 793
minimum 793
screw 792
stress 791
ad@@ 791
responded 790
75 790
gi@@ 790
social 790
qui 790
acceptable 789
stands 789
Daniel 788
vintage 787
fatty 787
Ave 787
delivers 786
Moon 786
kale 785
Ch@@ 785
couples 785
restroom 785
describe 785
Bay 785
inconsistent 784
franchise 784
Dunkin 784
trustworthy 784
peach 783
spotless 783
mon 783
hipster 782
highlight 782
phones 782
deserts 782
peaceful 781
scoop 780
s.The 780
Mr. 780
cleanest 779
too@@ 779
expert 779
shoe 779
hearty 779
track 779
em@@ 778
walnut 778
bands 778
mi@@ 778
mail 778
amenities 778
tile 778
van 777
manicures 777
lit 777
himself 777
collection 777
resto 776
coffees 776
30pm 776
root 775
ings 775
ou@@ 775
.T@@ 774
starts 774
became 774
premium 774
tamales 774
challenging 774
1@@ 773
opportunity 773
neither 772
te@@ 771
22 771
chilli 771
payment 771
realized 770
divine 770
info 770
goodies 770
worthy 769
.Very 769
Al@@ 769
wtf 768
rainbow 768
against 767
ta 767
bonne 767
Jim 767
treatments 766
celebrate 766
ge 766
checkout 766
combos 766
setup 766
cuz 765
originally 765
darn 764
hr 764
faces 762
shirts 762
designs 762
gun 762
procedure 761
suit 760
chopped 760
enchilada 760
public 759
salsas 758
freshness 758
stage 758
Hawaii 758
tanning 757
flexible 756
specially 756
afraid 756
jazz 755
impression 754
cancel 754
powder 753
healthier 753
common 753
pants 753
competent 752
di 752
necessary 751
sooner 751
ey 750
watering 750
example 750
.Will 750
cheerful 749
listed 749
roof 749
minor 749
acai 748
deluxe 747
regardless 746
GTA 745
ourselves 745
vous 745
wheat 744
tart 744
turns 744
plants 744
PHX 744
cents 743
kill 743
empanadas 743
winner 743
lasted 742
booking 741
awkward 741
barbershop 741
stated 740
trips 740
needless 740
kabob 740
IHOP 740
frosting 740
hrs 739
Jersey 739
pre 739
makeup 738
frustrating 738
partner 738
Ro@@ 738
rid 738
arcade 738
Co@@ 737
ie 737
sloppy 737
fashioned 737
reasons 736
respond 736
scam 736
signed 736
pace 735
efficiently 734
pu@@ 734
answers 734
freshest 734
spoon 734
milkshakes 734
ends 734
shave 733
Summerlin 733
Johnny 733
strips 732
younger 732
push 732
joy 732
carrot 731
ga@@ 731
groomer 731
mainly 731
toilet 729
shocked 729
hilarious 728
Kung 728
time@@ 726
assistance 726
Tuesdays 726
Tso 726
yay 725
grits 725
muy 725
unhappy 724
ing. 724
diamond 724
tattoos 724
cramped 724
muffin 724
hi@@ 723
bf 722
ber@@ 722
19@@ 722
sa 722
spread 721
H 721
damage 721
stays 720
industry 720
bugs 720
appetite 720
vodka 719
Mc@@ 719
_ 719
accessories 719
failed 718
the@@ 718
V 717
removal 717
microwave 717
hu@@ 716
oz 716
passionate 716
nous 716
catfish 715
smog 715
styles 714
st 713
Brandon 713
assistant 712
babies 711
stylists 711
ia 711
ugh 709
wonderfully 709
designed 709
macaroni 709
ates 709
hotels 708
....... 708
supporting 707
Ar@@ 707
min@@ 707
chunks 707
sweetest 707
A 706
strawberries 706
display 706
dinning 706
cilantro 705
.Thank 705
Cali 705
place.@@ 705
udon 705
decently 704
final 704
remodeled 704
Amy 704
unacceptable 703
ina 703
million 701
nuts 701
eclectic 701
tops 701
confused 701
sleep 700
ASAP 700
cracked 700
sampler 699
ordinary 699
fu@@ 699
eh 699
rented 698
clubs 698
sometime 698
cheeses 698
painting 698
extensions 696
ty 696
challenge 696
July 696
load 696
lash 696
focus 695
suppose 695
end@@ 695
German 694
t-@@ 694
Mexico 694
associates 694
buds 693
lets 693
figured 693
ee 693
answering 692
btw 692
vegetarians 692
created 692
Adam 692
adequate 692
stadium 692
rack 691
grub 691
container 691
frills 691
well@@ 690
cigars 690
charm 690
enter 689
heater 689
George 689
father 689
yrs 689
Hakka 689
Danny 689
ur@@ 688
individual 688
Stephanie 687
jam 687
obsessed 687
chowder 687
cravings 687
ea@@ 686
funky 686
BYOB 685
elegant 685
ripped 685
grabbed 685
tout 685
calzone 685
fool 684
clam 684
groceries 683
banh 682
saving 682
agreed 682
NC 682
friendly@@ 681
ideal 681
shift 681
earned 681
anyways 680
ka 680
vi@@ 680
initial 680
trail 680
.B@@ 679
and@@ 679
courses 678
quesadillas 678
moves 678
luckily 678
blood 677
jelly 677
chops 677
max 677
bisque 677
ee@@ 676
sta@@ 676
talent 676
western 676
vermicelli 676
ve@@ 675
confident 675
pre-@@ 674
day@@ 674
pao 674
lock 673
fills 673
ded 673
flatbread 673
ir@@ 672
pan@@ 672
kidding 671
um 671
greatly 671
ite 671
annoyed 671
professionals 670
dirt 670
tag 670
mornings 670
levels 669
na 668
introduced 668
complained 668
Chinatown 667
rotation 667
pistachio 667
2-3 667
to-go 666
scared 666
operated 666
steep 665
Inn 665
bitter 665
oo@@ 664
cod 664
male 664
signs 664
held 664
hood 662
lively 662
.P@@ 661
background 661
Depot 661
4th 661
ar 660
ly@@ 660
.Not 660
assist 659
calories 659
Jennifer 659
ding 659
sal@@ 658
steam 658
whim 658
pit 658
icing 658
wallet 658
downstairs 658
.There 657
warning 657
ideas 657
wished 657
Jay 656
cider 656
horchata 656
arrival 655
overwhelming 655
Car@@ 654
claim 654
professionally 654
promise 653
feta 653
.Good 653
project 653
ain 653
destination 652
satisfaction 651
pup 651
cleaners 651
under@@ 650
greeting 650
balanced 649
ceiling 649
trade 649
pretentious 648
memories 648
200 648
Frank 647
et@@ 647
ev@@ 647
seconds 647
Americano 647
river 647
ley 646
vision 646
homey 646
Andy 646
piercing 646
terribly 645
remodel 645
valet 645
cart 645
punch 644
heavenly 644
était 644
lacks 643
cater 643
European 643
brands 643
theirs 643
skeptical 643
exterior 643
bruschetta 642
t. 642
University 642
unbelievably 642
concern 641
Creek 641
comments 641
inedible 641
res 640
stir 640
minus 639
construction 639
success 639
ha 639
surely 639
dates 638
als 638
thus 638
acknowledged 638
appears 638
caught 637
PA 637
mechanics 637
canned 637
towels 637
Heather 637
congee 636
accommodated 636
confusing 636
iPad 636
boutique 636
he@@ 635
Tina 635
hired 635
ke 635
speaking 635
attitudes 634
baklava 634
pricier 633
ms 632
muffins 632
ff@@ 632
finger 632
laugh 632
mid 632
mis@@ 631
conditioning 631
fucking 631
ex@@ 631
overrated 631
.A 631
sur 631
gal 630
ni@@ 630
interest 630
raised 629
bass 629
fed 628
fridge 628
Johns 628
olives 628
inch 628
2016 628
highest 627
BS 627
worried 626
.D@@ 626
triple 626
Fridays 626
2017 625
burn 625
port 625
insane 625
ke@@ 624
previously 624
keys 624
food. 624
growing 624
IPA 623
starving 623
pressed 623
pics 622
Ca@@ 622
warned 621
Canadian 621
pl@@ 621
ling 621
ad 621
sh 621
remembers 620
letting 620
Ray 620
peu 620
vraiment 620
pound 620
Markham 619
farm 619
preferred 619
attached 619
news 619
work@@ 618
ph@@ 618
der@@ 618
boss 618
remove 618
Tiffany 618
disorganized 618
pastas 617
form 617
path 617
it. 617
obvious 617
spoiled 617
chatting 616
ability 616
Amanda 616
biscuit 616
An@@ 616
urgent 616
factory 616
Bar@@ 616
tail 616
treasure 616
engaging 615
heck 615
ally 615
ahi 615
holes 615
whiskey 614
shady 614
vs 614
es. 614
vinegar 614
pickle 614
alterations 614
！ 613
laughing 613
customize 613
movers 613
spiced 612
sha@@ 612
fi@@ 612
Thanksgiving 612
Andrew 612
bulgogi 612
Nevada 611
popped 611
ster 611
Jose 611
chic 610
Great 610
pint 610
handed 610
po 610
built 609
place. 609
tries 609
manage 609
hike 609
champagne 609
grade 609
bourbon 608
onto 608
underwhelming 608
De@@ 608
bl@@ 608
d-@@ 607
Nicole 607
tri@@ 607
comparison 607
flies 607
flawless 606
incompetent 606
begin 606
bottled 606
buffets 605
record 605
blew 605
facials 605
leak 604
holidays 603
pig 602
adds 602
ah 602
condiments 602
Katie 602
trucks 602
hook 601
grandma 601
clientele 601
complaining 601
za 601
storage 601
eater 600
arrangement 600
Angel 600
bothered 599
newly 599
painful 599
pupusas 599
friendliness 598
reviewers 598
tr@@ 597
.Thanks 597
clean@@ 597
til 597
cole 597
flying 596
branch 596
10pm 596
Maria 596
sy 595
decorations 595
bummer 595
heads 595
bath 595
Del 595
junk 594
screwed 594
macarons 594
meticulous 593
hockey 593
report 593
19 592
involved 592
rep 592
cats 592
manger 592
advise 591
hint 590
service. 590
edge 590
yr 589
judge 589
In@@ 589
dy 589
Roberto 589
SNS 589
familiar 589
oyster 588
sketchy 588
gracious 588
closes 588
whatsoever 588
mon@@ 588
shoulder 588
.C@@ 588
ship 588
listening 588
falls 587
opens 587
laptop 587
apology 587
Tavern 587
delicious@@ 587
ER 586
ses 586
continues 586
ch 586
sunny 586
ze 586
print 585
samosas 585
cal@@ 585
performance 585
allergies 584
macaroons 584
BMW 584
MSG 583
Bo@@ 583
prescription 583
hall 582
fight 582
dressed 582
sunset 582
rec@@ 582
acrylic 582
puppies 581
Eve 581
glazed 581
select 580
squid 580
gate 580
meatloaf 580
tourist 580
smoothly 579
tequila 579
waxed 579
piping 579
renovated 579
wheel 578
amazing@@ 578
inventory 577
lousy 577
Oreo 577
groomed 577
ter@@ 577
character 576
dump 576
handful 576
comedy 576
hearing 576
est@@ 575
breaded 575
cent 575
gr@@ 575
mahi 575
Swiss 575
performed 575
squeezed 575
exception 575
theaters 575
nurses 574
volume 574
ping 574
9pm 574
related 574
nurse 573
nope 573
native 573
mignon 573
unpleasant 573
wearing 572
app@@ 572
vacuum 572
2015 571
unorganized 571
I. 571
etc. 571
Melissa 571
refuse 570
service@@ 570
frame 570
merchandise 570
Taylor 570
Amber 570
tells 570
cafeteria 569
extraordinary 569
present 569
basket 569
ok@@ 569
ment 568
appropriate 567
breeze 567
Re@@ 567
nut 567
mar@@ 567
tandoori 567
updating 567
zing 567
reach 566
eager 566
practically 566
fails 565
buddy 565
loose 565
curries 565
du@@ 565
.Their 565
doesnt 564
lu@@ 564
washing 564
dosa 564
shitty 563
here.@@ 563
star@@ 563
swear 563
reception 562
eatery 562
attractive 562
ultimate 562
ghetto 562
pecan 561
chick 561
lunches 561
watermelon 561
tissue 561
occasionally 561
humor 561
um@@ 559
happily 559
ki 559
paired 559
carrots 559
required 558
acknowledge 558
metro 558
marinara 558
operation 558
lame 557
chi@@ 557
ée 557
unreal 556
cooler 556
beet 556
heated 556
coworker 556
Ford 556
belle 555
explains 555
Persian 555
Glendale 555
unusual 554
99 554
ignore 554
cell 554
April 553
clue 553
Diego 553
.You 552
beard 552
tropical 552
damaged 550
throwing 550
Yonge 550
nowhere 550
Boston 549
baseball 549
grown 549
scary 549
artichoke 548
brewed 548
pathetic 548
leather 548
seven 548
recipe 548
falling 548
gloves 548
hospitable 548
Jenny 548
resturant 547
shirt 547
supreme 547
here. 547
disrespectful 547
boat 547
v 547
cancelled 547
blended 547
d. 546
halibut 546
steal 546
ratings 546
pretzels 545
Champaign 545
newer 545
endless 545
quinoa 544
skewers 544
és 544
honesty 544
continued 543
squash 543
buttery 543
tub 543
spare 543
drunken 543
effective 542
y.@@ 542
upgraded 542
afford 542
Papa 542
dipped 542
thoughtful 541
ru@@ 541
shade 541
courtesy 541
nose 541
ear 541
routine 540
sells 540
smash 540
7pm 540
latest 540
brakes 540
Toyota 540
menudo 539
enjoys 539
personnel 538
decoration 538
ew 537
Patrick 537
reccomend 537
choosing 537
attempt 537
ours 536
resolved 536
FYI 536
switched 536
Ethiopian 536
electric 535
Crystal 535
crowds 535
5pm 535
ss 534
Food 534
Laura 534
unable 534
br@@ 534
punctual 534
zoo 534
che@@ 534
packages 533
apologized 533
starter 533
trivia 533
lane 533
tres 533
becoming 533
dumpling 532
ol@@ 532
outrageous 532
associate 532
KFC 532
compassionate 531
focused 531
pp@@ 531
fin@@ 531
painted 531
.com 531
conference 531
Rd 531
Rob 531
Saturdays 530
Sonic 530
marinated 530
ance 530
Jeep 530
stunning 530
towel 530
energetic 530
slower 529
Greg 529
Carolina 529
score 529
ita 529
directly 528
insanely 528
bake 528
pools 528
Trader 528
.Also 527
appealing 527
300 527
acted 527
ff 527
bird 527
accessible 527
brothers 527
chocolates 527
hop 526
wi-fi 526
55 526
outlets 526
rides 526
reserved 525
action 525
backyard 525
smokey 525
sweetness 525
Peter 525
.But 525
activities 524
catered 524
gentlemen 524
Turkish 524
tank 523
apologize 523
oatmeal 523
awsome 522
gluten-free 522
melts 522
dig 522
shi@@ 522
cornbread 522
raise 521
booze 521
understood 520
husbands 520
exquisite 520
Cobb 520
wrote 520
X@@ 519
frites 519
surprising 519
a-@@ 519
hygienist 519
dryer 519
tu@@ 519
outlet 519
outdated 519
houses 519
blocks 518
whipped 518
stepped 518
2.5 518
Caribbean 518
frames 518
flights 517
overwhelmed 517
rubbery 517
scrumptious 517
knock 517
duty 516
kindness 516
hopes 516
nuggets 516
mimosas 516
jo@@ 516
fuck 516
petit 515
brow 515
Honda 515
halo 515
crack 515
can@@ 514
6pm 514
asparagus 514
elle 514
Smith 514
tall 514
appeared 514
unexpected 514
angry 513
cho@@ 513
whoever 513
attend 513
E 513
plans 513
Rachel 513
trainers 513
res@@ 512
alley 512
sexy 512
impress 512
gh@@ 512
incorrect 512
national 512
Linda 512
flavor@@ 511
shelf 511
couch 511
according 511
ker 511
outcome 510
nightmare 510
grow 510
brick 510
bug 510
2014 509
braised 509
executed 509
curly 509
tools 509
twenty 509
tion 509
generic 509
degrees 509
soooooo 509
arm 508
meant 508
ser@@ 508
souvlaki 508
don@@ 508
assisted 507
audience 507
happening 506
Jeremy 506
ratio 506
epic 505
firm 505
unfortunate 505
skimpy 505
restaurant@@ 504
breadsticks 504
piano 504
'y 504
pic 503
foodie 503
Royal 503
carte 503
bao 503
waits 502
human 502
gs 502
pump 502
gear 502
.F@@ 501
fo@@ 501
hamburgers 501
unbeatable 501
quarter 501
， 501
tt@@ 500
ASU 500
model 500
jerky 500
dresses 500
Rick 500
churros 500
wh@@ 499
randomly 499
loss 499
satay 499
Kyle 499
sans 498
3-4 498
Q 498
ic 498
page 497
remind 497
pickled 496
girlfriends 496
Dutch 496
down@@ 496
8pm 496
ler 496
sed 495
transaction 495
themed 495
Loco 495
brilliant 494
supper 494
mes 494
peanuts 494
fe@@ 493
microwaved 493
S 493
0@@ 493
jalapeno 493
forgotten 493
thrown 493
kabobs 493
cashew 493
language 493
.A@@ 492
upper 492
expertise 492
diagnosed 492
ll 492
Mondays 492
fits 491
steps 491
silverware 491
maki 491
ft 490
hesitant 490
skimp 490
fellow 490
1.5 490
sodas 490
lunchtime 490
endroit 490
paperwork 489
bargain 489
23 489
Service 489
license 489
ls 489
varied 489
ay 489
badly 489
speaks 489
compliment 489
chimichanga 489
Sean 489
28 488
Bravo 488
freezer 488
handling 488
lanes 488
seaweed 488
Kensington 488
stains 487
outs 487
mmmm 487
locks 487
friendlier 487
ity 487
Le@@ 487
tor@@ 486
gladly 486
utensils 486
ver 486
code 486
mmm 486
songs 486
Eddie 486
Larry 486
forced 485
ped 485
isnt 485
Richard 485
cross 485
coolest 485
inspired 485
ban@@ 485
evenings 484
décor 484
Ken 484
proud 484
checks 484
therapists 484
again@@ 484
rustic 483
mistakes 483
order@@ 483
Mo@@ 483
ies 483
DMV 483
.W@@ 482
luke 482
Sky 482
。 482
surrounding 482
shed 482
expectation 482
bibimbap 482
replacing 481
recipes 481
e- 481
guarantee 481
nonetheless 481
contract 480
ut@@ 480
Benny 480
supply 480
educated 479
indeed 479
ner 479
Rio 479
2018 479
Mi@@ 478
tinted 478
written 478
fri@@ 478
lifetime 478
.Highly 478
lesson 478
refilled 478
wontons 478
Kong 477
direction 477
stops 477
plats 477
puffs 477
Wisconsin 477
cones 476
Ra@@ 476
pays 476
sk@@ 476
shipping 476
We 475
well-@@ 475
bits 475
breakfasts 475
calzones 475
deliciousness 475
stingy 475
zone 475
tray 475
Taiwanese 474
pr@@ 474
Cindy 474
advertise 474
headed 474
exchange 474
cardboard 474
.H@@ 474
Jerry 474
gra@@ 474
tion@@ 474
nom 474
supermarket 474
voice 473
we@@ 473
shoot 473
couches 473
visitors 473
Rangoon 473
reserve 473
flaky 473
por@@ 472
neighbors 472
comforting 472
ever@@ 472
purchases 472
approach 472
groomers 472
coat 472
grounds 472
shaped 472
fade 472
June 471
sweetheart 471
kebab 471
tasteful 471
ki@@ 471
boiled 470
basketball 470
GM 470
finest 470
verde 470
flour 470
grape 470
allows 470
lasts 470
former 469
miserable 469
great. 469
Hong 468
bon@@ 468
Joey 468
tater 468
ments 468
Japan 468
ger 467
bday 467
weekdays 467
slight 467
IMO 467
Li@@ 467
sink 467
dedicated 467
singing 467
Scarborough 467
Ann 467
fur 467
priority 466
26 466
ils 466
Francisco 466
ul@@ 466
Anna 466
opted 465
loyalty 465
torta 465
brownies 465
halal 465
laughed 465
11@@ 465
Paris 465
explore 465
adore 464
urban 464
rub 463
bones 463
appearance 463
receiving 463
bee 463
ky 463
google 463
County 462
deck 462
men@@ 462
favourites 462
ci@@ 461
colored 461
dope 461
bs 461
ink 460
rescue 460
inter@@ 460
dropping 460
bedroom 460
stickers 460
cor@@ 459
wasting 459
4.5 459
array 459
inattentive 458
suite 458
laundry 458
acrylics 458
Megan 458
trop 458
conversations 458
celebration 457
explanation 457
hat 457
retail 457
butt 456
competitors 456
pear 456
allergy 456
pinch 456
ir 456
purple 456
shes 455
ard 455
froyo 455
smh 455
PS 455
bananas 455
attending 455
sirloin 455
au@@ 454
crafted 454
cra@@ 454
Angeles 454
cannoli 454
Julie 454
culture 454
Sha@@ 453
aged 453
.L@@ 453
fork 453
walks 453
des@@ 453
Jackie 453
clams 453
pico 453
brussel 453
.Would 453
stations 452
solution 452
1.@@ 452
handmade 452
cher 452
dispensary 452
scones 452
pampered 451
theres 451
20@@ 451
es.@@ 451
martinis 451
renovation 451
ant@@ 451
safety 451
you@@ 451
integrity 451
planned 450
peas 450
cutest 450
Di@@ 450
qu 450
ants 450
exotic 450
loaf 450
draw 449
scenery 449
feature 449
poker 449
27 449
den 449
vendors 449
ou 449
quicker 448
sending 448
disaster 448
festival 448
labor 447
yelling 447
ol 447
Su@@ 447
wait@@ 447
constant 447
ven@@ 447
grey 447
owns 446
^ 446
Ed 446
500 446
Emily 446
2-@@ 446
quiche 446
65 445
plumber 445
tidy 445
chances 445
Montréal 445
lentil 445
Jamie 445
Jen 444
fr@@ 444
picnic 444
wi@@ 444
press 444
downfall 444
30@@ 444
Aaron 443
Thomas 443
e.I 443
rudest 443
.Overall 443
Outback 443
terminal 443
Americanized 443
zz@@ 443
15@@ 443
features 443
retro 443
sundae 443
sight 442
yelpers 442
join 442
peace 442
reached 442
washes 441
spin 441
Sal@@ 441
Jordan 441
plays 441
Jamaican 441
plantains 441
hesitation 440
sur@@ 440
timer 440
sand 440
Robin 440
bottomless 440
beside 440
cons 440
off@@ 440
cha 439
co-workers 439
rooftop 439
Camelback 439
learning 439
jasmine 439
locksmith 439
establishments 438
diners 438
worn 438
ery 438
unnecessary 438
fla@@ 437
bud 437
boo@@ 437
bridal 437
pin@@ 437
ATM 437
blowing 437
jump 436
freeway 436
whip 436
Cesar 435
tow 435
No@@ 435
frys 435
Holly 435
penne 434
Craig 434
gras 434
addictive 434
patron 434
therapy 434
enthusiastic 434
horribly 433
breath 433
Ta@@ 433
eventually 432
billing 432
upfront 432
attendant 432
Brie 432
teachers 431
timing 431
comida 431
India 431
And 431
fajita 431
farmers 431
trails 430
married 430
fudge 430
meaning 430
2.50 430
vets 430
fresh@@ 430
sausages 430
ill@@ 429
wasabi 429
ending 429
Brittany 429
rules 429
emails 428
grace 428
accidentally 428
ingly 428
location@@ 428
aussi 428
suits 428
toddler 428
ful 427
sensitive 427
ess 427
eaters 427
flow 427
shellac 427
communicate 426
ig@@ 426
Cave 426
ary 426
her@@ 426
bulk 426
Hannah 426
Lakewood 426
Gary 426
initially 425
direct 425
Danielle 425
cranberry 425
d.@@ 425
flooring 425
caprese 424
ian 424
meetings 424
sounded 423
tremendous 423
plane 423
song 423
matched 423
processed 423
ba 423
dependable 423
butcher 422
tartare 422
hoped 422
lin@@ 422
ano 422
uneven 421
30am 421
hence 421
quotes 421
battered 421
fiance 421
senior 421
Facebook 421
Keg 421
Z 421
HK 420
sampled 420
aw@@ 420
Canyon 419
cousin 419
oasis 419
iron 419
aka 418
procedures 418
blows 418
arrangements 418
Carmel 418
hand@@ 418
benefit 418
cre@@ 418
swimming 418
ju@@ 417
breading 417
amongst 417
stones 417
quit 417
af@@ 417
addicting 417
vast 417
sourdough 417
plant 417
skill 416
dé@@ 416
fun@@ 416
factor 416
stressful 416
March 415
12@@ 415
arriving 415
rear 415
extended 414
hazelnut 414
died 414
Jo@@ 414
thankfully 414
ves 414
pedis 414
.M@@ 413
era 413
tapioca 413
.G@@ 413
smelling 413
thinks 413
substitute 413
eat@@ 413
bear 413
risk 413
Tommy 413
Valentine 412
fastest 412
fishy 412
T 412
hometown 412
ong 411
Christian 411
dissatisfied 411
tal@@ 411
hangover 411
lukewarm 411
instantly 411
Tyler 410
.No 410
top-notch 410
lied 410
Mama 410
vegans 410
convention 410
vo@@ 410
finds 410
lowest 410
Carlos 410
feedback 409
nailed 409
scale 409
http 409
hotdog 409
shopped 409
trio 409
loo@@ 409
sandwhich 408
dime 408
preparation 408
Union 408
boarding 408
library 408
horrendous 408
Randy 408
bored 407
pissed 407
bucket 407
pizzeria 407
agent 407
chi 407
skillet 407
3pm 407
Tracy 406
blackened 406
doc 406
op@@ 406
dust 406
prep 406
hoagie 406
soap 406
Pa@@ 406
Ron 405
entry 405
zed 405
metal 405
hiring 405
largest 405
annual 405
leaf 405
Nissan 405
considerate 404
herself 404
hated 404
dr@@ 404
backed 404
greater 404
containers 404
hotdogs 404
Man@@ 403
Margherita 403
ko 403
Bo 403
technology 403
Portuguese 403
ai 403
combined 403
1.50 403
eg@@ 402
ingredient 402
Blvd 402
inconvenience 402
couldnt 402
liquid 402
dissapointed 402
grande 402
sts 401
silver 401
breaks 401
ino 401
area@@ 401
Brussels 401
chipped 401
nourriture 401
dumb 401
tends 401
Steven 401
che 401
carts 401
Audi 401
lip 400
Marsala 400
ed. 400
10-15 400
sorbet 400
rye 400
dos 400
doughnut 400
papaya 400
y- 399
beaten 399
bummed 399
complicated 399
sin 398
wipe 398
Har@@ 398
definetly 398
asks 398
home@@ 398
my@@ 398
choix 398
Chuck 397
Jesus 397
menu@@ 397
It 397
sl@@ 397
electrical 397
tie 397
pups 397
soccer 396
ss@@ 396
ren@@ 396
deliciously 396
150 396
pla@@ 396
reheated 396
pops 396
scrambled 396
finance 396
jalapeños 396
edamame 395
water@@ 395
innovative 395
race 395
bills 394
snob 394
tower 394
culinary 394
props 394
gaming 394
shelves 394
lift 394
pierced 394
night@@ 394
Halloween 394
Peruvian 394
Jamba 394
rum 393
purpose 393
drip 393
ay@@ 393
sting 393
lavender 393
tly 393
pregnant 393
instructions 393
scallop 393
entertained 393
depends 393
delighted 393
schnitzel 393
dam 392
immaculate 392
smoky 392
bur@@ 392
wondering 392
Palace 392
detailing 392
August 392
4pm 392
shampoo 391
meaty 391
sporting 391
My 391
dancers 391
corrected 391
ber 390
Avenue 390
humble 390
D 390
renting 390
mer 390
brake 390
guaranteed 390
Elvis 390
ap@@ 390
frustrated 389
ricotta 389
ugly 389
assume 389
surprises 389
luxury 389
compares 389
charcuterie 388
messages 388
trainer 388
oxtail 388
ye@@ 388
dentists 387
seared 387
Con@@ 387
ow@@ 387
interactive 387
considered 387
Bu@@ 386
uc@@ 386
fooled 386
pointed 386
precise 386
walk-in 386
chew 385
fitting 385
50@@ 385
organization 385
Jesse 385
instant 385
Rocky 385
activity 385
pocket 385
q@@ 385
coco 385
bye 385
Carl 385
industrial 384
5th 384
calming 384
Nancy 384
shine 384
skinny 384
workmanship 384
expired 384
baba 384
Fremont 384
prosciutto 383
Chick-fil-A 383
perfectionist 383
our@@ 383
finishing 383
alignment 383
.And 383
hundreds 383
pitcher 383
are@@ 382
gre@@ 382
resolve 382
e.The 382
carefully 382
grabbing 382
washer 382
best@@ 382
Charles 382
Ruben 382
socks 382
acts 382
Ka@@ 382
En@@ 382
entered 381
addressed 381
terrace 381
ole 381
delectable 381
mash 381
advertising 381
Wok 381
2013 381
extreme 380
drain 380
monster 380
sport 380
greets 380
Charlie 380
ous@@ 380
Po@@ 380
cro@@ 380
earl 380
in-@@ 379
Dentistry 379
research 379
preference 379
jar 379
Shack 379
players 379
over-@@ 379
pleasing 379
serv@@ 379
studying 379
mor@@ 379
buyer 379
Ti@@ 378
mole 378
majority 378
ob@@ 378
awesome@@ 378
stylish 378
northern 378
ties 378
lease 378
ty@@ 378
Wednesdays 377
basement 377
described 377
Good 377
fab 377
alway 377
ently 377
sip 377
meal@@ 377
darts 377
kicked 377
ears 377
sub@@ 377
overcharged 377
peel 376
remarkable 376
ere 376
Bobby 376
ick@@ 376
Wei 376
hunt 376
wheels 376
paella 376
records 375
crown 375
ali@@ 375
screaming 375
check-in 375
scoops 375
dang 375
Pei 375
breaking 375
born 375
taxi 375
icecream 375
springs 375
lab 374
extras 374
ator 374
lunch@@ 374
11am 374
pe 374
qualité 374
5.00 374
Botox 374
Tammy 374
Barrel 373
Bella 373
fuss 373
with@@ 373
creating 373
meets 373
comics 373
stories 373
Doug 373
tradition 372
rushing 372
ble 372
layer 372
racist 372
loads 372
winning 372
Centre 372
Shane 372
entering 371
visit@@ 371
Instagram 371
They 371
af 371
29 371
.Nice 371
Elite 371
ada 371
tes 371
Lebanese 371
mos 370
shortly 370
place@@ 370
rain 370
childhood 370
recall 370
relief 370
boots 370
confidence 369
turning 369
ach@@ 369
tea@@ 369
toe 369
encourage 369
fritters 369
turf 369
special@@ 369
sanitary 369
slush 369
core 369
15-20 368
bison 368
char 368
foam 368
norm 368
cactus 368
Bloor 368
joined 368
Mon@@ 368
runny 368
Uncle 368
ry 367
ster@@ 367
favs 367
magical 367
fireplace 367
swing 367
connected 367
panang 367
arugula 367
piercings 367
homeless 367
doughy 367
Kent 367
dying 366
La@@ 366
nacho 366
sm@@ 366
commercial 366
tions 366
Aloha 366
enormous 366
tarts 365
therefore 365
upsell 365
Bros 365
squeeze 365
independent 365
cr@@ 365
Cantonese 365
toy 365
son@@ 365
ines 364
marks 364
loan 364
trimmed 364
cast 364
ning 364
clueless 364
ny 364
gyoza 364
Pete 364
excellent@@ 363
Akron 363
guns 363
ically 363
camera 363
USA 362
Nikki 362
engine 362
L 362
accomodating 362
unpretentious 362
eel 362
col@@ 362
ing.@@ 362
Concord 362
Amazon 362
entirely 361
dish@@ 361
hosts 361
Ahwatukee 361
tossed 361
unhelpful 361
colorful 361
AJ 361
every@@ 360
warmer 360
Ri@@ 360
streets 360
t.@@ 360
.All 360
omelettes 360
ak@@ 360
tar@@ 360
bare 360
appear 359
confirm 359
kin@@ 359
somebody 359
clerk 359
samosa 359
gin 359
fl@@ 359
........ 359
sho@@ 359
desperate 359
O 359
Walgreens 359
raved 358
char@@ 358
shy 358
32 358
Baja 358
false 358
updates 358
RV 358
matters 358
comic 358
accepted 358
poached 357
Mu@@ 357
driven 357
Christina 357
packaged 357
Na@@ 357
belt 357
ence 357
lube 357
sessions 356
condescending 356
lackluster 356
adventure 356
ick 356
Mr 356
rubber 356
spaces 356
drawback 356
brûlée 356
Flamingo 356
gar@@ 356
herbs 355
Brad 355
lighter 355
Ace 355
offices 355
maintain 355
filter 355
smallest 355
ent@@ 355
11pm 355
rotten 354
hal@@ 354
ther 354
idk 354
playground 354
obnoxious 354
taxes 354
treating 354
shrimps 354
Vi@@ 353
ni 353
artwork 353
killed 353
balsamic 353
carb 353
appliance 353
3.@@ 353
significantly 353
death 353
trusted 353
sub-par 353
permanent 353
ep@@ 352
rocked 352
Gu@@ 352
tartar 352
ang 352
headache 352
slowly 352
technique 352
ble@@ 352
ton@@ 352
To@@ 352
cosy 352
airline 352
genius 352
Lu@@ 352
Latin 352
ars 352
paste 351
police 351
delivering 351
Mex 351
successful 351
Caesars 351
source 351
designer 350
shells 350
consultation 350
Lori 350
Q@@ 350
price.@@ 350
cou@@ 350
length 349
button 349
dynamite 349
officially 349
Cor@@ 349
9.99 349
cracker 349
buzz 349
Brooklyn 349
selection@@ 348
celebrated 348
poured 348
ered 348
cur@@ 348
moms 348
7th 348
Harkins 348
av@@ 348
occasional 347
renovations 347
route 347
degree 347
gri@@ 347
memory 347
discover 347
Cha@@ 347
Shannon 347
unassuming 347
fresher 347
riding 347
disgusted 347
dec@@ 347
arrives 347
kalbi 347
'all 346
scrub 346
ell@@ 346
hitting 346
tin 346
Chase 346
---@@ 346
physical 345
Lauren 345
cow 345
adventurous 345
Hilton 345
ged 345
tourists 345
ca 345
Pro@@ 345
projects 345
rotating 344
opposite 344
toujours 344
Sicilian 344
refrigerator 344
tummy 344
tinting 344
ned 344
referring 344
.Staff 344
Firehouse 344
dominos 344
gems 343
gers 343
advised 343
Thursdays 343
.N@@ 343
sorts 343
dreams 343
status 343
Ru@@ 343
tra@@ 342
ens 342
har@@ 342
va@@ 342
tortas 342
bull 342
thier 342
estimated 342
blinds 342
October 341
of@@ 341
installing 341
wouldnt 341
niece 341
expand 340
3-@@ 340
Krispy 340
immediate 340
Peoria 340
kes 340
même 340
apologetic 340
Qu@@ 339
tone 339
appetizing 339
lies 339
ations 339
delay 338
aff@@ 338
00@@ 338
tangy 338
washroom 338
terrasse 338
C 338
Sa@@ 338
Togo 338
arena 338
Kathy 337
huevos 337
lox 337
basics 337
parfait 337
airy 336
bouquet 336
boards 336
lb 336
thx 336
Robertos 336
bra@@ 336
tos 336
admission 336
lean 336
2pm 336
guard 336
platters 335
mmmmm 335
.Don 335
solved 335
1000 335
Jake 335
barbacoa 335
sharp 335
colleagues 335
es- 335
.E@@ 335
ruin 335
fillings 335
drive-through 334
holding 334
Seattle 334
arrogant 334
war@@ 334
advisor 334
lead 334
Enterprise 334
parked 334
ably 334
stairs 334
Applebee 334
havent 333
tin@@ 333
show@@ 333
blame 333
Mario 333
bel@@ 333
rolling 333
atleast 333
rainy 333
any@@ 333
Cox 333
reflexology 333
lightly 332
horse 332
solve 332
creations 332
R 332
alike 332
miracle 332
dept 332
vin 332
printing 332
Popeyes 332
desire 331
dri@@ 331
teenagers 331
international 331
MGM 331
sizzling 331
registers 331
Phil 331
interaction 330
18@@ 330
confirmed 330
2.@@ 330
Ba@@ 330
touched 330
cuticles 330
razor 330
den@@ 329
lay 329
limo 329
red@@ 329
tab 329
aspect 329
camp 329
emailed 329
lea@@ 329
hairstylist 329
gosh 329
cap 329
tte 329
wedge 329
Fi@@ 328
sticking 328
sto@@ 328
heartbeat 328
nature 328
ese 328
Be@@ 328
eight 328
guilty 328
Jon 328
Troy 328
exist 328
bachelorette 328
masseuse 328
Liz 328
foo 328
automotive 328
fest 328
altered 328
workouts 328
file 327
highway 327
pairing 327
better@@ 327
Mai 327
rea@@ 327
steer 327
arts 327
tee 327
teach 327
Venetian 327
sun@@ 327
recomend 327
caused 327
bi 327
Austin 327
luv 327
tunes 326
Hooters 326
shown 326
Very 326
marked 326
hum@@ 326
landscaping 326
discounted 326
lbs 326
medicine 325
reputation 325
els 325
relleno 325
knocked 325
refried 325
browse 325
fettuccine 325
jeans 325
asset 324
mojito 324
okra 324
taps 324
Burgh 324
Keith 324
hoagies 324
selected 324
wiped 324
granted 323
easiest 323
sweat 323
gals 323
trout 323
availability 323
grain 323
questionable 323
les@@ 323
cane 323
sparkling 323
chilly 323
gathering 323
overs 323
Szechuan 323
jokes 322
tic 322
zi@@ 322
washrooms 322
pat@@ 322
losing 322
fait 322
tricks 322
10am 322
.So 322
earn 322
5-@@ 322
Mimi 322
del@@ 321
yea 321
kin 321
palm 321
florist 321
decadent 321
shing 321
ala 321
Einstein 321
turnaround 321
petite 321
creativity 321
high@@ 321
ot 321
asleep 321
remodeling 321
meds 320
layers 320
feast 320
increase 320
radio 320
jumbo 320
apples 320
harder 320
ich 320
traveled 320
Singapore 320
repairing 320
hats 320
pierogies 319
sters 319
foie 319
www.@@ 319
ella 319
tricky 319
So@@ 319
super@@ 319
granola 319
waters 319
town@@ 319
watches 319
Da@@ 318
ering 318
hush 318
splash 318
TJ 318
warmed 318
engaged 318
styled 318
alcoholic 318
adjustment 318
pen@@ 318
spotty 318
wave 318
outing 318
.He 318
Luis 318
Juan 318
din@@ 317
ser 317
Ber@@ 317
provider 317
ely 317
though@@ 317
sisters 317
iti@@ 317
freezing 317
prices@@ 317
film 317
ns 317
Todd 317
Kia 317
knife 317
exhibits 317
Lexus 317
faves 316
hardware 316
tenderloin 316
2am 316
Florida 316
S. 316
edges 316
spirits 316
newest 316
bumper 316
lips 316
ten@@ 315
mousse 315
-up 315
carbonara 315
ise 315
temp 315
trick 315
.Love 315
longest 315
.Had 315
unsure 315
scotch 314
coach 314
good.The 314
Si@@ 314
surf 314
AAA 314
ville 314
4-5 314
Lynn 314
mod 314
Karen 314
ran@@ 313
yo@@ 313
starters 313
49 313
alive 313
moderate 313
dislike 313
délicieux 313
DD 313
Safeway 313
St@@ 313
Freddy 313
warehouse 312
dd@@ 312
placing 312
fan@@ 312
Courtney 312
dietary 312
flag 312
deciding 312
estate 312
ré@@ 312
Kenny 312
das 311
limit 311
sincere 311
cl@@ 311
101 311
hair@@ 311
condo 311
smothered 311
over-priced 311
shwarma 311
tune 311
delayed 311
mal 311
mochi 311
locker 311
exhibit 311
hiking 311
tongue 310
canal 310
freakin 310
popping 310
fourth 310
ying 310
Ki@@ 310
rotisserie 310
Pearl 310
li 310
cities 310
tw@@ 310
Angela 310
85 309
drinker 309
dense 309
cans 309
doggie 309
pressured 309
pairs 309
hour@@ 309
helpful@@ 309
float 309
Victoria 309
taught 309
cigarette 309
Manchurian 309
soaked 308
overdone 308
parks 308
Fort 308
Sahara 308
neighbor 308
personalized 308
] 308
audio 308
ire 308
dealers 308
Chelsea 308
perform 308
Gina 308
authenticity 308
ats 308
VW 308
Ho@@ 308
shi 308
ving 307
sch@@ 307
nigiri 307
spirit 307
aunt 307
argue 307
.Definitely 307
ry@@ 307
pile 307
Donna 307
sha 306
If 306
att@@ 306
practices 306
shooting 306
y.The 306
cardio 306
printed 306
sore 306
promotion 305
manners 305
qui@@ 305
amounts 305
In-N-Out 305
percent 305
ara 305
kiddos 305
sc@@ 304
drank 304
reply 304
grumpy 304
esp 304
.Only 304
mer@@ 304
ra 304
handy 304
unwind 304
sin@@ 304
win@@ 304
infused 304
maker 304
classics 304
drafts 304
beer@@ 303
hor@@ 303
Lo@@ 303
nu@@ 303
oc@@ 303
appeal 303
gambling 303
shank 303
thicker 303
ette 303
Danforth 303
SUV 303
rudely 303
Goodyear 303
exercise 303
motor 303
thousand 303
room@@ 303
baguette 303
Matthews 303
Susan 302
shall 302
ounce 302
ics 302
yep 302
ure 302
00pm 302
pri@@ 302
understandable 302
jukebox 302
succulent 302
Jr 302
raving 302
tostada 302
boo 301
eyelashes 301
4.@@ 301
2012 301
tre@@ 301
player 301
tasty@@ 301
signing 301
suites 301
salesperson 301
Nathan 301
CC 301
dine-in 301
tipped 301
outdoors 301
fil 301
chiropractor 301
Marie 300
overnight 300
Marriott 300
ultra 300
delicate 300
vindaloo 300
artificial 300
navigate 300
Hollywood 300
lemongrass 300
Belgian 300
intense 300
casinos 299
outgoing 299
beaucoup 299
Oscar 299
drew 299
mas 299
‍ 299
Par@@ 299
ero 298
ari@@ 298
slammed 298
conditioner 298
bit@@ 298
ware 298
ja 298
aggressive 298
customized 298
roach 298
yum@@ 298
gumbo 298
United 298
AMC 298
significant 298
threaded 298
una 297
rosemary 297
Easter 297
alternatives 297
gallery 297
Louis 297
potstickers 297
excuses 297
adjustments 296
Cons 296
ist 296
mule 296
wake 296
ore 296
rancheros 296
dare 296
chan@@ 296
spot@@ 296
error 296
arms 296
moderately 296
fortune 296
complementary 296
bad@@ 296
thing@@ 296
omelets 296
covers 296
Hu@@ 296
95 295
habanero 295
side@@ 295
supportive 295
fortunate 295
increased 295
fast@@ 295
bueno 295
tier 295
bo 295
mimosa 295
pushed 295
ce@@ 295
now@@ 295
Jiffy 295
Dennys 295
non@@ 294
pints 294
fuel 294
catching 294
ama@@ 294
.O@@ 294
someplace 294
Thailand 294
ming 294
El@@ 294
me. 294
expanded 294
deserved 294
bubbles 294
kers 293
more@@ 293
vibrant 293
assured 293
allergic 293
ça 293
dash 293
aroma 293
lychee 293
force 293
began 293
engagement 293
active 292
lugar 292
curious 292
pal@@ 292
Vegas@@ 292
lassi 292
ile 292
celebrating 292
description 292
week@@ 292
salad@@ 292
regards 292
historic 292
PF 292
P.S. 291
meat@@ 291
batch 291
gooey 291
Angie 291
connection 291
su 291
Orleans 291
--- 291
caffeine 291
grandmother 290
January 290
timers 290
dozens 290
appliances 290
comparing 290
mission 290
fois 290
Yorkville 290
equal 290
low@@ 290
hollandaise 290
forth 290
fondue 290
vinyl 290
Mandarin 290
guitar 290
brewing 289
Shawn 289
clo@@ 289
nite 289
pres@@ 289
ited 289
ther@@ 289
cleared 289
directions 289
heating 289
tzatziki 289
content 289
mm@@ 289
gyms 289
silly 289
trays 289
chicken@@ 289
Peking 289
ai@@ 289
Sonoran 289
ders 288
birds 288
hoo@@ 288
adjusted 288
techniques 288
yelled 288
ache 288
itas 288
muscles 288
bakeries 288
dangerous 288
customer@@ 288
farmer 288
pitas 288
san@@ 288
comme 288
December 288
leaking 287
Chi@@ 287
time. 287
ters 287
je@@ 287
JJ 287
justify 287
air@@ 287
You 287
busier 287
ena 287
creepy 287
scone 287
birthdays 287
secure 287
bouffe 287
ho 286
representative 286
portioned 286
ors 286
itt@@ 286
contemporary 286
thali 286
jacket 286
descent 286
ved 286
anc@@ 286
dingy 286
creams 286
spilled 286
sti@@ 286
certificate 286
semi 285
gie 285
Guinness 285
es.I 285
new@@ 285
talks 285
dripping 285
ously 285
nd 285
exit 285
term 285
Com@@ 285
Christine 285
tailor 285
reward 285
properties 285
teacher 285
towing 285
bahn 285
Brampton 285
pounds 284
fond 284
savoury 284
visitor 284
turnover 284
aux 284
Col@@ 284
pick-up 284
dips 284
climbing 284
review@@ 283
November 283
ear@@ 283
swim 283
Jacob 283
adjust 283
canceled 283
to-@@ 283
stack 283
year@@ 283
styling 283
sauna 283
Ross 283
pea 283
roo@@ 283
eyelash 282
Sammy 282
pur@@ 282
friend@@ 282
Manhattan 282
fil@@ 282
stiff 282
pin 282
mixture 282
expertly 282
Sun@@ 282
them@@ 282
shoulders 282
ont 282
units 282
PB 282
ata 282
shorter 282
store@@ 282
lessons 282
Joes 282
Sh@@ 281
Terry 281
Tao 281
drag 281
rentals 281
clearance 281
nice.@@ 281
surroundings 281
bons 281
F 281
burro 281
bothering 281
lar@@ 281
check@@ 281
coloring 281
lineup 281
food- 281
Zach 281
supervisor 280
Will 280
.Try 280
y.I 280
straightforward 280
dear 280
co-worker 280
pilot 280
Charleston 280
Collision 280
Manny 280
bedside 279
table@@ 279
convinced 279
lawn 279
crusted 279
Midwest 279
revisit 279
primary 279
Santa 279
reviewed 279
kinks 279
tan@@ 279
pushing 279
displayed 279
carries 279
bal@@ 279
apartments 279
sou@@ 278
burger@@ 278
quirky 278
i.e. 278
drenched 278
1-@@ 278
stole 278
fear 278
cable 278
antique 278
herb 278
drug 278
contacts 278
imagined 277
Mer@@ 277
lat@@ 277
responsible 277
ow 277
roomy 276
reclining 276
mount 276
Du@@ 276
pic@@ 276
proximity 276
.For 276
hundred 276
essentially 276
ro 276
numbers 276
Kar@@ 276
Kreme 276
thrift 276
Elizabeth 276
lol@@ 276
Do@@ 276
computers 276
iv 275
Travis 275
necessarily 275
whats 275
bun@@ 275
slide 275
polished 275
ash 275
bolognese 275
underwhelmed 275
ches 275
Richmond 275
hom@@ 275
reduced 275
open@@ 275
solo 275
tastier 275
servicio 275
Boulder 275
oils 275
posting 275
there.@@ 275
smelly 275
açaí 275
Shanghai 275
Ju@@ 275
ux 275
Erin 274
M. 274
solutions 274
mel@@ 274
ing.The 274
4-@@ 274
truth 274
useless 274
invited 274
returns 274
stout 274
bling 274
Natalie 274
ess@@ 274
stinks 274
displays 274
è@@ 274
drink@@ 274
hero 274
delicious. 274
kie 274
ka@@ 273
,000 273
stressed 273
ck 273
macchiato 273
splurge 273
Wal-Mart 273
.Everything 273
mal@@ 273
kindly 273
urgency 272
veg@@ 272
hates 272
wich 272
3.50 272
idiot 272
atrocious 272
bou@@ 272
fer@@ 272
Tai 272
remains 272
ici@@ 272
surrounded 272
Matthew 272
Sara 271
fruity 271
B. 271
far@@ 271
s--@@ 271
ner@@ 271
pong 271
kebabs 271
lava 271
1pm 271
5.@@ 271
healing 271
stamp 271
Zen 271
hue 271
servicing 271
execution 270
attempted 270
DC 270
plat@@ 270
burning 270
tast@@ 270
declined 270
youre 270
carried 270
preparing 270
purse 270
munchies 270
aisles 270
sta 270
Chang 270
that@@ 269
Mt 269
mellow 269
Bur@@ 269
ica 269
tails 269
citrus 269
good.I 269
sofa 269
para 269
here@@ 269
mold 269
cheat 269
ing.I 269
exploring 269
journey 269
suis 269
recommande 269
rad 269
coaches 269
saucy 269
seek 268
5.99 268
cases 268
skins 268
hub 268
rac@@ 268
pillows 268
tive 268
va 268
sugary 268
goo@@ 268
accompanied 268
9am 268
Vanessa 268
Russian 268
avons 268
sleeping 268
homes 268
CVS 268
Can@@ 268
Chad 268
September 267
soothing 267
Washington 267
ken 267
Martin 267
insisted 267
graduation 267
ging 267
pping 267
albeit 267
mothers 267
mirror 267
resist 267
cowboy 267
CLT 267
goto 267
mac@@ 267
dudes 267
gigantic 267
Bi@@ 267
improvements 266
Bryan 266
packs 266
ger@@ 266
ched 266
C. 266
cafes 266
seeking 266
nonsense 266
hella 266
pers 266
unimpressed 266
sympa 266
Billy 266
Devil 266
specialist 266
flew 266
volcano 266
agréable 266
liver 266
justice 266
rapide 266
tiger 266
chipping 265
fre@@ 265
PT 265
circle 265
amazing. 265
decade 265
Stromboli 265
veterans 265
trek 265
ect 265
nephew 265
efficiency 265
pitchers 265
Dundas 265
N 265
Bri@@ 265
venture 264
spam 264
progress 264
ham@@ 264
lying 264
zy 264
uncooked 264
Jones 264
rel@@ 264
mat@@ 264
decades 264
ut 264
accordingly 264
Ha@@ 264
blowout 264
able@@ 264
claimed 264
ment@@ 264
interact 264
Not 264
Erica 263
illa 263
ei@@ 263
material 263
comped 263
clips 263
vacuums 263
featured 263
mains 263
25@@ 263
Gar@@ 263
holds 263
rail 263
wedges 263
CLE 263
breweries 263
6.99 263
require 262
keeper 262
reviewer 262
mic 262
assorted 262
floral 262
iness 262
relaxation 262
Debbie 262
Au@@ 262
jewel 262
professional@@ 262
inventive 262
princess 262
yours 262
frankly 262
Mercedes 262
Tokyo 262
chilled 261
see@@ 261
k-@@ 261
bless 261
sophisticated 261
praise 261
anticipated 261
nan 261
hosted 261
gl@@ 261
from@@ 261
depth 261
boom 261
gripe 261
stretch 261
misleading 261
copy 261
Pepsi 261
frequented 261
Grille 261
elevator 261
Viet 261
Palms 261
Gre@@ 260
opposed 260
guessing 260
artistic 260
Kayla 260
ste@@ 260
performers 260
weights 260
behavior 260
Mills 260
pizza@@ 260
recognize 260
tom@@ 259
experts 259
wind 259
vary 259
deposit 259
overlooking 259
honored 259
financing 259
buddies 259
concerts 259
3x 259
rang 259
ji 259
concession 259
goals 259
ws 259
Miller 259
wor@@ 259
charred 258
Casey 258
seamless 258
dishonest 258
wan@@ 258
bold 258
searched 258
some@@ 258
5-star 258
priced@@ 258
leftover 258
buttermilk 258
patiently 258
400 258
bla@@ 258
UFC 257
dent 257
London 257
electronics 257
sourced 257
benefits 257
dull 257
web 257
p-@@ 257
foo@@ 257
7.99 257
sits 257
chiropractic 257
excellence 257
Porter 256
chil@@ 256
stolen 256
Fox 256
paninis 256
My@@ 256
coffee@@ 256
thirsty 256
sion 256
wicked 256
120 256
speaker 256
tastiest 256
cla@@ 256
compassion 256
dealerships 256
cin@@ 256
financial 256
nursery 256
precision 256
Ver@@ 256
ang@@ 255
hustle 255
micro 255
Ex@@ 255
masters 255
shipped 255
.I@@ 255
Y 255
claims 255
shabby 255
flan 255
Cody 255
ll@@ 255
pep 255
.One 255
Oakland 255
16@@ 254
complimented 254
contacting 254
110 254
Rita 254
architecture 254
tic@@ 254
ante 254
whom 254
satisfactory 254
ites 254
leur 254
job@@ 254
bow 254
candies 254
toward 254
gen@@ 254
savings 254
Leo 254
Petsmart 254
sheets 254
house@@ 253
palate 253
parmigiana 253
title 253
Cam@@ 253
ier 253
.- 253
fish@@ 253
Pi@@ 253
comp 253
hairs 253
beau 253
residents 252
Friendly 252
bro@@ 252
fillet 252
NV 252
laughs 252
sor@@ 252
nutrition 252
zo 252
sla@@ 252
Europe 252
seeds 252
injury 252
sincerely 252
balcony 252
gay 252
shattered 252
faith 252
Angus 252
appointed 252
nine 251
2x 251
ti 251
link 251
fryer 251
countless 251
.Just 251
cockroach 251
assez 251
friendly. 251
string 251
demand 251
été 251
heels 250
ung 250
slot 250
ani@@ 250
indulge 250
staples 250
ening 250
Arrowhead 250
idiots 250
1.00 250
baking 250
ail@@ 250
fin 250
zes 250
matching 250
antipasto 250
cry 250
conditions 250
mp@@ 249
fu 249
stu@@ 249
sp 249
tt 249
17@@ 249
proceeded 249
costumes 249
Moe 249
s.They 249
calorie 249
supplements 249
cordial 248
W 248
encouraging 248
understands 248
ey@@ 248
acting 248
severely 248
conscious 248
net 248
Joseph 248
half-@@ 248
Envy 248
ue 248
service- 248
pes 248
Mikes 248
person@@ 247
ini 247
embarrassed 247
aioli 247
Henry 247
'ambiance 247
pped 247
Ko@@ 247
36 247
caramelized 247
Hyundai 247
batteries 247
ashamed 246
pierogi 246
Ja@@ 246
versus 246
portion@@ 246
settled 246
amd 246
closet 246
This 246
denied 246
smashed 246
ja@@ 246
crawfish 246
valued 246
lite 246
kosher 246
faire 245
es.The 245
prob 245
poop 245
ga 245
confit 245
bait 245
fabric 245
experience.@@ 245
payed 245
.Our 245
videos 245
3am 245
jus 245
tilapia 245
ges 245
notes 245
kitty 245
Pat 245
8am 245
Andrea 245
presence 244
stuffy 244
courtyard 244
elderly 244
Swedish 244
Samantha 244
gratuity 244
media 244
Wed 244
2011 244
settle 244
tours 244
charts 244
braces 244
habit 244
ani 243
touches 243
cer@@ 243
rabbit 243
underrated 243
thirty 243
dinner@@ 243
ing- 243
Cho@@ 243
assisting 243
lamp 243
refreshed 243
device 243
disappeared 243
hunger 243
eu@@ 243
Nina 243
Lily 243
Ridge 243
ox 243
dressings 243
puff 243
mas@@ 243
brulee 243
impatient 242
Tu@@ 242
fortunately 242
aesthetic 242
wilted 242
lin 242
dic@@ 242
straw 242
fal@@ 242
bitch 242
chemical 242
berries 242
thee 242
Smashburger 242
reality 242
o-@@ 241
sooooooo 241
tournament 241
A1 241
showroom 241
hide 241
times@@ 241
hot@@ 241
coo@@ 241
い@@ 241
weed 241
packaging 241
bri@@ 241
underground 241
inches 240
10-@@ 240
sca@@ 240
nickel 240
kabab 240
shiny 240
'était 240
speakers 240
semi-@@ 240
quick@@ 240
bleu 240
scramble 240
get@@ 240
apologies 240
walk-ins 240
Pe@@ 240
yikes 240
cru@@ 240
naked 240
infection 239
additionally 239
Am@@ 239
materials 239
rule 239
gates 239
crushed 239
systems 239
bac@@ 239
hectic 239
excellente 239
str@@ 239
sunglasses 239
gardens 239
biz 239
aki 239
scalp 239
upside 239
Helen 239
ona 239
sions 239
Bobbie 239
Nate 239
worries 238
league 238
allowing 238
A-OK 238
fied 238
stroll 238
occupied 238
chapel 238
Kate 238
​ 238
.She 238
past@@ 238
pot@@ 238
roll@@ 237
chatted 237
dal 237
lan@@ 237
arranged 237
bb@@ 237
wooden 237
lim@@ 237
Definitely 237
Sal 237
sautéed 236
HH 236
solely 236
approachable 236
ros 236
doll 236
Ni@@ 236
wellness 236
hon@@ 236
century 236
comp@@ 236
upcoming 236
tans 236
rely 236
mead 236
pipe 236
sweet@@ 236
ales 235
hotter 235
overlooked 235
diarrhea 235
decor@@ 235
benches 235
peeps 235
certified 235
worthwhile 235
pen 235
dog@@ 235
picks 235
Grubhub 235
Dodge 235
4.99 235
crawl 235
pains 234
31 234
run@@ 234
mid-@@ 234
guided 234
well. 234
.What 234
vin@@ 234
institution 234
-style 234
redone 234
anxiety 234
aa@@ 234
magnificent 234
Asia 234
referral 234
glaze 234
spas 234
ado 234
automatically 234
hairdresser 234
pours 233
W. 233
gh 233
in-house 233
ach 233
malt 233
14@@ 233
pots 233
Me@@ 233
Vincent 233
passable 233
sted 233
churro 233
way@@ 233
UberEats 233
lon@@ 233
removing 233
Verizon 233
yell 233
Val@@ 233
gg@@ 233
Hudson 233
advanced 233
passes 233
Jonathan 233
ich@@ 232
ade 232
wherever 232
gamble 232
som@@ 232
pulling 232
sprinkles 232
Centennial 232
speciality 232
nos 232
Monte 232
Dawn 232
task 232
Smiths 232
Denver 232
Jane 232
decisions 232
pre-made 232
anna 231
ices 231
grapefruit 231
severe 231
lers 231
slimy 231
relationship 231
stars@@ 231
on-@@ 231
narrow 231
cat@@ 231
ical 231
Ali 231
too. 231
divey 231
venues 231
thy 231
sriracha 231
bag@@ 231
series 231
luggage 231
Heights 231
daycare 231
malls 231
solar 231
one@@ 230
signage 230
woke 230
Liberty 230
egg@@ 230
sampling 230
had@@ 230
compete 230
ome 230
excessive 230
sandwich@@ 230
tamale 230
Valentines 230
mush 230
yumm 230
oni@@ 230
sucker 230
teenage 230
overbearing 230
8.@@ 230
ck@@ 230
poppers 229
award 229
ell 229
overpowering 229
pomegranate 229
upgrades 229
perfect@@ 229
skipped 229
.However 229
ez 229
ces 229
7.@@ 229
Sch@@ 229
sympathique 229
provolone 229
Filibertos 229
Annie 228
outta 228
restrictions 228
slots 228
an-@@ 228
ple 228
mag@@ 228
need@@ 228
production 228
shar@@ 228
sweeter 228
was@@ 228
itos 228
talkative 228
Mart 228
France 228
7am 228
PC 228
tostadas 228
communicated 227
canes 227
om 227
partial 227
cheeseburgers 227
fs 227
sections 227
bor@@ 227
bread@@ 227
concessions 227
naturally 227
brioche 227
weeknight 227
February 227
vers 227
Mc 227
thousands 226
6-@@ 226
overcharge 226
linguine 226
ened 226
cheesesteaks 226
lap 226
mes@@ 226
sticker 226
But 226
ola 226
Bosa 226
2.00 226
stuffing 226
ico 226
boil 226
roaches 226
saver 226
parlor 226
wholesome 226
Colorado 226
Tucson 226
rim 226
tears 225
entrée 225
recommend@@ 225
VA 225
border 225
floating 225
Casa 225
marshmallow 225
prescriptions 224
killing 224
fro@@ 224
Lawrence 224
nie 224
handsome 224
,@@ 224
application 224
Mo 224
RE@@ 224
korma 224
48 224
encounter 224
spicier 224
voucher 224
storm 224
Huntersville 224
counting 223
33 223
staffing 223
Moscow 223
remain 223
viewing 223
attempts 223
chosen 223
ripoff 223
Cal@@ 223
formal 223
kit 223
mien 223
jambalaya 223
ste 223
sco@@ 223
good- 223
demeanor 223
fac@@ 223
Nordstrom 223
comeback 223
requesting 223
ventilation 223
ceasar 223
Ballantyne 223
kiosk 222
Bon@@ 222
yup 222
pond 222
coverage 222
seasons 222
diagnosis 222
busy@@ 222
Lyft 222
hopping 222
AT@@ 222
pairings 222
40@@ 222
differently 222
jungle 222
approximately 222
towed 222
markets 222
fra@@ 222
spider 222
forgetting 222
super-@@ 221
discuss 221
ac 221
heavily 221
ing-@@ 221
tor 221
reschedule 221
veteran 221
Del@@ 221
brag 221
money@@ 221
bingo 221
Cameron 221
approved 221
junior 221
carrying 221
Viva 221
yed 221
Victor 221
warmly 221
Fu@@ 221
int@@ 221
DQ 221
yummy@@ 220
tas 220
slim 220
mason 220
pay@@ 220
clock 220
horrid 220
ex 220
competitor 220
bullshit 220
sel@@ 220
Rubio 220
refunded 220
else@@ 220
.Best 220
stri@@ 220
limp 220
hashbrowns 220
fy 220
spit 220
scare 220
5-10 220
Ana 220
Mia 220
tonkatsu 220
Wynn 220
val@@ 219
tests 219
try@@ 219
chickens 219
witnessed 219
subtle 219
shock 219
Or@@ 219
215 219
dev@@ 219
perch 219
sparse 219
quartier 219
dose 219
stronger 219
A-@@ 219
appreciation 219
ー@@ 219
ien@@ 219
switching 219
capital 219
Sue 219
trap 219
bul@@ 219
baker 219
seed 219
Vancouver 219
essayer 219
lenses 219
deff 219
mortgage 219
Jo 219
Lowes 219
madness 218
Kobe 218
function 218
attorney 218
approached 218
experiencing 218
SW 218
10.00 218
Sephora 218
6.@@ 218
privacy 218
styrofoam 218
Rosati 218
puzzles 218
Ste@@ 218
pac@@ 218
accent 218
ric@@ 217
.R@@ 217
sole 217
teen 217
play@@ 217
apply 217
ly-@@ 217
Rudy 217
HD 217
los 217
mug 217
existent 217
dra@@ 217
Mor@@ 217
pakora 217
hearts 217
sen@@ 217
appreciative 217
cure 217
Bra@@ 217
nt 217
ocean 217
serene 217
concierge 217
crusty 217
transportation 217
etc@@ 217
tacky 217
suitable 217
ement 217
opener 217
30min 217
matches 217
messing 217
bouncers 217
-in 217
Dennis 217
individuals 216
rounds 216
mid@@ 216
ski 216
Ian 216
rangoons 216
mountains 216
mystery 216
bridge 216
colleague 216
Acura 216
slow@@ 216
corners 216
entre 216
linguini 216
royalty 216
musical 216
OJ 216
supposedly 216
addiction 216
vinaigrette 216
lifting 216
science 216
Lucy 216
break@@ 216
caters 216
motel 216
loop 216
exhaust 216
Korea 216
proof 216
Harris 215
NFL 215
reviewing 215
saag 215
Yorker 215
plan@@ 215
nuff 215
assuming 215
bin 215
creates 215
quand 215
ko@@ 215
passport 215
doubles 215
pris 215
intended 215
resident 215
ABC 215
Pam 215
id@@ 214
a.m. 214
busiest 214
yn 214
wth 214
long@@ 214
high-end 214
mix@@ 214
colour 214
concrete 214
repeatedly 214
platinum 214
muscle 214
[ 214
Arcadia 214
Squirrel 214
marvelous 214
30-@@ 214
Albertsons 214
blizzard 214
whites 213
Mat@@ 213
und 213
dimsum 213
Lowe 213
part@@ 213
2010 213
iceberg 213
Avondale 213
dies 213
reasonable@@ 213
iz@@ 213
acoustics 213
gi 213
vendor 213
gels 213
bles 213
ceilings 213
Pilates 213
awesome. 213
accommodations 213
Durango 213
patch 213
indoors 213
CPR 213
Hunan 213
Dr@@ 212
electronic 212
chunky 212
sey 212
gallo 212
Monica 212
flowing 212
roots 212
blessed 212
balayage 212
gallon 212
applied 212
blind 212
sufficient 212
door@@ 212
eateries 212
cancer 212
galore 212
on-time 212
takoyaki 212
com 212
spiciness 212
groom 212
Nice 212
.50 212
fo 212
carwash 212
Eagle 212
replied 211
raising 211
shabu 211
harsh 211
torn 211
inconvenient 211
stating 211
UNLV 211
appropriately 211
sunrise 211
companion 211
TLC 211
colada 211
right@@ 211
facing 211
flair 211
ghost 211
camper 211
Fiesta 211
fries@@ 210
attendants 210
showers 210
Elements 210
testing 210
......... 210
awesomeness 210
20-30 210
carpaccio 210
gray 210
biriyani 210
diagnose 210
seasonings 210
crying 210
one-@@ 210
head@@ 210
arri@@ 210
buildings 210
Anthem 210
tennis 210
racks 210
other@@ 210
existing 210
ater 210
photographer 210
pho@@ 210
motorcycle 210
sy@@ 209
stools 209
permanently 209
there@@ 209
indifferent 209
NJ 209
wer@@ 209
icy 209
za@@ 209
patronize 209
glow 209
flash 209
ques 209
scampi 209
p.m. 209
p.@@ 209
northwest 209
Mal@@ 209
han@@ 209
gy@@ 209
ation@@ 209
chemicals 209
soak 209
trailer 209
Dar@@ 209
cotton 209
position 208
bru@@ 208
war 208
Daddy 208
nevertheless 208
Love 208
free@@ 208
zer 208
fam 208
grandson 208
cucumbers 208
preferences 208
irritated 208
care@@ 208
sushis 208
legal 208
halfway 208
olds 208
Ontario 208
amaze 208
Gastonia 208
escargot 208
Brenda 208
cy@@ 208
charcoal 208
Diana 207
chunk 207
overcrowded 207
San@@ 207
filing 207
reps 207
poo@@ 207
s.We 207
shish 207
pol@@ 207
warn 207
gain 207
existed 207
Se@@ 207
Maryland 207
sprinkler 207
contre 207
ators 207
lion 207
medication 207
Stacy 207
Bruce 207
blues 206
bachelor 206
Sams 206
smo@@ 206
hipsters 206
ards 206
transfer 206
ali 206
mmmmmm 206
Dean 206
voicemail 206
aid 206
unsatisfied 206
ethnic 206
spic@@ 206
browsing 206
pubs 206
attraction 206
24@@ 206
connect 206
38 205
owe 205
barley 205
Dos 205
saves 205
cream@@ 205
yam 205
.That 205
bubbly 205
lined 205
skewer 205
decent@@ 205
OG 205
pale 205
Ty 205
dly 205
ord@@ 205
Ono 205
vs. 205
notre 205
cour@@ 205
brush 205
Johnson 205
devoured 204
oni 204
unsanitary 204
fields 204
bride 204
backs 204
dou@@ 204
stained 204
values 204
esthetician 204
interacted 204
chaotic 204
pero 204
avoiding 204
Denise 204
winterlicious 204
mass 204
registration 204
opt 204
Allen 204
Jet 204
sea@@ 204
9-@@ 204
ceremony 204
Barros 204
Captain 204
macaron 204
balloon 204
ised 203
micro@@ 203
fig 203
Jan 203
ice-cream 203
imported 203
tac@@ 203
uni 203
tha 203
A. 203
def@@ 203
touching 203
William 203
Chicken 203
back. 203
flavoring 203
lord 203
Pu@@ 203
Barro 203
repas 203
deliveries 203
truffles 203
speakeasy 203
por 202
ful@@ 202
hotpot 202
Shea 202
laws 202
lid 202
repeated 202
Nor@@ 202
dusty 202
summerlicious 202
staring 202
seat@@ 202
acc@@ 202
marketing 202
ore@@ 202
farther 202
Alan 202
.Never 202
getaway 202
trimming 202
Rueben 202
restored 201
Gorgonzola 201
piss 201
fast-food 201
there. 201
fer 201
airlines 201
Sher@@ 201
teller 201
.Prices 201
kiss 201
warming 201
tel 201
discussed 201
quantities 201
network 201
vaping 201
ately 201
Hispanic 201
sau@@ 201
crea@@ 201
wonderful@@ 201
inexperienced 201
ball@@ 201
reopened 200
tat@@ 200
noted 200
assistants 200
service.I 200
Cal 200
price@@ 200
responsibility 200
cap@@ 200
quest 200
inform 200
horseradish 200
fallen 200
brain 200
Derek 200
map 200
deal@@ 200
televisions 200
Go@@ 200
Tex-Mex 200
courts 200
shop@@ 200
whose 200
Lindsay 200
seemingly 199
od@@ 199
hole-in-the-wall 199
locate 199
temps 199
napkin 199
smokers 199
las 199
dge 199
tremendously 199
luxurious 199
fifteen 199
deli@@ 199
piled 199
bees 199
ities 199
250 199
it-@@ 199
personalities 199
depressing 199
apt 199
packing 199
chimichangas 199
cos 199
the-@@ 199
invest 199
cobbler 199
exceeds 199
commented 199
gos 199
teens 199
fighting 199
measure 198
domestic 198
monkey 198
wal@@ 198
gummy 198
fritter 198
ato 198
okay@@ 198
ace 198
Pal@@ 198
novelty 198
Ulta 198
ori 198
swa@@ 198
recieved 198
useful 198
.When 198
ées 198
ppers 198
wow@@ 198
carryout 198
virtually 198
tested 198
out. 198
celery 198
dishwasher 198
hardworking 198
nerve 197
it.The 197
coin 197
9.@@ 197
embarrassing 197
Michigan 197
agua 197
bel 197
9.00 197
WI 197
wins 197
filler 197
crawling 197
'endroit 197
cen@@ 197
42 197
frequenting 197
ama 197
toddlers 197
Rebecca 197
sheet 197
bounce 197
physician 196
recovery 196
sidewalk 196
sers 196
nostalgic 196
wowed 196
visible 196
teaching 196
West@@ 196
exceed 196
not@@ 196
sty 196
exp@@ 196
uni@@ 196
suspect 196
'mon 196
aspects 196
Hyatt 196
Tropicana 196
turtle 196
Bombay 196
educational 196
image 196
filed 195
8.99 195
sums 195
ultimately 195
-like 195
chaat 195
tiki 195
forgettable 195
int 195
waist 195
mechanical 195
goal 195
option@@ 195
sang 195
rat@@ 195
7.50 195
abundant 195
Jill 195
oo 195
exists 195
incorrectly 195
Bellagio 195
NoDa 195
hers 195
ami 195
er-@@ 195
by@@ 195
ère 195
flip 195
valuable 195
7-@@ 195
39 195
afterward 195
mm 195
arepas 195
sand@@ 194
slides 194
substantial 194
hyped 194
ney 194
Chevy 194
Just 194
yuk 194
all-you-can-eat 194
mixing 194
sever 194
Th@@ 194
.5 194
hostesses 194
spoken 194
Marketplace 194
Mari@@ 194
gy 194
oun@@ 194
favour 193
bing 193
much@@ 193
butternut 193
toffee 193
goodbye 193
Alyssa 193
agency 193
gum 193
becomes 193
sunshine 193
one.@@ 193
ranging 193
eu 193
stereo 193
encore 193
6th 193
tur@@ 193
letter 193
promotions 193
channel 193
Stephen 193
low-@@ 193
equivalent 193
Cadillac 193
stra@@ 193
tru@@ 193
Colombian 193
dosas 193
shutters 193
pierogis 193
improving 193
Culver 193
grout 193
no-@@ 192
aquarium 192
ela 192
biased 192
borderline 192
horrific 192
potatoe 192
price. 192
80s 192
Penn 192
tastings 192
causing 192
Gabriel 192
marginal 192
AS@@ 192
jumped 192
aller 192
X 192
films 192
3D 192
balloons 192
sanitation 192
confirmation 192
nitro 192
Roger 192
jalapenos 192
Ruby 191
flavoured 191
freeze 191
squ@@ 191
sauerkraut 191
Marco 191
ori@@ 191
happiness 191
swirl 191
Fri@@ 191
motivated 191
confusion 191
Sandy 191
staff. 191
Moroccan 191
downright 191
trend 191
Postmates 191
mugs 191
drama 191
cri@@ 191
strictly 191
boyfriends 191
faucet 191
empanada 191
lechon 191
Ted 191
definition 190
cleanings 190
achieve 190
Por@@ 190
Hol@@ 190
category 190
PGH 190
Had 190
beets 190
sprayed 190
steady 190
aisle 190
peeling 190
Ne@@ 190
dire 190
stand@@ 190
Pan@@ 190
consisted 190
unexpectedly 190
MTL 190
Star@@ 190
Cu@@ 190
cigarettes 190
avacado 190
yaki 190
Maggie 190
Sichuan 190
kid@@ 190
ciders 190
Bulwark 190
Theresa 189
Miami 189
good.@@ 189
.Go 189
plug 189
8-@@ 189
Dallas 189
plac@@ 189
remote 189
Jackson 189
doggy 189
Lilly 189
tang 189
wandering 189
asa@@ 189
ners 189
memorabilia 189
vent 189
glowing 189
24hrs 188
ä@@ 188
barbeque 188
caution 188
ses@@ 188
wee 188
lasting 188
unhealthy 188
pper 188
capable 188
taquitos 188
prom 188
overlook 188
ts.@@ 188
survive 188
teppanyaki 188
portobello 188
belongings 188
charger 188
tal 188
year-old 188
Subaru 188
-1 188
theyre 188
wonders 188
it.I 188
assigned 188
yummm 188
gal@@ 188
fon@@ 188
6.50 187
T. 187
tape 187
aloo 187
joking 187
fe 187
relocated 187
blends 187
q 187
'on 187
tro@@ 187
pads 187
equipped 187
African 187
pas@@ 187
gang 187
planes 187
Kat 187
flakes 187
tuned 187
steel 187
oddly 187
region 187
danish 187
vacuumed 187
crumbs 187
Jac@@ 187
housekeeping 186
ight 186
Gabe 186
proportions 186
fantastic@@ 186
singer 186
family-owned 186
ong@@ 186
tis@@ 186
installer 186
reflect 186
rotate 186
D. 186
qua@@ 186
Han@@ 186
Blaze 186
sewer 186
Corey 186
m. 186
BOGO 186
haha@@ 186
education 186
Yogurtland 186
counters 186
-out 186
1-2 186
adobo 186
horses 185
lotion 185
ducks 185
British 185
steak@@ 185
book@@ 185
rise 185
faced 185
payments 185
ells 185
jo 185
SF 185
2.99 185
funnel 185
cousins 185
chutney 185
it.@@ 185
amaz@@ 185
comedians 185
Fernando 185
aly 185
wisdom 185
Tara 185
ER@@ 184
snobby 184
Steelers 184
spoons 184
frustration 184
1am 184
Shadyside 184
ture 184
bent 184
stain 184
tter 184
providers 184
separately 184
Fe 184
cubes 184
wr@@ 184
eli@@ 184
Char@@ 184
、 184
Puerto 184
Biltmore 184
treasures 184
Harry 184
primarily 184
premier 184
list@@ 184
fence 184
pm@@ 184
Mac@@ 184
foster 184
racing 184
hurts 183
Memorial 183
dulce 183
leche 183
fro 183
kofta 183
pinball 183
reported 183
dye 183
Carol 183
salami 183
hy@@ 183
slo@@ 183
glitter 183
.As 183
Mandalay 183
Fa@@ 183
transferred 183
chez 183
requires 183
moo 183
links 183
condensed 183
vey 183
Frankie 183
transformed 183
costume 183
fitted 182
es-@@ 182
indie 182
deviled 182
feeding 182
sir 182
light@@ 182
roses 182
anxious 182
mattresses 182
yearly 182
politely 182
Jess 182
tous 182
.95 182
stepping 182
decaf 182
falafels 182
sigh 182
smiled 182
redo 182
rims 182
8.00 182
stoked 182
Sandra 182
mil@@ 182
know@@ 182
wn@@ 182
13@@ 182
Harley 182
expansive 182
chirashi 182
perogies 182
strength 181
redeeming 181
household 181
costly 181
odor 181
800 181
great- 181
Molly 181
melting 181
ative 181
varies 181
'un 181
Medina 181
all. 181
Pacific 181
Marcus 181
Dana 181
88 181
pick@@ 181
chimi 181
struggling 181
converted 181
shu 181
directed 181
Macy 181
Alexis 181
fraction 180
21st 180
Ke@@ 180
estimates 180
atmosphere.@@ 180
less@@ 180
studios 180
drying 180
overflowing 180
stinky 180
tastebuds 180
tant 180
defin@@ 180
recognized 180
alarm 180
mini-@@ 180
introduce 180
collard 180
van@@ 180
juste 180
Daisy 180
Sar@@ 180
labeled 180
hardest 180
Qdoba 180
ci 180
Jade 180
Ivy 180
Chatime 180
ignoring 179
dry@@ 179
abundance 179
continuing 179
gla@@ 179
month@@ 179
yummmm 179
cul@@ 179
blessing 179
crackers 179
Davidson 179
ack 179
rer 179
3.00 179
ombré 179
tension 179
ze@@ 179
rom@@ 179
bière 179
5.50 179
flat@@ 179
No 179
Judy 179
walleye 179
Kristen 179
consideration 178
colorist 178
Lakes 178
hmmm 178
plated 178
liars 178
90@@ 178
spr@@ 178
outfit 178
plugs 178
brief 178
inner 178
beforehand 178
pee 178
rigatoni 178
humus 178
safely 178
ug@@ 178
drives 178
Ph@@ 178
mixes 178
scorpion 178
Pitt 178
charity 178
U 178
and-@@ 178
sam@@ 178
prof@@ 178
lab@@ 178
tonkotsu 178
sauc@@ 178
soba 178
bliss 178
firearms 178
accepting 178
automatic 177
real@@ 177
adjacent 177
top@@ 177
aging 177
reminiscent 177
2000 177
í@@ 177
Morgan 177
ly. 177
ng 177
shoutout 177
saki 177
Mirage 177
clever 177
jumping 177
roller 177
.Y@@ 177
.On 177
feel@@ 177
ille 177
fire@@ 177
Per@@ 177
ji@@ 177
parent 177
diversity 177
freak 177
immensely 177
ethic 177
managing 177
lent 177
Br@@ 177
Westin 177
castle 177
Firestone 177
chaos 176
wreck 176
-free 176
Junction 176
We@@ 176
Kings 176
comfortably 176
music@@ 176
food-@@ 176
yer 176
CD 176
Rico 176
mega 176
utterly 176
led@@ 176
homework 176
rue 176
s.It 176
Ms. 176
Malaysian 176
Wood@@ 176
decorating 176
casserole 176
Chilis 176
Omar 176
day. 176
Tremont 176
foodies 176
bikini 176
Apache 175
coz 175
sec@@ 175
coated 175
Her@@ 175
ari 175
candle 175
generously 175
straws 175
Mickey 175
unmatched 175
favors 175
chilaquiles 175
layover 175
tanks 175
mayonnaise 175
perk 175
Mil@@ 175
condiment 175
unforgettable 175
py 175
soup@@ 175
Aria 175
cheap@@ 175
struggle 175
wireless 175
-S@@ 175
.Can 175
southwestern 175
valve 175
attentive@@ 175
maid 175
icks 175
Roadhouse 175
urine 175
aches 175
shades 174
ques@@ 174
hosting 174
Hal@@ 174
ouch 174
gan@@ 174
Rosa 174
chocolat 174
Harbor 174
delays 174
difficulty 174
alert 174
hubs 174
operate 174
kicks 174
textures 174
ripe 174
todo 174
ea 174
15min 174
Copper 174
goût 174
mighty 174
bid 174
fixes 174
arent 174
5-6 174
stare 174
Zack 174
haddock 174
musique 174
bout 174
Northeast 174
Vaughan 174
bre@@ 174
burg 173
standout 173
hottest 173
Cubano 173
trashy 173
like@@ 173
aaa@@ 173
asiago 173
sol@@ 173
surpassed 173
woods 173
antly 173
Mazda 173
HVAC 173
plu@@ 173
sis 173
modest 173
pretend 173
statement 173
wishing 173
expense 173
enti@@ 173
combine 173
unagi 173
Mad@@ 173
eggrolls 173
artisan 173
exams 173
Bro@@ 173
ads 173
Capriotti 173
guides 173
Changs 173
Barry 173
Overall 172
12-@@ 172
fold 172
lic@@ 172
ziti 172
fir@@ 172
islands 172
non-existent 172
cool@@ 172
Decatur 172
.Friendly 172
fixings 172
grossed 172
installers 172
sion@@ 172
specialize 172
henna 172
ables 172
ku@@ 172
pimento 172
Diane 172
sundaes 172
machaca 172
curd 172
bat 172
dill 172
respectable 172
Lenny 172
clues 172
performing 171
lamps 171
este 171
ane 171
34 171
enthusiasm 171
landscape 171
X-rays 171
post-@@ 171
sipping 171
.Always 171
ais 171
s.S@@ 171
furry 171
horror 171
premade 171
poulet 171
owner@@ 171
produced 171
nation 171
hel@@ 171
flavour@@ 171
laksa 171
bro 171
Domino 171
t- 171
étaient 171
dy@@ 171
Cory 171
limitWord 171
attack 170
Oregon 170
quieter 170
i-@@ 170
Lindsey 170
bamboo 170
vaut 170
ances 170
this@@ 170
steakhouses 170
Christopher 170
tear 170
melon 170
Min@@ 170
30mins 170
20min 170
ans@@ 170
destroyed 170
DT 170
sure@@ 170
Ter@@ 170
cinema 170
remake 170
60@@ 170
herbal 170
Ku@@ 170
expensive@@ 170
guidance 170
cameras 170
Philadelphia 170
mariscos 170
arroz 170
gel@@ 169
careless 169
t.I 169
iffy 169
regrets 169
kills 169
juke 169
blossom 169
tastey 169
travels 169
Willy 169
distracted 169
disappointed@@ 169
instruction 169
apparent 169
woo@@ 169
sing@@ 169
cabin 169
off-@@ 169
donate 169
zu@@ 169
70@@ 169
snapper 169
bells 169
pockets 169
Cynthia 169
redeem 169
gener@@ 169
moments 169
surgeon 169
texting 169
Sy@@ 169
landed 169
Pakistani 169
maison 169
Leslie 169
ren 169
Mag@@ 169
Melanie 169
Betty 169
zip 169
knee 168
ink@@ 168
refilling 168
loin 168
'mores 168
inside@@ 168
Bel@@ 168
600 168
disappoint@@ 168
leg@@ 168
Alicia 168
slider 168
uninspired 168
ching 168
3.99 168
Lotus 168
roughly 168
fru@@ 168
ritual 168
thinner 168
ili@@ 168
mans 168
ined 168
def. 168
dum@@ 168
0.@@ 168
ringing 168
mats 168
paintings 168
nic@@ 168
Brett 168
Kimberly 168
tenants 168
rien 168
cultural 168
ences 168
boost 168
Clark 167
nap 167
sober 167
crisp@@ 167
sweetened 167
Mitchell 167
skate 167
desperately 167
ES@@ 167
lou@@ 167
pina 167
nowadays 167
Highly 167
E. 167
away@@ 167
snow@@ 167
hurting 167
ye 167
Ci@@ 167
spouse 167
.Ordered 167
lengua 167
curb 167
bench 167
Miguel 167
Detroit 167
snap 167
crooked 167
laundromat 167
detox 167
lumpia 167
crooks 166
dedication 166
Also 166
Imperial 166
ssi@@ 166
argued 166
conditioned 166
continuously 166
again. 166
AM@@ 166
assumed 166
self-@@ 166
hahaha 166
here- 166
-y 166
cher@@ 166
relax@@ 166
pt 166
jacuzzi 166
deceiving 166
pole 166
hur@@ 166
Joel 166
Carefree 166
spicey 166
Tom@@ 166
disposal 166
tors 166
handyman 166
hose 165
sees 165
nice. 165
structure 165
paced 165
life@@ 165
.In 165
oooo@@ 165
dente 165
37 165
--I 165
Jared 165
crow@@ 165
ents 165
Ricky 165
Ruth 165
loading 165
ya@@ 165
plague 165
fix@@ 165
mers 165
resolution 165
ths 165
elote 165
fair@@ 165
makeover 165
vari@@ 165
NW 165
tar 165
protector 165
bra 165
Kelsey 165
Ivan 165
lee 165
volleyball 165
transmission 165
pampering 165
sit-down 165
scorpions 165
karaage 165
un-@@ 164
notified 164
spec@@ 164
ett@@ 164
blackberry 164
ron 164
happ@@ 164
fat@@ 164
Antonio 164
fur@@ 164
remained 164
fi 164
BK 164
eni@@ 164
pine 164
flavourless 164
jams 164
ri 164
hygiene 164
promises 164
p. 164
35@@ 164
le-@@ 164
crema 164
ality 164
wrapping 164
Cora 164
connoisseur 164
pos@@ 164
conscientious 164
moi 164
fillers 164
mo 164
Murphy 164
stin@@ 163
sli@@ 163
Wayne 163
Roman 163
guava 163
wing@@ 163
Hi@@ 163
Paige 163
fountains 163
oon 163
dee@@ 163
dresser 163
capacity 163
return@@ 163
offer@@ 163
breaker 163
spor@@ 163
pakoras 163
forks 163
additions 163
dale 163
essential 163
lov@@ 163
Louisiana 163
entertain 163
201@@ 163
hol@@ 163
satisfies 163
Brooke 163
Gi@@ 163
posts 163
dole 163
Becky 163
exemplary 163
touch@@ 163
eng@@ 163
avoided 163
mods 163
arepa 163
granddaughter 162
ban 162
post@@ 162
coffin 162
sublime 162
zzy 162
piccata 162
bly 162
US@@ 162
salesmen 162
criticism 162
Tex 162
patios 162
covering 162
committed 162
excelente 162
customizable 162
realistic 162
bicycle 162
té 162
44 162
user 162
Dee 162
fulfilling 162
slam 162
Ben@@ 162
steaming 162
plateau 162
ought 162
Val 162
someday 161
yakisoba 161
around@@ 161
up-@@ 161
4am 161
ammo 161
food.I 161
Adrian 161
lish 161
musicians 161
centrally 161
nest 161
consumer 161
stacked 161
inappropriate 161
hefty 161
https 161
cheery 161
after@@ 161
Julia 161
contractor 161
tailored 161
motivating 161
gai 161
dam@@ 161
muffler 161
59 161
stal@@ 161
laid-back 160
excitement 160
profit 160
plo@@ 160
zi 160
ony 160
Fre@@ 160
CU 160
cob 160
shoppers 160
fifth 160
foreign 160
performances 160
persons 160
quarters 160
place- 160
tamarind 160
critical 160
substitutions 160
witch 160
k. 160
Jan@@ 160
celiac 160
painfully 160
nn@@ 160
beloved 160
frais 160
banner 160
complain@@ 160
specialties 160
cette 160
rivals 160
biscotti 160
ok. 160
sign@@ 160
intimidating 160
meilleur 160
premises 160
ello 160
sassy 160
Donald 160
beg 160
bleeding 159
iter 159
relative 159
corn@@ 159
Dun@@ 159
delicous 159
almonds 159
len@@ 159
gut 159
ast@@ 159
Montreal@@ 159
freaky 159
wha@@ 159
bomb.com 159
sage 159
carbs 159
inspiring 159
cutter 159
fying 159
Priest 159
silk 159
digital 159
pleasurable 159
ine@@ 159
bombs 159
gained 159
pits 159
80@@ 159
duc@@ 159
esp@@ 159
Un@@ 159
XL 159
great.The 159
Cathy 159
Forest 159
-to-@@ 159
accurately 159
'clock 159
Vista 159
amis 159
humidor 159
ignorant 158
Fri 158
England 158
hotel@@ 158
nostalgia 158
Sprint 158
.Th@@ 158
pumps 158
incident 158
posters 158
mental 158
tool 158
Parma 158
cle@@ 158
powdered 158
people.@@ 158
Mentor 158
plea@@ 158
R. 158
Toronto@@ 158
characters 158
icious 158
theatres 158
Aladdin 158
sushi@@ 158
Pinot 158
Ms 158
Ali@@ 158
Vince 158
IKEA 158
label 158
cam 158
Kai 158
educate 158
hands-down 158
Veronica 158
bland@@ 157
cured 157
Ban@@ 157
suggesting 157
sn@@ 157
vote 157
han 157
stuff@@ 157
Lance 157
surly 157
ple@@ 157
underneath 157
tou@@ 157
Rubios 157
Shi@@ 157
agents 157
drops 157
expanding 157
ruins 157
gies 157
pet@@ 157
extension 157
pregnancy 157
pit@@ 157
flank 157
Tra@@ 157
meilleurs 157
cli@@ 157
inefficient 157
help@@ 157
teams 157
mens 157
focaccia 157
upgrading 157
salade 157
durian 157
cereal 157
alized 157
insight 157
wheelchair 157
flame 157
crammed 156
zombie 156
us@@ 156
ppy 156
restraunt 156
official 156
profession 156
BBB 156
high-quality 156
dol@@ 156
90s 156
6.00 156
qualified 156
macaroon 156
protection 156
sex 156
1.99 156
continental 156
tubs 156
nes 156
Boyz 156
ever. 156
peut 156
festive 156
cold@@ 156
selecting 156
prevent 156
cutlet 156
receptionists 156
AR@@ 156
Je@@ 156
hemmed 156
ome@@ 156
mojo 156
Lar@@ 156
bap 156
vapor 156
tellers 155
toro 155
enough@@ 155
season@@ 155
inflated 155
physically 155
handles 155
fraud 155
reputable 155
rugs 155
Nike 155
Ser@@ 155
donair 155
scratches 155
Florentine 155
sevice 155
scan 155
land@@ 155
bookstore 155
digging 155
lactose 155
plethora 155
yelped 155
broad 155
Popeye 155
deco 155
tailoring 155
functional 155
rat 155
Tatum 155
Te@@ 155
Sin@@ 155
kies 155
on. 155
Jessie 155
Sears 155
nugget 154
pearls 154
sealed 154
socialize 154
packets 154
illegal 154
fulfill 154
ed-@@ 154
food.The 154
chewing 154
Shore 154
item@@ 154
blueberries 154
t.The 154
asshole 154
perks 154
profile 154
sit@@ 154
Applebees 154
recommends 154
worlds 154
IMAX 154
waxes 154
kiwi 154
ward 154
distinct 154
legend 154
vo 154
communicative 154
rink 154
10th 153
tortellini 153
Stella 153
gging 153
hallway 153
smoker 153
eable 153
RC 153
Catherine 153
dr.@@ 153
Queens 153
beginners 153
crush 153
gn@@ 153
ked@@ 153
mucho 153
ands 153
continually 153
Allison 153
10.@@ 153
Pri@@ 153
thin@@ 153
spo@@ 153
minded 153
situated 153
hunting 153
.Oh 153
Den@@ 153
accepts 153
climb 153
scrubs 153
05 153
sliding 153
beginner 153
pozole 153
Whataburger 153
operating 152
palette 152
boar 152
Shepherd 152
entrées 152
spelling 152
Thrifty 152
mgr 152
yu@@ 152
leasing 152
bald 152
ker@@ 152
être 152
clerks 152
SoCal 152
black@@ 152
must-try 152
Abby 152
ann 152
Rican 152
tun@@ 152
tta 152
chees@@ 152
barrier 152
layered 152
absurd 152
Xmas 152
He@@ 152
anda 152
bbt 152
dryers 152
synthetic 152
pou@@ 152
Ken@@ 152
Boca 152
sia 152
runner 152
mutton 152
Dustin 152
BWW 152
sabor 152
banquet 151
hard@@ 151
wagyu 151
Jorge 151
Tri@@ 151
low-key 151
consultant 151
remotely 151
loudly 151
leches 151
ora 151
LV@@ 151
everything@@ 151
stic 151
Rom@@ 151
ingredient@@ 151
ben@@ 151
bound 151
ini@@ 151
ts@@ 151
proteins 151
fades 151
devices 151
ism 151
drizzle 151
reminder 151
lining 151
intelligent 151
Heidi 151
----@@ 151
efforts 151
coma 151
shaping 151
Jaime 151
Luc@@ 151
IMHO 151
resume 151
ato@@ 150
fights 150
executive 150
bustling 150
polenta 150
quail 150
policies 150
scar@@ 150
fluid 150
sites 150
programs 150
freindly 150
snooty 150
recomiendo 150
lastly 150
Eva 150
actors 150
outrageously 150
tine 150
arguing 150
Harvest 150
convince 150
stumble 150
drywall 150
baskets 150
Tor@@ 150
lifestyle 150
bouncer 150
shark 150
rows 150
mie 150
toilets 150
Renee 150
renew 150
Shan@@ 150
rounded 150
sty@@ 150
aci@@ 150
Bangkok 150
fairways 150
efficient@@ 149
lists 149
distillery 149
minuets 149
tics 149
favorit@@ 149
counts 149
fires 149
folk 149
uniform 149
wound 149
worthless 149
swap 149
Solon 149
waterfront 149
strangers 149
magazines 149
ballpark 149
s.T@@ 149
schwarma 149
versions 149
N. 149
grou@@ 149
in. 149
mojitos 149
investment 149
cuisines 149
hea@@ 149
suddenly 149
cooling 149
puri 149
x-@@ 149
spends 149
7.00 149
prints 149
tiles 149
hungover 149
Sharon 149
backwards 149
sel 149
deer 149
rellenos 149
OM@@ 149
Galaxy 149
cycle 149
ress 148
beast 148
ventured 148
leading 148
emp@@ 148
chana 148
ack@@ 148
s.W@@ 148
eeee@@ 148
tho@@ 148
ford 148
hhh 148
esta 148
cutlery 148
buffet@@ 148
jer@@ 148
rocking 148
bump 148
nor@@ 148
wandered 148
Cosmo 148
bundt 148
assembly 148
attractions 148
residential 148
peameal 148
advertisement 148
problem@@ 148
79 148
xiao 148
storefront 148
Logan 148
New@@ 148
scream 148
onal 148
boxing 147
twin 147
ets 147
artsy 147
pon@@ 147
malai 147
berg 147
raisin 147
ough 147
Don 147
ranges 147
roommate 147
Vic 147
edit 147
rock@@ 147
Mas@@ 147
stor@@ 147
wn 147
adopted 147
hmm 147
licking 147
Cy@@ 147
slab 147
economical 147
Red@@ 147
close@@ 147
HOA 147
izakaya 147
--the 147
logo 147
Hector 147
Wil@@ 147
Ty@@ 147
Olivia 147
unreasonable 147
tipping 147
tranquil 147
Yo@@ 147
Kris 147
8.50 147
Leah 147
caliber 147
Kristy 147
Louie 147
bol@@ 146
pp 146
bursting 146
rockstar 146
marrow 146
zz 146
hes 146
LL@@ 146
hoo 146
Kha 146
Ab@@ 146
mature 146
nestled 146
minutes@@ 146
cockroaches 146
ed.@@ 146
unremarkable 146
Wa@@ 146
Diablo 146
oldest 146
vir@@ 146
'adore 146
fellas 146
Zi@@ 146
unreliable 146
souvenirs 146
Em@@ 146
crème 146
Goodwill 146
bins 146
touristy 146
moder@@ 146
Atlanta 146
fundido 146
jam@@ 146
java 146
crusts 146
errands 146
tre 146
Angelo 146
drawn 146
transition 146
taqueria 146
alittle 146
Eco 146
Jean 146
rapport 146
chatty 145
skirt 145
wit 145
Fred 145
Westside 145
cit@@ 145
warmth 145
pour@@ 145
bill@@ 145
definitly 145
breakfast@@ 145
sprinkled 145
brutal 145
overhead 145
Wong 145
saffron 145
tation 145
fel@@ 145
Houston 145
trends 145
maintaining 145
.and 145
marble 145
texted 145
exclusively 145
aesthetician 145
Hampton 145
explosion 145
strike 145
mis 145
knees 145
Illinois 145
Sabrina 145
clogged 145
shortcake 145
ensuring 145
nice@@ 145
perspective 145
inspected 145
cho 145
radius 144
unwelcoming 144
yellowtail 144
all-@@ 144
authentic@@ 144
porch 144
Sierra 144
fist 144
creation 144
.Price 144
itu@@ 144
thieves 144
sic 144
Kee 144
nearest 144
Quebec 144
kettle 144
MD 144
ient 144
good-@@ 144
plum 144
manicurist 144
rit@@ 144
schedules 144
tattooed 144
smokes 144
ç@@ 144
breathtaking 144
shorts 144
bre 144
sprinkle 144
'n 144
frog 144
plating 144
termite 144
versed 144
eling 144
understatement 144
optometrist 144
AN@@ 144
cannolis 144
de-@@ 143
4.50 143
Mel@@ 143
sas 143
bears 143
ü@@ 143
toss 143
gristle 143
bby 143
bustle 143
glory 143
brunch@@ 143
effects 143
opinions 143
centers 143
plat 143
struggled 143
tempted 143
summertime 143
here.The 143
had. 143
Baseline 143
cloud 143
qualit@@ 143
luster 143
12.99 143
Hoover 143
variations 143
terrible@@ 143
restuarant 143
Ka 143
shopper 143
Sky@@ 143
maps 143
notary 143
secrets 143
Tanya 143
nee@@ 143
high-@@ 143
ambient 143
Gra@@ 143
uh 143
mentioning 143
I-@@ 143
HO@@ 143
ninja 143
blond 143
paws 143
Carson 143
Busters 143
spelled 142
tolerable 142
l-@@ 142
fol@@ 142
compl@@ 142
beef@@ 142
gobi 142
dis 142
chee@@ 142
cas@@ 142
aesthetically 142
medi@@ 142
utmost 142
hand-@@ 142
regional 142
healthcare 142
misters 142
Dan@@ 142
Price 142
unknown 142
fancier 142
Cobblestone 142
multi 142
dot 142
shoyu 142
diligent 142
rocket 142
tz 142
II 142
prendre 142
err@@ 142
spell 142
tablet 142
dances 142
30-40 142
candles 142
er. 142
Evans 142
skating 142
realtor 142
Jewish 142
leurs 142
pepper@@ 142
locale 142
eal 142
go-@@ 142
soon@@ 142
Gri@@ 142
17th 142
circus 142
voir 142
reverse 141
For@@ 141
snotty 141
smokehouse 141
polishes 141
today@@ 141
reci@@ 141
5-7 141
Southside 141
Robinson 141
wrong@@ 141
drugs 141
sauced 141
4.00 141
ranks 141
fresca 141
mini@@ 141
scratched 141
iling 141
gged 141
-the 141
rest@@ 141
Broadway 141
business@@ 141
suited 141
greedy 141
precious 141
wel@@ 141
McD 141
tting 141
Che@@ 141
buck@@ 141
short@@ 141
mul@@ 141
iss@@ 141
coins 141
iting 141
prawns 141
Urbana 141
army 141
dick 141
gro@@ 141
nies 141
assure 141
ST@@ 141
Merry 141
quickly@@ 141
communicating 141
itting 141
hobby 141
Delta 141
micheladas 141
sisig 141
Anne 140
inst@@ 140
Hunter 140
counter@@ 140
weekend@@ 140
2008 140
Tia 140
bust 140
hun@@ 140
89 140
45pm 140
Ash@@ 140
punk 140
method 140
350 140
GPS 140
foul 140
croutons 140
で@@ 140
intend 140
flaming 140
spin@@ 140
stuffs 140
afternoons 140
stream 140
tactics 140
small@@ 140
100@@ 140
cancellation 140
shaded 140
inspector 140
biker 140
facts 140
buen 140
before@@ 140
buyers 140
sleek 140
chaleureux 140
clay 140
hearted 140
granite 140
munch 140
t-shirts 140
souvenir 140
votre 140
CPK 140
follow-up 139
service-@@ 139
SC 139
chu@@ 139
compensate 139
ld 139
clu@@ 139
craftsmanship 139
travelers 139
anne 139
mom@@ 139
atmosphere. 139
legendary 139
throughly 139
discovering 139
bas@@ 139
し@@ 139
associated 139
shawarmas 139
boxed 139
veterinarian 139
cabinets 139
commitment 139
Carlo 139
Chin@@ 139
pawn 139
technical 139
Arnold 139
one. 139
avid 139
Eaton 139
TX 139
lette 139
quickest 139
n-@@ 139
anti 139
cola 139
papers 139
tenant 139
minced 139
neon 139
two-@@ 139
ted@@ 139
maze 139
growler 139
Arby 139
cabana 139
Etobicoke 139
Longhorn 139
rug 139
knives 139
Chapman 139
69 138
Fil@@ 138
ah@@ 138
All 138
rudeness 138
--and 138
Far@@ 138
sodium 138
historical 138
ican 138
P. 138
reduce 138
rockin 138
recliners 138
king@@ 138
swift 138
Ren@@ 138
G. 138
6am 138
element 138
traveler 138
dreaming 138
Eli@@ 138
Dane 138
cruise 138
volunteers 138
hem 138
stared 138
sses 138
crabs 138
Pat@@ 138
questioned 138
Sonny 138
about@@ 138
home-made 138
mak@@ 138
ensured 138
burns 138
delights 138
alas 138
yucca 138
Dolce 138
alteration 138
promo 138
meh@@ 138
thanked 138
evident 138
Kin@@ 138
Pinnacle 138
twins 138
television 138
ube 138
Wingstop 138
crystals 138
heart@@ 137
place.I 137
reaching 137
bir@@ 137
pop@@ 137
pouring 137
buttered 137
od 137
area. 137
Schwartz 137
Carrie 137
relieved 137
Super@@ 137
mouse 137
remade 137
feelings 137
cup@@ 137
cheese@@ 137
disa@@ 137
scent 137
wed 137
place.The 137
contain 137
question@@ 137
grills 137
rap 137
cut@@ 137
jammed 137
wander 137
surtout 137
electrician 137
199@@ 137
yn@@ 137
cleans 137
Spadina 137
aweful 137
tahini 137
que@@ 137
Reese 137
isa 137
licensed 137
documents 137
sauce.@@ 137
pric@@ 137
Claudia 137
Wh@@ 137
pediatric 137
crafts 137
Spencer 137
.Clean 137
ition 137
diagnostic 136
Westgate 136
Everything 136
attract 136
dro@@ 136
unclean 136
Whitney 136
Thunderbird 136
altogether 136
flu 136
buys 136
ington 136
Garcia 136
buttercream 136
mouth@@ 136
wit@@ 136
.99 136
pa 136
wa 136
Lou@@ 136
approx 136
ann@@ 136
reopen 136
fresh. 136
tendon 136
gau@@ 136
unappetizing 136
coupled 136
forms 136
coun@@ 136
moldy 136
squad 136
challenges 136
attentiveness 136
approve 136
shu@@ 136
mounted 136
.K@@ 136
urge 136
hh 136
Sam@@ 136
Bahama 136
lawyer 136
nursing 135
bab@@ 135
Mandy 135
Taiwan 135
sterile 135
Americans 135
discovery 135
bertos 135
raves 135
cosmetic 135
Evan 135
boats 135
ler@@ 135
ity@@ 135
curried 135
discussing 135
geared 135
tataki 135
domin@@ 135
goo 135
gee 135
service.The 135
Lou 135
sauteed 135
wire 135
'a 135
cough 135
substance 135
sat@@ 135
servic@@ 135
socializing 135
either@@ 135
Cro@@ 135
inspections 135
Buffett 135
nutritional 135
Vietnam 135
Rod 135
d.I 135
porchetta 135
fishing 135
laughter 134
Saint 134
suffer 134
chur@@ 134
20.00 134
Jays 134
expresso 134
tied 134
00am 134
buena 134
romaine 134
tonic 134
On@@ 134
45@@ 134
Shelby 134
partially 134
cake@@ 134
.the 134
poodle 134
lineups 134
mask 134
In 134
suburban 134
glorious 134
rowdy 134
d.The 134
tube 134
responses 134
enthusiast 134
Rockets 134
Hanna 134
patio@@ 134
Walker 134
flautas 134
cks 134
Mont@@ 134
diced 134
Buddha 134
legitimate 134
relish 134
ila 134
couscous 134
rol@@ 134
stall 134
dread 134
pecans 134
manages 134
coating 134
ati@@ 134
oriental 134
Teeter 134
Bojangles 134
cuticle 133
U.S. 133
illy 133
comfortable@@ 133
Aveda 133
ys@@ 133
tracks 133
Republic 133
cage 133
fluke 133
busted 133
gatherings 133
uu@@ 133
blamed 133
Cla@@ 133
Dino 133
proved 133
refuses 133
onsite 133
frescas 133
Brandi 133
700 133
noticeable 133
Would 133
angels 133
Gouda 133
koi 133
pate 133
holders 133
street@@ 133
brats 133
bleh 133
Boo@@ 133
musubi 133
nit@@ 133
teenager 133
Williams 133
sate 133
5am 133
Nu@@ 133
8th 133
alla 133
vomit 133
Ritz 133
thou 133
Stacey 133
photography 133
Laveen 133
Roofing 133
Cheyenne 132
chief 132
overdue 132
residence 132
automated 132
zu 132
depend 132
visually 132
fewer 132
Julio 132
encouraged 132
butter@@ 132
favor@@ 132
cy 132
whi@@ 132
camping 132
fog 132
Misty 132
Virginia 132
tending 132
specializes 132
Lana 132
okonomiyaki 132
restaurant. 132
lightning 132
EOS 132
full@@ 132
Lodge 132
Legacy 132
loaner 132
bridesmaid 132
Wars 132
haunted 132
wo@@ 132
Russ 132
atta 132
iche 132
landmark 132
Filiberto 132
min. 132
Barbara 132
QT 132
arancini 132
Jacks 132
tain@@ 131
laying 131
flats 131
warm@@ 131
ice@@ 131
fill@@ 131
mop 131
she@@ 131
rotated 131
Norman 131
relatives 131
sen 131
commercials 131
regretted 131
spi@@ 131
ciabatta 131
cottage 131
eci@@ 131
AC@@ 131
s.Great 131
DVD 131
inquire 131
collect 131
mun@@ 131
Staff 131
liners 131
throat 131
willingness 131
mate 131
gender 131
Jamaica 131
AA 131
ago@@ 131
band@@ 131
faut 131
burrata 131
comprehensive 131
Howard 131
st-@@ 131
elevators 131
‼ 131
determined 131
misses 131
bulb 131
goddess 131
bil@@ 131
Wright 131
driveway 131
graham 131
Beth 131
Waxhaw 131
point@@ 131
him@@ 131
Marc 131
11-@@ 131
jeweler 131
H. 131
bières 131
youth 131
fir 131
dispenser 131
pun 131
DIY 131
omakase 131
kicking 130
nightclub 130
aftertaste 130
aller@@ 130
imitation 130
lick 130
gifted 130
filters 130
food.@@ 130
flush 130
ê@@ 130
Best 130
tim@@ 130
mildly 130
pitch 130
experience. 130
fresco 130
1.25 130
Khao 130
o.@@ 130
mic@@ 130
Chipotles 130
supports 130
Christ@@ 130
errors 130
fication 130
indecisive 130
chrome 130
adas 130
signal 130
Midwood 130
Roy 130
Davis 130
FedEx 130
simplicity 130
sil@@ 130
ura 130
cia 130
take@@ 130
outer 130
Pol@@ 130
pipes 130
tures 130
Aurora 130
peri 130
77 130
Wells 130
seal 130
flare 130
upsetting 130
finger@@ 130
mazing 130
surface 130
的 130
Blake 130
Gus 130
release 129
op 129
ultrasound 129
IPAs 129
iest 129
vol@@ 129
belong 129
hen 129
Erik 129
clean. 129
cocoa 129
shoppe 129
ouse 129
scenic 129
do-@@ 129
kindest 129
ced 129
tch@@ 129
sive 129
twists 129
sky 129
mirrors 129
Palazzo 129
bam 129
inquired 129
s.This 129
tage 129
avocados 129
tted 129
decline 129
Andre 129
tto 129
role 129
love@@ 129
Indians 129
lush 129
skyline 129
grouper 129
delightfully 129
ici 129
mouthwatering 129
pens 129
chin@@ 129
Lizard 129
pancit 129
Chagrin 129
din 128
texts 128
radish 128
Albert 128
pictured 128
Oreos 128
16th 128
zers 128
Afghan 128
great.I 128
hassles 128
costumers 128
sopes 128
effect 128
ge. 128
Bal@@ 128
foil 128
game@@ 128
2006 128
bowl@@ 128
acknowledgement 128
am-@@ 128
responding 128
kk@@ 128
neatly 128
plantain 128
rapid 128
Villa 128
caps 128
dumped 128
の@@ 128
luncheon 128
exclusive 128
CJ 128
magazine 128
stretching 128
prizes 128
nightly 128
produc@@ 128
tively 128
interiors 128
mou@@ 128
Portland 128
Orthodontics 128
Lawrenceville 128
vit@@ 128
cappuccinos 128
retired 128
cages 128
Wolf 128
como 128
Gol@@ 128
Go 128
Quinn 128
impact 128
Costa 128
Earnhardt 128
ith 127
kick@@ 127
strikes 127
duo 127
quo@@ 127
Lola 127
Yorkie 127
Bea@@ 127
squares 127
Trish 127
may@@ 127
irritating 127
jacked 127
1hr 127
developed 127
moco 127
dirtiest 127
unparalleled 127
made@@ 127
seniors 127
lik@@ 127
frappe 127
lic 127
spotted 127
ettes 127
s.If 127
anti@@ 127
Really 127
barre 127
ed.The 127
sw@@ 127
drinks@@ 127
eta 127
poutines 127
bat@@ 127
temporary 127
51 127
resi@@ 127
download 127
Fer@@ 127
Wi@@ 126
elo 126
parking@@ 126
tari@@ 126
accompanying 126
tender@@ 126
chocolat@@ 126
Culvers 126
mere 126
unethical 126
grind 126
chit 126
Dale 126
outfits 126
--it 126
rehearsal 126
où 126
circumstances 126
veterinary 126
singers 126
diamonds 126
stat@@ 126
priceless 126
appreciates 126
unsafe 126
departments 126
mea@@ 126
server@@ 126
lengthy 126
bonnes 126
venti 126
mode 126
47 126
shisha 126
dents 126
mp 126
rude@@ 126
Regal 126
Brent 126
bomb@@ 126
urs 126
curls 126
flatbreads 126
Utah 126
accounts 126
chickpea 126
Sim@@ 126
Vino 126
.Do 126
here.I 126
tags 126
garlicky 126
AutoNation 126
MRI 125
colder 125
topping@@ 125
coats 125
fro-yo 125
vis@@ 125
goood 125
dart 125
coffe 125
Jenna 125
Carmen 125
judgement 125
fee@@ 125
Excellent 125
ando 125
ス@@ 125
Prices 125
snd 125
McDowell 125
10x 125
\ 125
inquiry 125
tra 125
nutritious 125
duper 125
t-shirt 125
bumped 125
reset 125
tabouli 125
bumping 125
allot 125
park@@ 125
chick@@ 125
thoughts 125
stocking 125
cluttered 125
lay@@ 125
expérience 125
suck@@ 125
silky 125
reaction 125
inspect 125
e.g. 125
follows 125
walnuts 125
models 125
waxer 125
entr@@ 125
offensive 125
assessment 125
Sau@@ 125
Tuscan 125
friendly.I 125
soooooooo 125
renewal 125
Tran 125
NASCAR 125
Edgar 125
Eli 124
sago 124
stroller 124
atmosphere@@ 124
ada@@ 124
Devine 124
ruining 124
chip@@ 124
equ@@ 124
BL@@ 124
suc@@ 124
Gal@@ 124
hygienists 124
them. 124
smelt 124
friggin 124
refresh 124
lemon@@ 124
targets 124
ed.I 124
set-up 124
20mins 124
Ga 124
stretched 124
soaking 124
insult 124
disease 124
ku 124
Maui 124
Dylan 124
delicioso 124
lar 124
fixtures 124
Capitol 124
15pm 124
elevated 124
old-school 124
Bailey 124
Alice 124
well.I 124
Ossington 124
flexibility 124
irrigation 124
loft 124
arguably 124
40th 124
unimpressive 124
rank 124
pu 124
Sheraton 124
Zoe 124
ugh@@ 124
Lan@@ 124
Sand@@ 124
fluff 124
Shelly 124
aaaa@@ 124
scal@@ 124
Mur@@ 124
scooter 124
etta 123
mmmm@@ 123
cheer 123
windy 123
disconnected 123
cel@@ 123
fli@@ 123
130 123
b-@@ 123
sweating 123
anyplace 123
wondered 123
sq 123
prices. 123
best. 123
dank 123
complains 123
tional 123
crowed 123
J 123
mies 123
first-@@ 123
default 123
begging 123
society 123
s.Service 123
redeemed 123
poki 123
obli@@ 123
tempting 123
effectively 123
homestyle 123
Edward 123
echo 123
Eglinton 123
tram 123
midtown 123
ak 123
acci@@ 123
Belgium 123
lens 123
rays 123
10min 123
trunk 123
artichokes 123
judging 123
deux 123
Progressive 123
discomfort 123
reason@@ 123
miniature 123
chronic 123
Ham@@ 123
Vons 123
channels 122
transparent 122
responds 122
frosted 122
exposed 122
ehh 122
goose 122
intrusive 122
funeral 122
disgrace 122
.Get 122
.......... 122
after-@@ 122
ooo 122
completing 122
handing 122
Spectrum 122
Samsung 122
quality@@ 122
offended 122
accomplished 122
dishes@@ 122
bas 122
suffered 122
2007 122
な@@ 122
15mins 122
Gateway 122
Lulu 122
posh 122
firecracker 122
trans@@ 122
'aime 122
flakey 122
hibiscus 122
ele@@ 122
ele 122
operator 122
biking 122
unapologetic 122
Gordon 122
stalls 122
Rusty 122
Monroe 122
separated 122
gol@@ 122
So 122
peeled 122
restoration 122
X-ray 122
nom@@ 122
bim 122
Black@@ 122
Simon 122
Winco 122
partying 121
30th 121
vy 121
races 121
vor@@ 121
OO@@ 121
hanger 121
origin@@ 121
iles 121
disagree 121
spendy 121
candied 121
wil@@ 121
rant 121
Gr@@ 121
consult 121
co-@@ 121
economy 121
assholes 121
duh 121
ree 121
valid 121
impressions 121
ated@@ 121
gown 121
breathe 121
cheated 121
cautious 121
actions 121
Chanel 121
drinkers 121
lation 121
Hon@@ 121
poo 121
scarce 121
descriptions 121
Arabic 121
environment@@ 121
déjeuner 121
prove 121
deliver@@ 121
3. 121
Brianna 121
bizarre 121
.-@@ 121
splendid 121
glo@@ 121
molasses 121
pristine 121
stringy 121
PBR 121
contained 121
Cooper 121
Maya 121
banchan 121
mat 121
gen 121
Orlando 121
daytime 121
exc@@ 121
taco@@ 121
vicinity 121
pharmacist 121
a.@@ 121
differences 121
injections 121
soupe 121
ue@@ 121
turbo 121
apricot 120
healthiest 120
sna@@ 120
scallion 120
patched 120
siu 120
time.I 120
mus@@ 120
.Lots 120
ve-@@ 120
mandatory 120
Terri 120
.Went 120
Tru@@ 120
wishes 120
tat 120
oolong 120
shapes 120
reliably 120
fanatic 120
remaining 120
nonexistent 120
representation 120
manis 120
AA@@ 120
Jer@@ 120
nutty 120
prefect 120
tren@@ 120
の 120
Petco 120
shortage 120
frosty 120
.Really 120
ander 120
amateur 120
awe 120
ids 120
flyer 120
yards 120
weigh 120
eri@@ 120
throwback 120
chopsticks 120
butts 120
comm@@ 120
Pen@@ 120
Joshua 120
out-of-@@ 120
Mustang 120
sni@@ 120
09 120
baguettes 120
consignment 120
AZ@@ 120
Trevor 120
contractors 120
hog 120
birth 119
greeter 119
mente 119
splitting 119
reall@@ 119
deter 119
ingrown 119
doggies 119
Brandy 119
disp@@ 119
it- 119
Bianca 119
milky 119
restos 119
wad 119
chilling 119
tripe 119
stealing 119
2009 119
flawlessly 119
os@@ 119
situations 119
For 119
rib@@ 119
Pinterest 119
rotis 119
yelper 119
ute 119
dia 119
PV 119
wan 119
bleach 119
notch@@ 119
intolerant 119
magician 119
Yu@@ 119
cran@@ 119
ts. 119
maids 119
sto 119
softener 119
proficient 119
anie 119
Oliver 119
issa 119
plein 119
Brazil 119
Venezuelan 119
turn@@ 119
uninterested 119
reminders 119
banking 119
stamps 119
whisky 119
telephone 118
nada 118
juic@@ 118
reads 118
Veg@@ 118
kombucha 118
rist 118
perfection@@ 118
debris 118
a. 118
dar@@ 118
placement 118
Mel 118
Armando 118
cloth 118
Bla@@ 118
味 118
'une 118
st. 118
utilize 118
fav@@ 118
nut@@ 118
.Nothing 118
oregano 118
cash@@ 118
Nova 118
Sou@@ 118
faded 118
antiques 118
goin 118
prize 118
wiping 118
kbbq 118
mailbox 118
attempting 118
protect 118
cheesecakes 118
aimé 118
bu 118
monde 118
sprout 118
overheard 118
thro@@ 118
Sab@@ 118
essence 118
sar@@ 118
beaches 118
pleasant@@ 118
competitively 118
ek 118
failure 118
peoples 118
landing 118
regi@@ 117
recliner 117
whitening 117
gue 117
promising 117
sandwhiches 117
pricey@@ 117
PTs 117
owl 117
soufflé 117
fixe 117
ection 117
queue 117
keen 117
disposable 117
ison 117
welcomes 117
takeaway 117
ade@@ 117
Cinco 117
homely 117
what@@ 117
isles 117
Alma 117
Erika 117
ón 117
realizing 117
cook@@ 117
Netflix 117
vel@@ 117
Bumble 117
towners 117
vice 117
suburbs 117
hin@@ 117
tz@@ 117
ssy 117
regard 117
mani-pedi 117
lifted 117
flu@@ 117
sweaty 117
rag@@ 117
Neil 117
num@@ 117
measured 117
.Excellent 117
snobs 117
unbearable 117
Marissa 117
vac@@ 117
shaving 117
70s 117
guy@@ 117
available@@ 117
Parker 117
only@@ 117
leaks 117
Rock@@ 117
Publix 117
He 117
Crossfit 117
Wes 117
kins 117
Cavs 117
bad. 117
blanket 117
CT 116
wore 116
foundation 116
Sta@@ 116
Pau@@ 116
palak 116
congrats 116
generation 116
umm 116
spite 116
50.00 116
rundown 116
dil@@ 116
Horizon 116
cops 116
bar-@@ 116
drastically 116
iner 116
tri 116
Str@@ 116
bin@@ 116
Ky@@ 116
ounded 116
meter 116
places@@ 116
Lots 116
readily 116
ees 116
color@@ 116
say@@ 116
lounges 116
therapeutic 116
maximum 116
eff@@ 116
how@@ 116
mark@@ 116
20-@@ 116
stove 116
haired 116
m-@@ 116
guilt 116
thr 116
hiding 116
lowered 116
Hor@@ 116
Leslieville 116
pizza. 116
val 116
donc 116
overpriced@@ 116
Lau@@ 116
communal 116
.U@@ 116
dge@@ 116
abysmal 116
chau@@ 116
Kal@@ 116
.Everyone 116
slu@@ 116
180 116
Prairie 116
elli 116
ind 116
ust 116
thread 116
sudden 116
Chalet 116
appt. 116
gram 116
password 116
iter@@ 116
billed 116
Autumn 115
tel@@ 115
organ@@ 115
ffs 115
accustomed 115
reg 115
ound 115
reli@@ 115
Nellis 115
nerves 115
folded 115
jerks 115
frap 115
vibe@@ 115
shines 115
figures 115
plusieurs 115
recom@@ 115
bled 115
accompany 115
buzzing 115
Coo@@ 115
grapes 115
correction 115
vomiting 115
repeating 115
ory 115
rancid 115
represent 115
cortado 115
renewed 115
cooki@@ 115
savers 115
JC 115
USPS 115
weeds 115
croque 115
comedian 115
neighboring 115
ken@@ 115
harassed 115
oops 115
soirée 115
mé@@ 115
Ge@@ 115
remedy 115
whoa 115
use@@ 115
oning 115
refined 115
Cirque 115
masa 115
sorta 114
plumbers 114
concoction 114
polit@@ 114
grinder 114
gated 114
fame 114
Ed@@ 114
reccommend 114
symptoms 114
passenger 114
Ze@@ 114
torte 114
bolt 114
vine 114
burrito@@ 114
.Well 114
ン@@ 114
negatives 114
43 114
3-5 114
shuffle 114
fluids 114
bulldog 114
career 114
expansion 114
filtered 114
dness 114
ethics 114
flounder 114
momos 114
sle@@ 114
blasting 114
Noble 114
brea@@ 114
Vivian 114
pati@@ 114
AB@@ 114
Nekter 114
brat 114
Saigon 114
ould 114
gesture 114
vais 114
humans 114
slept 114
closely 114
tastic 114
virgin 114
dd 114
d- 114
Tam@@ 114
clas@@ 114
Teresa 113
bangs 113
interview 113
kielbasa 113
suff@@ 113
Vel@@ 113
oral 113
Hertz 113
ums 113
dre 113
avant 113
novice 113
Disney 113
explanations 113
Vinny 113
ttes 113
werent 113
が 113
io@@ 113
50s 113
dispensaries 113
RO 113
lam@@ 113
spinning 113
pamper 113
siz@@ 113
mejor 113
wealth 113
abilities 113
MJ 113
countries 113
reheat 113
data 113
bend 113
thumb 113
tobacco 113
laptops 113
local@@ 113
Cheryl 113
treat@@ 113
scissors 113
glac@@ 113
spoil 113
neglected 113
spar@@ 113
sleeve 113
ummm 113
oil@@ 113
reluctant 113
fran@@ 113
vitamins 113
youngest 113
hooks 113
eux 113
tu 113
yuca 113
bok 113
Tues 113
DJs 113
sneak 113
kar@@ 113
swanky 113
beignets 113
hankering 113
Finch 113
fa 113
.Other 113
Bre@@ 113
Pirates 113
masterpiece 113
L. 113
tran@@ 112
delicious- 112
cal 112
rin@@ 112
ily 112
hoot 112
zer@@ 112
complement 112
cellar 112
creamed 112
Cas@@ 112
ves@@ 112
pillow 112
Tanner 112
ny@@ 112
thigh 112
feeds 112
10mins 112
iled 112
terrified 112
K. 112
extraordinarily 112
Jodi 112
purses 112
blin@@ 112
differ@@ 112
change@@ 112
tty 112
MM@@ 112
slap 112
joint@@ 112
playlist 112
chia 112
River@@ 112
fulfilled 112
leadership 112
Fran@@ 112
yyy 112
Brunswick 112
day-@@ 112
tum@@ 112
Kay 112
stray 112
sauce@@ 112
call@@ 112
RO@@ 112
disinterested 112
docs 112
trouve 112
JD 112
EE@@ 112
desirable 112
FB 112
macadamia 112
-ish 111
shockingly 111
upholstery 111
Stratosphere 111
uniquely 111
Gil@@ 111
ligh@@ 111
breathing 111
issu@@ 111
unusually 111
Des@@ 111
kiddo 111
weddings 111
soft@@ 111
departure 111
individually 111
raining 111
aut@@ 111
functions 111
ort 111
NYE 111
LVAC 111
darker 111
voodoo 111
glue 111
abo@@ 111
Colleen 111
listing 111
30-45 111
attend@@ 111
nitrogen 111
.Its 111
limeade 111
figuring 111
lemons 111
big@@ 111
uts 111
anos 111
holder 111
Strongsville 111
completion 111
ille@@ 111
grandkids 111
ager 111
rats 111
suffering 111
好 111
fore@@ 111
Trump 111
Er@@ 111
complements 111
Chen 111
Kurt 111
sugaring 111
Pre@@ 110
smiley 110
crowns 110
sick@@ 110
cried 110
lly 110
iro 110
rou@@ 110
unsweetened 110
waterfall 110
screws 110
promote 110
oy@@ 110
ples 110
cleanse 110
orthodontist 110
apprehensive 110
helpful. 110
ven 110
dreadful 110
Vin@@ 110
unwilling 110
roles 110
loc@@ 110
mol@@ 110
operations 110
EN@@ 110
tick@@ 110
antes 110
waaaay 110
warrant 110
horrible@@ 110
positives 110
claiming 110
chea@@ 110
bind 110
ehhh 110
Gabby 110
detour 110
reflects 110
oversized 110
64 110
government 110
Only 110
restaurant.com 110
welcom@@ 110
Toni 110
very@@ 110
.9@@ 110
CDs 110
noodles@@ 110
fic@@ 110
shoots 110
rode 110
Tar@@ 110
interactions 110
Fl@@ 110
aesthetics 110
yah 110
Cornelius 110
rectify 110
location. 110
newspaper 110
hn 110
chiropractors 110
ment. 110
requirements 110
vacuuming 110
approval 110
assi@@ 110
wage 110
trou@@ 110
family@@ 110
lomo 110
experience@@ 110
Sophia 110
viande 110
ron@@ 110
moins 110
ité 110
Osso 110
Wal@@ 110
clutch 110
hints 110
abs 110
wash@@ 110
washers 110
Don@@ 110
sim@@ 110
organize 110
birria 110
newbie 110
pul@@ 110
REI 110
admitted 109
spa@@ 109
deserving 109
vie 109
pooch 109
turnip 109
entre@@ 109
violations 109
elk 109
Ad@@ 109
15.00 109
V. 109
fussy 109
rarity 109
agreement 109
tem@@ 109
peppercorn 109
Fran 109
decreased 109
gap 109
us.@@ 109
under-@@ 109
も@@ 109
blocked 109
gather 109
swee@@ 109
sci@@ 109
reference 109
.99@@ 109
drizzled 109
minut@@ 109
's@@ 109
collections 109
log 109
eless 109
costing 109
partners 109
geek 109
Buckeye 109
tiv@@ 109
soir 109
Ally 109
jackets 109
ombre 109
flo@@ 109
danced 109
grilling 109
sewage 109
Lin@@ 109
intuitive 109
Porsche 109
essentials 109
photo@@ 109
family-run 109
jars 109
guards 109
cycling 109
reduction 109
curt 109
sal 109
6.95 109
ks@@ 109
Tim@@ 109
kare 109
Avon 109
clubhouse 109
blizzards 109
crossed 109
doner 109
ame 108
chos 108
restaraunt 108
extend 108
BB 108
kitschy 108
après 108
WA 108
avg 108
soupy 108
limit@@ 108
dat@@ 108
health@@ 108
ñ@@ 108
ito 108
lentils 108
porterhouse 108
authentically 108
menu. 108
か@@ 108
Middleton 108
Hickory 108
peac@@ 108
seller 108
saloon 108
groupons 108
vouch 108
amen@@ 108
franchises 108
eman 108
prison 108
YU@@ 108
distracting 108
dra 108
Green@@ 108
NY@@ 108
sarcastic 108
mont 108
Knights 108
easy@@ 108
piri 108
nosh 108
cronuts 108
Dermatology 108
Belmont 108
Findlay 108
hospitals 107
9th 107
commission 107
pes@@ 107
iPads 107
pigeon 107
void 107
Galley 107
stable 107
thinly 107
doubled 107
sectional 107
brighter 107
definetely 107
-I 107
outside@@ 107
1. 107
prepaid 107
と@@ 107
pcs 107
contains 107
law@@ 107
multi-@@ 107
Adams 107
6-7 107
excellent. 107
.Now 107
syrups 107
Bonnie 107
sends 107
mannered 107
recline 107
Diva 107
ginormous 107
receipts 107
hallways 107
As 107
Prince 107
Sergio 107
taste.@@ 107
Elephant 107
bagged 107
.Wa@@ 107
99@@ 107
clip 107
hybrid 107
seul 107
celebrity 107
grate 107
shaking 107
Bru@@ 107
rr@@ 107
friendly.The 107
Chloe 107
.Plus 107
Zumba 107
dig@@ 107
yy 107
saltado 107
presentable 107
read@@ 107
med@@ 107
mark 107
Yorkdale 107
Vicky 107
Good@@ 107
ö@@ 107
Hungarian 107
Lebanon 107
verify 106
practitioner 106
gritty 106
often@@ 106
hazard 106
broiled 106
shuffleboard 106
woohoo 106
sul@@ 106
tore 106
inos 106
tered 106
excellently 106
leader 106
imagination 106
intriguing 106
gracias 106
piercer 106
opportunities 106
transactions 106
handcrafted 106
's.@@ 106
badass 106
stars.@@ 106
52 106
faux 106
transported 106
pow 106
jets 106
kafta 106
designated 106
til@@ 106
aro 106
souper 106
ceaser 106
Gen@@ 106
Have 106
PS@@ 106
fanciest 106
pee@@ 106
prepackaged 106
substituted 106
icked 106
poppy 106
Ger@@ 106
shrimp@@ 106
choy 106
also@@ 106
.00 106
banks 106
s.O@@ 106
leads 106
Ernie 106
'il 106
center@@ 106
pain@@ 106
hookahs 106
wifey 106
vie@@ 106
retourner 106
won@@ 106
Murray 106
graveyard 106
Sol 106
zzo 106
defense 106
wigs 106
Kneaders 106
unicorn 106
newborn 106
chest 105
inconsiderate 105
aswell 105
rubbed 105
order. 105
evil 105
000 105
pizz@@ 105
imaginative 105
milk@@ 105
joining 105
format 105
AY@@ 105
company@@ 105
well-priced 105
floats 105
strict 105
firearm 105
go. 105
IN@@ 105
regre@@ 105
pasty 105
glove 105
hay 105
too.I 105
Oak 105
Win@@ 105
nail@@ 105
hairstyle 105
cheep 105
ó 105
skipping 105
pun@@ 105
Panthers 105
nets 105
interacting 105
expiration 105
LCD 105
crime 105
vitamin 105
frittata 105
esh 105
remembering 105
rubs 105
VI@@ 105
sley 105
mainstream 105
arises 105
Quiznos 105
fragrant 105
Darren 105
cev@@ 105
Jar@@ 105
serveur 105
Jenga 105
frea@@ 105
guru 105
blank 105
fiancée 105
chicks 105
changer 105
Karma 105
sweater 105
shareable 105
sommelier 105
Hay@@ 105
impeccably 105
through@@ 105
rehab 105
manor 105
achi 105
Raul 105
ira 104
CS 104
haunt 104
ggy 104
betting 104
mc@@ 104
settings 104
Men@@ 104
limes 104
arrange 104
sprite 104
prob@@ 104
10.99 104
overload 104
disabled 104
decorate 104
remarkably 104
dating 104
soi 104
gir@@ 104
ene 104
softer 104
drool 104
yucky 104
appetizer@@ 104
doo@@ 104
knowledgeable@@ 104
carry-out 104
adv@@ 104
Nelson 104
oned 104
alors 104
.Con@@ 104
tive@@ 104
's. 104
jamais 104
dancer 104
tastefully 104
ffin@@ 104
Cosmopolitan 104
kn@@ 104
peppermint 104
conc@@ 104
genre 104
dia@@ 104
smores 104
uck 104
chers 104
rey 104
.Was 104
mesquite 104
brunches 104
Dilworth 104
addict 104
avail 104
yourselves 104
Pedro 104
twisted 104
stered 104
spon@@ 104
vents 104
duct 104
Day@@ 104
succeed 104
ook 104
oli 104
addressing 104
Sydney 104
consistant 104
uniforms 104
Bab@@ 104
featuring 104
MS@@ 104
Pineville 104
Rover 104
challah 104
medic@@ 103
cooked@@ 103
thi@@ 103
Sapporo 103
4-6 103
time.The 103
ard@@ 103
ongoing 103
.Cons 103
itch@@ 103
card@@ 103
Paula 103
gan 103
gent 103
ety 103
sofas 103
.Got 103
buff 103
Chilean 103
ed- 103
eye@@ 103
travelling 103
ente 103
sounding 103
me-@@ 103
compelled 103
indicated 103
informal 103
20-25 103
robbed 103
sus 103
ous. 103
fax 103
Emma 103
lier 103
s.My 103
Cubs 103
musty 103
no-frills 103
choic@@ 103
grandparents 103
refreshments 103
mud 103
mist 103
Tea@@ 103
cleanup 103
Cri@@ 103
ener@@ 103
camarones 103
dragged 103
vers@@ 103
Marina 103
gg 103
vending 103
inger 103
mackerel 103
blow@@ 103
handicap 103
up. 103
recognition 103
mediocre@@ 103
Kentucky 103
Silverado 103
robust 103
causes 103
Alaska 103
crunch@@ 103
michelada 103
Ralph 103
delicious.I 103
Wilson 103
ceramic 103
grandmas 103
Lat@@ 102
yakitori 102
mock 102
org@@ 102
pper@@ 102
uring 102
suggests 102
tum 102
fettuccini 102
produits 102
Clair 102
invite 102
dirty@@ 102
definatly 102
for. 102
uuuu@@ 102
WW@@ 102
bell@@ 102
io 102
sensational 102
burst 102
unwelcome 102
marathon 102
bli@@ 102
15-@@ 102
o.k. 102
Peaks 102
mindful 102
gru@@ 102
Mikey 102
Never 102
kool 102
Gene 102
stake 102
rence 102
shares 102
will@@ 102
people. 102
counted 102
lomi 102
stink 102
bow@@ 102
trac@@ 102
ima 102
licious 102
ankle 102
rab@@ 102
huh 102
paprikash 102
loses 102
canvas 102
sorely 102
equals 102
PR 102
accuracy 102
sparkle 102
Shar@@ 102
stac@@ 102
Ricardo 102
bulbs 102
Napoleon 102
troubles 102
acne 102
Greece 102
necklace 102
Up@@ 101
-O@@ 101
ía 101
thick@@ 101
accomodate 101
ethical 101
ted. 101
fantasy 101
companions 101
fathers 101
mani@@ 101
Audrey 101
stop@@ 101
people@@ 101
draws 101
intersection 101
plain@@ 101
engage 101
Devin 101
slushy 101
style@@ 101
Ama@@ 101
eled 101
motion 101
reassuring 101
Nguyen 101
lob@@ 101
Valerie 101
scattered 101
identical 101
.In@@ 101
slip 101
raspados 101
grand@@ 101
matinee 101
loooove 101
bund@@ 101
á@@ 101
Li 101
ech 101
wayyy 101
alo@@ 101
itz 101
Von 101
nys 101
me.I 101
kiosks 101
CE@@ 101
own@@ 101
incompetence 101
crossing 101
OT@@ 101
BJ 101
town. 101
rising 101
insulting 101
Neapolitan 101
gods 101
delish@@ 101
courtois 101
mangé 101
Perry 101
invoice 101
smoother 101
imaginable 101
web@@ 101
acupuncture 101
rell 101
Jewelers 101
yams 101
Vito 101
brew@@ 100
chy 100
Columbus 100
ises 100
incomplete 100
writer 100
thickness 100
tentative 100
Seth 100
yummmmm 100
reds 100
happy@@ 100
cust@@ 100
ppin 100
nit 100
tux 100
9.95 100
Hortons 100
CAD 100
dimly 100
insist 100
Israeli 100
expec@@ 100
crêpes 100
exaggeration 100
airports 100
awful@@ 100
creole 100
sed@@ 100
clearing 100
Kalua 100
wea@@ 100
ble. 100
scan@@ 100
packet 100
FL 100
chin 100
perfected 100
5s 100
douche 100
lids 100
Christie 100
wayyyy 100
humid 100
evenly 100
clippers 100
dramatically 100
igh@@ 100
soju 100
.Please 100
alter 100
ganoush 100
Independence 100
tically 100
F. 100
checkers 100
delicious.The 100
wider 100
sensor 100
practical 100
chich@@ 100
shocking 100
sizing 100
director 100
Carnegie 100
schools 100
Pittsburgh@@ 100
Cat@@ 100
Tori 100
makers 100
tations 100
Paramount 100
Luna 100
drowned 100
printer 100
MacBook 100
Oakville 100
Stewart 100
Javier 100
Midas 100
Len@@ 100
Bronze 100
Jenn 99
stick@@ 99
purely 99
Can 99
.Be 99
soo@@ 99
bia 99
Pepe 99
Sp@@ 99
squeaky 99
nick@@ 99
skincare 99
Fe@@ 99
ough@@ 99
downs 99
qualities 99
critique 99
pra@@ 99
visa 99
noticeably 99
amazing- 99
Britney 99
performer 99
consumed 99
collar 99
sommes 99
enders 99
sayin 99
disappear 99
liar 99
fai@@ 99
congratulations 99
disapointed 99
farms 99
canceling 99
jour 99
has@@ 99
alongside 99
dan@@ 99
repl@@ 99
dest 99
heaters 99
PH 99
One 99
average.@@ 99
moose 99
have@@ 99
furnishings 99
-and-@@ 99
pork@@ 99
summers 99
omlette 99
luc@@ 99
sales@@ 99
Rouge 99
polis 99
XO 99
paths 99
five-star 99
OPI 99
growth 99
proprietor 99
Crocker 99
Hy@@ 99
itch 99
Lena 99
dome 99
avoir 99
trip@@ 99
prepped 99
wee@@ 99
imports 99
Kara 99
cronut 99
kim@@ 99
.Still 99
evaluation 99
sely 99
ens@@ 99
ath@@ 99
team@@ 99
Volvo 99
roadside 99
gently 99
Kinton 99
Tamara 99
Philippines 99
sehr 98
dings 98
limits 98
Tre@@ 98
awards 98
ria 98
belief 98
rushes 98
old-fashioned 98
butterscotch 98
able. 98
comfor@@ 98
consists 98
uncaring 98
-friendly 98
slipped 98
bargains 98
lait 98
buckwheat 98
auto@@ 98
comer 98
mey 98
house-made 98
robbery 98
gringo 98
orderly 98
08 98
も 98
shooters 98
tasty. 98
marys 98
meanwhile 98
pia 98
illo 98
aded 98
gun@@ 98
ake 98
mommy 98
uno 98
dem@@ 98
assiettes 98
Ir@@ 98
panel 98
Chri@@ 98
se. 98
spac@@ 98
glance 98
creamer 98
Ly@@ 98
19th 98
happen@@ 98
ounces 98
input 98
Pin@@ 98
console 98
age@@ 98
Jojo 98
LI@@ 98
appts 98
25th 98
awa@@ 98
Gigi 98
Bros. 98
wall@@ 98
powerful 98
sheer 98
whiz 98
Mol@@ 98
dads 98
shelter 98
jum@@ 98
Legends 98
referrals 98
edibles 98
touring 98
Juli@@ 98
chix 98
righ@@ 98
zza 98
late-night 98
epitome 98
Capriottis 98
failing 98
dermatologist 98
wwww 98
raisonnable 98
Hwy 98
salty@@ 98
violation 98
Der@@ 98
thankyou 97
J. 97
whit@@ 97
well-stocked 97
top-@@ 97
noteworthy 97
basmati 97
atory 97
Robbins 97
savor 97
sights 97
communications 97
Annex 97
Sol@@ 97
night. 97
screams 97
gooood 97
1,@@ 97
hug 97
crinkle 97
'é@@ 97
ide@@ 97
Do 97
checkin 97
Janet 97
Summit 97
Alaskan 97
hamachi 97
modifications 97
to. 97
lifesaver 97
crumb 97
workplace 97
Civic 97
Boulevard 97
ef 97
monitor 97
representatives 97
CO@@ 97
self-serve 97
Beijing 97
rible 97
saveurs 97
ign@@ 97
thr@@ 97
pages 97
battle 97
consuming 97
Mariah 97
rela@@ 97
jaw 97
collards 97
strive 97
fantastically 97
Badger 97
attitude@@ 97
buses 97
Coors 97
art@@ 97
road@@ 97
gran@@ 97
kno@@ 97
margs 97
Donnie 97
streak 97
Nam 97
arly 97
contest 97
inj@@ 97
famil@@ 97
rival 97
Asians 97
paw 97
ling@@ 97
vend@@ 97
criminal 97
eller 97
eee 97
lotions 97
tribute 97
Embassy 97
Eyecare 97
St-@@ 97
Excalibur 97
duplicate 96
ousness 96
grandpa 96
brow@@ 96
unlocked 96
Rogers 96
Cedar 96
croquettes 96
waitres@@ 96
greas@@ 96
kes@@ 96
L.A. 96
Amex 96
existence 96
crab@@ 96
impressed@@ 96
swordfish 96
periods 96
Avis 96
simo 96
discontinued 96
drinks.@@ 96
Parkway 96
siracha 96
butterfly 96
aguas 96
Luxor 96
shaker 96
marin@@ 96
disrespect 96
charge@@ 96
abordable 96
connecting 96
trial 96
Mindy 96
Southpark 96
popularity 96
.Re@@ 96
dial 96
6s 96
2005 96
Grove 96
ó@@ 96
Newmarket 96
city@@ 96
summer@@ 96
lager 96
import 96
commute 96
presentations 96
Grant 96
Eat24 96
costed 96
enemy 96
mar 96
Parking 96
cracking 96
elbow 96
Cassie 96
tment 96
memberships 96
jem 96
exhausted 96
stranded 96
ddy 96
shir@@ 96
fresh-@@ 96
witty 96
job. 96
TSA 96
chalk 96
louder 96
salespeople 96
crash 96
forsure 96
apologizing 96
minds 96
.i 96
fever 96
shorted 96
Emerald 96
chamango 96
full-@@ 96
nightlife 96
trampoline 96
boiling 96
rica 96
nieces 96
visual 96
cools 96
airbrush 96
simplement 96
zio 96
wig 96
Vida 96
deeply 95
drunks 95
Bac@@ 95
dice 95
Litchfield 95
cocktail@@ 95
Coventry 95
Aliante 95
ght 95
seldom 95
Rebel 95
components 95
agave 95
employed 95
grows 95
disturbing 95
hear@@ 95
technically 95
momma 95
essi@@ 95
choc 95
peaches 95
mb@@ 95
SB 95
identify 95
Reno 95
rip-off 95
green@@ 95
spot-on 95
smu@@ 95
Az@@ 95
rie 95
Bun@@ 95
Sk@@ 95
day- 95
Westlake 95
jal@@ 95
watch@@ 95
gem@@ 95
tent 95
7.95 95
Bethany 95
pity 95
headaches 95
は 95
doodle 95
prickly 95
positively 95
cont@@ 95
.Even 95
fit@@ 95
bers 95
causal 95
ene@@ 95
î@@ 95
torched 95
ender 95
gor@@ 95
symphony 95
conservative 95
bee@@ 95
planted 95
Beverly 95
utter 95
timeshare 95
forgetful 95
Miranda 95
Bloomfield 95
Monroeville 95
improv 95
thermostat 95
Rome 95
Roma 95
uma 95
spir@@ 94
beg@@ 94
ben 94
Tan@@ 94
batting 94
sati@@ 94
grave 94
newbies 94
bureau 94
sI 94
Kir@@ 94
concoctions 94
Polo 94
stein 94
tha@@ 94
54 94
2. 94
draught 94
.Too 94
represented 94
aria 94
Primanti 94
appe@@ 94
Bl@@ 94
What 94
ま@@ 94
isle 94
avi@@ 94
downer 94
Marcos 94
Sherry 94
Mrs. 94
toenails 94
barn 94
Elaine 94
massaged 94
invisible 94
cumin 94
dominoes 94
inspiration 94
Fin@@ 94
methods 94
Chipolte 94
curtains 94
forty 94
attire 94
faithful 94
Bow@@ 94
strangely 94
respected 94
She@@ 94
all-time 94
ego 94
Kona 94
group@@ 94
tam 94
Jay@@ 94
definitively 94
lax 94
mel 94
consul@@ 94
iches 94
Creamery 94
direc@@ 94
sch 94
mailing 94
coup 94
sky@@ 94
slop 94
Curtis 94
45min 94
Ol@@ 94
accu@@ 94
lucked 94
yel@@ 94
theat@@ 94
ador@@ 94
bark 94
botched 94
panels 94
ris 94
assembled 94
scored 94
survey 94
crack@@ 94
lard 94
porc 94
Dilly 94
voted 93
manageable 93
ester 93
pub@@ 93
12pm 93
.Pros 93
.After 93
Bree 93
inted 93
pony 93
poster 93
bums 93
ming@@ 93
Kim@@ 93
dea@@ 93
affair 93
'en 93
vel 93
fuzzy 93
cloths 93
restaur@@ 93
hil@@ 93
midi 93
Dr.@@ 93
gouge 93
lipstick 93
Sasha 93
injuries 93
cruiser 93
har 93
ness@@ 93
consume 93
honest@@ 93
tipsy 93
hou@@ 93
Euro 93
edi@@ 93
115 93
elo@@ 93
heritage 93
06 93
blo@@ 93
lyn 93
intimidated 93
Michele 93
ap 93
strip@@ 93
Sedona 93
unheard 93
enjoyment 93
Willoughby 93
bangers 93
vos 93
Glen 93
Food@@ 93
illa@@ 93
suprised 93
amb@@ 93
-N@@ 93
5Service 93
dismissive 93
berto 93
Shaun 93
waking 93
K-@@ 93
arti@@ 93
Shield 93
Joyce 93
Ramon 93
nook 93
Siam 93
shining 93
Barb 93
ladder 93
awesomely 92
ambianc@@ 92
snarky 92
bour@@ 92
sour@@ 92
dunno 92
len 92
mgmt 92
oooo 92
rite 92
Cantina 92
concentrate 92
shel@@ 92
compensation 92
butchered 92
dock 92
celebrations 92
did@@ 92
chill@@ 92
speeding 92
aim 92
exaggerating 92
resolving 92
HE@@ 92
fies 92
g. 92
powering 92
woo 92
ood@@ 92
strings 92
formerly 92
tolerate 92
sac@@ 92
pests 92
aron 92
Dec 92
Forum 92
bond 92
measurements 92
tot 92
skillful 92
scen@@ 92
not-so-@@ 92
forte 92
stewed 92
serveurs 92
view@@ 92
chem@@ 92
zesty 92
pedestrian 92
darling 92
done.@@ 92
DVDs 92
participate 92
box@@ 92
helpfull 92
Chardonnay 92
introduction 92
museums 92
travelled 92
Rea@@ 92
25.00 92
established 92
knocking 92
grossly 92
.Ex@@ 92
Rancho 92
-M@@ 92
banter 92
vada 92
repair@@ 92
bies 92
karahi 92
inept 92
athletic 92
tracking 92
movement 92
calendar 92
salle 92
sweetener 92
az@@ 92
hatch 92
ining 92
lis 92
collec@@ 92
employment 92
ine.@@ 92
Australian 92
expectation@@ 92
gee@@ 92
loooo@@ 92
bouncy 92
naans 92
702 92
helicopter 92
Galleria 92
pupusa 92
seri@@ 91
lap@@ 91
kee@@ 91
esta@@ 91
craziness 91
ab 91
specialized 91
believer 91
tbh 91
cked 91
Nana 91
ano@@ 91
Einsteins 91
substandard 91
41 91
Pac@@ 91
resulted 91
actu@@ 91
consistantly 91
revamped 91
voices 91
wor 91
cherries 91
especial 91
checkup 91
math 91
Hoo@@ 91
jackpot 91
participation 91
Russell 91
key@@ 91
pinto 91
americanos 91
weary 91
Thank 91
yea@@ 91
loooooo@@ 91
liquors 91
Dor@@ 91
grad 91
aring 91
hh@@ 91
lot@@ 91
ship@@ 91
billiards 91
ensures 91
12am 91
overpowered 91
lessly 91
briyani 91
sco 91
foot@@ 91
Mississippi 91
routinely 91
cet 91
scu@@ 91
tual 91
combo@@ 91
paraffin 91
humorous 91
ski@@ 91
oooooooo@@ 91
greatness 91
brim 91
ial 91
saturated 91
meringue 91
predictable 91
headphones 91
proceed 91
same@@ 91
Disneyland 91
contracts 91
.Place 91
buttons 91
ects 91
graciously 91
same-day 91
teri@@ 91
expected@@ 91
dyed 91
reunion 91
get-@@ 91
cotta 91
Cliff 91
oldies 91
sigh@@ 91
tubes 91
Renaissance 91
Pickering 91
Shay 91
smil@@ 91
Franco 91
healed 91
ain@@ 91
gelati 91
dered 91
microblading 91
izing 90
assessed 90
radi@@ 90
flown 90
Phillip 90
Napa 90
dum 90
rage 90
mules 90
eck@@ 90
exchanged 90
zar@@ 90
Baskin 90
patronizing 90
pm-@@ 90
Mitch 90
Highlands 90
rejuvenated 90
mmmmmmm 90
-5 90
.Been 90
converse 90
curbside 90
Clean 90
bone-in 90
zzle 90
opp@@ 90
01 90
depuis 90
solving 90
í 90
lieu 90
compar@@ 90
savoureux 90
citizen 90
impersonal 90
detail@@ 90
oper@@ 90
chart 90
hhhhh 90
banging 90
favorable 90
weir@@ 90
ean 90
disliked 90
gens 90
Barnes 90
smallish 90
regu@@ 90
Mexic@@ 90
actively 90
heel 90
iconic 90
chal@@ 90
jealous 90
party@@ 90
overhaul 90
determine 90
carnivore 90
curry@@ 90
contrast 90
Wal 90
5.95 90
bloo@@ 90
presents 90
proportion 90
suicide 90
archery 90
Highland 90
club@@ 90
ripping 90
oodles 90
prettiest 90
Cristo 90
lemonades 90
us. 90
variation 90
.These 90
eys 90
ood 90
typing 90
dor 90
keto 90
Suns 90
intake 90
miscommunication 90
xed 90
aint 90
frapp@@ 90
sanitized 90
improves 90
Drs 90
sponge 90
bucco 90
snag 90
wrapper 90
dell 90
Xavier 90
HS 90
throws 90
oranges 90
excellant 90
happiest 90
Bavarian 90
ao 90
taste@@ 90
theory 90
Infiniti 90
140 90
Gold@@ 90
legged 90
alo 89
Alexander 89
prawn 89
messes 89
sketch 89
CC@@ 89
Dev@@ 89
defective 89
massaging 89
family-friendly 89
thru@@ 89
Ds 89
wood@@ 89
gation 89
wiring 89
Amigos 89
lookin 89
ema@@ 89
Wor@@ 89
bom@@ 89
lev@@ 89
manufacturer 89
lockers 89
1.75 89
station@@ 89
bias 89
oxtails 89
souvent 89
slick 89
graphic 89
cranky 89
6-8 89
Blanca 89
13th 89
specified 89
mind@@ 89
mansion 89
pigs 89
ills 89
copies 89
ate.@@ 89
paper@@ 89
fob 89
Haley 89
Sheppard 89
waff@@ 89
smack 89
rag 89
offs 89
mates 89
pumped 89
crêpe 89
overwhelmingly 89
admittedly 89
Pearson 89
apo@@ 89
kal@@ 89
drowning 89
Michaels 89
blocking 89
lac@@ 89
slur@@ 89
Mul@@ 89
dation 89
wears 89
Rx 89
processing 89
alkaline 89
boarded 89
larb 89
Pamela 89
client@@ 89
interrupted 89
Thompson 89
peppered 89
topless 89
Noel 89
stair@@ 89
sukiyaki 89
Sally 89
beat@@ 89
neighborhood@@ 89
nah 89
Auto@@ 89
CB@@ 89
Sho@@ 89
.Worth 88
garnish 88
stomachs 88
curated 88
Bloom 88
drum 88
better. 88
grainy 88
ffed 88
dur@@ 88
specialists 88
hang@@ 88
brainer 88
Rhonda 88
shit@@ 88
fascinating 88
là 88
bic@@ 88
yyyy 88
value@@ 88
tina 88
debating 88
notable 88
functioning 88
leash 88
potions 88
Latino 88
eve 88
anas 88
hopeful 88
kimchee 88
matzo 88
purposely 88
Nat@@ 88
bush 88
anything@@ 88
kas 88
Shepard 88
trusting 88
steering 88
s.com 88
fting 88
knacks 88
instruments 88
Dame 88
pré@@ 88
lec@@ 88
ohh 88
fleet 88
Academy 88
Fries 88
dynamic 88
Laurie 88
slushies 88
blooming 88
lef@@ 88
that. 88
successfully 88
twi@@ 88
nephews 88
branches 88
termin@@ 88
Albertson 88
SS 88
Co. 88
chandelier 88
Ac@@ 88
sweetie 88
grains 88
speechless 88
rotors 88
dor@@ 88
considerably 88
retournerai 88
refrigerated 88
ecstatic 88
yogurts 88
Ariel 88
Jameson 88
SD 88
put@@ 88
indication 88
cabs 88
nuong 88
bingsu 88
utilized 88
1500 88
eclair 88
intention 88
trapped 88
Out@@ 88
insulted 88
Autozone 88
Sco@@ 88
lumpy 88
bleed 88
Lao 88
doo 88
eclairs 88
.Le 88
disc 88
cosmetics 88
lum@@ 88
fromage 88
く@@ 88
kan@@ 87
microbrews 87
oor 87
KC 87
odds 87
moo@@ 87
total@@ 87
nal 87
brass 87
ious 87
swamped 87
floor@@ 87
expres@@ 87
old-@@ 87
mill@@ 87
mileage 87
scammers 87
.Com@@ 87
deny 87
Fal@@ 87
koobideh 87
ot@@ 87
gin@@ 87
anchovies 87
multi@@ 87
crumble 87
must-@@ 87
demanded 87
Verona 87
sé 87
Egg@@ 87
modify 87
refresher 87
vege 87
manag@@ 87
Benz 87
pren@@ 87
stea@@ 87
Woody 87
POS 87
12.@@ 87
Ana@@ 87
conclusion 87
shoestring 87
aromatic 87
instance 87
specify 87
up-sell 87
Atmosphere 87
Germany 87
blackjack 87
Parkdale 87
near@@ 87
rice@@ 87
body@@ 87
tory 87
wizard 87
builder 87
toasts 87
treadmill 87
hurricane 87
angle 87
pirate 87
pallet 87
Carter 87
freshener 87
pleasent 87
aya 87
Dani 87
sandwichs 87
360 87
hhhh 87
niche 87
Lincoln 87
cracks 87
cus 87
Ajax 87
Nando 87
lack@@ 87
gross@@ 87
ent. 87
claw 87
anyhow 87
conver@@ 87
ized 87
primo 87
72 87
RA 87
who@@ 87
hawk 87
Home@@ 87
resonable 87
apparel 87
landlord 87
Piper 87
paleo 87
AL@@ 87
shadow 87
CBD 87
brave 87
helmet 87
200@@ 87
By@@ 87
Dakota 87
LASIK 87
erie 87
fattoush 87
RN 86
doc@@ 86
glamorous 86
12.00 86
Christy 86
psy@@ 86
pediatrician 86
900 86
wired 86
.Some 86
pea@@ 86
8.95 86
sous 86
Ordered 86
powered 86
deci@@ 86
charismatic 86
Edwin 86
ers.@@ 86
に 86
standby 86
ting@@ 86
redid 86
Floyd 86
correcting 86
Poké 86
overworked 86
unwanted 86
apathetic 86
CenturyLink 86
cing 86
mmed 86
upcharge 86
cooled 86
owed 86
popsicles 86
h-@@ 86
Starbuck 86
boa 86
geez 86
truely 86
even@@ 86
.Tried 86
at-@@ 86
nastiest 86
ool 86
donation 86
microdermabrasion 86
dismissed 86
tunnel 86
tangerine 86
lit@@ 86
dal@@ 86
skates 86
Arthur 86
mu 86
moly 86
knot 86
fing 86
Wildflower 86
needle 86
growlers 86
obscure 86
rain@@ 86
zzi 86
cosmic 86
détour 86
skim@@ 86
tsos 86
inis 86
nes@@ 86
tournaments 86
glorified 86
seedy 86
helper 86
Marilyn 86
ice-@@ 86
Buc@@ 86
ssed 86
sk 86
Olga 86
lif@@ 86
3.75 86
Chan@@ 86
stom@@ 86
linger 86
wer 86
mieux 86
Jen@@ 86
volumes 86
indi@@ 86
holistic 86
aire 86
Tango 86
dough@@ 86
Erie 86
thighs 85
blankets 85
gur@@ 85
exi@@ 85
.Super 85
recover 85
attenti@@ 85
amazeballs 85
in-store 85
dug 85
del 85
Mahalo 85
reporting 85
disrespected 85
winners 85
more. 85
Sen@@ 85
intro 85
airpor@@ 85
blaring 85
poppin 85
jour@@ 85
justified 85
tomatillo 85
bol 85
all-around 85
transplant 85
chow@@ 85
gr8 85
Feb 85
disgustingly 85
options.@@ 85
tti 85
piña 85
Anderson 85
Georgia 85
tator 85
shameful 85
never@@ 85
remo@@ 85
astounding 85
describing 85
Sel@@ 85
uninspiring 85
you. 85
.Next 85
Linq 85
crispier 85
alternate 85
vely 85
ssa 85
Moxie 85
Heath 85
wack 85
well-prepared 85
congested 85
years.@@ 85
refunds 85
bumps 85
Greenway 85
Daniels 85
trains 85
scammed 85
tees 85
Rosatis 85
versa 85
standouts 85
Lewis 85
proceeds 85
Mars 85
commend 85
Rhino 85
jazzy 85
f-@@ 85
empty@@ 85
thir@@ 85
mur@@ 85
zoo@@ 85
enthusiasts 85
zipper 85
span 85
dee 85
ATL 85
ana@@ 85
TS 85
Roo@@ 85
Gloria 85
chihuahua 85
patches 85
Claire 85
pls 85
somethings 85
planting 85
Indonesian 85
SL@@ 85
Mekong 85
nel 85
retirement 85
160 85
Becca 85
mofongo 85
spéci@@ 85
strains 85
Nelly 85
itis 84
taker 84
midday 84
57 84
opera 84
dinosaur 84
plant@@ 84
mixologist 84
Cardinals 84
Fatburger 84
headlights 84
hill@@ 84
Mao 84
kind@@ 84
gar 84
Boars 84
supported 84
expressed 84
controlled 84
trashed 84
vaccines 84
Kennedy 84
Rosie 84
lovel@@ 84
Kilt 84
Kra@@ 84
represents 84
resorts 84
customs 84
cost@@ 84
respon@@ 84
tables@@ 84
backup 84
too.The 84
weirdly 84
lounging 84
chickpeas 84
proactive 84
Sept 84
fucked 84
adoré 84
Frappuccino 84
postal 84
absent 84
dead@@ 84
eat-in 84
omen@@ 84
rescheduled 84
patronage 84
NYPD 84
minimalist 84
leaky 84
labels 84
gas@@ 84
ries 84
sian 84
linens 84
également 84
greetings 84
Capri 84
ducts 84
buckets 84
vegas. 84
Deanna 84
Collins 84
pav 84
suppl@@ 84
Barrio 84
work. 84
hydr@@ 84
Ellen 84
auction 84
Frontier 84
flys 84
bran@@ 84
Pittsburg 84
botanical 84
bud@@ 84
bartending 84
Ram 84
halo-halo 84
Motors 84
125 84
Verrado 84
pottery 84
Dominican 83
Rocco 83
Natasha 83
elaborate 83
hitch 83
acidic 83
Glenn 83
sauce. 83
ati 83
aca@@ 83
.Ch@@ 83
Buster 83
forgive 83
ragu 83
grat@@ 83
fennel 83
Dew 83
dessert@@ 83
Bianco 83
anti-@@ 83
85@@ 83
bed@@ 83
not-@@ 83
sleepy 83
ahold 83
Chen@@ 83
g-@@ 83
bis@@ 83
bearable 83
r. 83
bunny 83
privilege 83
globe 83
chalkboard 83
.Keep 83
worth@@ 83
noir 83
は@@ 83
です 83
diff@@ 83
struck 83
fireworks 83
tis 83
Rac@@ 83
screening 83
rinse 83
cattle 83
Susie 83
--they 83
Pablo 83
tend@@ 83
messaged 83
Ran@@ 83
accomplish 83
tense 83
unnecessarily 83
cali@@ 83
situé 83
defintely 83
quar@@ 83
Bally 83
rrrr@@ 83
bakers 83
later@@ 83
viol@@ 83
Thurs 83
Pres@@ 83
strippers 83
yummiest 83
tempered 83
urant 83
ge-@@ 83
Serenity 83
Dec@@ 83
LO@@ 83
potentially 83
Clau@@ 83
Prius 83
thouse 83
.Wish 83
staff- 83
merci 83
make-up 83
Mai@@ 83
contamination 83
Stanley 83
tostones 83
TGI 83
snake 83
Milwaukee 83
junkie 83
ido 83
ait 83
xoxo 83
11.@@ 83
Whit@@ 83
desi 83
lump 83
desser@@ 83
kicker 83
quelques 83
Jun 83
ston 83
passengers 83
paddle 83
ordinaire 83
elling 83
Bruno 83
unlikely 83
Mark@@ 83
momo 83
maternity 83
chimney 83
Mandi 83
Gino 83
pom@@ 82
impolite 82
Sea@@ 82
Kel@@ 82
14.99 82
appalling 82
volunteer 82
Orchid 82
fraudulent 82
eg 82
transport 82
attest 82
cau@@ 82
panko 82
slippery 82
crumbly 82
respec@@ 82
tellement 82
SS@@ 82
level@@ 82
1,000 82
o. 82
vre 82
burros 82
74 82
Aqua 82
magnifique 82
disappointments 82
add@@ 82
goers 82
flavorful@@ 82
Wellington 82
ranchero 82
Is@@ 82
critic 82
logist 82
hangs 82
ades 82
poblano 82
well.The 82
Moore 82
grandfather 82
popsicle 82
window@@ 82
resses 82
lmao 82
Always 82
homefries 82
concerning 82
Ari@@ 82
oa 82
morons 82
in-laws 82
trims 82
Quality 82
cadre 82
ve. 82
50th 82
Tur@@ 82
ett 82
Kat@@ 82
profesional 82
liner 82
inconveniencing 82
noises 82
gros 82
て@@ 82
rr 82
elementary 82
Corona 82
freedom 82
disco 82
délicieuse 82
secondly 82
builds 82
spot. 82
displeased 82
serveuse 82
relieve 82
unseasoned 82
baggage 82
bothers 82
capers 82
baos 82
Van@@ 82
renovating 82
Darlene 82
很 82
decore 82
enne 82
carrier 82
sauga 82
CB 82
Air@@ 82
Lin 82
Lloyd 82
Pro 82
GMC 82
logy 81
formula 81
corkage 81
pasta@@ 81
ein 81
bes 81
playful 81
reminding 81
moreover 81
Bou@@ 81
Kan@@ 81
00.00 81
Institute 81
¢ 81
fries. 81
for-@@ 81
Americ@@ 81
babe 81
ion 81
spreads 81
concer@@ 81
amp 81
click 81
Cassandra 81
font 81
staycation 81
ribbon 81
ular 81
skillets 81
Joanna 81
bos 81
crews 81
Kay@@ 81
abrupt 81
mailed 81
Marshall 81
b. 81
56 81
concise 81
prenatal 81
pedi@@ 81
attracts 81
DoorDash 81
swallow 81
mee@@ 81
deffin@@ 81
aching 81
hai 81
years. 81
saumon 81
deep-fried 81
guiding 81
shin@@ 81
eron 81
Hayden 81
spur 81
booty 81
whilst 81
classi@@ 81
infant 81
scope 81
cheating 81
renters 81
resource 81
visite 81
transit 81
る@@ 81
affect 81
merely 81
bartend@@ 81
.Amazing 81
exercises 81
necessities 81
but@@ 81
Potbelly 81
carousel 81
focuses 81
informing 81
singles 81
aces 81
Samurai 81
coarse 81
eland 81
frying 81
halls 81
surpri@@ 81
graffiti 81
cheek 81
2004 81
identified 81
coney 81
ped@@ 81
Moo@@ 81
palatable 81
quer@@ 81
perfume 81
gong 81
Marty 81
Napoli 81
Krista 81
vu 81
friends.@@ 81
curl 81
Wylie 81
physicians 80
CN 80
ly- 80
excess 80
occurred 80
chain@@ 80
grungy 80
oiled 80
raspberries 80
aways 80
CA@@ 80
girly 80
emphasis 80
'attente 80
price.I 80
ones@@ 80
gag 80
Jetta 80
nov@@ 80
ae 80
20th 80
partake 80
30.00 80
handicapped 80
excellents 80
Bee@@ 80
behalf 80
needles 80
abi@@ 80
découverte 80
reports 80
adopt 80
JT 80
assu@@ 80
abandoned 80
decorative 80
bb 80
cancelling 80
leased 80
temper@@ 80
themes 80
flirting 80
grill@@ 80
non-smoking 80
southeast 80
yester@@ 80
e.We 80
chilies 80
Zia 80
drinks. 80
sips 80
unappealing 80
Leon 80
zzzz@@ 80
times. 80
examination 80
fuckin 80
puke 80
plush 80
ext@@ 80
indulgence 80
supplied 80
mum 80
rally 80
ce.@@ 80
brushes 80
convo 80
an-style 80
suffice 80
Nashville 80
safer 80
Bubba 80
meatless 80
PG 80
Luxe 80
corporation 80
supermarkets 80
19.99 80
contrary 80
scra@@ 80
putt 80
shepherds 80
petting 80
Came 80
Bec@@ 80
mage 80
s-- 80
reste 80
Sav@@ 80
bull@@ 80
timed 80
sammich 80
litt@@ 80
development 80
faulty 80
marijuana 80
Optic 80
Milestones 80
Safelite 80
Ram@@ 80
rel 80
........... 80
brushed 80
arise 80
haul 80
-T@@ 80
vrai 80
Yen 80
Sinatra 80
weighed 80
Zipps 80
Sakura 80
ology 79
emergencies 79
eria 79
zen 79
plum@@ 79
asses 79
sie 79
temporarily 79
makhani 79
sambar 79
too- 79
slic@@ 79
cue 79
diesel 79
warranties 79
motivation 79
accused 79
Ji@@ 79
kid-friendly 79
filets 79
hound 79
upselling 79
staff.I 79
Penang 79
が@@ 79
compet@@ 79
streaks 79
11.99 79
Chu@@ 79
concourse 79
showcase 79
.Most 79
snappy 79
now. 79
liter 79
bundle 79
reflected 79
great.@@ 79
cafés 79
frost 79
surround 79
super-friendly 79
roasters 79
laden 79
advertises 79
chess 79
drive-@@ 79
dives 79
span@@ 79
hl 79
blade 79
gossiping 79
bouche 79
Wally 79
time.@@ 79
mochas 79
Reg@@ 79
hotspot 79
traded 79
gang@@ 79
recomm@@ 79
nar@@ 79
chic@@ 79
on-line 79
Michelin 79
sor 79
ché 79
ggle 79
ske@@ 79
applying 79
runners 79
bracelet 79
ate@@ 79
Fuji 79
www 79
nat@@ 79
thank@@ 79
check-out 79
meilleure 79
Senor 79
waaay 79
miracles 79
Franks 79
Tesla 79
al-@@ 79
registered 79
ded@@ 79
BB@@ 79
mation 79
coughing 79
iri 79
5- 79
dispensers 79
compromise 79
M-F 79
Sheila 79
non-chain 79
diabetic 79
930 79
acoustic 79
class@@ 79
When 79
wagon 79
gimmick 79
吃 79
scallions 79
bic 79
challenged 79
Midway 79
strolling 79
secluded 79
PNC 79
Ron@@ 79
on-site 79
unfair 79
headlight 79
yuzu 79
hainan 79
EM@@ 79
oder 79
etait 79
Patel 79
Bret 79
blu@@ 78
gossip 78
aba 78
snacking 78
0.00 78
lich 78
cell@@ 78
Alberta 78
.Sp@@ 78
thri@@ 78
swell 78
ures 78
Heinz 78
universe 78
Jam@@ 78
AW@@ 78
shifts 78
Noah 78
uncommon 78
hops 78
ortho 78
deceptive 78
add-ons 78
alle@@ 78
stored 78
Morton 78
esque 78
twelve 78
classique 78
sThe 78
week. 78
syn@@ 78
al. 78
chicken. 78
adobada 78
line-up 78
Blu@@ 78
más 78
May@@ 78
Baldwin 78
dier 78
daal 78
RI@@ 78
jello 78
.Awesome 78
upped 78
non-dairy 78
breed 78
than@@ 78
lone 78
Mar 78
mussel 78
moussaka 78
HI@@ 78
awfully 78
meticulously 78
pis@@ 78
resulting 78
leisurely 78
Teri 78
eh@@ 78
drooling 78
dun@@ 78
beautiful@@ 78
Americana 78
novel 78
smar@@ 78
dian 78
jalepeno 78
bathroom@@ 78
four@@ 78
radiator 78
87 78
MVP 78
Seoul 78
bong 78
cover@@ 78
scoo@@ 78
Cuyahoga 78
behaved 78
jackfruit 78
acknowledging 78
blender 78
toasty 78
eyed 78
refer@@ 78
fender 78
latter 78
exceedingly 78
Giovanni 78
acid 78
11.00 78
melty 78
Lexi 78
ud 78
hooking 78
Patricia 78
Eastside 78
hostile 78
Chrysler 78
McC@@ 78
RP 78
Teddy 78
formed 78
bridesmaids 78
behold 78
optional 78
Hokkaido 78
convenien@@ 78
revamp 78
prescribed 78
46 78
BevMo 78
s.P@@ 78
66 78
itions 78
Atomic 78
Qui@@ 78
sunflower 78
verre 78
Stan 78
stroganoff 78
All@@ 78
Chevrolet 78
para@@ 77
sad@@ 77
tro 77
cayenne 77
lace 77
ply 77
ddled 77
venison 77
upkeep 77
gam@@ 77
Water@@ 77
ring@@ 77
kababs 77
tooth@@ 77
Walter 77
wind@@ 77
peopl@@ 77
tended 77
semble 77
games@@ 77
puck 77
maneuver 77
に@@ 77
arr@@ 77
craps 77
gae 77
itters 77
severs 77
invested 77
stering 77
swept 77
mother@@ 77
Kari 77
artistry 77
flyers 77
BC 77
thing. 77
wiz 77
hid 77
shoddy 77
carbon 77
paratha 77
cand@@ 77
peine 77
complemented 77
fungus 77
mariachi 77
toaster 77
scores 77
salmon@@ 77
terri@@ 77
optical 77
Oct 77
influence 77
images 77
98 77
Maine 77
enticing 77
delivery@@ 77
umbrellas 77
sinks 77
perfec@@ 77
goooood 77
Rodeo 77
inclined 77
accidents 77
stir@@ 77
Mor 77
restra@@ 77
time- 77
lightening 77
grab@@ 77
snowy 77
tch 77
Angel@@ 77
fundraiser 77
.Pizza 77
seating@@ 77
experiment 77
adjusting 77
Serrano 77
diggity 77
rito 77
Garrett 77
diff 77
5stars 77
Hainanese 77
shook 77
Morris 77
graduate 77
umami 77
stranger 77
wers 77
scri@@ 77
sert 77
pal 77
Kristin 77
griddle 77
Dante 77
Freemont 77
conveyor 77
Ferrari 77
Yvonne 77
researched 76
onia 76
officer 76
50-@@ 76
diluted 76
uck@@ 76
NBA 76
callus 76
sociable 76
hovering 76
ank 76
--not 76
teeny 76
kebob 76
step@@ 76
logical 76
unavailable 76
crickets 76
cushions 76
bodies 76
President 76
appy 76
People 76
affordable@@ 76
donated 76
pointing 76
exclu@@ 76
ovens 76
shment 76
Mic@@ 76
Pinkberry 76
unt 76
posole 76
market@@ 76
saganaki 76
Nak@@ 76
le. 76
minestrone 76
bedrooms 76
modified 76
Omni 76
iens 76
roaming 76
gulab 76
infested 76
tablets 76
mangos 76
Kristina 76
fec@@ 76
script 76
yumminess 76
tinga 76
blog 76
cking 76
Gen 76
curtious 76
45am 76
8-10 76
heal 76
tonite 76
ounds 76
whereas 76
fears 76
Lyn@@ 76
steroids 76
sloooooo@@ 76
drawing 76
flaw 76
hurried 76
hmmmm 76
There 76
charbroiled 76
Mamma 76
compressor 76
look@@ 76
slack 76
medications 76
landsca@@ 76
TTC 76
trouver 76
18th 76
yall 76
pel@@ 76
ead 76
edition 76
train@@ 76
At@@ 76
civ@@ 76
2-4 76
guar@@ 76
awaiting 76
unfamiliar 76
manner@@ 76
rubbing 76
Medi@@ 76
07 76
store. 76
ique 76
acro@@ 76
Cici 76
bedding 76
Bellini 76
unload 76
great-@@ 76
bologna 76
colours 76
mand@@ 76
manicotti 76
CS@@ 76
sho 76
hehe 76
| 76
coaching 76
agu@@ 76
Volkswagen 76
Cohen 76
needed@@ 76
molcajete 76
softball 76
Mei 76
Walmarts 76
Kohl 76
eased 75
rights 75
haves 75
me.@@ 75
abd 75
radar 75
ast 75
concepts 75
Menchies 75
ops 75
reconsider 75
chive 75
keno 75
lasagne 75
sh-@@ 75
buisness 75
AD@@ 75
Kerry 75
terrier 75
eeee 75
Accord 75
heirloom 75
precooked 75
senses 75
drug@@ 75
usu@@ 75
bak@@ 75
OB 75
Cherokee 75
subject 75
EZ 75
delici@@ 75
whis@@ 75
en. 75
ATV 75
nia 75
Minnesota 75
lands 75
gouging 75
autres 75
craved 75
excessively 75
popu@@ 75
2.75 75
busting 75
dez 75
Dis@@ 75
leek 75
EV@@ 75
scooters 75
-in-@@ 75
mig@@ 75
polar 75
price-@@ 75
flooded 75
evaluate 75
letters 75
unaware 75
vouchers 75
CEO 75
wy 75
permission 75
facelift 75
commen@@ 75
wary 75
ml 75
cmon 75
inadequate 75
mixer 75
Tha@@ 75
CES 75
Karla 75
reassured 75
harass 75
snapped 75
eggroll 75
spraying 75
Angelina 75
wax@@ 75
CP@@ 75
appl@@ 75
chimichurri 75
confor@@ 75
achi@@ 75
Alberto 75
pitiful 75
Hill@@ 75
jolly 75
obtain 75
disregard 75
Empire 75
nec@@ 75
interests 75
designing 75
Tribe 75
winery 75
Rex 75
Toby 75
brasserie 75
ffy 75
accompag@@ 75
instruc@@ 75
article 75
Bathurst 75
mixers 75
extraction 75
Lesley 75
jail 75
Ming 75
Shu@@ 75
Timbers 75
Richards 75
wrist 74
incline 74
motto 74
afternoon@@ 74
uns 74
dige@@ 74
enclosed 74
chargers 74
chou@@ 74
pancetta 74
LG 74
arian 74
retreat 74
sugar@@ 74
clin@@ 74
89@@ 74
vins 74
caviar 74
surpasses 74
insightful 74
monopoly 74
shooter 74
Yum@@ 74
North@@ 74
Mes@@ 74
40.00 74
diver@@ 74
spe@@ 74
rush@@ 74
sym@@ 74
chowmein 74
mir@@ 74
Ga@@ 74
美 74
tika 74
mouth-watering 74
females 74
pray 74
stacks 74
portions.@@ 74
slapped 74
timeliness 74
raspado 74
lollipop 74
tts 74
alia 74
lled 74
isse 74
marinade 74
wai@@ 74
itely 74
dding 74
prepping 74
awkwardly 74
wie 74
22@@ 74
ETA 74
chats 74
ris@@ 74
4.95 74
drill 74
honey@@ 74
ddles 74
Benjamin 74
Supercuts 74
gents 74
Ven@@ 74
Got 74
pitaya 74
educating 74
threatened 74
soya 74
craz@@ 74
oversell 74
sag@@ 74
potato@@ 74
Thanks 74
glam 74
fle@@ 74
dat 74
GI 74
sem@@ 74
bunnies 74
twee@@ 74
remover 74
sno@@ 74
こ@@ 74
Roc@@ 74
Steele 74
py@@ 74
crowded@@ 74
haters 74
jolie 74
on- 74
tle 74
observed 74
Hugh 74
Mona 74
oma 74
-a-@@ 74
uuu@@ 74
veggi@@ 74
honeydew 74
exec@@ 74
interstate 74
bble 74
isi@@ 74
ign 74
cio 74
routes 74
Ric@@ 74
EWC 74
panna 74
stre@@ 74
regular@@ 74
kraut 74
boun@@ 74
crafty 74
Ros@@ 74
Keep 74
nea@@ 74
Winking 74
ddle 74
onn@@ 74
lunch. 74
vege@@ 74
metropolitan 74
orchestra 74
McGill 74
78 74
techno 74
55@@ 74
tailors 74
Rooter 74
blanc 74
diagnostics 74
stro@@ 74
laps 74
resized 74
DM@@ 74
cluster 74
revolving 74
thrive 74
stance 73
gou@@ 73
mouths 73
Packers 73
divi@@ 73
Pic@@ 73
vegetari@@ 73
mall@@ 73
downtown@@ 73
Brittney 73
jack@@ 73
cardamom 73
ooooo 73
Swenson 73
alize 73
bot 73
forcing 73
reservation@@ 73
massaman 73
5-stars 73
inaccurate 73
tuxedo 73
dumpy 73
vans 73
legitimately 73
-great 73
58 73
.Every 73
elicious 73
-ups 73
preserved 73
atos 73
furnace 73
coordinated 73
BFF 73
centered 73
restaurante 73
illas 73
.Decent 73
rich@@ 73
fail@@ 73
scre@@ 73
olo 73
stry 73
quer 73
snail 73
humongous 73
koo@@ 73
adequately 73
2hrs 73
yi@@ 73
accep@@ 73
moneys 73
Camry 73
vv@@ 73
Pointe 73
Tabasco 73
Nirvana 73
Gro@@ 73
distribu@@ 73
ers@@ 73
peek 73
epicenter 73
warrior 73
Gor@@ 73
Phoenix@@ 73
Global 73
experienc@@ 73
Joanne 73
As@@ 73
licked 73
loaves 73
burlesque 73
overhyped 73
rier 73
.Coffee 73
hum 73
replacements 73
suey 73
NP 73
Fargo 73
Jack@@ 73
Macayo 73
911 73
leaning 73
adresse 73
60s 73
tives 73
marriage 73
citizens 73
pitch@@ 73
Hil@@ 73
bouquets 73
injera 73
commended 73
Capastrami 73
similarly 73
puzzle 73
waaaaay 73
aer@@ 73
steered 73
bfast 73
rice.@@ 73
Margaret 73
â@@ 73
Mir@@ 73
Tetsu 73
ess.@@ 73
Salvadorian 73
framing 73
papusas 73
Poo@@ 73
Lorain 73
Haus 73
Jord@@ 73
Motown 73
Habib 73
spine 72
sity 72
tge 72
eatable 72
recovering 72
yolk 72
vacationing 72
ging@@ 72
Ak@@ 72
talents 72
The@@ 72
contents 72
a- 72
Afghani 72
circles 72
neighborhoods 72
Big@@ 72
GE 72
Iranian 72
raviolis 72
Flemings 72
biting 72
ado@@ 72
Cle@@ 72
b4 72
Tacoma 72
antenna 72
funghi 72
inc@@ 72
Brit@@ 72
whoo@@ 72
nauseous 72
me.The 72
.Customer 72
lollipops 72
ov@@ 72
abit 72
grimy 72
vert 72
ding@@ 72
Pric@@ 72
spartan 72
tienen 72
lesser 72
.Small 72
hauled 72
libations 72
titles 72
mishap 72
greats 72
buff@@ 72
riot 72
11th 72
suffers 72
icated 72
hal 72
63 72
dio 72
adap@@ 72
inferior 72
vé@@ 72
soles 72
though. 72
rec 72
good.Service 72
Duke 72
hus@@ 72
Over@@ 72
bows 72
cheese.@@ 72
provi@@ 72
thrill 72
OR@@ 72
snickers 72
toast@@ 72
generations 72
Bad@@ 72
listener 72
homie 72
4. 72
sause 72
chaque 72
appalled 72
timeframe 72
excel 72
beneficial 72
s.A 72
stem 72
dges 72
-based 72
bhaji 72
pumpkins 72
ital@@ 72
BO@@ 72
hi-@@ 72
aten@@ 72
eur 72
Brook@@ 72
MVD 72
habachi 72
Allure 72
senti@@ 72
Caribou 72
Milano 72
pir@@ 72
leys 72
sardines 72
7-8 72
Kam@@ 72
Cornish 72
suspicious 72
surcharge 72
aficionado 72
drown 72
confronted 72
Corral 72
xi@@ 72
24hr 72
eno 72
nothing@@ 72
Soleil 72
Pho@@ 72
toute 72
mly 72
Woo@@ 72
Loblaws 72
Dani@@ 72
dinosaurs 72
hires 72
Denis 72
golfing 72
cabinet 72
superbe 72
Deb 72
breasts 72
hammer 72
fabrics 72
BYOW 72
Giants 72
Jon@@ 72
accom@@ 71
fishes 71
Was 71
misunderstanding 71
world@@ 71
Rev@@ 71
Clean@@ 71
T-bone 71
itty 71
geese 71
atmosphere- 71
fixins 71
een 71
trouvé 71
towner 71
dispute 71
Yogi 71
A-1 71
-they 71
blink 71
ahhh 71
rum@@ 71
awake 71
energized 71
exceptional@@ 71
Its 71
3000 71
chair@@ 71
shouting 71
aj@@ 71
consist@@ 71
lookout 71
lon 71
食 71
untrained 71
swears 71
starve 71
tit@@ 71
sher 71
most@@ 71
.J. 71
ados 71
dramatic 71
anchor 71
Rich@@ 71
mercy 71
Crescent 71
urry 71
.Come 71
vegas@@ 71
Dominic 71
extravagant 71
wonderland 71
gggg@@ 71
boeuf 71
soci@@ 71
walk@@ 71
hugely 71
.Drinks 71
goulash 71
boycott 71
Kraft 71
s.Food 71
dignity 71
boy@@ 71
Sylvia 71
Wat@@ 71
episode 71
pod 71
lau 71
supplement 71
Memphis 71
wou@@ 71
note@@ 71
Parisian 71
aligned 71
.Pretty 71
15th 71
margar@@ 71
Boy@@ 71
dissapoint 71
Calvin 71
tail@@ 71
bury 71
cabeza 71
obsession 71
periodically 71
petits 71
biggie 71
tia 71
roam 71
shipment 71
Kierland 71
prefer@@ 71
.2 71
damages 71
rys 71
Hum@@ 71
laffa 71
conducive 71
cavatelli 71
utes 71
Check 71
onal@@ 71
guitars 71
noo@@ 71
Royale 71
meal. 71
ancient 71
mistaken 71
mice 71
potion 71
lest 71
Peggy 71
wether 71
一 71
Showmars 71
madras 71
cuon 71
Spain 71
toxic 71
uro@@ 71
definitley 71
Bryce 71
sanctuary 71
RR@@ 71
harassing 71
screamed 71
Navy 71
Karl 71
galbi 71
Max@@ 71
stix 71
XS 70
bets 70
sparkly 70
Make 70
tioned 70
population 70
dod@@ 70
tagliatelle 70
Asi@@ 70
pappardelle 70
DI@@ 70
Rogue 70
meme 70
spee@@ 70
Fried 70
oli@@ 70
so-@@ 70
relevant 70
Elliot 70
yang 70
importance 70
mmy 70
hiccups 70
ician 70
demanding 70
Fr@@ 70
recei@@ 70
festivals 70
02 70
ilo 70
definit@@ 70
68 70
spicy@@ 70
tabl@@ 70
eww 70
で 70
た@@ 70
organiz@@ 70
dommage 70
deteriorated 70
pig@@ 70
norm@@ 70
ide 70
dir@@ 70
commit 70
chewed 70
peeve 70
appointment@@ 70
gazpacho 70
proc@@ 70
Brad@@ 70
CN@@ 70
dering 70
cab@@ 70
possible@@ 70
increasing 70
broad@@ 70
examples 70
Pennsylvania 70
elles 70
Jacqueline 70
double-@@ 70
snakes 70
cela 70
vieux 70
petty 70
Orchard 70
Stat@@ 70
personal@@ 70
quiches 70
5min 70
rollers 70
vastly 70
sexual 70
accommodates 70
graphics 70
Pkwy 70
bratwurst 70
long-@@ 70
stly 70
glass@@ 70
John@@ 70
Durham 70
Ray@@ 70
orn 70
rider 70
aunts 70
cartilage 70
fast. 70
aga 70
soit 70
sil 70
Christ 70
South@@ 70
channa 70
by-@@ 70
itable 70
motiv@@ 70
Ward 70
simpl@@ 70
Carla 70
speci@@ 70
crust@@ 70
ania 70
sleeves 70
bingsoo 70
googled 70
allez 70
Sophie 70
Beaver 70
Julian 70
Tivoli 70
old@@ 70
eck 70
-very 70
mem@@ 70
lick@@ 70
ès 70
Rey 70
Ronnie 70
hing 70
whistles 70
bathtub 70
Campbell 70
Clover 70
Vinnie 70
tru 70
riders 70
è 70
ffles 70
home. 70
Drake 70
However 70
se-@@ 70
carpeting 70
Godfather 70
ON@@ 70
nings 70
Egyptian 70
marshmallows 70
spill 70
broths 70
Zona 70
trinkets 70
alternator 70
excell@@ 70
retourne 70
innov@@ 70
yl 70
Millie 70
Boris 70
Armenian 70
thu 70
karts 70
Sands 70
Gin@@ 70
Hoban 70
pills 69
gratitude 69
ologist 69
bt 69
vacant 69
millions 69
wher@@ 69
diets 69
1000@@ 69
bec 69
Invisalign 69
LE@@ 69
turing 69
anyday 69
retailers 69
enhance 69
bitchy 69
dismal 69
stos 69
extr@@ 69
100.00 69
iam 69
jas 69
operates 69
claustrophobic 69
mexicana 69
ッ@@ 69
delete 69
guessed 69
inconsistency 69
grated 69
bio 69
bumpy 69
drums 69
pec@@ 69
Ur@@ 69
dic 69
spanakopita 69
recomend@@ 69
ience 69
theft 69
rewarded 69
nice.The 69
inhaled 69
cooperative 69
files 69
refu@@ 69
impromptu 69
leaked 69
set@@ 69
paycheck 69
admire 69
dre@@ 69
aun@@ 69
authorized 69
cement 69
diagnosing 69
16oz 69
.At 69
hairy 69
fiancee 69
Yukon 69
oz. 69
Lux 69
zombies 69
drive@@ 69
satis@@ 69
wed@@ 69
desires 69
injured 69
drab 69
starch 69
ally@@ 69
Euro@@ 69
Syrian 69
done. 69
judged 69
adventures 69
B12 69
grouchy 69
stics 69
hhhh@@ 69
lut@@ 69
profits 69
aled 69
const@@ 69
bar. 69
géné@@ 69
wildlife 69
flock 69
andy 69
eri 69
extractions 69
km 69
--but 69
ppo@@ 69
Anita 69
retain@@ 69
wis@@ 69
esa 69
.To 69
pointers 69
processes 69
renewing 69
Vicki 69
baths 69
perm 69
quel 69
rescued 69
horrible. 69
hm 69
.Bu@@ 69
Our 69
faint 69
zel 69
extent 69
Cour@@ 69
closure 69
slushes 69
comple@@ 69
minister 69
cables 69
comforter 69
winter@@ 69
scenes 69
TS@@ 69
dit 69
Talon 69
earns 69
Hop@@ 69
Jillian 69
enviroment 69
dder 69
sman 69
Federal 69
Atlas 69
Robins 69
Burke 69
Hale 69
Lab@@ 69
Rolex 69
Zupas 69
brewers 68
sours 68
kom@@ 68
boar@@ 68
laughable 68
Any@@ 68
albacore 68
Southend 68
xtra 68
cum@@ 68
secre@@ 68
restore 68
hydrated 68
origin 68
som 68
parsley 68
soy@@ 68
Hou@@ 68
oxygen 68
elec@@ 68
massa@@ 68
NO@@ 68
bear@@ 68
forever@@ 68
.Both 68
customers.@@ 68
stadiums 68
surgeries 68
amusing 68
skimped 68
swapped 68
husky 68
.First 68
Ry@@ 68
highlighted 68
mus 68
discussion 68
salsa@@ 68
ece 68
puree 68
famili@@ 68
asi 68
cultures 68
verity 68
users 68
Tyson 68
vapes 68
poolside 68
plump 68
bref 68
tl@@ 68
Hamilton 68
home-cooked 68
EDC 68
programmed 68
rendered 68
convert 68
yor@@ 68
hoisin 68
carnivores 68
qualify 68
tably 68
86 68
East@@ 68
gratin 68
Paso 68
first@@ 68
Din@@ 68
collabor@@ 68
hustled 68
anim@@ 68
nectar 68
enhanced 68
donut@@ 68
damned 68
On 68
unk 68
mend 68
9.50 68
dow@@ 68
brule 68
sangrias 68
DD@@ 68
Merlot 68
thé 68
playgrounds 68
skin@@ 68
musician 68
UK 68
'a@@ 68
ke. 68
Arizon@@ 68
eves 68
fast-@@ 68
supervision 68
hygienic 68
earrings 68
aver@@ 68
heat@@ 68
wat 68
receptive 68
.Have 68
obj@@ 68
AP@@ 68
mermaid 68
mints 68
cuis@@ 68
proven 68
sewing 68
amazing.The 68
pose 68
promotional 68
helpings 68
bott@@ 68
amateurs 68
Maurice 68
lock@@ 68
comming 68
ño 68
conseille 68
resembles 68
pero@@ 68
paletas 68
height 68
ked. 68
Glock 68
déçu 68
seamstress 68
Cinnabon 68
nerd 68
preserve 68
hyper 68
Fairmont 68
introducing 68
Knight 68
Owen 68
whopper 68
hospit@@ 67
describes 67
iss 67
overprice 67
poison 67
ely@@ 67
bility 67
otta 67
mind-blowing 67
Rai@@ 67
souffle 67
champ 67
Candice 67
irs 67
gggg 67
relations 67
airplane 67
etiquette 67
Estrella 67
dnt 67
iously 67
forces 67
thoughtfully 67
れ@@ 67
e.They 67
stool 67
sis@@ 67
morn@@ 67
remarks 67
threatening 67
inspire 67
shimi 67
Awesome 67
distinctive 67
fingerprints 67
hot-@@ 67
massage@@ 67
Apex 67
202 67
scro@@ 67
GT 67
sinful 67
Warner 67
ving@@ 67
chaud 67
multigrain 67
pals 67
Phantom 67
Potter 67
underwear 67
skimping 67
reflection 67
découvrir 67
drum@@ 67
anime 67
liter@@ 67
Lorraine 67
CL@@ 67
Kansas 67
rez 67
OK@@ 67
blan@@ 67
releases 67
JP 67
plugged 67
Cra@@ 67
deserted 67
wipes 67
Soho 67
tured 67
chiles 67
tones 67
escal@@ 67
dissapointing 67
retriever 67
dist@@ 67
Ton@@ 67
diligently 67
whomever 67
cranberries 67
rethink 67
curtain 67
tableside 67
grocer 67
GMO 67
jou@@ 67
Tomo 67
customization 67
bum 67
Caleb 67
fron@@ 67
traps 67
Priceline 67
abu@@ 67
way. 67
power@@ 67
Sammie 67
Destiny 67
shaves 67
stench 67
noticing 67
vi 67
5000 67
pattern 67
cokes 67
Mid@@ 67
Allie 67
designers 67
oat 67
uncomfortably 67
dreaded 67
made-to-order 67
danishes 67
Cab@@ 67
soso 67
Bob@@ 67
silent 67
microwa@@ 67
Monona 67
gui@@ 67
scents 67
pixie 67
5. 67
Dickey 67
sten 67
patisserie 67
non-alcoholic 67
tow@@ 67
teppan 67
caffeinated 67
Kor@@ 67
document 67
OTF 67
Ashlee 66
bloated 66
stretches 66
ordin@@ 66
acks 66
idli 66
wifes 66
ams 66
evi@@ 66
ix 66
Dijon 66
mustache 66
choices@@ 66
hideaway 66
Wesley 66
pulls 66
1200 66
Iowa 66
Fuddruckers 66
m.@@ 66
rine 66
vaccinations 66
deleted 66
eed 66
chon 66
cheaply 66
political 66
recording 66
Rafael 66
lett@@ 66
lengths 66
ah-mazing 66
confidently 66
dreamy 66
nothin 66
looooove 66
ility 66
sav@@ 66
.Loved 66
corp 66
thur 66
jun@@ 66
Ah@@ 66
elish 66
ppl@@ 66
sneaky 66
Bronx 66
Update 66
onic 66
day.I 66
specifications 66
beans@@ 66
rhubarb 66
acquired 66
lan 66
Fresh 66
er- 66
wires 66
achy 66
lia 66
bearded 66
êtes 66
aloof 66
71 66
numb 66
youll 66
incredible@@ 66
eBay 66
° 66
chimis 66
JW 66
Vis@@ 66
gly 66
erv@@ 66
housemade 66
immaculately 66
Sonics 66
eness 66
pebble 66
furthermore 66
yers 66
thanx 66
20pm 66
Missy 66
bal 66
Warren 66
validate 66
YouTube 66
drawer 66
alement 66
idéal 66
dom@@ 66
ん@@ 66
Cur@@ 66
cord 66
Peru 66
mural 66
éri@@ 66
Dol@@ 66
affiliated 66
Laval 66
Amazing 66
unlock 66
cop 66
briefly 66
notify 66
iPhones 66
Suzanne 66
constructed 66
strap 66
kka 66
shrunk 66
toiletries 66
lah 66
hustling 66
absolument 66
discre@@ 66
grams 66
XD 66
icon 66
yeast 66
athletes 66
hen@@ 66
.75 66
contracted 66
Boyd 66
tale 66
ratt@@ 66
Manuel 66
Roxy 66
stee@@ 66
5star 66
wannabe 66
ning@@ 66
waves 66
foosball 66
bypass 66
dity 66
Nepali 66
quintessential 66
Hailey 66
pinky 66
.90 66
Doo@@ 66
bases 66
conna@@ 66
bordering 66
expo 66
exiting 66
TK 66
Maltese 66
Melinda 66
Bonefish 66
conduct 66
Shirley 66
sorted 66
Reef 66
yogis 66
Martha 66
quad 66
deducted 66
shawerma 66
.Update 66
2003 66
hs 66
Birkdale 66
woot 66
Newman 66
dumpster 66
ppe 66
Fiat 66
laz@@ 65
ú@@ 65
.Atmosphere 65
serviceable 65
divided 65
seperate 65
SU@@ 65
averag@@ 65
Tem@@ 65
wholeheartedly 65
haz@@ 65
tee@@ 65
gli@@ 65
gio 65
locking 65
comb 65
champion 65
rebate 65
TL 65
drinkable 65
reopening 65
stro 65
mentally 65
effortless 65
2001 65
53 65
beating 65
tip@@ 65
micro-@@ 65
WO@@ 65
gimmicks 65
chutneys 65
hippie 65
funniest 65
customizing 65
bestie 65
quoi 65
outstanding@@ 65
pickiest 65
tful 65
grandchildren 65
accounting 65
braids 65
snack@@ 65
filth 65
classical 65
fuck@@ 65
plz 65
Moes 65
fifty 65
pescado 65
deaf 65
Burger@@ 65
depressed 65
slightest 65
flow@@ 65
accommodat@@ 65
yes@@ 65
time-@@ 65
tually 65
.Parking 65
ssss@@ 65
authority 65
OS 65
wable 65
otic 65
Maricopa 65
Flagstaff 65
s.Very 65
freestyle 65
Mister 65
hardy 65
mac 65
McD@@ 65
mortar 65
pha@@ 65
xing 65
Satur@@ 65
Ai@@ 65
accoun@@ 65
soli@@ 65
ass@@ 65
lean@@ 65
ordered@@ 65
heaping 65
oooooo 65
asse@@ 65
protected 65
Fun@@ 65
TR 65
CM 65
macho 65
choke 65
loun@@ 65
aim@@ 65
habits 65
pretending 65
goû@@ 65
atly 65
frat 65
drun@@ 65
76 65
lobsters 65
tack 65
savvy 65
indic@@ 65
treadmills 65
peppery 65
three-@@ 65
inging 65
detec@@ 65
too-@@ 65
gots 65
ice.@@ 65
honoring 65
ô@@ 65
coffeehouse 65
overlooks 65
Earls 65
eo 65
submitted 65
snails 65
courteous@@ 65
clowns 65
Cabernet 65
fem@@ 65
ambiente 65
pushes 65
worms 65
employer 65
r.@@ 65
test@@ 65
TV@@ 65
yak@@ 65
critters 65
ax@@ 65
Maxx 65
bearing 65
cini 65
escaped 65
spiritual 65
empathetic 65
carafe 65
brunette 65
enc@@ 65
kawali 65
déco 65
tech@@ 65
bop 65
mob 65
Riley 65
discouraged 65
neighbour@@ 65
Stow 65
dissappointed 65
wayyyyy 65
Yu 65
Rand@@ 65
yung 65
sinigang 65
7-11 65
reali@@ 65
up-to-date 65
está 65
unc@@ 65
Montana 65
Lev@@ 65
War@@ 65
sharks 65
itly 65
Dysport 65
Aug 64
labs 64
sensitivity 64
heavier 64
bathing 64
-L@@ 64
Lim@@ 64
looove 64
moron 64
dint 64
Providence 64
piec@@ 64
teamwork 64
turtles 64
spl@@ 64
thi 64
hangouts 64
component 64
rectified 64
ers. 64
heaven@@ 64
well-kept 64
honeymoon 64
shuttles 64
Roosevelt 64
capp@@ 64
.Probably 64
thre@@ 64
evidence 64
develop 64
refreshingly 64
Sto@@ 64
Shih 64
safe@@ 64
truc@@ 64
première 64
scallo@@ 64
ret 64
kaiser 64
uous 64
Son@@ 64
tif 64
bree@@ 64
lions 64
bastard 64
flimsy 64
prepar@@ 64
hourly 64
commu@@ 64
-a 64
wl 64
fritt@@ 64
PJ 64
diabetes 64
flames 64
.Then 64
OC 64
ava@@ 64
unattentive 64
necessity 64
well-done 64
TB 64
permit 64
Place 64
flood 64
Desiree 64
eres 64
must@@ 64
abuse 64
cashews 64
DA 64
out-of-town 64
KK 64
foremost 64
certificates 64
playoff 64
thirst 64
insp@@ 64
experience.I 64
fores@@ 64
varying 64
terrible. 64
girl@@ 64
Drinks 64
Tat@@ 64
crisps 64
rocher 64
profession@@ 64
pumping 64
Butler 64
Stevie 64
occu@@ 64
'avais 64
côté 64
dueling 64
Coca 64
out-@@ 64
leen 64
sera 64
Donny 64
roasting 64
tix 64
reliability 64
platform 64
xs 64
business.@@ 64
Lon@@ 64
Buca 64
sandals 64
Savannah 64
underdone 64
hard-working 64
sec 64
Roberts 64
plaisir 64
carnival 64
blowouts 64
smooth@@ 64
sew 64
collectibles 64
az 64
Wagner 64
Malibu 64
mail@@ 64
home-@@ 64
summary 64
Robbie 64
QC 64
godsend 64
overloaded 64
meditation 64
outstand@@ 64
reeks 64
pened 64
informa@@ 64
imaging 64
down-to-earth 64
codes 64
pata 64
respectfully 64
Abe 64
Realty 64
10.50 64
Yolanda 64
accents 64
friendly- 64
ency 64
take-@@ 64
handbags 64
rup@@ 64
mange 64
compensated 64
mps 64
sentence 64
GT@@ 64
xe 64
vez 64
umbrella 64
clubbing 64
Olmsted 64
Ranger 64
Cre@@ 64
stead 64
xx@@ 64
Wendys 64
Nandos 64
rea 64
Playhouse 64
ote 64
Gil 64
competing 63
cie 63
menu- 63
hoppy 63
clog 63
dem 63
Krist@@ 63
inclusive 63
over-cooked 63
TT@@ 63
said@@ 63
hooray 63
ray 63
everything. 63
lor@@ 63
mediocrity 63
No. 63
Swensons 63
squir@@ 63
undoubtedly 63
relocating 63
afford@@ 63
Candace 63
productive 63
trav@@ 63
frickin 63
chee 63
there.The 63
mare 63
.Chicken 63
released 63
UN@@ 63
kennel 63
enter@@ 63
Cincinnati 63
intentionally 63
bord 63
witness 63
marg 63
sympathetic 63
collector 63
Tami 63
Mexicans 63
func@@ 63
proper@@ 63
tikki 63
subscription 63
eee@@ 63
bio@@ 63
compact 63
bus@@ 63
.Fast 63
recommended@@ 63
Marine 63
mexic@@ 63
ved@@ 63
discu@@ 63
sammies 63
vable 63
unkept 63
litter 63
incroyable 63
re. 63
largely 63
ら@@ 63
tian 63
hushpuppies 63
verbally 63
non-veg 63
rural 63
High@@ 63
caffe 63
blazing 63
cke@@ 63
sar 63
indicate 63
dollar@@ 63
belongs 63
Burton 63
consummate 63
sources 63
Tasha 63
silence 63
Leafs 63
84 63
tabbouleh 63
calmed 63
lug 63
20s 63
asado 63
Bier 63
enjoy@@ 63
Amelia 63
shined 63
invitations 63
Devon 63
good.We 63
belts 63
choco 63
delicacies 63
sol 63
repa@@ 63
Jody 63
Scar@@ 63
cornhole 63
TC 63
Ramsey 63
reptiles 63
furnished 63
lows 63
carribean 63
smoo@@ 63
sville 63
conversational 63
pennies 63
Nadia 63
laminate 63
Steeler 63
bilingual 63
autre 63
perfectly@@ 63
03 63
purposes 63
entitled 63
inte@@ 63
imi 63
inclu@@ 63
Tsao 63
Sebastian 63
launch 63
lina 63
infinity 63
105 63
choo@@ 63
tossing 63
HS@@ 63
hier 63
stoped 63
Gordo 63
affogato 63
FTW 63
negotiate 63
sburg 63
brittle 63
employ 63
shortbread 63
Pet@@ 63
execute 63
profiles 63
peels 63
Monk 63
infected 63
irrit@@ 63
ected 63
networking 63
grinders 63
iPod 63
tour@@ 63
bae 63
multitude 63
collecting 63
promptness 63
revi@@ 63
Prima 63
diner-@@ 63
Tonya 63
fighter 63
Keegan 63
Alexa 62
farmhouse 62
feathers 62
clone 62
agrees 62
tomato@@ 62
ppings 62
.com. 62
flourless 62
panic 62
daughter@@ 62
O. 62
tion. 62
resturants 62
rootbeer 62
e-mail 62
esha 62
gastropub 62
horri@@ 62
jk 62
illes 62
shop. 62
selves 62
yyyy@@ 62
veterinarians 62
observation 62
breakdown 62
Loc@@ 62
Trisha 62
unsatisfactory 62
Tracey 62
Sil@@ 62
Steph 62
Greyhound 62
assess 62
.Fresh 62
gout 62
ING 62
hell@@ 62
aters 62
fortement 62
ganache 62
pans 62
coffee. 62
kitchen@@ 62
mming 62
lomein 62
い 62
pool@@ 62
3.5@@ 62
tick 62
.Why 62
tease 62
allé 62
donating 62
Sum@@ 62
excelent 62
joyful 62
fluff@@ 62
galleries 62
turmeric 62
dul@@ 62
83 62
manu@@ 62
't@@ 62
magically 62
prefers 62
MMA 62
retarded 62
Maybe 62
e--@@ 62
wifi@@ 62
Lex@@ 62
Brazilians 62
avait 62
nouveau 62
Bamb@@ 62
Bernie 62
tempeh 62
budtenders 62
torch 62
luscious 62
Burgatory 62
Deli@@ 62
tokens 62
woul@@ 62
accommodation 62
something@@ 62
certification 62
deplorable 62
arch 62
Japan@@ 62
Nar@@ 62
kidney 62
Regina 62
extra@@ 62
trampolines 62
osa 62
capture 62
tines 62
refurbished 62
4Runner 62
Tahoe 62
ache@@ 62
Izzy 62
unch 62
Nicks 62
acu@@ 62
VR 62
confir@@ 62
mented 62
50pm 62
3.25 62
thawed 62
SIM 62
Craigslist 62
genti@@ 62
NS 62
differenti@@ 62
mble 62
Dillon 62
Osaka 62
mover 62
diving 62
lations 62
Cornerstone 62
Kendra 62
bandeja 62
jar@@ 62
oom 62
Firefly 62
eyewear 62
Peters 62
eyeliner 62
Penguin 62
eliminated 62
Mountainside 62
Brennan 62
steamer 62
Wigwam 62
twood 62
Small@@ 62
path@@ 61
antibiotics 61
birth@@ 61
zin 61
demo@@ 61
.Avoid 61
addic@@ 61
pan-@@ 61
atención 61
finals 61
Hillary 61
malts 61
clarify 61
--a 61
Raymond 61
blades 61
disappointed. 61
equi@@ 61
religious 61
ucked 61
ggles 61
fairy 61
ED 61
X-@@ 61
oir 61
focusing 61
right. 61
ssa@@ 61
audi@@ 61
atten@@ 61
together@@ 61
forewarned 61
desi@@ 61
JB 61
gusto 61
trad@@ 61
Even 61
Jim@@ 61
blatantly 61
Chel@@ 61
franchised 61
interior@@ 61
Mayfield 61
Flores 61
T-@@ 61
ove 61
elegance 61
Their 61
Scottish 61
Blanco 61
clouds 61
masseuses 61
mann 61
yess@@ 61
Quick 61
coal 61
again.@@ 61
attracted 61
ト@@ 61
worm 61
tious 61
barbershops 61
b-day 61
reader 61
mingle 61
49@@ 61
pre-packaged 61
Ciao 61
walkway 61
bikers 61
beauti@@ 61
Hun@@ 61
line.@@ 61
ective 61
emissions 61
warms 61
hoops 61
-it 61
RJ 61
yoghurt 61
towers 61
omin@@ 61
expedient 61
recommand 61
Homer 61
applies 61
leagues 61
mys 61
ル@@ 61
digs 61
Eco@@ 61
togethers 61
religiously 61
tland 61
pac 61
sweeping 61
impression@@ 61
Cleveland@@ 61
ula 61
Carolyn 61
reuse 61
coils 61
donations 61
Felicia 61
rejected 61
Bul@@ 61
phase 61
t.v. 61
everyones 61
refinance 61
biet 61
Mont 61
yan 61
whiskeys 61
claws 61
back.The 61
termites 61
reptile 61
beer. 61
Both 61
Carmax 61
pre-cooked 61
rash 61
straightened 61
lifelong 61
slee@@ 61
flipping 61
jap 61
childcare 61
vault 61
joyed 61
wwwww 61
quietly 61
Ever@@ 61
publi@@ 61
tranqu@@ 61
resul@@ 61
Janice 61
eyeglass 61
aloe 61
Bren@@ 61
efficace 61
moody 61
warranted 61
Kelli 61
cleanly 61
iny 61
well-made 61
visibly 61
She 61
ure@@ 61
RT 61
sacrifice 61
Bol@@ 61
fraî@@ 61
ox@@ 61
Dyson 61
screwing 61
caldo 61
boutiques 61
pomodoro 61
brown@@ 61
Lea@@ 61
fuller 61
masks 61
professor 61
nem 61
creatures 61
wo 60
celebrities 60
mush@@ 60
foodora 60
uniqu@@ 60
Clint 60
classier 60
Tex@@ 60
well-maintained 60
pad@@ 60
eigh@@ 60
anticipate 60
poor@@ 60
exorbitant 60
practicing 60
understated 60
Tol@@ 60
selection. 60
p.s 60
suprise 60
2.25 60
Super 60
reimbursed 60
500@@ 60
quant 60
Tzu 60
first-time 60
préféré 60
ira@@ 60
bey@@ 60
s.Will 60
make@@ 60
value.@@ 60
mecca 60
agin 60
philosophy 60
toler@@ 60
62 60
strea@@ 60
product@@ 60
Romano 60
huge@@ 60
deeee@@ 60
drivethru 60
contribu@@ 60
tering 60
ph 60
Derrick 60
Priscilla 60
1980 60
sti 60
reveal 60
ono 60
Airways 60
automobile 60
13.99 60
Blu 60
mad@@ 60
minutes. 60
mouthful 60
dept. 60
ragoons 60
itive 60
bler 60
branding 60
flavor. 60
itter 60
rist@@ 60
immature 60
fizz 60
creatively 60
ropes 60
Clayton 60
ahhhh 60
Jeremiah 60
facil@@ 60
ceux 60
lander 60
cs 60
ii@@ 60
PD 60
knick 60
Rol@@ 60
requiring 60
ér@@ 60
Rose@@ 60
cordon 60
bout@@ 60
Cay 60
cafe@@ 60
vor 60
shrubs 60
buffed 60
gelatos 60
survived 60
FC 60
predic@@ 60
12oz 60
settling 60
snoo@@ 60
roads 60
C-U 60
Malbec 60
correc@@ 60
grassy 60
Res@@ 60
mac-n-cheese 60
Carolinas 60
Aspen 60
nement 60
wiches 60
kill@@ 60
Lam 60
Euclid 60
measures 60
funds 60
phi@@ 60
goats 60
sures 60
Connor 60
insur@@ 60
mania 60
Hugo 60
hipster@@ 60
bie 60
neys 60
Aloft 60
locating 60
ope 60
unloading 60
Ellie 60
isolated 60
lement 60
commander 60
menue 60
24th 60
icky 60
Israel 60
lig@@ 60
bacon@@ 60
positi@@ 60
booster 60
.While 60
sos 60
atop 60
robots 60
icians 60
chlorine 60
wavy 60
Nicky 60
forgets 60
chives 60
不 60
Dom 60
amat@@ 60
Cortez 60
bert 60
loans 60
overbooked 60
schnauzer 60
sible 60
augmentation 60
sper@@ 60
alled 60
gadgets 60
Way@@ 60
replac@@ 60
windshields 60
impl@@ 60
aler@@ 60
Lakeshore 60
pinoy 60
arro@@ 60
acio 60
foun@@ 60
illusions 60
aggravation 59
stroke 59
joked 59
responsiveness 59
rice. 59
entries 59
las@@ 59
Cap@@ 59
wen 59
adored 59
Eagles 59
chandeliers 59
oui 59
reccomended 59
Kylie 59
ded. 59
struc@@ 59
transfor@@ 59
-sized 59
incentive 59
valle@@ 59
bangin 59
DE@@ 59
respects 59
submit 59
grime 59
consist 59
prom@@ 59
chubby 59
pilaf 59
Buick 59
Bron@@ 59
amo@@ 59
25-@@ 59
gorditas 59
walkable 59
letdown 59
dless 59
portabella 59
tats 59
5.25 59
clinics 59
tit 59
Rd. 59
rung 59
人 59
き@@ 59
story@@ 59
rem@@ 59
employe@@ 59
Bri 59
frita 59
potatos 59
pronounce 59
guest@@ 59
cer 59
Connie 59
damaging 59
Dobson 59
Rodney 59
distant 59
reccom@@ 59
compliant 59
cookout 59
Kathleen 59
moisturi@@ 59
dispatch 59
yummm@@ 59
cado 59
dden 59
nap@@ 59
Jeff@@ 59
knock@@ 59
regretting 59
ew@@ 59
exceeding 59
goofy 59
proportioned 59
strudel 59
supplier 59
fted 59
TI@@ 59
indulged 59
interest@@ 59
Aussie 59
supp@@ 59
worship 59
Nothing 59
............ 59
freaked 59
monsoon 59
alway@@ 59
emo 59
reson@@ 59
Clar@@ 59
tasks 59
Metro@@ 59
effec@@ 59
gat@@ 59
latté 59
refriger@@ 59
sive@@ 59
Cons- 59
anymore@@ 59
pianos 59
comical 59
horn 59
rude. 59
CMU 59
serious@@ 59
tight@@ 59
hydration 59
humanity 59
mapo 59
poin@@ 59
Watson 59
line@@ 59
there.I 59
analy@@ 59
oul@@ 59
enny 59
spreading 59
eyeglasses 59
cavities 59
manufac@@ 59
73 59
sides@@ 59
skill@@ 59
propre 59
nell 59
wierd 59
Fan@@ 59
thia 59
Brendan 59
Szechwan 59
McDs 59
haunts 59
asa 59
out- 59
rs 59
.Check 59
transformation 59
inf@@ 59
s.Thank 59
attrac@@ 59
sleazy 59
FI@@ 59
donburi 59
income 59
lun@@ 59
Ceasars 59
pé@@ 59
.Pro@@ 59
llll@@ 59
D-@@ 59
Spa@@ 59
Kri@@ 59
pide 59
longtime 59
hula 59
embarrassment 59
Wade 59
sandwich. 59
etes 59
fashions 59
Kenneth 59
Jr. 59
Micheal 59
Rampart 59
pâtes 59
Howie 59
Astor 59
Apollo 59
price.The 58
comps 58
adoption 58
remodel@@ 58
chestnut 58
produces 58
projec@@ 58
insi@@ 58
consistent@@ 58
purée 58
drained 58
Get 58
Canton 58
ley@@ 58
.Unfortunately 58
forbid 58
they@@ 58
uplifting 58
toddy 58
Norma 58
630 58
Kao 58
casually 58
.Must 58
groo@@ 58
pastel 58
eries 58
creamier 58
performs 58
confirming 58
21@@ 58
hors 58
legally 58
exist@@ 58
entes 58
sir@@ 58
eng 58
stunned 58
wait. 58
average@@ 58
fairness 58
myself@@ 58
uber@@ 58
onion@@ 58
-time 58
pebbles 58
sided 58
timeline 58
soul@@ 58
nac@@ 58
ww@@ 58
sweep 58
ATT 58
essed 58
eth@@ 58
fiber 58
Penguins 58
eville 58
circuit 58
tuning 58
Elena 58
aaaaa@@ 58
steadily 58
grading 58
indulgent 58
CK@@ 58
zas 58
jamun 58
toned 58
cham@@ 58
destroy 58
spectacular@@ 58
nou@@ 58
manque 58
esses 58
stores@@ 58
scraps 58
andé 58
boire 58
pleas@@ 58
subj@@ 58
Fore@@ 58
sss 58
sizable 58
intrigued 58
wheel@@ 58
cach@@ 58
Irene 58
teen@@ 58
generals 58
pur 58
phenominal 58
win-win 58
dab 58
secured 58
.Give 58
Winston 58
onc@@ 58
soggy@@ 58
molten 58
dispatcher 58
coc@@ 58
armed 58
Madison@@ 58
eption 58
大 58
4x 58
Lacey 58
permits 58
Northlake 58
conventional 58
tttt@@ 58
bushes 58
vra@@ 58
mil 58
future@@ 58
cube 58
Geico 58
Mis@@ 58
eared 58
Parc 58
Hur@@ 58
insul@@ 58
emer@@ 58
volu@@ 58
hiccup 58
M-@@ 58
Thornhill 58
refresh@@ 58
drift 58
cartridge 58
yelping 58
elu@@ 58
Fletcher 58
Tou@@ 58
Green 58
nihari 58
ex-@@ 58
unruly 58
Pokemon 58
argu@@ 58
merchant 58
delis 58
bogus 58
gible 58
Australia 58
fine.@@ 58
Nic@@ 58
Freddie 58
sandwiches@@ 58
quickness 58
infront 58
FH 58
wast 58
piggy 58
Yelp@@ 58
word@@ 58
endo 58
Helena 58
ordeal 58
pods 58
k.@@ 58
ario 58
Gringos 58
barefoot 58
propane 58
Pok@@ 58
accountability 58
burbs 58
sizz@@ 58
machin@@ 58
drive-in 58
devils 58
yummo 58
back.I 58
effing 58
kitties 58
paisa 58
Carrab@@ 58
IPL 58
craw@@ 58
Purrfect 58
Tilted 58
axe 58
Sunchain 58
Eloff 58
strain 57
Salvador 57
Eddy 57
stubborn 57
tters 57
fr 57
edly 57
phere 57
latkes 57
Laurent 57
shor@@ 57
nee 57
IP@@ 57
standard@@ 57
450 57
Is 57
sneakers 57
bet@@ 57
Trent 57
cola@@ 57
ssi 57
Fla@@ 57
seatings 57
brighten 57
sumptuous 57
tique 57
substantially 57
resteraunt 57
Krystal 57
Champaign-Urbana 57
name@@ 57
affected 57
lacklustre 57
chicharron 57
partic@@ 57
Richie 57
Lopez 57
entertainer 57
6oz 57
agged 57
sensation 57
sustainable 57
Ambiance 57
-good 57
-made 57
dairy-free 57
audacity 57
convien@@ 57
830 57
Location 57
reggae 57
unresponsive 57
sinus 57
two@@ 57
25-30 57
satisfi@@ 57
ADA 57
main@@ 57
refillable 57
noting 57
Joeys 57
.Today 57
minis 57
intentions 57
perfecto 57
theses 57
hah 57
cation 57
pizza- 57
consumption 57
clown 57
amuse 57
topper 57
receives 57
unch@@ 57
nondescript 57
dusted 57
madame 57
lav@@ 57
Funday 57
fue 57
vale 57
freebies 57
Kore@@ 57
petites 57
sizzler 57
Cher@@ 57
geni@@ 57
tax@@ 57
BW@@ 57
ING@@ 57
cry@@ 57
Atlantic 57
professional. 57
demands 57
mg 57
fashionable 57
fleek 57
tec 57
Mea@@ 57
terre 57
s.L@@ 57
remedied 57
stle 57
Harrisburg 57
cooper@@ 57
conclu@@ 57
Debra 57
essa@@ 57
Libretto 57
sturdy 57
.Tip 57
ships 57
To 57
Nut@@ 57
230 57
branzino 57
crabby 57
.En@@ 57
Jas@@ 57
nice.I 57
vana 57
updat@@ 57
net@@ 57
away. 57
Vera 57
Law@@ 57
Rae 57
Nov 57
eli 57
gooooood 57
plutôt 57
Bat@@ 57
injec@@ 57
Carlton 57
gger 57
additi@@ 57
lls 57
2002 57
coral 57
Melody 57
softest 57
.Al@@ 57
build@@ 57
whistle 57
deadline 57
devour 57
faul@@ 57
Bor@@ 57
intoxicated 57
mets 57
Kam 57
seams 57
Showtime 57
tapa 57
hoses 57
extraordinaire 57
interrupting 57
insu@@ 57
Zan@@ 57
back.@@ 57
patient@@ 57
malgré 57
Chinese-@@ 57
Oak@@ 57
Dina 57
karage 57
Gerrard 57
amable 57
sue 57
lingering 57
Hendrick 57
groovy 57
Been 57
agré@@ 57
lettuc@@ 57
04 57
HH@@ 57
Jollibee 57
surfaces 57
wurst 57
pregame 57
Starbuck@@ 57
familia 57
rekey 57
Alamo 57
Motor@@ 57
dep@@ 57
intercom 57
Rav@@ 57
Mack 57
kat@@ 57
nurseries 57
Ale@@ 56
acy 56
USD 56
Cel@@ 56
10-12 56
variet@@ 56
canard 56
implant 56
Indiana 56
eat. 56
Now 56
59th 56
Jaguar 56
Nicholas 56
weakness 56
examined 56
pistol 56
ittle 56
Nazi 56
shim@@ 56
ep 56
nipples 56
tex@@ 56
expects 56
ored 56
ラ@@ 56
ior 56
Pierre 56
host@@ 56
while.@@ 56
relate 56
kee 56
thy@@ 56
correct@@ 56
sly 56
attic 56
reas@@ 56
try. 56
preparations 56
evidently 56
lighted 56
Cin@@ 56
Av@@ 56
course@@ 56
droo@@ 56
connec@@ 56
thanking 56
immedi@@ 56
tains 56
god@@ 56
anger 56
destinations 56
educ@@ 56
indo 56
cross@@ 56
cussing 56
gues 56
andes 56
ps@@ 56
itude 56
légumes 56
Trey 56
Gan@@ 56
GC 56
garnishes 56
realy 56
out.I 56
inci@@ 56
frown 56
daiquiri 56
medallions 56
notification 56
Bir@@ 56
bolts 56
helpful.I 56
open-@@ 56
porridge 56
burden 56
had.@@ 56
Chees@@ 56
noddles 56
rough@@ 56
ured 56
fools 56
repe@@ 56
continuous 56
fren@@ 56
Katy 56
Meghan 56
alter@@ 56
asi@@ 56
clean.I 56
groupe 56
mbled 56
Derby 56
gold@@ 56
kothu 56
start@@ 56
tolerance 56
bays 56
Mrs 56
toutes 56
measuring 56
coriander 56
semaine 56
4s 56
day.The 56
Arctic 56
ardo 56
design@@ 56
colourful 56
approaching 56
esty 56
finely 56
.Free 56
pois@@ 56
preservatives 56
pronounced 56
knowlegable 56
Mall@@ 56
wom@@ 56
Erick 56
bare@@ 56
Coldstone 56
doubts 56
Var@@ 56
.Over 56
replicate 56
gow 56
UT 56
flashy 56
Annette 56
108 56
Haw@@ 56
extre@@ 56
Wah 56
eak 56
stion 56
Doubletree 56
assed 56
guts 56
Aubrey 56
oke 56
Naomi 56
Perez 56
ept 56
beaut@@ 56
gastronom@@ 56
67 56
essayé 56
proudly 56
wink 56
satisfied@@ 56
Jin 56
82 56
.Delicious 56
esp. 56
dicks 56
soaps 56
pug 56
smoke@@ 56
dangerously 56
cheesey 56
croo@@ 56
gins 56
Niko 56
Sonia 56
23@@ 56
karate 56
cold. 56
Ronald 56
Hel@@ 56
chore 56
Bad 56
Os@@ 56
statues 56
golfers 56
NE@@ 56
Nick@@ 56
brai@@ 56
princi@@ 56
sev@@ 56
base@@ 56
scrape 56
installations 56
Wexford 56
Fix@@ 56
Zoey 56
cryotherapy 56
illness 55
UMC 55
revit@@ 55
estu@@ 55
pleaser 55
stive 55
zen@@ 55
an. 55
anced 55
hub@@ 55
TT 55
re-opened 55
spaced 55
garnished 55
simpler 55
difficulties 55
friends. 55
expensive. 55
auth@@ 55
Bikram 55
eeeee 55
hardwood 55
gent@@ 55
location- 55
frost@@ 55
proves 55
vibr@@ 55
bouncing 55
spra@@ 55
thum@@ 55
lano 55
mph 55
diminished 55
vague 55
varie@@ 55
andra 55
Inter@@ 55
.Hope 55
Fat@@ 55
row@@ 55
quali@@ 55
10-20 55
absurdly 55
doused 55
spilling 55
Coronas 55
Shelley 55
-and 55
connections 55
kitten 55
15am 55
rrr 55
baseboards 55
loveeee 55
Nik@@ 55
oran@@ 55
literal 55
swiftly 55
fantastic. 55
.D. 55
-n-@@ 55
dson 55
Wild@@ 55
cellphone 55
u-@@ 55
8oz 55
justi@@ 55
bibim@@ 55
Dav@@ 55
Pieology 55
gle 55
Sri 55
please@@ 55
kit@@ 55
crayons 55
eaux 55
neutral 55
TW 55
onally 55
ature 55
Chao 55
Rachael 55
Mim@@ 55
conversation@@ 55
idi@@ 55
bell 55
stoned 55
Tega 55
lad 55
Carly 55
shuck 55
40pm 55
back- 55
ig 55
gey 55
ly.@@ 55
slid 55
fund 55
rapidly 55
house. 55
Free 55
shellfish 55
inconvenienced 55
room. 55
fen@@ 55
zie 55
Rene 55
invest@@ 55
bien@@ 55
haute 55
vein 55
heartburn 55
managment 55
wayyyy@@ 55
rebuild 55
special. 55
yarn 55
non-stop 55
swi@@ 55
replies 55
B.S. 55
discourage 55
tofu@@ 55
grun@@ 55
.Two 55
promoter 55
Lamar 55
caveat 55
grid 55
inven@@ 55
Benihana 55
Commons 55
coaster 55
evening@@ 55
recomended 55
siempre 55
After 55
Han 55
consumers 55
prompt@@ 55
life. 55
portions. 55
né 55
offee 55
sélection 55
dong 55
resources 55
shocks 55
oya 55
nude 55
barking 55
facilit@@ 55
Be 55
offic@@ 55
marry 55
26@@ 55
Bashas 55
Ave. 55
lll 55
Pas@@ 55
al.@@ 55
Levi 55
roy@@ 55
demographic 55
haus 55
cas 55
insure 55
operators 55
presen@@ 55
riz 55
swim@@ 55
colle@@ 55
off-the-@@ 55
shio 55
AHS 55
Magnolia 55
Kohls 55
Gun@@ 55
Wel@@ 55
kits 55
Ichiban 55
identity 55
crisis 55
Dick@@ 55
cheese-@@ 55
prevention 55
palabok 55
aven@@ 55
AJs 55
boulangerie 55
premiere 55
roaster 55
find@@ 55
slushie 55
Nad@@ 55
Nobu 55
kis 55
act@@ 55
pizzerias 55
terriyaki 55
trading 55
Stoughton 55
stunk 55
Horton 55
Layla 55
Warhol 55
quality. 55
Bin@@ 55
cow@@ 55
Myers 55
taiyaki 55
cad@@ 54
inquiries 54
richness 54
für 54
paint@@ 54
ecting 54
rib-eye 54
pigeons 54
mond 54
argument 54
ird 54
eas 54
CH@@ 54
exhib@@ 54
28@@ 54
tag@@ 54
Santan 54
resemble 54
bruyant 54
snickerdoodle 54
crumbles 54
overseas 54
aromatherapy 54
TA@@ 54
Master@@ 54
généreuses 54
spears 54
phenomen@@ 54
energi@@ 54
complications 54
experi@@ 54
Francis 54
を 54
vic@@ 54
kool-aid 54
powders 54
six@@ 54
sett@@ 54
grandes 54
confuse 54
Every 54
initi@@ 54
coli 54
18.00 54
empathy 54
believed 54
premise 54
ranked 54
Victory 54
brightly 54
veri@@ 54
offset 54
cious 54
sche@@ 54
snac@@ 54
tes@@ 54
positions 54
Hat@@ 54
cioppino 54
iiii@@ 54
dres@@ 54
gingerbread 54
haggle 54
SM@@ 54
29@@ 54
decrease 54
parfaite 54
Preston 54
APS 54
.Otherwise 54
arity 54
TexMex 54
Punjabi 54
instructed 54
perfect. 54
hood@@ 54
ading 54
feat 54
ata@@ 54
sq@@ 54
squat 54
ensive 54
slipping 54
elsewher@@ 54
Hawthorne 54
bcp 54
calam@@ 54
entertainers 54
ummmm 54
altering 54
hiat@@ 54
lt 54
lawsuit 54
Inc 54
.Maybe 54
depar@@ 54
explo@@ 54
Luigi 54
1-10 54
Lynette 54
Honolulu 54
quiet@@ 54
3-6 54
cocky 54
Stea@@ 54
PB@@ 54
rais@@ 54
OS@@ 54
ware@@ 54
Rama 54
primavera 54
wobbly 54
と 54
Rus@@ 54
730 54
ème 54
pause 54
vows 54
centric 54
tology 54
superb@@ 54
né@@ 54
flaws 54
.Looking 54
medley 54
board@@ 54
atmospher@@ 54
rub@@ 54
.Portions 54
'ils 54
Bell@@ 54
stum@@ 54
assiette 54
30p 54
shumai 54
fuse 54
consi@@ 54
blending 54
autom@@ 54
iza 54
Dai@@ 54
sparkles 54
housing 54
scratching 54
abordables 54
tester 54
handlers 54
nois@@ 54
Alejandro 54
short-@@ 54
Mit@@ 54
Mum@@ 54
Cara 54
hip@@ 54
preven@@ 54
Nora 54
amazes 54
Zabas 54
Chik 54
matte 54
elas 54
ras 54
Caroline 54
Rooster 54
oe 54
taste. 54
baby@@ 54
muff@@ 54
encourages 54
tremely 54
Vienna 54
hard-@@ 54
Marvin 54
extracted 54
Henri 54
kun@@ 54
vis 54
Nonna 54
B-@@ 54
servi 54
reve@@ 54
jana 54
bellies 54
Sumo 54
assemble 54
tiene 54
remedi@@ 54
personne 54
lé@@ 54
Pom@@ 54
emotional 54
succulents 54
BR 54
spotlessly 54
zeppo@@ 54
dar 54
vals 54
Roxanne 54
Wyndham 54
raisonnables 54
BA@@ 54
uniqueness 54
Riviera 54
s.Good 54
bitch@@ 54
Dolphin 54
Yok@@ 54
clipped 54
Vuitton 54
Vladimir 54
broasted 54
Coyote 54
kt 53
toenail 53
busy. 53
SLS 53
campfire 53
vered 53
blue@@ 53
jog 53
browned 53
credits 53
First 53
fanta@@ 53
nau@@ 53
Regent 53
Batman 53
cakes@@ 53
tak@@ 53
.Sal@@ 53
ramp 53
Wrangler 53
Italians 53
Neg@@ 53
crostini 53
Chrissy 53
potent 53
amiable 53
gusta 53
す@@ 53
イ@@ 53
raita 53
ence@@ 53
coldest 53
outright 53
addresses 53
tages 53
iler 53
z-@@ 53
simplest 53
tako 53
gogo 53
spy 53
phen@@ 53
Francesca 53
fingernails 53
uptight 53
TH@@ 53
boissons 53
climate 53
.Won 53
praline 53
ESPN 53
eton 53
everthing 53
collected 53
obe@@ 53
.Note 53
raz@@ 53
coz@@ 53
combines 53
Beachwood 53
hangry 53
recognizes 53
spongy 53
stock@@ 53
relationships 53
[...]
